{
  "version": "1.0",
  "truncation": null,
  "padding": null,
  "added_tokens": [
    {
      "id": 0,
      "content": "<PAD>",
      "single_word": false,
      "lstrip": false,
      "rstrip": false,
      "normalized": false,
      "special": true
    },
    {
      "id": 1,
      "content": "<UNK>",
      "single_word": false,
      "lstrip": false,
      "rstrip": false,
      "normalized": false,
      "special": true
    },
    {
      "id": 2,
      "content": "<BOS>",
      "single_word": false,
      "lstrip": false,
      "rstrip": false,
      "normalized": false,
      "special": true
    },
    {
      "id": 3,
      "content": "<EOS>",
      "single_word": false,
      "lstrip": false,
      "rstrip": false,
      "normalized": false,
      "special": true
    }
  ],
  "normalizer": null,
  "pre_tokenizer": {
    "type": "Whitespace"
  },
  "post_processor": null,
  "decoder": null,
  "model": {
    "type": "BPE",
    "dropout": null,
    "unk_token": "<UNK>",
    "continuing_subword_prefix": null,
    "end_of_word_suffix": null,
    "fuse_unk": false,
    "byte_fallback": false,
    "ignore_merges": false,
    "vocab": {
      "<PAD>": 0,
      "<UNK>": 1,
      "<BOS>": 2,
      "<EOS>": 3,
      "a": 4,
      "b": 5,
      "c": 6,
      "d": 7,
      "e": 8,
      "f": 9,
      "g": 10,
      "h": 11,
      "i": 12,
      "j": 13,
      "k": 14,
      "l": 15,
      "m": 16,
      "n": 17,
      "o": 18,
      "p": 19,
      "q": 20,
      "r": 21,
      "s": 22,
      "t": 23,
      "u": 24,
      "v": 25,
      "w": 26,
      "x": 27,
      "y": 28,
      "z": 29,
      "th": 30,
      "in": 31,
      "er": 32,
      "on": 33,
      "an": 34,
      "the": 35,
      "re": 36,
      "en": 37,
      "at": 38,
      "al": 39,
      "is": 40,
      "or": 41,
      "ed": 42,
      "of": 43,
      "es": 44,
      "ar": 45,
      "as": 46,
      "and": 47,
      "ic": 48,
      "it": 49,
      "ou": 50,
      "one": 51,
      "to": 52,
      "ion": 53,
      "ing": 54,
      "st": 55,
      "se": 56,
      "le": 57,
      "ro": 58,
      "ch": 59,
      "ine": 60,
      "ve": 61,
      "ent": 62,
      "ig": 63,
      "ero": 64,
      "zero": 65,
      "om": 66,
      "nine": 67,
      "am": 68,
      "ly": 69,
      "de": 70,
      "ct": 71,
      "be": 72,
      "il": 73,
      "tw": 74,
      "ol": 75,
      "si": 76,
      "for": 77,
      "two": 78,
      "igh": 79,
      "ce": 80,
      "un": 81,
      "fi": 82,
      "ad": 83,
      "ter": 84,
      "ation": 85,
      "us": 86,
      "im": 87,
      "ight": 88,
      "ver": 89,
      "con": 90,
      "wh": 91,
      "ur": 92,
      "our": 93,
      "ow": 94,
      "ra": 95,
      "ree": 96,
      "mo": 97,
      "ul": 98,
      "ag": 99,
      "ist": 100,
      "com": 101,
      "eight": 102,
      "ven": 103,
      "el": 104,
      "wi": 105,
      "by": 106,
      "are": 107,
      "ther": 108,
      "ma": 109,
      "la": 110,
      "ot": 111,
      "op": 112,
      "was": 113,
      "five": 114,
      "three": 115,
      "pro": 116,
      "ri": 117,
      "ut": 118,
      "ex": 119,
      "su": 120,
      "em": 121,
      "ab": 122,
      "four": 123,
      "that": 124,
      "pe": 125,
      "with": 126,
      "ir": 127,
      "li": 128,
      "six": 129,
      "di": 130,
      "seven": 131,
      "he": 132,
      "man": 133,
      "ne": 134,
      "res": 135,
      "all": 136,
      "ap": 137,
      "ers": 138,
      "ci": 139,
      "so": 140,
      "est": 141,
      "et": 142,
      "oun": 143,
      "ac": 144,
      "art": 145,
      "rom": 146,
      "ate": 147,
      "lo": 148,
      "um": 149,
      "ity": 150,
      "qu": 151,
      "po": 152,
      "vi": 153,
      "from": 154,
      "ant": 155,
      "sh": 156,
      "der": 157,
      "ph": 158,
      "ich": 159,
      "ish": 160,
      "ment": 161,
      "per": 162,
      "ical": 163,
      "ay": 164,
      "ge": 165,
      "his": 166,
      "ess": 167,
      "ere": 168,
      "act": 169,
      "cl": 170,
      "co": 171,
      "not": 172,
      "te": 173,
      "ies": 174,
      "this": 175,
      "ian": 176,
      "ha": 177,
      "od": 178,
      "du": 179,
      "ber": 180,
      "wor": 181,
      "au": 182,
      "tr": 183,
      "ke": 184,
      "fe": 185,
      "ill": 186,
      "which": 187,
      "ain": 188,
      "ort": 189,
      "ld": 190,
      "gh": 191,
      "ard": 192,
      "bo": 193,
      "id": 194,
      "end": 195,
      "ated": 196,
      "ary": 197,
      "ally": 198,
      "ame": 199,
      "ear": 200,
      "sp": 201,
      "out": 202,
      "other": 203,
      "form": 204,
      "ive": 205,
      "gr": 206,
      "ure": 207,
      "ia": 208,
      "but": 209,
      "ous": 210,
      "comp": 211,
      "age": 212,
      "af": 213,
      "ast": 214,
      "me": 215,
      "also": 216,
      "rit": 217,
      "can": 218,
      "pt": 219,
      "ions": 220,
      "ough": 221,
      "gu": 222,
      "ome": 223,
      "pl": 224,
      "fic": 225,
      "pre": 226,
      "str": 227,
      "go": 228,
      "part": 229,
      "its": 230,
      "pla": 231,
      "fer": 232,
      "cont": 233,
      "sy": 234,
      "ong": 235,
      "have": 236,
      "has": 237,
      "ud": 238,
      "ks": 239,
      "int": 240,
      "og": 241,
      "ence": 242,
      "were": 243,
      "no": 244,
      "land": 245,
      "ound": 246,
      "ser": 247,
      "mon": 248,
      "mar": 249,
      "pr": 250,
      "bl": 251,
      "cent": 252,
      "ory": 253,
      "own": 254,
      "port": 255,
      "ans": 256,
      "ult": 257,
      "ass": 258,
      "ip": 259,
      "ations": 260,
      "king": 261,
      "gen": 262,
      "inter": 263,
      "dis": 264,
      "col": 265,
      "fo": 266,
      "ell": 267,
      "ck": 268,
      "ction": 269,
      "some": 270,
      "ign": 271,
      "des": 272,
      "iz": 273,
      "ren": 274,
      "new": 275,
      "pos": 276,
      "most": 277,
      "ition": 278,
      "ach": 279,
      "fir": 280,
      "cre": 281,
      "iv": 282,
      "cor": 283,
      "ould": 284,
      "tim": 285,
      "their": 286,
      "min": 287,
      "ial": 288,
      "ces": 289,
      "pres": 290,
      "eng": 291,
      "do": 292,
      "able": 293,
      "had": 294,
      "who": 295,
      "att": 296,
      "br": 297,
      "up": 298,
      "ates": 299,
      "red": 300,
      "first": 301,
      "coun": 302,
      "je": 303,
      "many": 304,
      "ten": 305,
      "they": 306,
      "eric": 307,
      "low": 308,
      "more": 309,
      "we": 310,
      "vers": 311,
      "vel": 312,
      "used": 313,
      "ance": 314,
      "fin": 315,
      "ite": 316,
      "ism": 317,
      "av": 318,
      "ater": 319,
      "ak": 320,
      "there": 321,
      "ced": 322,
      "spe": 323,
      "ang": 324,
      "americ": 325,
      "pol": 326,
      "ever": 327,
      "jo": 328,
      "ble": 329,
      "comm": 330,
      "ics": 331,
      "been": 332,
      "ele": 333,
      "kn": 334,
      "year": 335,
      "fl": 336,
      "such": 337,
      "ty": 338,
      "rel": 339,
      "if": 340,
      "ry": 341,
      "ger": 342,
      "ice": 343,
      "ev": 344,
      "car": 345,
      "nor": 346,
      "pu": 347,
      "ple": 348,
      "fr": 349,
      "lin": 350,
      "over": 351,
      "ts": 352,
      "war": 353,
      "tern": 354,
      "after": 355,
      "ational": 356,
      "bas": 357,
      "ited": 358,
      "par": 359,
      "play": 360,
      "fa": 361,
      "os": 362,
      "incl": 363,
      "cess": 364,
      "her": 365,
      "reg": 366,
      "how": 367,
      "ular": 368,
      "ef": 369,
      "cur": 370,
      "ari": 371,
      "see": 372,
      "ath": 373,
      "ile": 374,
      "way": 375,
      "into": 376,
      "time": 377,
      "may": 378,
      "use": 379,
      "ds": 380,
      "tra": 381,
      "cal": 382,
      "ors": 383,
      "hist": 384,
      "ta": 385,
      "olog": 386,
      "day": 387,
      "when": 388,
      "cy": 389,
      "bec": 390,
      "than": 391,
      "publ": 392,
      "american": 393,
      "med": 394,
      "ok": 395,
      "stem": 396,
      "ric": 397,
      "them": 398,
      "ents": 399,
      "world": 400,
      "uni": 401,
      "these": 402,
      "sel": 403,
      "ding": 404,
      "any": 405,
      "char": 406,
      "oc": 407,
      "system": 408,
      "les": 409,
      "lar": 410,
      "only": 411,
      "gre": 412,
      "though": 413,
      "under": 414,
      "pop": 415,
      "een": 416,
      "ative": 417,
      "mil": 418,
      "sub": 419,
      "num": 420,
      "gener": 421,
      "lish": 422,
      "ved": 423,
      "fore": 424,
      "vis": 425,
      "ins": 426,
      "lan": 427,
      "ack": 428,
      "arch": 429,
      "ue": 430,
      "call": 431,
      "national": 432,
      "ict": 433,
      "ust": 434,
      "sc": 435,
      "uring": 436,
      "would": 437,
      "soci": 438,
      "mus": 439,
      "sch": 440,
      "ase": 441,
      "old": 442,
      "produ": 443,
      "ire": 444,
      "ob": 445,
      "dif": 446,
      "high": 447,
      "eu": 448,
      "ms": 449,
      "ext": 450,
      "ful": 451,
      "cted": 452,
      "ens": 453,
      "ca": 454,
      "bor": 455,
      "cr": 456,
      "led": 457,
      "row": 458,
      "ps": 459,
      "my": 460,
      "gover": 461,
      "als": 462,
      "writ": 463,
      "tri": 464,
      "gan": 465,
      "ists": 466,
      "however": 467,
      "betw": 468,
      "between": 469,
      "air": 470,
      "peop": 471,
      "about": 472,
      "known": 473,
      "bi": 474,
      "ann": 475,
      "ys": 476,
      "cer": 477,
      "thr": 478,
      "where": 479,
      "him": 480,
      "mem": 481,
      "states": 482,
      "ind": 483,
      "vol": 484,
      "includ": 485,
      "main": 486,
      "ters": 487,
      "ject": 488,
      "sa": 489,
      "bu": 490,
      "leg": 491,
      "ually": 492,
      "years": 493,
      "fil": 494,
      "ft": 495,
      "hu": 496,
      "ince": 497,
      "set": 498,
      "people": 499,
      "ste": 500,
      "ating": 501,
      "during": 502,
      "united": 503,
      "langu": 504,
      "fol": 505,
      "ving": 506,
      "val": 507,
      "ities": 508,
      "ution": 509,
      "then": 510,
      "called": 511,
      "chr": 512,
      "well": 513,
      "like": 514,
      "sup": 515,
      "ings": 516,
      "ll": 517,
      "tur": 518,
      "work": 519,
      "sou": 520,
      "govern": 521,
      "ual": 522,
      "ted": 523,
      "ded": 524,
      "cap": 525,
      "cept": 526,
      "ital": 527,
      "public": 528,
      "ru": 529,
      "raph": 530,
      "dom": 531,
      "trans": 532,
      "sm": 533,
      "will": 534,
      "brit": 535,
      "ho": 536,
      "state": 537,
      "ide": 538,
      "son": 539,
      "through": 540,
      "sion": 541,
      "pow": 542,
      "sing": 543,
      "ury": 544,
      "grou": 545,
      "city": 546,
      "fam": 547,
      "univers": 548,
      "ale": 549,
      "speci": 550,
      "vie": 551,
      "ie": 552,
      "indi": 553,
      "dist": 554,
      "cond": 555,
      "stru": 556,
      "exam": 557,
      "ages": 558,
      "tain": 559,
      "ton": 560,
      "ii": 561,
      "often": 562,
      "ward": 563,
      "ause": 564,
      "cle": 565,
      "eld": 566,
      "while": 567,
      "ves": 568,
      "dep": 569,
      "ames": 570,
      "hy": 571,
      "government": 572,
      "history": 573,
      "long": 574,
      "law": 575,
      "mis": 576,
      "point": 577,
      "differ": 578,
      "sci": 579,
      "sid": 580,
      "velop": 581,
      "ose": 582,
      "ures": 583,
      "vari": 584,
      "euro": 585,
      "ically": 586,
      "found": 587,
      "develop": 588,
      "ship": 589,
      "fun": 590,
      "elect": 591,
      "orig": 592,
      "sol": 593,
      "common": 594,
      "refer": 595,
      "sur": 596,
      "again": 597,
      "polit": 598,
      "follow": 599,
      "ze": 600,
      "met": 601,
      "english": 602,
      "stand": 603,
      "number": 604,
      "made": 605,
      "mu": 606,
      "offic": 607,
      "pa": 608,
      "being": 609,
      "ology": 610,
      "both": 611,
      "right": 612,
      "pers": 613,
      "hn": 614,
      "ature": 615,
      "serv": 616,
      "ss": 617,
      "self": 618,
      "jor": 619,
      "har": 620,
      "requ": 621,
      "line": 622,
      "ick": 623,
      "gram": 624,
      "present": 625,
      "lit": 626,
      "pri": 627,
      "very": 628,
      "commun": 629,
      "ments": 630,
      "ace": 631,
      "dire": 632,
      "fact": 633,
      "name": 634,
      "ep": 635,
      "europe": 636,
      "gi": 637,
      "ning": 638,
      "ise": 639,
      "later": 640,
      "bro": 641,
      "emp": 642,
      "fect": 643,
      "mer": 644,
      "da": 645,
      "bers": 646,
      "vent": 647,
      "origin": 648,
      "less": 649,
      "ese": 650,
      "sive": 651,
      "peri": 652,
      "christ": 653,
      "ons": 654,
      "ural": 655,
      "mi": 656,
      "she": 657,
      "sign": 658,
      "life": 659,
      "sever": 660,
      "na": 661,
      "bar": 662,
      "bre": 663,
      "cla": 664,
      "since": 665,
      "oper": 666,
      "john": 667,
      "cour": 668,
      "power": 669,
      "lead": 670,
      "century": 671,
      "mat": 672,
      "let": 673,
      "ond": 674,
      "view": 675,
      "add": 676,
      "gy": 677,
      "ban": 678,
      "music": 679,
      "ude": 680,
      "contro": 681,
      "because": 682,
      "econ": 683,
      "ball": 684,
      "econom": 685,
      "mark": 686,
      "cri": 687,
      "partic": 688,
      "great": 689,
      "come": 690,
      "early": 691,
      "sider": 692,
      "contin": 693,
      "even": 694,
      "ress": 695,
      "major": 696,
      "university": 697,
      "list": 698,
      "urch": 699,
      "stit": 700,
      "british": 701,
      "large": 702,
      "what": 703,
      "ily": 704,
      "ract": 705,
      "tre": 706,
      "appe": 707,
      "ized": 708,
      "consider": 709,
      "unt": 710,
      "bur": 711,
      "read": 712,
      "ific": 713,
      "equ": 714,
      "ild": 715,
      "organ": 716,
      "ians": 717,
      "same": 718,
      "ility": 719,
      "cam": 720,
      "charact": 721,
      "ange": 722,
      "now": 723,
      "became": 724,
      "including": 725,
      "hol": 726,
      "sk": 727,
      "tech": 728,
      "back": 729,
      "trad": 730,
      "each": 731,
      "example": 732,
      "try": 733,
      "god": 734,
      "colle": 735,
      "exp": 736,
      "clo": 737,
      "comple": 738,
      "phil": 739,
      "ants": 740,
      "del": 741,
      "german": 742,
      "cas": 743,
      "side": 744,
      "ulation": 745,
      "language": 746,
      "off": 747,
      "human": 748,
      "moder": 749,
      "island": 750,
      "death": 751,
      "although": 752,
      "ba": 753,
      "depend": 754,
      "ences": 755,
      "general": 756,
      "several": 757,
      "different": 758,
      "suc": 759,
      "turn": 760,
      "tal": 761,
      "mal": 762,
      "class": 763,
      "cult": 764,
      "second": 765,
      "presid": 766,
      "import": 767,
      "rench": 768,
      "vil": 769,
      "nam": 770,
      "ga": 771,
      "ork": 772,
      "stri": 773,
      "den": 774,
      "ib": 775,
      "non": 776,
      "cus": 777,
      "order": 778,
      "techn": 779,
      "io": 780,
      "program": 781,
      "dr": 782,
      "chin": 783,
      "beli": 784,
      "small": 785,
      "men": 786,
      "much": 787,
      "before": 788,
      "gree": 789,
      "french": 790,
      "design": 791,
      "ious": 792,
      "ars": 793,
      "book": 794,
      "south": 795,
      "result": 796,
      "roman": 797,
      "put": 798,
      "lim": 799,
      "church": 800,
      "modern": 801,
      "north": 802,
      "app": 803,
      "direct": 804,
      "ional": 805,
      "against": 806,
      "ner": 807,
      "could": 808,
      "gest": 809,
      "lat": 810,
      "ham": 811,
      "pon": 812,
      "ord": 813,
      "based": 814,
      "person": 815,
      "ting": 816,
      "curren": 817,
      "links": 818,
      "ternal": 819,
      "group": 820,
      "ouse": 821,
      "those": 822,
      "ore": 823,
      "sim": 824,
      "term": 825,
      "hand": 826,
      "flu": 827,
      "bra": 828,
      "prim": 829,
      "rad": 830,
      "press": 831,
      "film": 832,
      "light": 833,
      "top": 834,
      "ished": 835,
      "fran": 836,
      "show": 837,
      "mag": 838,
      "pat": 839,
      "vir": 840,
      "west": 841,
      "another": 842,
      "tic": 843,
      "president": 844,
      "thor": 845,
      "recor": 846,
      "ety": 847,
      "game": 848,
      "just": 849,
      "get": 850,
      "popular": 851,
      "mic": 852,
      "mor": 853,
      "sw": 854,
      "external": 855,
      "formation": 856,
      "rus": 857,
      "que": 858,
      "omet": 859,
      "lu": 860,
      "liam": 861,
      "ah": 862,
      "ith": 863,
      "head": 864,
      "stat": 865,
      "buil": 866,
      "mas": 867,
      "country": 868,
      "series": 869,
      "bel": 870,
      "free": 871,
      "indu": 872,
      "ool": 873,
      "claim": 874,
      "eas": 875,
      "compu": 876,
      "bal": 877,
      "using": 878,
      "az": 879,
      "run": 880,
      "allow": 881,
      "support": 882,
      "nat": 883,
      "you": 884,
      "dra": 885,
      "place": 886,
      "process": 887,
      "hel": 888,
      "ral": 889,
      "vid": 890,
      "cons": 891,
      "still": 892,
      "down": 893,
      "ator": 894,
      "ared": 895,
      "tit": 896,
      "bs": 897,
      "vision": 898,
      "did": 899,
      "mill": 900,
      "cra": 901,
      "effect": 902,
      "international": 903,
      "tle": 904,
      "lack": 905,
      "milit": 906,
      "cro": 907,
      "mid": 908,
      "until": 909,
      "real": 910,
      "ash": 911,
      "ref": 912,
      "sible": 913,
      "bir": 914,
      "atic": 915,
      "bri": 916,
      "ased": 917,
      "test": 918,
      "bus": 919,
      "descri": 920,
      "success": 921,
      "wn": 922,
      "appro": 923,
      "open": 924,
      "ives": 925,
      "vo": 926,
      "struct": 927,
      "histor": 928,
      "ley": 929,
      "incre": 930,
      "defin": 931,
      "position": 932,
      "school": 933,
      "ograph": 934,
      "sum": 935,
      "cover": 936,
      "control": 937,
      "ribut": 938,
      "artic": 939,
      "move": 940,
      "sen": 941,
      "usually": 942,
      "ended": 943,
      "win": 944,
      "rele": 945,
      "ec": 946,
      "thod": 947,
      "party": 948,
      "political": 949,
      "far": 950,
      "house": 951,
      "pass": 952,
      "jew": 953,
      "character": 954,
      "relig": 955,
      "stud": 956,
      "bin": 957,
      "ox": 958,
      "last": 959,
      "crit": 960,
      "key": 961,
      "fied": 962,
      "loc": 963,
      "ization": 964,
      "word": 965,
      "among": 966,
      "imes": 967,
      "ium": 968,
      "mber": 969,
      "gra": 970,
      "emper": 971,
      "ling": 972,
      "typ": 973,
      "uary": 974,
      "tro": 975,
      "wil": 976,
      "bert": 977,
      "ister": 978,
      "ness": 979,
      "provi": 980,
      "ata": 981,
      "author": 982,
      "ron": 983,
      "child": 984,
      "water": 985,
      "near": 986,
      "area": 987,
      "cts": 988,
      "ason": 989,
      "mot": 990,
      "gin": 991,
      "simil": 992,
      "ways": 993,
      "continu": 994,
      "wes": 995,
      "thern": 996,
      "wa": 997,
      "around": 998,
      "every": 999,
      "include": 1000,
      "left": 1001,
      "hal": 1002,
      "theory": 1003,
      "mb": 1004,
      "plan": 1005,
      "ices": 1006,
      "period": 1007,
      "sour": 1008,
      "posed": 1009,
      "current": 1010,
      "fur": 1011,
      "plic": 1012,
      "population": 1013,
      "tradition": 1014,
      "ths": 1015,
      "members": 1016,
      "pi": 1017,
      "short": 1018,
      "ories": 1019,
      "cu": 1020,
      "ired": 1021,
      "field": 1022,
      "military": 1023,
      "jap": 1024,
      "mean": 1025,
      "similar": 1026,
      "mit": 1027,
      "ped": 1028,
      "particular": 1029,
      "itions": 1030,
      "net": 1031,
      "batt": 1032,
      "following": 1033,
      "prof": 1034,
      "ody": 1035,
      "gn": 1036,
      "east": 1037,
      "inv": 1038,
      "japan": 1039,
      "thing": 1040,
      "within": 1041,
      "dan": 1042,
      "ency": 1043,
      "por": 1044,
      "due": 1045,
      "ler": 1046,
      "sof": 1047,
      "bed": 1048,
      "canad": 1049,
      "gar": 1050,
      "adv": 1051,
      "dy": 1052,
      "ute": 1053,
      "cul": 1054,
      "phys": 1055,
      "ben": 1056,
      "imate": 1057,
      "cir": 1058,
      "influ": 1059,
      "important": 1060,
      "search": 1061,
      "pract": 1062,
      "ably": 1063,
      "empt": 1064,
      "def": 1065,
      "home": 1066,
      "sto": 1067,
      "wal": 1068,
      "band": 1069,
      "cum": 1070,
      "christian": 1071,
      "inci": 1072,
      "considered": 1073,
      "family": 1074,
      "start": 1075,
      "computer": 1076,
      "tele": 1077,
      "sequ": 1078,
      "cing": 1079,
      "ones": 1080,
      "somet": 1081,
      "ently": 1082,
      "exist": 1083,
      "roy": 1084,
      "bc": 1085,
      "jan": 1086,
      "accor": 1087,
      "cis": 1088,
      "cop": 1089,
      "information": 1090,
      "ken": 1091,
      "afric": 1092,
      "graph": 1093,
      "wide": 1094,
      "ju": 1095,
      "social": 1096,
      "official": 1097,
      "pur": 1098,
      "pal": 1099,
      "independ": 1100,
      "space": 1101,
      "european": 1102,
      "osop": 1103,
      "estab": 1104,
      "anim": 1105,
      "make": 1106,
      "contain": 1107,
      "sometimes": 1108,
      "given": 1109,
      "force": 1110,
      "civil": 1111,
      "philosop": 1112,
      "establish": 1113,
      "does": 1114,
      "represent": 1115,
      "associ": 1116,
      "standard": 1117,
      "case": 1118,
      "jud": 1119,
      "ade": 1120,
      "times": 1121,
      "bit": 1122,
      "chang": 1123,
      "und": 1124,
      "proble": 1125,
      "without": 1126,
      "born": 1127,
      "stu": 1128,
      "bn": 1129,
      "ail": 1130,
      "anti": 1131,
      "western": 1132,
      "fri": 1133,
      "ats": 1134,
      "ris": 1135,
      "thus": 1136,
      "team": 1137,
      "ability": 1138,
      "austr": 1139,
      "anci": 1140,
      "tak": 1141,
      "thir": 1142,
      "union": 1143,
      "hor": 1144,
      "russi": 1145,
      "ster": 1146,
      "ring": 1147,
      "systems": 1148,
      "few": 1149,
      "boo": 1150,
      "uk": 1151,
      "wom": 1152,
      "tries": 1153,
      "science": 1154,
      "york": 1155,
      "central": 1156,
      "remain": 1157,
      "austral": 1158,
      "rul": 1159,
      "version": 1160,
      "level": 1161,
      "black": 1162,
      "une": 1163,
      "good": 1164,
      "cell": 1165,
      "sport": 1166,
      "pen": 1167,
      "ither": 1168,
      "ived": 1169,
      "rich": 1170,
      "respon": 1171,
      "issu": 1172,
      "viet": 1173,
      "know": 1174,
      "lam": 1175,
      "earth": 1176,
      "eth": 1177,
      "sal": 1178,
      "town": 1179,
      "various": 1180,
      "addition": 1181,
      "fre": 1182,
      "uc": 1183,
      "bon": 1184,
      "demo": 1185,
      "republic": 1186,
      "former": 1187,
      "should": 1188,
      "become": 1189,
      "rest": 1190,
      "log": 1191,
      "player": 1192,
      "countries": 1193,
      "uses": 1194,
      "ined": 1195,
      "ctive": 1196,
      "gl": 1197,
      "must": 1198,
      "body": 1199,
      "dam": 1200,
      "change": 1201,
      "formed": 1202,
      "mult": 1203,
      "ka": 1204,
      "according": 1205,
      "isbn": 1206,
      "liber": 1207,
      "others": 1208,
      "cast": 1209,
      "ples": 1210,
      "chem": 1211,
      "wo": 1212,
      "fed": 1213,
      "article": 1214,
      "ker": 1215,
      "written": 1216,
      "original": 1217,
      "che": 1218,
      "foot": 1219,
      "don": 1220,
      "prote": 1221,
      "rece": 1222,
      "languages": 1223,
      "ctions": 1224,
      "intro": 1225,
      "ford": 1226,
      "ae": 1227,
      "star": 1228,
      "best": 1229,
      "began": 1230,
      "kill": 1231,
      "ned": 1232,
      "proper": 1233,
      "never": 1234,
      "treat": 1235,
      "grow": 1236,
      "song": 1237,
      "certain": 1238,
      "need": 1239,
      "ming": 1240,
      "object": 1241,
      "generally": 1242,
      "forms": 1243,
      "introdu": 1244,
      "constit": 1245,
      "method": 1246,
      "sty": 1247,
      "gal": 1248,
      "clear": 1249,
      "bet": 1250,
      "late": 1251,
      "development": 1252,
      "attempt": 1253,
      "geor": 1254,
      "works": 1255,
      "model": 1256,
      "cil": 1257,
      "anal": 1258,
      "kes": 1259,
      "ground": 1260,
      "possible": 1261,
      "recent": 1262,
      "single": 1263,
      "france": 1264,
      "river": 1265,
      "ches": 1266,
      "liter": 1267,
      "ged": 1268,
      "post": 1269,
      "ray": 1270,
      "ought": 1271,
      "groups": 1272,
      "hard": 1273,
      "further": 1274,
      "face": 1275,
      "base": 1276,
      "report": 1277,
      "special": 1278,
      "company": 1279,
      "event": 1280,
      "ines": 1281,
      "ctor": 1282,
      "natural": 1283,
      "vidu": 1284,
      "ident": 1285,
      "ran": 1286,
      "individu": 1287,
      "istic": 1288,
      "engine": 1289,
      "games": 1290,
      "sea": 1291,
      "dro": 1292,
      "loy": 1293,
      "km": 1294,
      "ont": 1295,
      "action": 1296,
      "court": 1297,
      "function": 1298,
      "named": 1299,
      "ana": 1300,
      "sat": 1301,
      "ality": 1302,
      "ially": 1303,
      "return": 1304,
      "sex": 1305,
      "fra": 1306,
      "hen": 1307,
      "along": 1308,
      "economic": 1309,
      "chi": 1310,
      "father": 1311,
      "alth": 1312,
      "kingdom": 1313,
      "dies": 1314,
      "ental": 1315,
      "invol": 1316,
      "rather": 1317,
      "mathem": 1318,
      "died": 1319,
      "england": 1320,
      "data": 1321,
      "hip": 1322,
      "domin": 1323,
      "ina": 1324,
      "dou": 1325,
      "greek": 1326,
      "stant": 1327,
      "bes": 1328,
      "blo": 1329,
      "espe": 1330,
      "say": 1331,
      "conne": 1332,
      "published": 1333,
      "scot": 1334,
      "dict": 1335,
      "care": 1336,
      "said": 1337,
      "ised": 1338,
      "strong": 1339,
      "ological": 1340,
      "ague": 1341,
      "ption": 1342,
      "gust": 1343,
      "feder": 1344,
      "ply": 1345,
      "fem": 1346,
      "cially": 1347,
      "million": 1348,
      "mass": 1349,
      "dest": 1350,
      "verse": 1351,
      "germany": 1352,
      "decl": 1353,
      "scient": 1354,
      "ony": 1355,
      "ement": 1356,
      "quest": 1357,
      "wards": 1358,
      "cho": 1359,
      "take": 1360,
      "rael": 1361,
      "lond": 1362,
      "amp": 1363,
      "hom": 1364,
      "abo": 1365,
      "capital": 1366,
      "battle": 1367,
      "super": 1368,
      "interest": 1369,
      "local": 1370,
      "fac": 1371,
      "ni": 1372,
      "london": 1373,
      "aren": 1374,
      "books": 1375,
      "sit": 1376,
      "research": 1377,
      "project": 1378,
      "held": 1379,
      "mater": 1380,
      "developed": 1381,
      "ison": 1382,
      "ography": 1383,
      "cat": 1384,
      "army": 1385,
      "member": 1386,
      "feat": 1387,
      "els": 1388,
      "appear": 1389,
      "soviet": 1390,
      "concept": 1391,
      "either": 1392,
      "ential": 1393,
      "sun": 1394,
      "israel": 1395,
      "cogn": 1396,
      "big": 1397,
      "ient": 1398,
      "tion": 1399,
      "text": 1400,
      "service": 1401,
      "famous": 1402,
      "market": 1403,
      "total": 1404,
      "ends": 1405,
      "dev": 1406,
      "william": 1407,
      "termin": 1408,
      "ko": 1409,
      "college": 1410,
      "nic": 1411,
      "words": 1412,
      "complete": 1413,
      "empire": 1414,
      "vin": 1415,
      "took": 1416,
      "nal": 1417,
      "cath": 1418,
      "moun": 1419,
      "wood": 1420,
      "bat": 1421,
      "activ": 1422,
      "rock": 1423,
      "fall": 1424,
      "bul": 1425,
      "sis": 1426,
      "ener": 1427,
      "micro": 1428,
      "clu": 1429,
      "today": 1430,
      "america": 1431,
      "youn": 1432,
      "separ": 1433,
      "forces": 1434,
      "educ": 1435,
      "code": 1436,
      "ier": 1437,
      "white": 1438,
      "minister": 1439,
      "craft": 1440,
      "syn": 1441,
      "bill": 1442,
      "third": 1443,
      "means": 1444,
      "ime": 1445,
      "especially": 1446,
      "ues": 1447,
      "marri": 1448,
      "type": 1449,
      "bour": 1450,
      "ration": 1451,
      "material": 1452,
      "days": 1453,
      "frequ": 1454,
      "regard": 1455,
      "lic": 1456,
      "children": 1457,
      "center": 1458,
      "occur": 1459,
      "cup": 1460,
      "whe": 1461,
      "sound": 1462,
      "enter": 1463,
      "ff": 1464,
      "mand": 1465,
      "concer": 1466,
      "ax": 1467,
      "fort": 1468,
      "olic": 1469,
      "society": 1470,
      "medi": 1471,
      "culture": 1472,
      "revol": 1473,
      "meas": 1474,
      "ots": 1475,
      "ense": 1476,
      "ances": 1477,
      "played": 1478,
      "novel": 1479,
      "story": 1480,
      "seen": 1481,
      "image": 1482,
      "having": 1483,
      "card": 1484,
      "aries": 1485,
      "came": 1486,
      "dge": 1487,
      "hit": 1488,
      "august": 1489,
      "instit": 1490,
      "count": 1491,
      "himself": 1492,
      "inste": 1493,
      "islands": 1494,
      "broad": 1495,
      "board": 1496,
      "alb": 1497,
      "begin": 1498,
      "avail": 1499,
      "itive": 1500,
      "arg": 1501,
      "netw": 1502,
      "princi": 1503,
      "march": 1504,
      "vious": 1505,
      "sure": 1506,
      "init": 1507,
      "tom": 1508,
      "upon": 1509,
      "ius": 1510,
      "ked": 1511,
      "building": 1512,
      "arab": 1513,
      "created": 1514,
      "comes": 1515,
      "subject": 1516,
      "full": 1517,
      "production": 1518,
      "accept": 1519,
      "placed": 1520,
      "signific": 1521,
      "dece": 1522,
      "little": 1523,
      "fu": 1524,
      "sent": 1525,
      "mac": 1526,
      "dar": 1527,
      "iness": 1528,
      "via": 1529,
      "itself": 1530,
      "tail": 1531,
      "round": 1532,
      "role": 1533,
      "council": 1534,
      "cit": 1535,
      "dri": 1536,
      "lower": 1537,
      "sam": 1538,
      "region": 1539,
      "final": 1540,
      "spir": 1541,
      "related": 1542,
      "tar": 1543,
      "above": 1544,
      "van": 1545,
      "ril": 1546,
      "cost": 1547,
      "dle": 1548,
      "suf": 1549,
      "largest": 1550,
      "ges": 1551,
      "lay": 1552,
      "nav": 1553,
      "eved": 1554,
      "san": 1555,
      "ira": 1556,
      "dig": 1557,
      "fig": 1558,
      "ene": 1559,
      "tran": 1560,
      "hab": 1561,
      "softw": 1562,
      "foreign": 1563,
      "ram": 1564,
      "profess": 1565,
      "site": 1566,
      "mich": 1567,
      "almost": 1568,
      "software": 1569,
      "lied": 1570,
      "rights": 1571,
      "religious": 1572,
      "references": 1573,
      "minist": 1574,
      "fair": 1575,
      "james": 1576,
      "league": 1577,
      "lies": 1578,
      "half": 1579,
      "span": 1580,
      "ago": 1581,
      "making": 1582,
      "once": 1583,
      "ander": 1584,
      "jewish": 1585,
      "territ": 1586,
      "actor": 1587,
      "redu": 1588,
      "gun": 1589,
      "study": 1590,
      "fire": 1591,
      "released": 1592,
      "january": 1593,
      "trade": 1594,
      "manag": 1595,
      "movement": 1596,
      "gold": 1597,
      "mart": 1598,
      "corpor": 1599,
      "living": 1600,
      "community": 1601,
      "close": 1602,
      "inst": 1603,
      "areas": 1604,
      "relation": 1605,
      "ured": 1606,
      "pan": 1607,
      "rate": 1608,
      "lands": 1609,
      "hon": 1610,
      "nu": 1611,
      "pho": 1612,
      "pain": 1613,
      "cut": 1614,
      "fle": 1615,
      "album": 1616,
      "augh": 1617,
      "tour": 1618,
      "wind": 1619,
      "numbers": 1620,
      "sla": 1621,
      "hun": 1622,
      "gue": 1623,
      "ki": 1624,
      "sed": 1625,
      "chan": 1626,
      "source": 1627,
      "won": 1628,
      "ino": 1629,
      "evol": 1630,
      "built": 1631,
      "pot": 1632,
      "produced": 1633,
      "parts": 1634,
      "sil": 1635,
      "toge": 1636,
      "inte": 1637,
      "vict": 1638,
      "together": 1639,
      "alex": 1640,
      "meaning": 1641,
      "women": 1642,
      "ancient": 1643,
      "radio": 1644,
      "available": 1645,
      "reach": 1646,
      "terms": 1647,
      "ti": 1648,
      "han": 1649,
      "auto": 1650,
      "might": 1651,
      "viol": 1652,
      "northern": 1653,
      "style": 1654,
      "pap": 1655,
      "december": 1656,
      "polic": 1657,
      "middle": 1658,
      "energy": 1659,
      "sib": 1660,
      "cel": 1661,
      "psy": 1662,
      "road": 1663,
      "sug": 1664,
      "constitution": 1665,
      "recogn": 1666,
      "ately": 1667,
      "exec": 1668,
      "next": 1669,
      "chinese": 1670,
      "note": 1671,
      "rown": 1672,
      "aut": 1673,
      "parliam": 1674,
      "japanese": 1675,
      "china": 1676,
      "canada": 1677,
      "neg": 1678,
      "green": 1679,
      "established": 1680,
      "lou": 1681,
      "vide": 1682,
      "constru": 1683,
      "television": 1684,
      "earli": 1685,
      "complex": 1686,
      "sept": 1687,
      "legal": 1688,
      "compe": 1689,
      "ica": 1690,
      "mur": 1691,
      "george": 1692,
      "latin": 1693,
      "secre": 1694,
      "pp": 1695,
      "jac": 1696,
      "significant": 1697,
      "stra": 1698,
      "live": 1699,
      "ane": 1700,
      "symb": 1701,
      "mathemat": 1702,
      "exper": 1703,
      "david": 1704,
      "thought": 1705,
      "parliament": 1706,
      "prob": 1707,
      "asing": 1708,
      "cross": 1709,
      "too": 1710,
      "paul": 1711,
      "eastern": 1712,
      "cial": 1713,
      "communic": 1714,
      "transl": 1715,
      "names": 1716,
      "grad": 1717,
      "lines": 1718,
      "ination": 1719,
      "evid": 1720,
      "range": 1721,
      "ww": 1722,
      "vot": 1723,
      "ky": 1724,
      "suggest": 1725,
      "except": 1726,
      "nia": 1727,
      "writer": 1728,
      "tor": 1729,
      "ators": 1730,
      "ross": 1731,
      "july": 1732,
      "taken": 1733,
      "combin": 1734,
      "charles": 1735,
      "era": 1736,
      "fail": 1737,
      "love": 1738,
      "ets": 1739,
      "traditional": 1740,
      "catholic": 1741,
      "ney": 1742,
      "ids": 1743,
      "applic": 1744,
      "lect": 1745,
      "ending": 1746,
      "mc": 1747,
      "mp": 1748,
      "india": 1749,
      "instead": 1750,
      "commit": 1751,
      "football": 1752,
      "gor": 1753,
      "business": 1754,
      "ize": 1755,
      "ops": 1756,
      "covered": 1757,
      "june": 1758,
      "active": 1759,
      "moved": 1760,
      "gas": 1761,
      "successful": 1762,
      "eve": 1763,
      "least": 1764,
      "arily": 1765,
      "squ": 1766,
      "jour": 1767,
      "nove": 1768,
      "dut": 1769,
      "revolution": 1770,
      "included": 1771,
      "economy": 1772,
      "rang": 1773,
      "altern": 1774,
      "coast": 1775,
      "always": 1776,
      "season": 1777,
      "ember": 1778,
      "gress": 1779,
      "tru": 1780,
      "ible": 1781,
      "ht": 1782,
      "agree": 1783,
      "young": 1784,
      "atom": 1785,
      "cry": 1786,
      "emperor": 1787,
      "cid": 1788,
      "italian": 1789,
      "sain": 1790,
      "mad": 1791,
      "players": 1792,
      "prime": 1793,
      "ink": 1794,
      "specific": 1795,
      "envir": 1796,
      "entire": 1797,
      "ny": 1798,
      "docum": 1799,
      "nation": 1800,
      "compan": 1801,
      "cali": 1802,
      "itch": 1803,
      "november": 1804,
      "imp": 1805,
      "pect": 1806,
      "audi": 1807,
      "environ": 1808,
      "april": 1809,
      "mission": 1810,
      "food": 1811,
      "labor": 1812,
      "bud": 1813,
      "rote": 1814,
      "hi": 1815,
      "mone": 1816,
      "southern": 1817,
      "pose": 1818,
      "py": 1819,
      "previous": 1820,
      "september": 1821,
      "nature": 1822,
      "grand": 1823,
      "octo": 1824,
      "lost": 1825,
      "bridge": 1826,
      "asse": 1827,
      "mach": 1828,
      "ream": 1829,
      "night": 1830,
      "experi": 1831,
      "ror": 1832,
      "ied": 1833,
      "carri": 1834,
      "ek": 1835,
      "secret": 1836,
      "wer": 1837,
      "spanish": 1838,
      "october": 1839,
      "teach": 1840,
      "commer": 1841,
      "jer": 1842,
      "bot": 1843,
      "done": 1844,
      "page": 1845,
      "continued": 1846,
      "dec": 1847,
      "priv": 1848,
      "technology": 1849,
      "relative": 1850,
      "true": 1851,
      "ships": 1852,
      "ns": 1853,
      "maint": 1854,
      "royal": 1855,
      "africa": 1856,
      "thom": 1857,
      "gain": 1858,
      "attack": 1859,
      "manu": 1860,
      "value": 1861,
      "mary": 1862,
      "seem": 1863,
      "individual": 1864,
      "indic": 1865,
      "historical": 1866,
      "imm": 1867,
      "employ": 1868,
      "here": 1869,
      "edia": 1870,
      "acy": 1871,
      "invest": 1872,
      "kar": 1873,
      "selves": 1874,
      "ses": 1875,
      "russian": 1876,
      "hold": 1877,
      "ival": 1878,
      "structure": 1879,
      "temper": 1880,
      "wrote": 1881,
      "va": 1882,
      "front": 1883,
      "news": 1884,
      "tu": 1885,
      "rail": 1886,
      "record": 1887,
      "onic": 1888,
      "apt": 1889,
      "rule": 1890,
      "feature": 1891,
      "ama": 1892,
      "color": 1893,
      "amoun": 1894,
      "minor": 1895,
      "diffic": 1896,
      "techni": 1897,
      "mother": 1898,
      "peace": 1899,
      "reason": 1900,
      "difficult": 1901,
      "australia": 1902,
      "iss": 1903,
      "mechan": 1904,
      "cases": 1905,
      "constant": 1906,
      "hop": 1907,
      "served": 1908,
      "desp": 1909,
      "species": 1910,
      "evidence": 1911,
      "distribut": 1912,
      "burg": 1913,
      "adop": 1914,
      "particularly": 1915,
      "fut": 1916,
      "ret": 1917,
      "convent": 1918,
      "whose": 1919,
      "aw": 1920,
      "nations": 1921,
      "sho": 1922,
      "speed": 1923,
      "ceed": 1924,
      "mel": 1925,
      "ument": 1926,
      "prop": 1927,
      "distin": 1928,
      "iso": 1929,
      "deb": 1930,
      "itar": 1931,
      "symbol": 1932,
      "past": 1933,
      "brother": 1934,
      "fav": 1935,
      "female": 1936,
      "fish": 1937,
      "knowled": 1938,
      "influence": 1939,
      "title": 1940,
      "administ": 1941,
      "below": 1942,
      "problem": 1943,
      "cities": 1944,
      "quar": 1945,
      "office": 1946,
      "nes": 1947,
      "themselves": 1948,
      "throughout": 1949,
      "host": 1950,
      "extre": 1951,
      "independent": 1952,
      "mes": 1953,
      "libr": 1954,
      "referred": 1955,
      "ining": 1956,
      "electron": 1957,
      "onom": 1958,
      "democr": 1959,
      "necess": 1960,
      "gs": 1961,
      "therefore": 1962,
      "arm": 1963,
      "instr": 1964,
      "travel": 1965,
      "network": 1966,
      "box": 1967,
      "ties": 1968,
      "febr": 1969,
      "enced": 1970,
      "male": 1971,
      "exten": 1972,
      "ave": 1973,
      "egy": 1974,
      "irish": 1975,
      "command": 1976,
      "rome": 1977,
      "february": 1978,
      "bow": 1979,
      "islam": 1980,
      "colum": 1981,
      "elements": 1982,
      "environment": 1983,
      "rat": 1984,
      "hing": 1985,
      "ald": 1986,
      "coming": 1987,
      "counter": 1988,
      "max": 1989,
      "higher": 1990,
      "originally": 1991,
      "education": 1992,
      "access": 1993,
      "impro": 1994,
      "chief": 1995,
      "critic": 1996,
      "award": 1997,
      "philosophy": 1998,
      "eventually": 1999,
      "scri": 2000,
      "films": 2001,
      "glo": 2002,
      "lear": 2003,
      "despite": 2004,
      "went": 2005,
      "rap": 2006,
      "discus": 2007,
      "characters": 2008,
      "types": 2009,
      "laws": 2010,
      "egypt": 2011,
      "robert": 2012,
      "described": 2013,
      "hea": 2014,
      "electric": 2015,
      "claimed": 2016,
      "web": 2017,
      "jews": 2018,
      "angel": 2019,
      "points": 2020,
      "practice": 2021,
      "aver": 2022,
      "ified": 2023,
      "consist": 2024,
      "ery": 2025,
      "istan": 2026,
      "empor": 2027,
      "whether": 2028,
      "istics": 2029,
      "interpre": 2030,
      "african": 2031,
      "mix": 2032,
      "flo": 2033,
      "ls": 2034,
      "ai": 2035,
      "cou": 2036,
      "fix": 2037,
      "dru": 2038,
      "pie": 2039,
      "pression": 2040,
      "tv": 2041,
      "ula": 2042,
      "internet": 2043,
      "events": 2044,
      "explo": 2045,
      "commonly": 2046,
      "fant": 2047,
      "lor": 2048,
      "problems": 2049,
      "ateg": 2050,
      "tex": 2051,
      "personal": 2052,
      "schol": 2053,
      "cks": 2054,
      "tax": 2055,
      "belief": 2056,
      "blue": 2057,
      "fal": 2058,
      "ech": 2059,
      "usion": 2060,
      "aged": 2061,
      "received": 2062,
      "pha": 2063,
      "imin": 2064,
      "vic": 2065,
      "fiction": 2066,
      "wall": 2067,
      "execut": 2068,
      "ites": 2069,
      "size": 2070,
      "colon": 2071,
      "chemical": 2072,
      "maintain": 2073,
      "indian": 2074,
      "strict": 2075,
      "industri": 2076,
      "nom": 2077,
      "offer": 2078,
      "defined": 2079,
      "unch": 2080,
      "ques": 2081,
      "writing": 2082,
      "phen": 2083,
      "birth": 2084,
      "standing": 2085,
      "soon": 2086,
      "print": 2087,
      "typically": 2088,
      "scal": 2089,
      "erous": 2090,
      "wing": 2091,
      "spo": 2092,
      "ey": 2093,
      "ades": 2094,
      "occup": 2095,
      "includes": 2096,
      "ases": 2097,
      "bran": 2098,
      "controver": 2099,
      "ounced": 2100,
      "outside": 2101,
      "help": 2102,
      "itz": 2103,
      "leader": 2104,
      "conserv": 2105,
      "bish": 2106,
      "stry": 2107,
      "invent": 2108,
      "frank": 2109,
      "video": 2110,
      "jes": 2111,
      "movie": 2112,
      "sus": 2113,
      "assi": 2114,
      "imately": 2115,
      "contribut": 2116,
      "ering": 2117,
      "basic": 2118,
      "physical": 2119,
      "elected": 2120,
      "leaders": 2121,
      "wat": 2122,
      "photo": 2123,
      "hydro": 2124,
      "ordin": 2125,
      "bom": 2126,
      "ready": 2127,
      "deaths": 2128,
      "stree": 2129,
      "berg": 2130,
      "away": 2131,
      "lord": 2132,
      "acade": 2133,
      "followed": 2134,
      "rect": 2135,
      "anted": 2136,
      "divi": 2137,
      "ows": 2138,
      "archite": 2139,
      "edition": 2140,
      "ston": 2141,
      "dead": 2142,
      "transport": 2143,
      "henry": 2144,
      "express": 2145,
      "saw": 2146,
      "widely": 2147,
      "mountain": 2148,
      "aps": 2149,
      "actually": 2150,
      "aircraft": 2151,
      "arts": 2152,
      "inde": 2153,
      "poet": 2154,
      "canadian": 2155,
      "beginning": 2156,
      "nar": 2157,
      "rain": 2158,
      "letter": 2159,
      "cli": 2160,
      "future": 2161,
      "detail": 2162,
      "course": 2163,
      "deal": 2164,
      "bell": 2165,
      "spirit": 2166,
      "classical": 2167,
      "scientific": 2168,
      "independence": 2169,
      "simply": 2170,
      "changes": 2171,
      "sess": 2172,
      "located": 2173,
      "survi": 2174,
      "bound": 2175,
      "sl": 2176,
      "bank": 2177,
      "integr": 2178,
      "forman": 2179,
      "health": 2180,
      "myth": 2181,
      "limited": 2182,
      "louis": 2183,
      "bia": 2184,
      "knowledge": 2185,
      "media": 2186,
      "births": 2187,
      "champ": 2188,
      "examples": 2189,
      "hum": 2190,
      "hall": 2191,
      "ising": 2192,
      "extreme": 2193,
      "experim": 2194,
      "introduced": 2195,
      "pus": 2196,
      "organization": 2197,
      "webs": 2198,
      "speak": 2199,
      "leng": 2200,
      "park": 2201,
      "idea": 2202,
      "industry": 2203,
      "approx": 2204,
      "believe": 2205,
      "queen": 2206,
      "manufact": 2207,
      "califor": 2208,
      "britain": 2209,
      "increasing": 2210,
      "psych": 2211,
      "designed": 2212,
      "cause": 2213,
      "working": 2214,
      "anth": 2215,
      "analys": 2216,
      "atives": 2217,
      "appeared": 2218,
      "features": 2219,
      "federal": 2220,
      "cannot": 2221,
      "majority": 2222,
      "appoint": 2223,
      "ael": 2224,
      "asia": 2225,
      "atl": 2226,
      "services": 2227,
      "fight": 2228,
      "sin": 2229,
      "aking": 2230,
      "regular": 2231,
      "argu": 2232,
      "plement": 2233,
      "date": 2234,
      "associated": 2235,
      "uation": 2236,
      "secur": 2237,
      "liberal": 2238,
      "austri": 2239,
      "teen": 2240,
      "greg": 2241,
      "quant": 2242,
      "find": 2243,
      "singer": 2244,
      "yet": 2245,
      "your": 2246,
      "aster": 2247,
      "die": 2248,
      "construction": 2249,
      "ico": 2250,
      "ireland": 2251,
      "currently": 2252,
      "poly": 2253,
      "founded": 2254,
      "ov": 2255,
      "ali": 2256,
      "itor": 2257,
      "required": 2258,
      "hib": 2259,
      "isto": 2260,
      "lake": 2261,
      "flow": 2262,
      "allowed": 2263,
      "religion": 2264,
      "nel": 2265,
      "gg": 2266,
      "likely": 2267,
      "california": 2268,
      "started": 2269,
      "emer": 2270,
      "intell": 2271,
      "sense": 2272,
      "operation": 2273,
      "muse": 2274,
      "mun": 2275,
      "lie": 2276,
      "believed": 2277,
      "approach": 2278,
      "intellig": 2279,
      "mole": 2280,
      "performan": 2281,
      "rules": 2282,
      "stone": 2283,
      "leading": 2284,
      "policy": 2285,
      "evolution": 2286,
      "actions": 2287,
      "jose": 2288,
      "thomas": 2289,
      "meet": 2290,
      "resour": 2291,
      "studies": 2292,
      "arent": 2293,
      "chann": 2294,
      "demon": 2295,
      "iii": 2296,
      "cd": 2297,
      "proto": 2298,
      "pay": 2299,
      "station": 2300,
      "mos": 2301,
      "alpha": 2302,
      "architect": 2303,
      "ission": 2304,
      "acts": 2305,
      "determin": 2306,
      "election": 2307,
      "element": 2308,
      "russia": 2309,
      "added": 2310,
      "oil": 2311,
      "ensive": 2312,
      "australian": 2313,
      "provide": 2314,
      "prov": 2315,
      "growth": 2316,
      "online": 2317,
      "cru": 2318,
      "brought": 2319,
      "unit": 2320,
      "question": 2321,
      "fell": 2322,
      "relations": 2323,
      "earlier": 2324,
      "pun": 2325,
      "rema": 2326,
      "depart": 2327,
      "ify": 2328,
      "richard": 2329,
      "possib": 2330,
      "break": 2331,
      "astr": 2332,
      "document": 2333,
      "decis": 2334,
      "mostly": 2335,
      "chap": 2336,
      "county": 2337,
      "hot": 2338,
      "hour": 2339,
      "deci": 2340,
      "effects": 2341,
      "citiz": 2342,
      "ilities": 2343,
      "soft": 2344,
      "bay": 2345,
      "legis": 2346,
      "quick": 2347,
      "weap": 2348,
      "thy": 2349,
      "blood": 2350,
      "wise": 2351,
      "beha": 2352,
      "pron": 2353,
      "swed": 2354,
      "greater": 2355,
      "zo": 2356,
      "saint": 2357,
      "map": 2358,
      "across": 2359,
      "simple": 2360,
      "hill": 2361,
      "vert": 2362,
      "famil": 2363,
      "things": 2364,
      "pict": 2365,
      "association": 2366,
      "remains": 2367,
      "museum": 2368,
      "protest": 2369,
      "produce": 2370,
      "copy": 2371,
      "ened": 2372,
      "gave": 2373,
      "sec": 2374,
      "require": 2375,
      "prince": 2376,
      "reference": 2377,
      "changed": 2378,
      "boy": 2379,
      "atory": 2380,
      "roll": 2381,
      "analysis": 2382,
      "happ": 2383,
      "freed": 2384,
      "hero": 2385,
      "zil": 2386,
      "creation": 2387,
      "give": 2388,
      "ku": 2389,
      "sources": 2390,
      "stor": 2391,
      "eval": 2392,
      "career": 2393,
      "hind": 2394,
      "machine": 2395,
      "intel": 2396,
      "longer": 2397,
      "wife": 2398,
      "security": 2399,
      "probably": 2400,
      "etc": 2401,
      "lad": 2402,
      "sele": 2403,
      "killed": 2404,
      "money": 2405,
      "parties": 2406,
      "issues": 2407,
      "ume": 2408,
      "musical": 2409,
      "definition": 2410,
      "dol": 2411,
      "bol": 2412,
      "keep": 2413,
      "ctr": 2414,
      "playing": 2415,
      "sky": 2416,
      "bey": 2417,
      "theore": 2418,
      "mob": 2419,
      "larger": 2420,
      "holy": 2421,
      "better": 2422,
      "stories": 2423,
      "extra": 2424,
      "prevent": 2425,
      "isms": 2426,
      "scott": 2427,
      "amount": 2428,
      "capt": 2429,
      "cultural": 2430,
      "muslim": 2431,
      "issue": 2432,
      "diction": 2433,
      "oce": 2434,
      "private": 2435,
      "prize": 2436,
      "library": 2437,
      "married": 2438,
      "products": 2439,
      "conf": 2440,
      "remained": 2441,
      "imper": 2442,
      "politics": 2443,
      "mir": 2444,
      "sexual": 2445,
      "website": 2446,
      "actress": 2447,
      "spain": 2448,
      "dutch": 2449,
      "months": 2450,
      "contr": 2451,
      "utions": 2452,
      "territory": 2453,
      "address": 2454,
      "largely": 2455,
      "destroy": 2456,
      "len": 2457,
      "mann": 2458,
      "matter": 2459,
      "becomes": 2460,
      "oid": 2461,
      "cies": 2462,
      "legisl": 2463,
      "behavi": 2464,
      "calcul": 2465,
      "michael": 2466,
      "mex": 2467,
      "wealth": 2468,
      "mess": 2469,
      "room": 2470,
      "za": 2471,
      "governor": 2472,
      "divided": 2473,
      "contains": 2474,
      "commercial": 2475,
      "haps": 2476,
      "product": 2477,
      "views": 2478,
      "programming": 2479,
      "bing": 2480,
      "agric": 2481,
      "tun": 2482,
      "medic": 2483,
      "sac": 2484,
      "metal": 2485,
      "bad": 2486,
      "formal": 2487,
      "separate": 2488,
      "motion": 2489,
      "look": 2490,
      "occas": 2491,
      "fully": 2492,
      "perhaps": 2493,
      "section": 2494,
      "moon": 2495,
      "companies": 2496,
      "mind": 2497,
      "ician": 2498,
      "user": 2499,
      "confl": 2500,
      "rew": 2501,
      "already": 2502,
      "surface": 2503,
      "fication": 2504,
      "kind": 2505,
      "core": 2506,
      "disput": 2507,
      "letters": 2508,
      "latter": 2509,
      "tan": 2510,
      "club": 2511,
      "orthod": 2512,
      "brew": 2513,
      "double": 2514,
      "aur": 2515,
      "cand": 2516,
      "ior": 2517,
      "whole": 2518,
      "directly": 2519,
      "makes": 2520,
      "division": 2521,
      "paign": 2522,
      "got": 2523,
      "orthodox": 2524,
      "friend": 2525,
      "apo": 2526,
      "subsequ": 2527,
      "status": 2528,
      "condu": 2529,
      "congress": 2530,
      "italy": 2531,
      "gary": 2532,
      "ention": 2533,
      "results": 2534,
      "ously": 2535,
      "flag": 2536,
      "mod": 2537,
      "kings": 2538,
      "native": 2539,
      "ides": 2540,
      "director": 2541,
      "los": 2542,
      "caused": 2543,
      "particip": 2544,
      "gam": 2545,
      "washing": 2546,
      "iving": 2547,
      "campaign": 2548,
      "peter": 2549,
      "highly": 2550,
      "journal": 2551,
      "shar": 2552,
      "uments": 2553,
      "pse": 2554,
      "tem": 2555,
      "measure": 2556,
      "implement": 2557,
      "ference": 2558,
      "dim": 2559,
      "prison": 2560,
      "ogy": 2561,
      "whom": 2562,
      "portu": 2563,
      "distric": 2564,
      "treaty": 2565,
      "multip": 2566,
      "lying": 2567,
      "ria": 2568,
      "faith": 2569,
      "rise": 2570,
      "loss": 2571,
      "carbon": 2572,
      "champion": 2573,
      "notes": 2574,
      "agricult": 2575,
      "avy": 2576,
      "philosoph": 2577,
      "digital": 2578,
      "phone": 2579,
      "pective": 2580,
      "tas": 2581,
      "pected": 2582,
      "rid": 2583,
      "scre": 2584,
      "daugh": 2585,
      "forced": 2586,
      "release": 2587,
      "magaz": 2588,
      "going": 2589,
      "oly": 2590,
      "basis": 2591,
      "authority": 2592,
      "claims": 2593,
      "normal": 2594,
      "hood": 2595,
      "thous": 2596,
      "stan": 2597,
      "bass": 2598,
      "towards": 2599,
      "uries": 2600,
      "rare": 2601,
      "length": 2602,
      "cele": 2603,
      "street": 2604,
      "enough": 2605,
      "tp": 2606,
      "cles": 2607,
      "primary": 2608,
      "master": 2609,
      "publish": 2610,
      "joseph": 2611,
      "provided": 2612,
      "sian": 2613,
      "alexander": 2614,
      "script": 2615,
      "kin": 2616,
      "table": 2617,
      "resid": 2618,
      "functions": 2619,
      "replaced": 2620,
      "literature": 2621,
      "fel": 2622,
      "effective": 2623,
      "average": 2624,
      "zi": 2625,
      "acks": 2626,
      "students": 2627,
      "elections": 2628,
      "comput": 2629,
      "ners": 2630,
      "ert": 2631,
      "assemb": 2632,
      "ports": 2633,
      "smith": 2634,
      "jesus": 2635,
      "account": 2636,
      "compar": 2637,
      "jun": 2638,
      "smaller": 2639,
      "nearly": 2640,
      "flight": 2641,
      "fast": 2642,
      "expla": 2643,
      "schools": 2644,
      "degree": 2645,
      "phy": 2646,
      "industrial": 2647,
      "ocean": 2648,
      "mention": 2649,
      "iting": 2650,
      "frequently": 2651,
      "sey": 2652,
      "programs": 2653,
      "dog": 2654,
      "apol": 2655,
      "load": 2656,
      "dance": 2657,
      "performance": 2658,
      "mut": 2659,
      "ingu": 2660,
      "alternative": 2661,
      "aves": 2662,
      "classi": 2663,
      "medical": 2664,
      "collection": 2665,
      "woman": 2666,
      "freedom": 2667,
      "paper": 2668,
      "increase": 2669,
      "ket": 2670,
      "ware": 2671,
      "square": 2672,
      "washington": 2673,
      "rot": 2674,
      "alleg": 2675,
      "memory": 2676,
      "race": 2677,
      "ape": 2678,
      "cred": 2679,
      "finally": 2680,
      "thousand": 2681,
      "asy": 2682,
      "commission": 2683,
      "ideas": 2684,
      "takes": 2685,
      "baseball": 2686,
      "variety": 2687,
      "emporary": 2688,
      "units": 2689,
      "sett": 2690,
      "appears": 2691,
      "taking": 2692,
      "highest": 2693,
      "kil": 2694,
      "asons": 2695,
      "democratic": 2696,
      "arri": 2697,
      "reli": 2698,
      "notable": 2699,
      "izations": 2700,
      "share": 2701,
      "atlant": 2702,
      "file": 2703,
      "iel": 2704,
      "discovered": 2705,
      "property": 2706,
      "jack": 2707,
      "stream": 2708,
      "involved": 2709,
      "thu": 2710,
      "phere": 2711,
      "create": 2712,
      "observ": 2713,
      "records": 2714,
      "vit": 2715,
      "path": 2716,
      "recently": 2717,
      "ix": 2718,
      "increased": 2719,
      "ya": 2720,
      "week": 2721,
      "iron": 2722,
      "border": 2723,
      "virt": 2724,
      "committe": 2725,
      "brown": 2726,
      "multi": 2727,
      "methods": 2728,
      "heavy": 2729,
      "comed": 2730,
      "francis": 2731,
      "assembly": 2732,
      "tend": 2733,
      "immedi": 2734,
      "launch": 2735,
      "conditions": 2736,
      "utes": 2737,
      "stage": 2738,
      "chemist": 2739,
      "lon": 2740,
      "stal": 2741,
      "kore": 2742,
      "plat": 2743,
      "genet": 2744,
      "nuclear": 2745,
      "wit": 2746,
      "fif": 2747,
      "windows": 2748,
      "anced": 2749,
      "scale": 2750,
      "plant": 2751,
      "nd": 2752,
      "chic": 2753,
      "ables": 2754,
      "paris": 2755,
      "objects": 2756,
      "adopted": 2757,
      "ease": 2758,
      "fiel": 2759,
      "pher": 2760,
      "diale": 2761,
      "relationship": 2762,
      "bbc": 2763,
      "writers": 2764,
      "poor": 2765,
      "sor": 2766,
      "sions": 2767,
      "wis": 2768,
      "usa": 2769,
      "ards": 2770,
      "relatively": 2771,
      "pack": 2772,
      "algor": 2773,
      "resist": 2774,
      "operating": 2775,
      "reported": 2776,
      "gres": 2777,
      "estim": 2778,
      "clop": 2779,
      "returned": 2780,
      "hed": 2781,
      "versions": 2782,
      "existence": 2783,
      "algorith": 2784,
      "habit": 2785,
      "von": 2786,
      "inc": 2787,
      "iation": 2788,
      "heart": 2789,
      "org": 2790,
      "lis": 2791,
      "numerous": 2792,
      "pas": 2793,
      "ulated": 2794,
      "ficient": 2795,
      "ji": 2796,
      "math": 2797,
      "guitar": 2798,
      "passed": 2799,
      "assist": 2800,
      "animals": 2801,
      "din": 2802,
      "joy": 2803,
      "behind": 2804,
      "iter": 2805,
      "pressure": 2806,
      "categ": 2807,
      "repe": 2808,
      "sets": 2809,
      "powers": 2810,
      "fest": 2811,
      "universe": 2812,
      "professional": 2813,
      "resol": 2814,
      "apple": 2815,
      "mol": 2816,
      "deep": 2817,
      "stop": 2818,
      "institute": 2819,
      "martin": 2820,
      "bles": 2821,
      "ays": 2822,
      "monarch": 2823,
      "stein": 2824,
      "pope": 2825,
      "experience": 2826,
      "cens": 2827,
      "calend": 2828,
      "prior": 2829,
      "perform": 2830,
      "celebr": 2831,
      "ires": 2832,
      "ivity": 2833,
      "mathematics": 2834,
      "acqu": 2835,
      "shows": 2836,
      "equal": 2837,
      "bishop": 2838,
      "astic": 2839,
      "places": 2840,
      "pil": 2841,
      "concent": 2842,
      "ification": 2843,
      "pattern": 2844,
      "duke": 2845,
      "centre": 2846,
      "recorded": 2847,
      "zy": 2848,
      "rand": 2849,
      "disco": 2850,
      "ping": 2851,
      "quot": 2852,
      "izing": 2853,
      "agreement": 2854,
      "het": 2855,
      "marriage": 2856,
      "thur": 2857,
      "ark": 2858,
      "broadcast": 2859,
      "guide": 2860,
      "electr": 2861,
      "reading": 2862,
      "demand": 2863,
      "neigh": 2864,
      "something": 2865,
      "primarily": 2866,
      "applied": 2867,
      "defense": 2868,
      "resources": 2869,
      "weight": 2870,
      "troops": 2871,
      "hic": 2872,
      "adam": 2873,
      "accepted": 2874,
      "ging": 2875,
      "ada": 2876,
      "derived": 2877,
      "advant": 2878,
      "thre": 2879,
      "jul": 2880,
      "conver": 2881,
      "nobel": 2882,
      "correct": 2883,
      "http": 2884,
      "interpret": 2885,
      "running": 2886,
      "twent": 2887,
      "lived": 2888,
      "hebrew": 2889,
      "shot": 2890,
      "engineering": 2891,
      "suffer": 2892,
      "cher": 2893,
      "kh": 2894,
      "wel": 2895,
      "equip": 2896,
      "instance": 2897,
      "pul": 2898,
      "liver": 2899,
      "mainly": 2900,
      "additional": 2901,
      "encyclop": 2902,
      "magazine": 2903,
      "serious": 2904,
      "appointed": 2905,
      "arian": 2906,
      "pair": 2907,
      "sole": 2908,
      "settle": 2909,
      "moving": 2910,
      "purpose": 2911,
      "older": 2912,
      "camp": 2913,
      "target": 2914,
      "operations": 2915,
      "dor": 2916,
      "hous": 2917,
      "channel": 2918,
      "itude": 2919,
      "alle": 2920,
      "subst": 2921,
      "equival": 2922,
      "hem": 2923,
      "alo": 2924,
      "reser": 2925,
      "finite": 2926,
      "cells": 2927,
      "bapt": 2928,
      "regions": 2929,
      "consists": 2930,
      "orial": 2931,
      "necessary": 2932,
      "extensive": 2933,
      "paci": 2934,
      "aid": 2935,
      "stic": 2936,
      "soldi": 2937,
      "daughter": 2938,
      "reed": 2939,
      "gir": 2940,
      "quite": 2941,
      "articles": 2942,
      "brain": 2943,
      "bible": 2944,
      "dynam": 2945,
      "dat": 2946,
      "shown": 2947,
      "odes": 2948,
      "committee": 2949,
      "div": 2950,
      "ered": 2951,
      "fundam": 2952,
      "ethnic": 2953,
      "mitted": 2954,
      "introduction": 2955,
      "focus": 2956,
      "frac": 2957,
      "write": 2958,
      "rupt": 2959,
      "lingu": 2960,
      "pra": 2961,
      "urban": 2962,
      "syl": 2963,
      "hus": 2964,
      "sens": 2965,
      "fan": 2966,
      "gers": 2967,
      "volume": 2968,
      "levels": 2969,
      "dp": 2970,
      "vation": 2971,
      "surround": 2972,
      "computers": 2973,
      "hund": 2974,
      "percent": 2975,
      "content": 2976,
      "proposed": 2977,
      "applications": 2978,
      "bb": 2979,
      "slow": 2980,
      "ville": 2981,
      "forest": 2982,
      "biography": 2983,
      "fill": 2984,
      "sia": 2985,
      "comment": 2986,
      "sequence": 2987,
      "convention": 2988,
      "conflict": 2989,
      "chicago": 2990,
      "centuries": 2991,
      "techniques": 2992,
      "exact": 2993,
      "folk": 2994,
      "apparent": 2995,
      "navy": 2996,
      "tell": 2997,
      "obtain": 2998,
      "quickly": 2999,
      "labour": 3000,
      "distingu": 3001,
      "branch": 3002,
      "tool": 3003,
      "thesis": 3004,
      "financi": 3005,
      "hundred": 3006,
      "poser": 3007,
      "carry": 3008,
      "resp": 3009,
      "values": 3010,
      "multiple": 3011,
      "police": 3012,
      "track": 3013,
      "approximately": 3014,
      "igr": 3015,
      "weak": 3016,
      "cape": 3017,
      "avoid": 3018,
      "afgh": 3019,
      "scotland": 3020,
      "ml": 3021,
      "omen": 3022,
      "songs": 3023,
      "aim": 3024,
      "zed": 3025,
      "possess": 3026,
      "sir": 3027,
      "supported": 3028,
      "summer": 3029,
      "composer": 3030,
      "restrict": 3031,
      "dian": 3032,
      "properties": 3033,
      "oh": 3034,
      "ctors": 3035,
      "refers": 3036,
      "alge": 3037,
      "olf": 3038,
      "circum": 3039,
      "mm": 3040,
      "suit": 3041,
      "direction": 3042,
      "murder": 3043,
      "philip": 3044,
      "rough": 3045,
      "condition": 3046,
      "communist": 3047,
      "climate": 3048,
      "speech": 3049,
      "jur": 3050,
      "compon": 3051,
      "individuals": 3052,
      "activity": 3053,
      "winter": 3054,
      "tree": 3055,
      "desc": 3056,
      "animal": 3057,
      "dimens": 3058,
      "ake": 3059,
      "ola": 3060,
      "igned": 3061,
      "temperature": 3062,
      "leon": 3063,
      "www": 3064,
      "mode": 3065,
      "mou": 3066,
      "accur": 3067,
      "response": 3068,
      "figure": 3069,
      "ano": 3070,
      "ems": 3071,
      "achi": 3072,
      "intended": 3073,
      "cular": 3074,
      "month": 3075,
      "ament": 3076,
      "onia": 3077,
      "physics": 3078,
      "mr": 3079,
      "vill": 3080,
      "itation": 3081,
      "internal": 3082,
      "quality": 3083,
      "spring": 3084,
      "brand": 3085,
      "worked": 3086,
      "coal": 3087,
      "calendar": 3088,
      "noted": 3089,
      "uss": 3090,
      "preser": 3091,
      "charge": 3092,
      "location": 3093,
      "acid": 3094,
      "mont": 3095,
      "expand": 3096,
      "billion": 3097,
      "polish": 3098,
      "oph": 3099,
      "disease": 3100,
      "tical": 3101,
      "miles": 3102,
      "critical": 3103,
      "rig": 3104,
      "imum": 3105,
      "aving": 3106,
      "visions": 3107,
      "stock": 3108,
      "reform": 3109,
      "promin": 3110,
      "cia": 3111,
      "plann": 3112,
      "gins": 3113,
      "users": 3114,
      "signed": 3115,
      "imperial": 3116,
      "ida": 3117,
      "bring": 3118,
      "rapid": 3119,
      "phr": 3120,
      "affair": 3121,
      "pet": 3122,
      "sold": 3123,
      "lun": 3124,
      "jean": 3125,
      "wars": 3126,
      "motor": 3127,
      "bil": 3128,
      "supre": 3129,
      "unique": 3130,
      "fields": 3131,
      "ini": 3132,
      "joined": 3133,
      "demonstr": 3134,
      "shall": 3135,
      "afghan": 3136,
      "concl": 3137,
      "screen": 3138,
      "vehic": 3139,
      "christianity": 3140,
      "skill": 3141,
      "performed": 3142,
      "kept": 3143,
      "treatment": 3144,
      "loo": 3145,
      "serve": 3146,
      "regarded": 3147,
      "attribut": 3148,
      "microsoft": 3149,
      "machin": 3150,
      "enem": 3151,
      "cs": 3152,
      "translation": 3153,
      "string": 3154,
      "logic": 3155,
      "gard": 3156,
      "alco": 3157,
      "positions": 3158,
      "iran": 3159,
      "horse": 3160,
      "iraq": 3161,
      "defe": 3162,
      "sports": 3163,
      "thin": 3164,
      "isation": 3165,
      "dio": 3166,
      "transfer": 3167,
      "speaking": 3168,
      "step": 3169,
      "cot": 3170,
      "cab": 3171,
      "spread": 3172,
      "province": 3173,
      "contrast": 3174,
      "bach": 3175,
      "format": 3176,
      "uit": 3177,
      "budd": 3178,
      "none": 3179,
      "mail": 3180,
      "why": 3181,
      "modi": 3182,
      "cold": 3183,
      "bic": 3184,
      "feel": 3185,
      "reached": 3186,
      "prefer": 3187,
      "management": 3188,
      "mathematical": 3189,
      "brief": 3190,
      "nast": 3191,
      "gene": 3192,
      "amed": 3193,
      "astronom": 3194,
      "conservative": 3195,
      "jim": 3196,
      "ador": 3197,
      "dark": 3198,
      "stars": 3199,
      "magne": 3200,
      "justice": 3201,
      "allows": 3202,
      "sand": 3203,
      "onto": 3204,
      "beth": 3205,
      "context": 3206,
      "draw": 3207,
      "quarter": 3208,
      "humans": 3209,
      "medicine": 3210,
      "remaining": 3211,
      "cript": 3212,
      "mom": 3213,
      "theories": 3214,
      "notably": 3215,
      "sym": 3216,
      "beyond": 3217,
      "estic": 3218,
      "greece": 3219,
      "rative": 3220,
      "oral": 3221,
      "actual": 3222,
      "zz": 3223,
      "promo": 3224,
      "inal": 3225,
      "gment": 3226,
      "distance": 3227,
      "provides": 3228,
      "nas": 3229,
      "bear": 3230,
      "turned": 3231,
      "brazil": 3232,
      "cise": 3233,
      "dun": 3234,
      "gian": 3235,
      "review": 3236,
      "rian": 3237,
      "vote": 3238,
      "plays": 3239,
      "pic": 3240,
      "orph": 3241,
      "promis": 3242,
      "graphics": 3243,
      "arms": 3244,
      "jected": 3245,
      "arrang": 3246,
      "opposition": 3247,
      "dia": 3248,
      "distribution": 3249,
      "wild": 3250,
      "bob": 3251,
      "universal": 3252,
      "isa": 3253,
      "stren": 3254,
      "emph": 3255,
      "virgin": 3256,
      "frame": 3257,
      "victor": 3258,
      "ustr": 3259,
      "advent": 3260,
      "models": 3261,
      "contract": 3262,
      "doctr": 3263,
      "uel": 3264,
      "favor": 3265,
      "norm": 3266,
      "influenced": 3267,
      "alone": 3268,
      "stated": 3269,
      "vey": 3270,
      "dete": 3271,
      "berlin": 3272,
      "baby": 3273,
      "previously": 3274,
      "department": 3275,
      "pacific": 3276,
      "financial": 3277,
      "ja": 3278,
      "affe": 3279,
      "hell": 3280,
      "needed": 3281,
      "usal": 3282,
      "regional": 3283,
      "global": 3284,
      "kong": 3285,
      "sell": 3286,
      "communications": 3287,
      "solid": 3288,
      "solution": 3289,
      "completely": 3290,
      "extremely": 3291,
      "usage": 3292,
      "candid": 3293,
      "district": 3294,
      "alcohol": 3295,
      "upper": 3296,
      "assu": 3297,
      "ita": 3298,
      "spell": 3299,
      "server": 3300,
      "administration": 3301,
      "cycle": 3302,
      "aging": 3303,
      "expected": 3304,
      "legend": 3305,
      "appearance": 3306,
      "spoken": 3307,
      "edward": 3308,
      "corn": 3309,
      "electronic": 3310,
      "cham": 3311,
      "threat": 3312,
      "tes": 3313,
      "powerful": 3314,
      "investig": 3315,
      "lot": 3316,
      "bla": 3317,
      "nether": 3318,
      "newsp": 3319,
      "phenomen": 3320,
      "wik": 3321,
      "poland": 3322,
      "difference": 3323,
      "algebra": 3324,
      "contemporary": 3325,
      "refle": 3326,
      "advanced": 3327,
      "ng": 3328,
      "pg": 3329,
      "link": 3330,
      "eria": 3331,
      "portion": 3332,
      "disci": 3333,
      "intelligence": 3334,
      "chain": 3335,
      "becoming": 3336,
      "pects": 3337,
      "newspap": 3338,
      "eg": 3339,
      "isode": 3340,
      "armed": 3341,
      "foundation": 3342,
      "wan": 3343,
      "gives": 3344,
      "ona": 3345,
      "mobile": 3346,
      "rob": 3347,
      "churches": 3348,
      "ara": 3349,
      "generation": 3350,
      "episode": 3351,
      "streng": 3352,
      "forts": 3353,
      "fourth": 3354,
      "ado": 3355,
      "positive": 3356,
      "crimin": 3357,
      "fy": 3358,
      "purch": 3359,
      "fici": 3360,
      "ux": 3361,
      "prus": 3362,
      "domain": 3363,
      "critics": 3364,
      "block": 3365,
      "zone": 3366,
      "controversi": 3367,
      "fundamental": 3368,
      "compil": 3369,
      "musician": 3370,
      "match": 3371,
      "glass": 3372,
      "las": 3373,
      "pc": 3374,
      "planet": 3375,
      "dominant": 3376,
      "failed": 3377,
      "rd": 3378,
      "lee": 3379,
      "gul": 3380,
      "pin": 3381,
      "netherlands": 3382,
      "fit": 3383,
      "jam": 3384,
      "arthur": 3385,
      "else": 3386,
      "hypo": 3387,
      "featured": 3388,
      "scholars": 3389,
      "executive": 3390,
      "unlike": 3391,
      "oppos": 3392,
      "standards": 3393,
      "emphas": 3394,
      "fans": 3395,
      "greatest": 3396,
      "fare": 3397,
      "sort": 3398,
      "lives": 3399,
      "giving": 3400,
      "icated": 3401,
      "reve": 3402,
      "eties": 3403,
      "harmon": 3404,
      "garian": 3405,
      "carried": 3406,
      "exchange": 3407,
      "rout": 3408,
      "respective": 3409,
      "weapons": 3410,
      "chos": 3411,
      "islamic": 3412,
      "protocol": 3413,
      "cc": 3414,
      "incorpor": 3415,
      "initial": 3416,
      "render": 3417,
      "mentioned": 3418,
      "smo": 3419,
      "inside": 3420,
      "artist": 3421,
      "marine": 3422,
      "arabic": 3423,
      "heavi": 3424,
      "orders": 3425,
      "ez": 3426,
      "rou": 3427,
      "responsible": 3428,
      "honor": 3429,
      "cha": 3430,
      "argument": 3431,
      "aught": 3432,
      "ounds": 3433,
      "continue": 3434,
      "recording": 3435,
      "application": 3436,
      "potential": 3437,
      "mexico": 3438,
      "heat": 3439,
      "gall": 3440,
      "slight": 3441,
      "training": 3442,
      "vary": 3443,
      "atures": 3444,
      "eds": 3445,
      "plor": 3446,
      "describe": 3447,
      "occasion": 3448,
      "ather": 3449,
      "cracy": 3450,
      "architecture": 3451,
      "perman": 3452,
      "oxford": 3453,
      "decision": 3454,
      "beat": 3455,
      "marked": 3456,
      "hands": 3457,
      "supreme": 3458,
      "opposed": 3459,
      "connected": 3460,
      "scottish": 3461,
      "dna": 3462,
      "fred": 3463,
      "explor": 3464,
      "resulting": 3465,
      "composed": 3466,
      "aff": 3467,
      "domestic": 3468,
      "theat": 3469,
      "reasons": 3470,
      "stations": 3471,
      "entially": 3472,
      "lyn": 3473,
      "linear": 3474,
      "voice": 3475,
      "compet": 3476,
      "diag": 3477,
      "vies": 3478,
      "perfect": 3479,
      "somewhat": 3480,
      "useful": 3481,
      "represented": 3482,
      "piece": 3483,
      "invas": 3484,
      "circu": 3485,
      "starting": 3486,
      "holds": 3487,
      "crow": 3488,
      "fat": 3489,
      "technical": 3490,
      "activities": 3491,
      "vow": 3492,
      "aled": 3493,
      "negative": 3494,
      "hours": 3495,
      "dang": 3496,
      "consci": 3497,
      "drop": 3498,
      "encies": 3499,
      "ik": 3500,
      "enn": 3501,
      "distinct": 3502,
      "tional": 3503,
      "haz": 3504,
      "knight": 3505,
      "cambridge": 3506,
      "plane": 3507,
      "materials": 3508,
      "pure": 3509,
      "attempts": 3510,
      "mers": 3511,
      "anc": 3512,
      "apart": 3513,
      "declared": 3514,
      "usual": 3515,
      "follows": 3516,
      "terror": 3517,
      "understanding": 3518,
      "friends": 3519,
      "decided": 3520,
      "closed": 3521,
      "ctic": 3522,
      "cant": 3523,
      "plants": 3524,
      "audio": 3525,
      "oppon": 3526,
      "mouth": 3527,
      "controlled": 3528,
      "families": 3529,
      "stad": 3530,
      "dynast": 3531,
      "drive": 3532,
      "chall": 3533,
      "goal": 3534,
      "indeed": 3535,
      "erson": 3536,
      "capac": 3537,
      "pier": 3538,
      "icip": 3539,
      "counts": 3540,
      "possibly": 3541,
      "comic": 3542,
      "unity": 3543,
      "eral": 3544,
      "zeal": 3545,
      "growing": 3546,
      "fuel": 3547,
      "seems": 3548,
      "chemistry": 3549,
      "pes": 3550,
      "signal": 3551,
      "classic": 3552,
      "anarch": 3553,
      "technique": 3554,
      "ee": 3555,
      "alan": 3556,
      "kson": 3557,
      "marx": 3558,
      "rick": 3559,
      "ders": 3560,
      "proved": 3561,
      "christians": 3562,
      "paren": 3563,
      "protection": 3564,
      "hann": 3565,
      "hur": 3566,
      "compared": 3567,
      "succeed": 3568,
      "palest": 3569,
      "directed": 3570,
      "announced": 3571,
      "otto": 3572,
      "easily": 3573,
      "academy": 3574,
      "firm": 3575,
      "improve": 3576,
      "anthro": 3577,
      "retain": 3578,
      "iles": 3579,
      "geography": 3580,
      "juda": 3581,
      "gon": 3582,
      "tou": 3583,
      "ania": 3584,
      "opin": 3585,
      "pitch": 3586,
      "ises": 3587,
      "attacks": 3588,
      "extended": 3589,
      "graphy": 3590,
      "cards": 3591,
      "aust": 3592,
      "principle": 3593,
      "encyclopedia": 3594,
      "asc": 3595,
      "causes": 3596,
      "identity": 3597,
      "immediately": 3598,
      "owned": 3599,
      "assass": 3600,
      "feet": 3601,
      "mere": 3602,
      "equipment": 3603,
      "swe": 3604,
      "reign": 3605,
      "ost": 3606,
      "think": 3607,
      "spect": 3608,
      "efforts": 3609,
      "choice": 3610,
      "communication": 3611,
      "income": 3612,
      "encour": 3613,
      "hil": 3614,
      "belong": 3615,
      "scop": 3616,
      "benef": 3617,
      "mathematic": 3618,
      "golden": 3619,
      "theless": 3620,
      "agan": 3621,
      "nothing": 3622,
      "allowing": 3623,
      "traditionally": 3624,
      "alphabet": 3625,
      "abol": 3626,
      "exists": 3627,
      "medieval": 3628,
      "achie": 3629,
      "gate": 3630,
      "anda": 3631,
      "visit": 3632,
      "orient": 3633,
      "chance": 3634,
      "kan": 3635,
      "fried": 3636,
      "build": 3637,
      "valley": 3638,
      "advoc": 3639,
      "entry": 3640,
      "differences": 3641,
      "organizations": 3642,
      "combat": 3643,
      "cused": 3644,
      "reaction": 3645,
      "austria": 3646,
      "bush": 3647,
      "ican": 3648,
      "metro": 3649,
      "occurs": 3650,
      "doctor": 3651,
      "ulations": 3652,
      "holid": 3653,
      "gri": 3654,
      "argued": 3655,
      "behavior": 3656,
      "achieve": 3657,
      "forward": 3658,
      "tery": 3659,
      "kel": 3660,
      "ils": 3661,
      "combined": 3662,
      "crus": 3663,
      "portugu": 3664,
      "airport": 3665,
      "reci": 3666,
      "meant": 3667,
      "request": 3668,
      "background": 3669,
      "insp": 3670,
      "cting": 3671,
      "shif": 3672,
      "secretary": 3673,
      "drug": 3674,
      "scene": 3675,
      "situation": 3676,
      "gradu": 3677,
      "equivalent": 3678,
      "presence": 3679,
      "poses": 3680,
      "priest": 3681,
      "dram": 3682,
      "device": 3683,
      "infl": 3684,
      "paralle": 3685,
      "initially": 3686,
      "classes": 3687,
      "minis": 3688,
      "gained": 3689,
      "conscious": 3690,
      "shi": 3691,
      "lincol": 3692,
      "expans": 3693,
      "genetic": 3694,
      "presents": 3695,
      "impact": 3696,
      "bled": 3697,
      "vised": 3698,
      "victory": 3699,
      "recognized": 3700,
      "tel": 3701,
      "ensity": 3702,
      "student": 3703,
      "competit": 3704,
      "lincoln": 3705,
      "avi": 3706,
      "replace": 3707,
      "geograph": 3708,
      "advantage": 3709,
      "portuguese": 3710,
      "tered": 3711,
      "imal": 3712,
      "incid": 3713,
      "cav": 3714,
      "sides": 3715,
      "understand": 3716,
      "unknown": 3717,
      "illustr": 3718,
      "wave": 3719,
      "entirely": 3720,
      "contact": 3721,
      "iza": 3722,
      "azz": 3723,
      "sites": 3724,
      "citizens": 3725,
      "inet": 3726,
      "artists": 3727,
      "communities": 3728,
      "yu": 3729,
      "fighting": 3730,
      "cart": 3731,
      "respect": 3732,
      "limit": 3733,
      "sover": 3734,
      "finland": 3735,
      "turk": 3736,
      "matic": 3737,
      "sav": 3738,
      "officially": 3739,
      "gdp": 3740,
      "wid": 3741,
      "lock": 3742,
      "typical": 3743,
      "ruled": 3744,
      "debate": 3745,
      "consum": 3746,
      "hong": 3747,
      "moral": 3748,
      "pit": 3749,
      "igan": 3750,
      "ries": 3751,
      "workers": 3752,
      "epis": 3753,
      "ski": 3754,
      "containing": 3755,
      "clusive": 3756,
      "controversy": 3757,
      "olymp": 3758,
      "wr": 3759,
      "trial": 3760,
      "chester": 3761,
      "fixed": 3762,
      "albert": 3763,
      "figures": 3764,
      "laure": 3765,
      "atlantic": 3766,
      "physic": 3767,
      "agreed": 3768,
      "argent": 3769,
      "geomet": 3770,
      "instruments": 3771,
      "completed": 3772,
      "environmental": 3773,
      "foun": 3774,
      "begins": 3775,
      "popularity": 3776,
      "qual": 3777,
      "attention": 3778,
      "determined": 3779,
      "cine": 3780,
      "dream": 3781,
      "hydrogen": 3782,
      "inj": 3783,
      "sem": 3784,
      "statement": 3785,
      "neu": 3786,
      "drum": 3787,
      "instrument": 3788,
      "pto": 3789,
      "rates": 3790,
      "inno": 3791,
      "judaism": 3792,
      "conference": 3793,
      "bodies": 3794,
      "otherwise": 3795,
      "teams": 3796,
      "hay": 3797,
      "images": 3798,
      "connection": 3799,
      "temple": 3800,
      "kur": 3801,
      "saf": 3802,
      "suggested": 3803,
      "writings": 3804,
      "organized": 3805,
      "structures": 3806,
      "bak": 3807,
      "toms": 3808,
      "door": 3809,
      "bru": 3810,
      "angle": 3811,
      "earliest": 3812,
      "reduced": 3813,
      "pray": 3814,
      "israeli": 3815,
      "usalem": 3816,
      "principles": 3817,
      "violence": 3818,
      "dynasty": 3819,
      "worth": 3820,
      "americans": 3821,
      "inher": 3822,
      "jerusalem": 3823,
      "increasingly": 3824,
      "prominent": 3825,
      "bury": 3826,
      "liqu": 3827,
      "neut": 3828,
      "texts": 3829,
      "politician": 3830,
      "supply": 3831,
      "intellect": 3832,
      "wanted": 3833,
      "infant": 3834,
      "output": 3835,
      "rab": 3836,
      "dollar": 3837,
      "agon": 3838,
      "winning": 3839,
      "sweden": 3840,
      "experiment": 3841,
      "alli": 3842,
      "ads": 3843,
      "split": 3844,
      "jackson": 3845,
      "apollo": 3846,
      "mam": 3847,
      "leban": 3848,
      "phase": 3849,
      "sons": 3850,
      "satell": 3851,
      "hear": 3852,
      "gro": 3853,
      "igration": 3854,
      "ements": 3855,
      "logical": 3856,
      "jones": 3857,
      "rum": 3858,
      "vac": 3859,
      "told": 3860,
      "sax": 3861,
      "daily": 3862,
      "severe": 3863,
      "constitutional": 3864,
      "datab": 3865,
      "afghanistan": 3866,
      "scientists": 3867,
      "combination": 3868,
      "expansion": 3869,
      "gia": 3870,
      "wear": 3871,
      "chair": 3872,
      "dipl": 3873,
      "actors": 3874,
      "says": 3875,
      "harv": 3876,
      "discussion": 3877,
      "plate": 3878,
      "requires": 3879,
      "discovery": 3880,
      "adult": 3881,
      "dur": 3882,
      "ala": 3883,
      "asian": 3884,
      "aph": 3885,
      "zealand": 3886,
      "height": 3887,
      "iar": 3888,
      "agu": 3889,
      "lithu": 3890,
      "runs": 3891,
      "senate": 3892,
      "mythology": 3893,
      "goes": 3894,
      "crew": 3895,
      "depending": 3896,
      "fically": 3897,
      "estimated": 3898,
      "juris": 3899,
      "bond": 3900,
      "confeder": 3901,
      "price": 3902,
      "literary": 3903,
      "shire": 3904,
      "gosp": 3905,
      "moment": 3906,
      "diplom": 3907,
      "semi": 3908,
      "buildings": 3909,
      "destroyed": 3910,
      "entered": 3911,
      "respond": 3912,
      "pick": 3913,
      "opened": 3914,
      "inspired": 3915,
      "boston": 3916,
      "proced": 3917,
      "hence": 3918,
      "remo": 3919,
      "removed": 3920,
      "description": 3921,
      "controversial": 3922,
      "specifically": 3923,
      "corporation": 3924,
      "rh": 3925,
      "beaut": 3926,
      "cool": 3927,
      "owners": 3928,
      "custom": 3929,
      "frequency": 3930,
      "mountains": 3931,
      "ening": 3932,
      "astro": 3933,
      "closely": 3934,
      "truth": 3935,
      "guard": 3936,
      "ansas": 3937,
      "carto": 3938,
      "depict": 3939,
      "killing": 3940,
      "dictionary": 3941,
      "cze": 3942,
      "consequ": 3943,
      "nit": 3944,
      "lip": 3945,
      "devices": 3946,
      "protestant": 3947,
      "dic": 3948,
      "rational": 3949,
      "inian": 3950,
      "toward": 3951,
      "texas": 3952,
      "invasion": 3953,
      "bian": 3954,
      "slo": 3955,
      "imag": 3956,
      "jazz": 3957,
      "conqu": 3958,
      "predict": 3959,
      "offered": 3960,
      "slightly": 3961,
      "nt": 3962,
      "joint": 3963,
      "coach": 3964,
      "governments": 3965,
      "aks": 3966,
      "jav": 3967,
      "ored": 3968,
      "stay": 3969,
      "comics": 3970,
      "asked": 3971,
      "existing": 3972,
      "criticism": 3973,
      "absol": 3974,
      "plus": 3975,
      "helped": 3976,
      "agriculture": 3977,
      "movies": 3978,
      "importance": 3979,
      "attempted": 3980,
      "twenty": 3981,
      "composition": 3982,
      "proof": 3983,
      "visible": 3984,
      "affairs": 3985,
      "cook": 3986,
      "guar": 3987,
      "flor": 3988,
      "iced": 3989,
      "diam": 3990,
      "fictional": 3991,
      "bun": 3992,
      "inton": 3993,
      "ancest": 3994,
      "cade": 3995,
      "networ": 3996,
      "bits": 3997,
      "spiritual": 3998,
      "label": 3999,
      "evil": 4000,
      "caes": 4001,
      "analy": 4002,
      "professor": 4003,
      "crown": 4004,
      "atmos": 4005,
      "ales": 4006,
      "traditions": 4007,
      "clock": 4008,
      "presidential": 4009,
      "maced": 4010,
      "resulted": 4011,
      "kee": 4012,
      "cris": 4013,
      "hungary": 4014,
      "leaving": 4015,
      "copyright": 4016,
      "athe": 4017,
      "edge": 4018,
      "correspon": 4019,
      "suppor": 4020,
      "luther": 4021,
      "reality": 4022,
      "category": 4023,
      "chest": 4024,
      "donald": 4025,
      "thousands": 4026,
      "algorithm": 4027,
      "leadership": 4028,
      "bact": 4029,
      "tam": 4030,
      "inated": 4031,
      "pping": 4032,
      "auth": 4033,
      "disk": 4034,
      "crime": 4035,
      "damage": 4036,
      "hat": 4037,
      "vice": 4038,
      "yl": 4039,
      "asser": 4040,
      "heavily": 4041,
      "bli": 4042,
      "aspects": 4043,
      "reports": 4044,
      "argue": 4045,
      "factor": 4046,
      "factors": 4047,
      "economics": 4048,
      "situ": 4049,
      "fla": 4050,
      "andon": 4051,
      "construct": 4052,
      "pak": 4053,
      "exer": 4054,
      "canon": 4055,
      "effort": 4056,
      "strip": 4057,
      "historic": 4058,
      "novels": 4059,
      "ump": 4060,
      "identified": 4061,
      "austrian": 4062,
      "picture": 4063,
      "principal": 4064,
      "rix": 4065,
      "strugg": 4066,
      "kal": 4067,
      "manif": 4068,
      "quantum": 4069,
      "tower": 4070,
      "inhabit": 4071,
      "fear": 4072,
      "crete": 4073,
      "cules": 4074,
      "eliza": 4075,
      "currency": 4076,
      "occurred": 4077,
      "watch": 4078,
      "nis": 4079,
      "defeated": 4080,
      "fash": 4081,
      "pent": 4082,
      "substant": 4083,
      "ibm": 4084,
      "assum": 4085,
      "traf": 4086,
      "concepts": 4087,
      "hou": 4088,
      "cultures": 4089,
      "scholar": 4090,
      "rhy": 4091,
      "root": 4092,
      "switch": 4093,
      "soldiers": 4094,
      "eks": 4095,
      "manner": 4096,
      "opening": 4097,
      "theorem": 4098,
      "competition": 4099,
      "stable": 4100,
      "ishes": 4101,
      "bio": 4102,
      "valid": 4103,
      "origins": 4104,
      "jordan": 4105,
      "bern": 4106,
      "christmas": 4107,
      "topics": 4108,
      "wikip": 4109,
      "captain": 4110,
      "lists": 4111,
      "rey": 4112,
      "oul": 4113,
      "ighter": 4114,
      "compos": 4115,
      "abandon": 4116,
      "formula": 4117,
      "democracy": 4118,
      "citizen": 4119,
      "sar": 4120,
      "testament": 4121,
      "territories": 4122,
      "normally": 4123,
      "dry": 4124,
      "decre": 4125,
      "dv": 4126,
      "hes": 4127,
      "spent": 4128,
      "malay": 4129,
      "statistics": 4130,
      "enjoy": 4131,
      "presented": 4132,
      "morph": 4133,
      "hardware": 4134,
      "alban": 4135,
      "flat": 4136,
      "grew": 4137,
      "bah": 4138,
      "athen": 4139,
      "progress": 4140,
      "destru": 4141,
      "aqu": 4142,
      "pian": 4143,
      "plot": 4144,
      "nazi": 4145,
      "fantasy": 4146,
      "kins": 4147,
      "throw": 4148,
      "creating": 4149,
      "appropri": 4150,
      "forum": 4151,
      "expression": 4152,
      "bron": 4153,
      "movements": 4154,
      "risk": 4155,
      "details": 4156,
      "doctrine": 4157,
      "permanent": 4158,
      "kid": 4159,
      "leave": 4160,
      "annual": 4161,
      "ori": 4162,
      "rose": 4163,
      "pronounced": 4164,
      "bf": 4165,
      "ulate": 4166,
      "mist": 4167,
      "nan": 4168,
      "gods": 4169,
      "gent": 4170,
      "defeat": 4171,
      "fc": 4172,
      "vs": 4173,
      "involve": 4174,
      "marks": 4175,
      "continues": 4176,
      "learning": 4177,
      "jon": 4178,
      "mous": 4179,
      "pages": 4180,
      "sie": 4181,
      "discipl": 4182,
      "parents": 4183,
      "oth": 4184,
      "shap": 4185,
      "unders": 4186,
      "faces": 4187,
      "alexand": 4188,
      "subsequently": 4189,
      "wikipedia": 4190,
      "staff": 4191,
      "premi": 4192,
      "initi": 4193,
      "census": 4194,
      "interpretation": 4195,
      "policies": 4196,
      "beliefs": 4197,
      "vast": 4198,
      "processes": 4199,
      "declar": 4200,
      "pieces": 4201,
      "bang": 4202,
      "editor": 4203,
      "tribes": 4204,
      "femin": 4205,
      "negot": 4206,
      "machines": 4207,
      "fet": 4208,
      "kat": 4209,
      "exclusive": 4210,
      "deriv": 4211,
      "false": 4212,
      "igen": 4213,
      "ung": 4214,
      "cos": 4215,
      "attach": 4216,
      "tried": 4217,
      "plicit": 4218,
      "administrative": 4219,
      "heaven": 4220,
      "goods": 4221,
      "layer": 4222,
      "subsequent": 4223,
      "mud": 4224,
      "practical": 4225,
      "message": 4226,
      "kers": 4227,
      "mental": 4228,
      "display": 4229,
      "expressed": 4230,
      "roughly": 4231,
      "judic": 4232,
      "regarding": 4233,
      "constructed": 4234,
      "traffic": 4235,
      "mort": 4236,
      "theast": 4237,
      "proceed": 4238,
      "files": 4239,
      "steel": 4240,
      "icon": 4241,
      "parad": 4242,
      "eye": 4243,
      "substantial": 4244,
      "veget": 4245,
      "genes": 4246,
      "dates": 4247,
      "shortly": 4248,
      "mixed": 4249,
      "alleged": 4250,
      "resistance": 4251,
      "hunt": 4252,
      "consu": 4253,
      "turning": 4254,
      "electro": 4255,
      "patri": 4256,
      "translated": 4257,
      "angeles": 4258,
      "sco": 4259,
      "cars": 4260,
      "meeting": 4261,
      "founder": 4262,
      "bt": 4263,
      "tz": 4264,
      "atoms": 4265,
      "swedish": 4266,
      "fashion": 4267,
      "hr": 4268,
      "input": 4269,
      "otic": 4270,
      "acting": 4271,
      "ili": 4272,
      "hyper": 4273,
      "historians": 4274,
      "columbia": 4275,
      "absolute": 4276,
      "ami": 4277,
      "raised": 4278,
      "archae": 4279,
      "photograph": 4280,
      "chosen": 4281,
      "mount": 4282,
      "isol": 4283,
      "linux": 4284,
      "considerable": 4285,
      "atomic": 4286,
      "questions": 4287,
      "decades": 4288,
      "eign": 4289,
      "hindu": 4290,
      "sul": 4291,
      "vant": 4292,
      "want": 4293,
      "alum": 4294,
      "ologist": 4295,
      "sab": 4296,
      "ern": 4297,
      "chronic": 4298,
      "cking": 4299,
      "jpg": 4300,
      "answer": 4301,
      "attract": 4302,
      "greatly": 4303,
      "occupied": 4304,
      "sovereign": 4305,
      "sister": 4306,
      "orbit": 4307,
      "ordered": 4308,
      "towns": 4309,
      "institutions": 4310,
      "fame": 4311,
      "pakistan": 4312,
      "iled": 4313,
      "extin": 4314,
      "chapter": 4315,
      "compat": 4316,
      "capable": 4317,
      "strate": 4318,
      "formerly": 4319,
      "brothers": 4320,
      "houses": 4321,
      "fox": 4322,
      "observed": 4323,
      "grammar": 4324,
      "gressive": 4325,
      "ambig": 4326,
      "twel": 4327,
      "carol": 4328,
      "avis": 4329,
      "aka": 4330,
      "oxy": 4331,
      "seats": 4332,
      "reput": 4333,
      "easy": 4334,
      "needs": 4335,
      "respectively": 4336,
      "ull": 4337,
      "clim": 4338,
      "philosopher": 4339,
      "failure": 4340,
      "railway": 4341,
      "bomb": 4342,
      "receive": 4343,
      "ean": 4344,
      "seat": 4345,
      "particles": 4346,
      "municip": 4347,
      "minutes": 4348,
      "processing": 4349,
      "blues": 4350,
      "studied": 4351,
      "tact": 4352,
      "shape": 4353,
      "equation": 4354,
      "kr": 4355,
      "const": 4356,
      "sched": 4357,
      "enes": 4358,
      "preci": 4359,
      "extent": 4360,
      "representation": 4361,
      "revolutionary": 4362,
      "transportation": 4363,
      "gil": 4364,
      "snow": 4365,
      "poll": 4366,
      "hosp": 4367,
      "johnson": 4368,
      "ordinary": 4369,
      "launched": 4370,
      "cow": 4371,
      "settlement": 4372,
      "ij": 4373,
      "prep": 4374,
      "characteristics": 4375,
      "ceived": 4376,
      "chron": 4377,
      "wides": 4378,
      "persian": 4379,
      "peoples": 4380,
      "holly": 4381,
      "drawn": 4382,
      "bure": 4383,
      "ologies": 4384,
      "database": 4385,
      "holding": 4386,
      "glas": 4387,
      "michigan": 4388,
      "zen": 4389,
      "ota": 4390,
      "neither": 4391,
      "index": 4392,
      "bid": 4393,
      "biology": 4394,
      "anni": 4395,
      "continental": 4396,
      "titles": 4397,
      "projects": 4398,
      "sn": 4399,
      "som": 4400,
      "oured": 4401,
      "advert": 4402,
      "naval": 4403,
      "itzer": 4404,
      "criminal": 4405,
      "mn": 4406,
      "desert": 4407,
      "circle": 4408,
      "rod": 4409,
      "omorph": 4410,
      "entertain": 4411,
      "straight": 4412,
      "divine": 4413,
      "parallel": 4414,
      "nut": 4415,
      "supposed": 4416,
      "defend": 4417,
      "iah": 4418,
      "schem": 4419,
      "describes": 4420,
      "itarian": 4421,
      "dot": 4422,
      "refused": 4423,
      "ante": 4424,
      "awarded": 4425,
      "drugs": 4426,
      "narrow": 4427,
      "satellite": 4428,
      "worship": 4429,
      "yan": 4430,
      "chip": 4431,
      "iger": 4432,
      "exhib": 4433,
      "rence": 4434,
      "symbols": 4435,
      "hair": 4436,
      "finding": 4437,
      "install": 4438,
      "felt": 4439,
      "gif": 4440,
      "arrest": 4441,
      "phi": 4442,
      "huge": 4443,
      "radical": 4444,
      "battles": 4445,
      "philosophical": 4446,
      "korea": 4447,
      "genre": 4448,
      "massive": 4449,
      "reven": 4450,
      "solar": 4451,
      "bab": 4452,
      "bann": 4453,
      "abilities": 4454,
      "medium": 4455,
      "myster": 4456,
      "storage": 4457,
      "comedy": 4458,
      "strength": 4459,
      "magn": 4460,
      "electrical": 4461,
      "village": 4462,
      "plans": 4463,
      "doing": 4464,
      "occasionally": 4465,
      "iny": 4466,
      "ios": 4467,
      "indones": 4468,
      "fly": 4469,
      "lum": 4470,
      "cock": 4471,
      "weeks": 4472,
      "arith": 4473,
      "wales": 4474,
      "penn": 4475,
      "train": 4476,
      "binary": 4477,
      "saying": 4478,
      "catal": 4479,
      "dialects": 4480,
      "uded": 4481,
      "castle": 4482,
      "academic": 4483,
      "eland": 4484,
      "denot": 4485,
      "issued": 4486,
      "pictures": 4487,
      "shell": 4488,
      "vocal": 4489,
      "aci": 4490,
      "preced": 4491,
      "kir": 4492,
      "sector": 4493,
      "speakers": 4494,
      "resem": 4495,
      "accid": 4496,
      "persons": 4497,
      "gather": 4498,
      "enemy": 4499,
      "kg": 4500,
      "colour": 4501,
      "anything": 4502,
      "whereas": 4503,
      "wait": 4504,
      "dispute": 4505,
      "kent": 4506,
      "pir": 4507,
      "ena": 4508,
      "bean": 4509,
      "essential": 4510,
      "colonial": 4511,
      "negoti": 4512,
      "symp": 4513,
      "register": 4514,
      "legislative": 4515,
      "fifth": 4516,
      "inhabitants": 4517,
      "wy": 4518,
      "adapt": 4519,
      "victim": 4520,
      "gla": 4521,
      "affect": 4522,
      "descend": 4523,
      "dess": 4524,
      "aces": 4525,
      "satis": 4526,
      "nucle": 4527,
      "maps": 4528,
      "trig": 4529,
      "granted": 4530,
      "contest": 4531,
      "girl": 4532,
      "fasc": 4533,
      "sle": 4534,
      "alty": 4535,
      "pool": 4536,
      "density": 4537,
      "pd": 4538,
      "degre": 4539,
      "influential": 4540,
      "darwin": 4541,
      "manufactur": 4542,
      "festival": 4543,
      "dated": 4544,
      "noun": 4545,
      "sip": 4546,
      "pread": 4547,
      "scand": 4548,
      "electricity": 4549,
      "gol": 4550,
      "inner": 4551,
      "artific": 4552,
      "producing": 4553,
      "widespread": 4554,
      "cable": 4555,
      "fing": 4556,
      "fres": 4557,
      "andrew": 4558,
      "udes": 4559,
      "newton": 4560,
      "producer": 4561,
      "explan": 4562,
      "grant": 4563,
      "visual": 4564,
      "courts": 4565,
      "purposes": 4566,
      "determ": 4567,
      "achieved": 4568,
      "ched": 4569,
      "selected": 4570,
      "gay": 4571,
      "ras": 4572,
      "deliver": 4573,
      "worldwide": 4574,
      "jacob": 4575,
      "repeated": 4576,
      "babylon": 4577,
      "determine": 4578,
      "fro": 4579,
      "aria": 4580,
      "setting": 4581,
      "commonwealth": 4582,
      "newspaper": 4583,
      "serving": 4584,
      "rison": 4585,
      "freder": 4586,
      "bis": 4587,
      "boys": 4588,
      "denmark": 4589,
      "teaching": 4590,
      "degrees": 4591,
      "fine": 4592,
      "oct": 4593,
      "precise": 4594,
      "osex": 4595,
      "elizabeth": 4596,
      "gly": 4597,
      "coordin": 4598,
      "mond": 4599,
      "prin": 4600,
      "ario": 4601,
      "gel": 4602,
      "jr": 4603,
      "throne": 4604,
      "treated": 4605,
      "similarly": 4606,
      "random": 4607,
      "instru": 4608,
      "instruct": 4609,
      "lex": 4610,
      "chor": 4611,
      "opport": 4612,
      "universities": 4613,
      "magnetic": 4614,
      "alliance": 4615,
      "awards": 4616,
      "cers": 4617,
      "formally": 4618,
      "clearly": 4619,
      "surrounding": 4620,
      "ministers": 4621,
      "supporters": 4622,
      "authors": 4623,
      "indo": 4624,
      "comb": 4625,
      "guine": 4626,
      "disc": 4627,
      "witness": 4628,
      "phrase": 4629,
      "xx": 4630,
      "logo": 4631,
      "publication": 4632,
      "paid": 4633,
      "showing": 4634,
      "hitler": 4635,
      "bag": 4636,
      "dal": 4637,
      "viewed": 4638,
      "nevertheless": 4639,
      "hungarian": 4640,
      "thetic": 4641,
      "favour": 4642,
      "apparently": 4643,
      "lah": 4644,
      "abst": 4645,
      "akh": 4646,
      "computing": 4647,
      "pical": 4648,
      "haw": 4649,
      "ception": 4650,
      "providing": 4651,
      "homosex": 4652,
      "rics": 4653,
      "yell": 4654,
      "aristo": 4655,
      "someone": 4656,
      "ibn": 4657,
      "suffered": 4658,
      "gulf": 4659,
      "gospel": 4660,
      "ias": 4661,
      "safe": 4662,
      "supp": 4663,
      "measures": 4664,
      "rivers": 4665,
      "enger": 4666,
      "pione": 4667,
      "agricultural": 4668,
      "mong": 4669,
      "abra": 4670,
      "strateg": 4671,
      "inn": 4672,
      "tood": 4673,
      "listed": 4674,
      "understood": 4675,
      "expect": 4676,
      "danish": 4677,
      "hoc": 4678,
      "excl": 4679,
      "iff": 4680,
      "aware": 4681,
      "hid": 4682,
      "jection": 4683,
      "goth": 4684,
      "izes": 4685,
      "ideal": 4686,
      "metric": 4687,
      "clean": 4688,
      "radiation": 4689,
      "contained": 4690,
      "employment": 4691,
      "stress": 4692,
      "prohib": 4693,
      "ultimately": 4694,
      "interface": 4695,
      "magic": 4696,
      "celtic": 4697,
      "shoot": 4698,
      "maximum": 4699,
      "bw": 4700,
      "heim": 4701,
      "engines": 4702,
      "ologists": 4703,
      "continuous": 4704,
      "daniel": 4705,
      "hag": 4706,
      "infinite": 4707,
      "carl": 4708,
      "cerem": 4709,
      "html": 4710,
      "molecules": 4711,
      "feed": 4712,
      "talk": 4713,
      "reduce": 4714,
      "settled": 4715,
      "circuit": 4716,
      "kaz": 4717,
      "exception": 4718,
      "documents": 4719,
      "weapon": 4720,
      "nfl": 4721,
      "uge": 4722,
      "err": 4723,
      "recomm": 4724,
      "showed": 4725,
      "resolution": 4726,
      "inois": 4727,
      "fellow": 4728,
      "opposite": 4729,
      "liquid": 4730,
      "conson": 4731,
      "commander": 4732,
      "unci": 4733,
      "urally": 4734,
      "superi": 4735,
      "shad": 4736,
      "discover": 4737,
      "valu": 4738,
      "invented": 4739,
      "caesar": 4740,
      "crisis": 4741,
      "gang": 4742,
      "tos": 4743,
      "linked": 4744,
      "advance": 4745,
      "vinces": 4746,
      "francisco": 4747,
      "virginia": 4748,
      "inqu": 4749,
      "oldest": 4750,
      "cros": 4751,
      "illa": 4752,
      "ura": 4753,
      "illinois": 4754,
      "manager": 4755,
      "components": 4756,
      "religions": 4757,
      "strongly": 4758,
      "dale": 4759,
      "biological": 4760,
      "employed": 4761,
      "taught": 4762,
      "zant": 4763,
      "sciences": 4764,
      "palace": 4765,
      "changing": 4766,
      "distinction": 4767,
      "ratio": 4768,
      "sought": 4769,
      "colla": 4770,
      "oxide": 4771,
      "profit": 4772,
      "galax": 4773,
      "bottom": 4774,
      "muslims": 4775,
      "classification": 4776,
      "yo": 4777,
      "iana": 4778,
      "leges": 4779,
      "indicate": 4780,
      "dc": 4781,
      "nish": 4782,
      "absor": 4783,
      "accounts": 4784,
      "diff": 4785,
      "silver": 4786,
      "planned": 4787,
      "unable": 4788,
      "practices": 4789,
      "involves": 4790,
      "safety": 4791,
      "intellectual": 4792,
      "icide": 4793,
      "agency": 4794,
      "provinces": 4795,
      "surpr": 4796,
      "cm": 4797,
      "detailed": 4798,
      "rarely": 4799,
      "hollywood": 4800,
      "enna": 4801,
      "cosm": 4802,
      "trust": 4803,
      "republican": 4804,
      "mechanics": 4805,
      "lady": 4806,
      "stadium": 4807,
      "revi": 4808,
      "arrow": 4809,
      "lux": 4810,
      "civilization": 4811,
      "wed": 4812,
      "clar": 4813,
      "tai": 4814,
      "keyboard": 4815,
      "judge": 4816,
      "pel": 4817,
      "arbit": 4818,
      "secondary": 4819,
      "budget": 4820,
      "aling": 4821,
      "everything": 4822,
      "check": 4823,
      "prophe": 4824,
      "captured": 4825,
      "uck": 4826,
      "onian": 4827,
      "neighbor": 4828,
      "tools": 4829,
      "culation": 4830,
      "represents": 4831,
      "essentially": 4832,
      "cen": 4833,
      "rejected": 4834,
      "egyptian": 4835,
      "logy": 4836,
      "historically": 4837,
      "store": 4838,
      "bands": 4839,
      "route": 4840,
      "impossible": 4841,
      "shop": 4842,
      "shared": 4843,
      "capacity": 4844,
      "inations": 4845,
      "lewis": 4846,
      "vian": 4847,
      "rising": 4848,
      "theme": 4849,
      "insur": 4850,
      "och": 4851,
      "enco": 4852,
      "brow": 4853,
      "dj": 4854,
      "chile": 4855,
      "chamber": 4856,
      "wrong": 4857,
      "tren": 4858,
      "inth": 4859,
      "byzant": 4860,
      "ares": 4861,
      "interests": 4862,
      "expanded": 4863,
      "turkish": 4864,
      "cycl": 4865,
      "developing": 4866,
      "hammad": 4867,
      "sufficient": 4868,
      "colonies": 4869,
      "networks": 4870,
      "iom": 4871,
      "theatre": 4872,
      "ained": 4873,
      "heads": 4874,
      "kenned": 4875,
      "interesting": 4876,
      "printed": 4877,
      "amaz": 4878,
      "portray": 4879,
      "finished": 4880,
      "calvin": 4881,
      "societies": 4882,
      "championship": 4883,
      "gender": 4884,
      "ato": 4885,
      "ativity": 4886,
      "vector": 4887,
      "bling": 4888,
      "trees": 4889,
      "molecular": 4890,
      "succeeded": 4891,
      "oud": 4892,
      "secut": 4893,
      "harvard": 4894,
      "bureau": 4895,
      "ying": 4896,
      "heard": 4897,
      "turkey": 4898,
      "yellow": 4899,
      "accomp": 4900,
      "job": 4901,
      "transition": 4902,
      "license": 4903,
      "kab": 4904,
      "lag": 4905,
      "orchest": 4906,
      "stro": 4907,
      "navig": 4908,
      "significantly": 4909,
      "iop": 4910,
      "ule": 4911,
      "ching": 4912,
      "exports": 4913,
      "processor": 4914,
      "autonom": 4915,
      "affected": 4916,
      "ottoman": 4917,
      "twelve": 4918,
      "tall": 4919,
      "pole": 4920,
      "looking": 4921,
      "obl": 4922,
      "rated": 4923,
      "quad": 4924,
      "clinton": 4925,
      "poetry": 4926,
      "iro": 4927,
      "fought": 4928,
      "zes": 4929,
      "protect": 4930,
      "merely": 4931,
      "managed": 4932,
      "successfully": 4933,
      "investment": 4934,
      "iga": 4935,
      "explicit": 4936,
      "refuge": 4937,
      "authorities": 4938,
      "destruction": 4939,
      "verb": 4940,
      "dual": 4941,
      "aud": 4942,
      "naz": 4943,
      "pati": 4944,
      "institution": 4945,
      "superior": 4946,
      "pton": 4947,
      "pursu": 4948,
      "assumed": 4949,
      "kra": 4950,
      "ua": 4951,
      "ishing": 4952,
      "spin": 4953,
      "representatives": 4954,
      "stalin": 4955,
      "mathbf": 4956,
      "candidate": 4957,
      "bwv": 4958,
      "fies": 4959,
      "petro": 4960,
      "fras": 4961,
      "calls": 4962,
      "pressed": 4963,
      "occupation": 4964,
      "keeping": 4965,
      "yer": 4966,
      "seas": 4967,
      "cler": 4968,
      "aux": 4969,
      "mars": 4970,
      "variations": 4971,
      "burgh": 4972,
      "studio": 4973,
      "roads": 4974,
      "accurate": 4975,
      "anthropol": 4976,
      "oxygen": 4977,
      "iling": 4978,
      "collabor": 4979,
      "johann": 4980,
      "youth": 4981,
      "eyes": 4982,
      "entit": 4983,
      "depression": 4984,
      "anton": 4985,
      "trou": 4986,
      "overall": 4987,
      "fleet": 4988,
      "effici": 4989,
      "publishing": 4990,
      "dialect": 4991,
      "lebanon": 4992,
      "guinea": 4993,
      "bac": 4994,
      "elli": 4995,
      "celer": 4996,
      "crash": 4997,
      "directory": 4998,
      "itors": 4999,
      "admir": 5000,
      "compres": 5001,
      "fert": 5002,
      "obtained": 5003,
      "modified": 5004,
      "inflation": 5005,
      "java": 5006,
      "variant": 5007,
      "voy": 5008,
      "socialist": 5009,
      "maintained": 5010,
      "eat": 5011,
      "gur": 5012,
      "really": 5013,
      "uten": 5014,
      "virtual": 5015,
      "semit": 5016,
      "divisions": 5017,
      "notation": 5018,
      "banks": 5019,
      "equations": 5020,
      "florida": 5021,
      "artificial": 5022,
      "iction": 5023,
      "broken": 5024,
      "strategy": 5025,
      "aded": 5026,
      "shel": 5027,
      "forming": 5028,
      "efficient": 5029,
      "vul": 5030,
      "interview": 5031,
      "saints": 5032,
      "dem": 5033,
      "pleas": 5034,
      "soul": 5035,
      "sales": 5036,
      "devot": 5037,
      "quarters": 5038,
      "instruction": 5039,
      "score": 5040,
      "oney": 5041,
      "chess": 5042,
      "define": 5043,
      "responsib": 5044,
      "satur": 5045,
      "mongol": 5046,
      "var": 5047,
      "vity": 5048,
      "drew": 5049,
      "inary": 5050,
      "minority": 5051,
      "fen": 5052,
      "lers": 5053,
      "agent": 5054,
      "stephen": 5055,
      "brian": 5056,
      "improved": 5057,
      "exactly": 5058,
      "adding": 5059,
      "bloc": 5060,
      "items": 5061,
      "maur": 5062,
      "cancer": 5063,
      "dos": 5064,
      "uset": 5065,
      "designs": 5066,
      "croat": 5067,
      "licens": 5068,
      "ugh": 5069,
      "merch": 5070,
      "featuring": 5071,
      "teenth": 5072,
      "dick": 5073,
      "ois": 5074,
      "servers": 5075,
      "charged": 5076,
      "survey": 5077,
      "goddess": 5078,
      "iment": 5079,
      "compre": 5080,
      "partners": 5081,
      "carib": 5082,
      "dedicated": 5083,
      "penins": 5084,
      "resto": 5085,
      "ogical": 5086,
      "dominated": 5087,
      "bly": 5088,
      "fab": 5089,
      "ye": 5090,
      "obvious": 5091,
      "germanic": 5092,
      "establishment": 5093,
      "vietnam": 5094,
      "mechanical": 5095,
      "db": 5096,
      "physicist": 5097,
      "sant": 5098,
      "officer": 5099,
      "cric": 5100,
      "manus": 5101,
      "elled": 5102,
      "achuset": 5103,
      "eva": 5104,
      "mainstream": 5105,
      "ruth": 5106,
      "protein": 5107,
      "portugal": 5108,
      "kim": 5109,
      "kansas": 5110,
      "brevi": 5111,
      "bird": 5112,
      "analog": 5113,
      "fortun": 5114,
      "hang": 5115,
      "oto": 5116,
      "correspond": 5117,
      "musicians": 5118,
      "males": 5119,
      "membership": 5120,
      "identify": 5121,
      "jersey": 5122,
      "husband": 5123,
      "beach": 5124,
      "fid": 5125,
      "massachuset": 5126,
      "coalition": 5127,
      "reputation": 5128,
      "forth": 5129,
      "boat": 5130,
      "join": 5131,
      "arrived": 5132,
      "revealed": 5133,
      "icts": 5134,
      "devil": 5135,
      "colony": 5136,
      "publications": 5137,
      "continent": 5138,
      "guns": 5139,
      "coup": 5140,
      "psychology": 5141,
      "appropriate": 5142,
      "massachusetts": 5143,
      "napo": 5144,
      "existed": 5145,
      "graphic": 5146,
      "wheel": 5147,
      "cabinet": 5148,
      "adel": 5149,
      "birds": 5150,
      "cuba": 5151,
      "conventional": 5152,
      "opinion": 5153,
      "zer": 5154,
      "roots": 5155,
      "contra": 5156,
      "tribut": 5157,
      "necessarily": 5158,
      "korean": 5159,
      "simon": 5160,
      "rival": 5161,
      "hawa": 5162,
      "athan": 5163,
      "broke": 5164,
      "strike": 5165,
      "nickn": 5166,
      "recognition": 5167,
      "suggests": 5168,
      "selection": 5169,
      "monop": 5170,
      "weather": 5171,
      "extension": 5172,
      "rapidly": 5173,
      "incorporated": 5174,
      "rol": 5175,
      "defence": 5176,
      "homosexual": 5177,
      "abraham": 5178,
      "cited": 5179,
      "elimin": 5180,
      "causing": 5181,
      "organic": 5182,
      "passing": 5183,
      "decline": 5184,
      "czech": 5185,
      "onso": 5186,
      "adap": 5187,
      "apply": 5188,
      "literally": 5189,
      "younger": 5190,
      "separated": 5191,
      "distributed": 5192,
      "propos": 5193,
      "nostic": 5194,
      "fruit": 5195,
      "expensive": 5196,
      "philosophers": 5197,
      "tons": 5198,
      "organisms": 5199,
      "adams": 5200,
      "davis": 5201,
      "gium": 5202,
      "frequent": 5203,
      "subjects": 5204,
      "flying": 5205,
      "brid": 5206,
      "franklin": 5207,
      "kennedy": 5208,
      "beer": 5209,
      "diet": 5210,
      "bright": 5211,
      "neutral": 5212,
      "bibli": 5213,
      "periods": 5214,
      "sections": 5215,
      "lakes": 5216,
      "iring": 5217,
      "fee": 5218,
      "physi": 5219,
      "filled": 5220,
      "sic": 5221,
      "beck": 5222,
      "twice": 5223,
      "matters": 5224,
      "historian": 5225,
      "abs": 5226,
      "clin": 5227,
      "clust": 5228,
      "executed": 5229,
      "dangerous": 5230,
      "consciousness": 5231,
      "dvd": 5232,
      "cp": 5233,
      "allied": 5234,
      "legit": 5235,
      "samuel": 5236,
      "tourism": 5237,
      "committed": 5238,
      "gency": 5239,
      "sels": 5240,
      "romans": 5241,
      "balance": 5242,
      "concerning": 5243,
      "familiar": 5244,
      "anne": 5245,
      "atari": 5246,
      "evolved": 5247,
      "audience": 5248,
      "sylvan": 5249,
      "entitled": 5250,
      "fier": 5251,
      "signs": 5252,
      "cision": 5253,
      "effectively": 5254,
      "apy": 5255,
      "ethiop": 5256,
      "sounds": 5257,
      "atmosphere": 5258,
      "jet": 5259,
      "wart": 5260,
      "underground": 5261,
      "opera": 5262,
      "belgium": 5263,
      "ranean": 5264,
      "ministry": 5265,
      "relationships": 5266,
      "mathematician": 5267,
      "dish": 5268,
      "gab": 5269,
      "uted": 5270,
      "compounds": 5271,
      "stands": 5272,
      "breed": 5273,
      "nearby": 5274,
      "choose": 5275,
      "intelligent": 5276,
      "possibility": 5277,
      "rings": 5278,
      "iti": 5279,
      "warfare": 5280,
      "altar": 5281,
      "commo": 5282,
      "rific": 5283,
      "earl": 5284,
      "placing": 5285,
      "supporting": 5286,
      "temperatures": 5287,
      "vehicle": 5288,
      "vehicles": 5289,
      "cad": 5290,
      "tol": 5291,
      "lem": 5292,
      "syria": 5293,
      "painter": 5294,
      "attributed": 5295,
      "recipi": 5296,
      "tag": 5297,
      "renamed": 5298,
      "credited": 5299,
      "alfred": 5300,
      "bibl": 5301,
      "particle": 5302,
      "trying": 5303,
      "acceler": 5304,
      "concerned": 5305,
      "faster": 5306,
      "pens": 5307,
      "vor": 5308,
      "guid": 5309,
      "learn": 5310,
      "gem": 5311,
      "rein": 5312,
      "moore": 5313,
      "assigned": 5314,
      "lords": 5315,
      "hl": 5316,
      "regime": 5317,
      "rank": 5318,
      "contributed": 5319,
      "hundreds": 5320,
      "judicial": 5321,
      "mouse": 5322,
      "sche": 5323,
      "drawing": 5324,
      "abstract": 5325,
      "shor": 5326,
      "ique": 5327,
      "georgia": 5328,
      "falls": 5329,
      "gradually": 5330,
      "bath": 5331,
      "hier": 5332,
      "variable": 5333,
      "manuscript": 5334,
      "hd": 5335,
      "confir": 5336,
      "abbrevi": 5337,
      "tropical": 5338,
      "cuis": 5339,
      "karl": 5340,
      "patterns": 5341,
      "lunar": 5342,
      "howard": 5343,
      "chlor": 5344,
      "coca": 5345,
      "complic": 5346,
      "styles": 5347,
      "walls": 5348,
      "kick": 5349,
      "erals": 5350,
      "codes": 5351,
      "foss": 5352,
      "visited": 5353,
      "russell": 5354,
      "involving": 5355,
      "federation": 5356,
      "tone": 5357,
      "conquest": 5358,
      "prices": 5359,
      "leads": 5360,
      "prayer": 5361,
      "hockey": 5362,
      "error": 5363,
      "bene": 5364,
      "officials": 5365,
      "hans": 5366,
      "spot": 5367,
      "guy": 5368,
      "akes": 5369,
      "draft": 5370,
      "declaration": 5371,
      "sight": 5372,
      "capture": 5373,
      "attle": 5374,
      "costs": 5375,
      "sop": 5376,
      "consp": 5377,
      "meters": 5378,
      "officers": 5379,
      "markets": 5380,
      "consumption": 5381,
      "bos": 5382,
      "newly": 5383,
      "residents": 5384,
      "episodes": 5385,
      "remember": 5386,
      "unless": 5387,
      "cessive": 5388,
      "albums": 5389,
      "identical": 5390,
      "violent": 5391,
      "legislation": 5392,
      "anto": 5393,
      "orian": 5394,
      "spaces": 5395,
      "selling": 5396,
      "characteristic": 5397,
      "concentration": 5398,
      "distinguished": 5399,
      "hospital": 5400,
      "rice": 5401,
      "blin": 5402,
      "horiz": 5403,
      "functional": 5404,
      "williams": 5405,
      "oe": 5406,
      "elev": 5407,
      "basket": 5408,
      "mayor": 5409,
      "paint": 5410,
      "classified": 5411,
      "acquired": 5412,
      "sylvania": 5413,
      "biblical": 5414,
      "lt": 5415,
      "reforms": 5416,
      "unusual": 5417,
      "notion": 5418,
      "brun": 5419,
      "memorial": 5420,
      "harry": 5421,
      "appeal": 5422,
      "offensive": 5423,
      "demographics": 5424,
      "propag": 5425,
      "circumst": 5426,
      "aa": 5427,
      "ug": 5428,
      "decade": 5429,
      "mediter": 5430,
      "steps": 5431,
      "grade": 5432,
      "component": 5433,
      "unciation": 5434,
      "aven": 5435,
      "chen": 5436,
      "prepar": 5437,
      "synd": 5438,
      "axiom": 5439,
      "ank": 5440,
      "sile": 5441,
      "attend": 5442,
      "drin": 5443,
      "conversion": 5444,
      "meat": 5445,
      "hole": 5446,
      "successor": 5447,
      "manufacturing": 5448,
      "explained": 5449,
      "graduate": 5450,
      "guil": 5451,
      "generated": 5452,
      "lane": 5453,
      "mike": 5454,
      "trading": 5455,
      "succession": 5456,
      "concert": 5457,
      "punish": 5458,
      "comparison": 5459,
      "leaves": 5460,
      "uniform": 5461,
      "scul": 5462,
      "amounts": 5463,
      "pilot": 5464,
      "mediterranean": 5465,
      "gone": 5466,
      "iver": 5467,
      "theology": 5468,
      "peak": 5469,
      "plain": 5470,
      "instein": 5471,
      "hope": 5472,
      "dimensional": 5473,
      "compression": 5474,
      "rural": 5475,
      "blind": 5476,
      "patent": 5477,
      "telephone": 5478,
      "cof": 5479,
      "sq": 5480,
      "attra": 5481,
      "substit": 5482,
      "immigr": 5483,
      "issance": 5484,
      "consisting": 5485,
      "opponents": 5486,
      "rhyth": 5487,
      "velo": 5488,
      "christo": 5489,
      "giant": 5490,
      "denom": 5491,
      "ibility": 5492,
      "corresponding": 5493,
      "fresh": 5494,
      "kon": 5495,
      "cture": 5496,
      "neo": 5497,
      "anglo": 5498,
      "reflect": 5499,
      "parliamentary": 5500,
      "peninsula": 5501,
      "tox": 5502,
      "sher": 5503,
      "partly": 5504,
      "borough": 5505,
      "rulers": 5506,
      "concerns": 5507,
      "rena": 5508,
      "iful": 5509,
      "indigen": 5510,
      "controll": 5511,
      "converted": 5512,
      "abandoned": 5513,
      "sper": 5514,
      "duck": 5515,
      "joe": 5516,
      "educational": 5517,
      "aus": 5518,
      "aids": 5519,
      "bone": 5520,
      "eing": 5521,
      "png": 5522,
      "sig": 5523,
      "vas": 5524,
      "util": 5525,
      "lift": 5526,
      "finnish": 5527,
      "norway": 5528,
      "collective": 5529,
      "walk": 5530,
      "anyone": 5531,
      "pav": 5532,
      "wiki": 5533,
      "caribbean": 5534,
      "ole": 5535,
      "wick": 5536,
      "poem": 5537,
      "owner": 5538,
      "anglic": 5539,
      "alternate": 5540,
      "knights": 5541,
      "indigenous": 5542,
      "kit": 5543,
      "partial": 5544,
      "node": 5545,
      "anna": 5546,
      "steve": 5547,
      "substance": 5548,
      "uous": 5549,
      "pover": 5550,
      "plural": 5551,
      "volcan": 5552,
      "learned": 5553,
      "categories": 5554,
      "aero": 5555,
      "xi": 5556,
      "herit": 5557,
      "save": 5558,
      "probability": 5559,
      "pseud": 5560,
      "dynamic": 5561,
      "gau": 5562,
      "compact": 5563,
      "dependent": 5564,
      "nest": 5565,
      "escape": 5566,
      "export": 5567,
      "suicide": 5568,
      "keley": 5569,
      "portra": 5570,
      "moroc": 5571,
      "task": 5572,
      "incident": 5573,
      "patients": 5574,
      "inson": 5575,
      "ache": 5576,
      "lowest": 5577,
      "calling": 5578,
      "approved": 5579,
      "humor": 5580,
      "phenomenon": 5581,
      "cartoon": 5582,
      "dod": 5583,
      "fm": 5584,
      "vak": 5585,
      "lets": 5586,
      "limits": 5587,
      "allies": 5588,
      "experienced": 5589,
      "teacher": 5590,
      "chy": 5591,
      "fled": 5592,
      "measured": 5593,
      "fairly": 5594,
      "bce": 5595,
      "ople": 5596,
      "peg": 5597,
      "ghost": 5598,
      "genus": 5599,
      "operated": 5600,
      "collected": 5601,
      "integrated": 5602,
      "compatible": 5603,
      "aska": 5604,
      "leap": 5605,
      "entro": 5606,
      "ridge": 5607,
      "solo": 5608,
      "franch": 5609,
      "swiss": 5610,
      "scientist": 5611,
      "axis": 5612,
      "bishops": 5613,
      "sacrific": 5614,
      "chro": 5615,
      "disney": 5616,
      "facts": 5617,
      "consult": 5618,
      "emperors": 5619,
      "vowel": 5620,
      "gence": 5621,
      "nab": 5622,
      "inser": 5623,
      "rebel": 5624,
      "phon": 5625,
      "politan": 5626,
      "switzer": 5627,
      "thinking": 5628,
      "attended": 5629,
      "nik": 5630,
      "complexity": 5631,
      "crypto": 5632,
      "branches": 5633,
      "garden": 5634,
      "holiday": 5635,
      "struggle": 5636,
      "cate": 5637,
      "stim": 5638,
      "racing": 5639,
      "eline": 5640,
      "berkeley": 5641,
      "intent": 5642,
      "mormon": 5643,
      "stored": 5644,
      "salt": 5645,
      "ctrum": 5646,
      "implementation": 5647,
      "width": 5648,
      "idi": 5649,
      "mum": 5650,
      "rebell": 5651,
      "ros": 5652,
      "operate": 5653,
      "arguments": 5654,
      "oriented": 5655,
      "comprehen": 5656,
      "dating": 5657,
      "ille": 5658,
      "ometers": 5659,
      "indiana": 5660,
      "missis": 5661,
      "gnu": 5662,
      "cau": 5663,
      "ancy": 5664,
      "perceived": 5665,
      "pled": 5666,
      "strings": 5667,
      "intosh": 5668,
      "skin": 5669,
      "sword": 5670,
      "enic": 5671,
      "edited": 5672,
      "aret": 5673,
      "sugar": 5674,
      "tracks": 5675,
      "muhammad": 5676,
      "hamil": 5677,
      "martial": 5678,
      "explain": 5679,
      "capitalism": 5680,
      "carrier": 5681,
      "byzantine": 5682,
      "buried": 5683,
      "campus": 5684,
      "doubt": 5685,
      "faced": 5686,
      "olympic": 5687,
      "biograph": 5688,
      "cash": 5689,
      "constantin": 5690,
      "alien": 5691,
      "neuro": 5692,
      "mine": 5693,
      "dean": 5694,
      "aber": 5695,
      "assa": 5696,
      "conducted": 5697,
      "sculpt": 5698,
      "bou": 5699,
      "prove": 5700,
      "ounce": 5701,
      "colors": 5702,
      "sylla": 5703,
      "cinema": 5704,
      "switzerland": 5705,
      "einstein": 5706,
      "pig": 5707,
      "pom": 5708,
      "wolf": 5709,
      "aspect": 5710,
      "burn": 5711,
      "shift": 5712,
      "minimum": 5713,
      "polar": 5714,
      "missions": 5715,
      "voting": 5716,
      "experiments": 5717,
      "geometry": 5718,
      "accomplish": 5719,
      "prom": 5720,
      "clubs": 5721,
      "bruce": 5722,
      "tt": 5723,
      "diver": 5724,
      "founding": 5725,
      "consistent": 5726,
      "spelling": 5727,
      "argentina": 5728,
      "instructions": 5729,
      "pup": 5730,
      "ture": 5731,
      "wright": 5732,
      "lyrics": 5733,
      "rac": 5734,
      "progressive": 5735,
      "norwe": 5736,
      "challeng": 5737,
      "indonesia": 5738,
      "reject": 5739,
      "velt": 5740,
      "pson": 5741,
      "fluid": 5742,
      "platform": 5743,
      "infantry": 5744,
      "waves": 5745,
      "inity": 5746,
      "infe": 5747,
      "canal": 5748,
      "flash": 5749,
      "transform": 5750,
      "plication": 5751,
      "hob": 5752,
      "optim": 5753,
      "essay": 5754,
      "diseas": 5755,
      "proteins": 5756,
      "votes": 5757,
      "hart": 5758,
      "khan": 5759,
      "nig": 5760,
      "umes": 5761,
      "evangel": 5762,
      "hugh": 5763,
      "synthesis": 5764,
      "pierre": 5765,
      "agents": 5766,
      "walter": 5767,
      "furthermore": 5768,
      "tics": 5769,
      "yes": 5770,
      "maria": 5771,
      "interior": 5772,
      "colom": 5773,
      "cuisine": 5774,
      "nick": 5775,
      "milk": 5776,
      "dd": 5777,
      "hiv": 5778,
      "roose": 5779,
      "advis": 5780,
      "manchester": 5781,
      "accused": 5782,
      "medal": 5783,
      "airlines": 5784,
      "statist": 5785,
      "mechanism": 5786,
      "topol": 5787,
      "begun": 5788,
      "lins": 5789,
      "buff": 5790,
      "retired": 5791,
      "pdf": 5792,
      "mosc": 5793,
      "pear": 5794,
      "keys": 5795,
      "ameter": 5796,
      "osis": 5797,
      "rever": 5798,
      "arc": 5799,
      "ito": 5800,
      "spectrum": 5801,
      "charges": 5802,
      "baltic": 5803,
      "douglas": 5804,
      "waters": 5805,
      "prepared": 5806,
      "jum": 5807,
      "illegal": 5808,
      "industries": 5809,
      "preferred": 5810,
      "chairman": 5811,
      "voc": 5812,
      "sud": 5813,
      "themes": 5814,
      "annex": 5815,
      "painting": 5816,
      "flood": 5817,
      "diamond": 5818,
      "consumer": 5819,
      "pennsylvania": 5820,
      "velocity": 5821,
      "mish": 5822,
      "scor": 5823,
      "eless": 5824,
      "soil": 5825,
      "acted": 5826,
      "colleges": 5827,
      "depth": 5828,
      "headed": 5829,
      "amongst": 5830,
      "theoretical": 5831,
      "hamilton": 5832,
      "kas": 5833,
      "lud": 5834,
      "tip": 5835,
      "moves": 5836,
      "believ": 5837,
      "hierarch": 5838,
      "roosevelt": 5839,
      "ende": 5840,
      "commod": 5841,
      "macro": 5842,
      "jeff": 5843,
      "missour": 5844,
      "influences": 5845,
      "corporate": 5846,
      "circumstances": 5847,
      "roles": 5848,
      "breaking": 5849,
      "nie": 5850,
      "chad": 5851,
      "aga": 5852,
      "tales": 5853,
      "skills": 5854,
      "moscow": 5855,
      "tay": 5856,
      "stret": 5857,
      "floor": 5858,
      "explanation": 5859,
      "oblig": 5860,
      "ym": 5861,
      "thew": 5862,
      "romag": 5863,
      "alexandria": 5864,
      "diseases": 5865,
      "pip": 5866,
      "orange": 5867,
      "laid": 5868,
      "asts": 5869,
      "transmission": 5870,
      "perspective": 5871,
      "characterized": 5872,
      "gravity": 5873,
      "coastal": 5874,
      "neighbour": 5875,
      "sippi": 5876,
      "mississippi": 5877,
      "zing": 5878,
      "ensure": 5879,
      "encounter": 5880,
      "lev": 5881,
      "ilit": 5882,
      "algorithms": 5883,
      "zam": 5884,
      "legacy": 5885,
      "ruler": 5886,
      "ethics": 5887,
      "mexican": 5888,
      "bacteria": 5889,
      "attached": 5890,
      "iceland": 5891,
      "depos": 5892,
      "complet": 5893,
      "metic": 5894,
      "bonds": 5895,
      "distinguish": 5896,
      "ohio": 5897,
      "elsewhere": 5898,
      "municipal": 5899,
      "wine": 5900,
      "northwest": 5901,
      "laureate": 5902,
      "jay": 5903,
      "orate": 5904,
      "bears": 5905,
      "wire": 5906,
      "excell": 5907,
      "angels": 5908,
      "osph": 5909,
      "cave": 5910,
      "operator": 5911,
      "increases": 5912,
      "wilson": 5913,
      "experimental": 5914,
      "norwegian": 5915,
      "tage": 5916,
      "info": 5917,
      "shut": 5918,
      "delta": 5919,
      "farm": 5920,
      "troit": 5921,
      "honour": 5922,
      "execution": 5923,
      "crystal": 5924,
      "preserved": 5925,
      "dropped": 5926,
      "heritage": 5927,
      "kam": 5928,
      "beings": 5929,
      "desire": 5930,
      "harm": 5931,
      "morning": 5932,
      "passage": 5933,
      "bulgar": 5934,
      "gression": 5935,
      "accident": 5936,
      "ette": 5937,
      "anger": 5938,
      "variants": 5939,
      "barbar": 5940,
      "cule": 5941,
      "grown": 5942,
      "assistance": 5943,
      "acids": 5944,
      "ees": 5945,
      "eman": 5946,
      "phal": 5947,
      "compass": 5948,
      "ptions": 5949,
      "produces": 5950,
      "macintosh": 5951,
      "touch": 5952,
      "nich": 5953,
      "detroit": 5954,
      "convict": 5955,
      "shak": 5956,
      "warm": 5957,
      "signals": 5958,
      "depends": 5959,
      "profile": 5960,
      "requirements": 5961,
      "cathe": 5962,
      "missile": 5963,
      "statements": 5964,
      "motiv": 5965,
      "researchers": 5966,
      "virtually": 5967,
      "cin": 5968,
      "cous": 5969,
      "gand": 5970,
      "hits": 5971,
      "rud": 5972,
      "batman": 5973,
      "bowl": 5974,
      "conven": 5975,
      "partner": 5976,
      "grounds": 5977,
      "journey": 5978,
      "conduct": 5979,
      "beautiful": 5980,
      "gments": 5981,
      "retri": 5982,
      "brig": 5983,
      "borders": 5984,
      "closer": 5985,
      "locations": 5986,
      "engineer": 5987,
      "column": 5988,
      "residence": 5989,
      "missouri": 5990,
      "align": 5991,
      "arctic": 5992,
      "confid": 5993,
      "greeks": 5994,
      "attacked": 5995,
      "constantine": 5996,
      "calculus": 5997,
      "cpu": 5998,
      "chal": 5999,
      "contrad": 6000,
      "endo": 6001,
      "ultimate": 6002,
      "galile": 6003,
      "boundaries": 6004,
      "benefit": 6005,
      "agave": 6006,
      "poems": 6007,
      "monster": 6008,
      "grey": 6009,
      "protected": 6010,
      "facilities": 6011,
      "shore": 6012,
      "germans": 6013,
      "downtown": 6014,
      "additionally": 6015,
      "proven": 6016,
      "abort": 6017,
      "hein": 6018,
      "fault": 6019,
      "solved": 6020,
      "driven": 6021,
      "hills": 6022,
      "hors": 6023,
      "kno": 6024,
      "neur": 6025,
      "cket": 6026,
      "rub": 6027,
      "pronunciation": 6028,
      "wig": 6029,
      "guest": 6030,
      "blow": 6031,
      "disorder": 6032,
      "winner": 6033,
      "symptoms": 6034,
      "chel": 6035,
      "accus": 6036,
      "descent": 6037,
      "listing": 6038,
      "technologies": 6039,
      "titled": 6040,
      "testing": 6041,
      "interpreted": 6042,
      "emerged": 6043,
      "mile": 6044,
      "tus": 6045,
      "reich": 6046,
      "simult": 6047,
      "opponent": 6048,
      "yle": 6049,
      "mira": 6050,
      "organisation": 6051,
      "bull": 6052,
      "resource": 6053,
      "channels": 6054,
      "entertainment": 6055,
      "marshall": 6056,
      "osaur": 6057,
      "claiming": 6058,
      "documentary": 6059,
      "lisp": 6060,
      "simultane": 6061,
      "libert": 6062,
      "followers": 6063,
      "simpl": 6064,
      "figur": 6065,
      "evolutionary": 6066,
      "compound": 6067,
      "minute": 6068,
      "populations": 6069,
      "epist": 6070,
      "representing": 6071,
      "starring": 6072,
      "punk": 6073,
      "decisions": 6074,
      "piano": 6075,
      "responsibility": 6076,
      "beng": 6077,
      "willing": 6078,
      "imports": 6079,
      "integral": 6080,
      "reserve": 6081,
      "lithuania": 6082,
      "rating": 6083,
      "tut": 6084,
      "inse": 6085,
      "anian": 6086,
      "icks": 6087,
      "illes": 6088,
      "metall": 6089,
      "assem": 6090,
      "boundary": 6091,
      "rection": 6092,
      "sters": 6093,
      "urb": 6094,
      "covers": 6095,
      "dore": 6096,
      "treas": 6097,
      "ampli": 6098,
      "papers": 6099,
      "zilla": 6100,
      "composers": 6101,
      "constantinople": 6102,
      "upr": 6103,
      "corps": 6104,
      "fles": 6105,
      "getting": 6106,
      "credit": 6107,
      "scheme": 6108,
      "armen": 6109,
      "stick": 6110,
      "powered": 6111,
      "structural": 6112,
      "shock": 6113,
      "sult": 6114,
      "edi": 6115,
      "notice": 6116,
      "covering": 6117,
      "emphasis": 6118,
      "metropolitan": 6119,
      "frederick": 6120,
      "oration": 6121,
      "divers": 6122,
      "nosis": 6123,
      "counting": 6124,
      "mainland": 6125,
      "bai": 6126,
      "concern": 6127,
      "sleep": 6128,
      "dress": 6129,
      "revel": 6130,
      "recur": 6131,
      "atically": 6132,
      "amend": 6133,
      "dee": 6134,
      "singular": 6135,
      "pyth": 6136,
      "forests": 6137,
      "jurisdiction": 6138,
      "confirmed": 6139,
      "wins": 6140,
      "remark": 6141,
      "chrom": 6142,
      "desk": 6143,
      "definitions": 6144,
      "meanings": 6145,
      "representative": 6146,
      "laboratory": 6147,
      "survived": 6148,
      "restricted": 6149,
      "scope": 6150,
      "iet": 6151,
      "prev": 6152,
      "ruption": 6153,
      "referring": 6154,
      "planning": 6155,
      "athens": 6156,
      "kor": 6157,
      "vals": 6158,
      "maker": 6159,
      "serves": 6160,
      "pressive": 6161,
      "dragon": 6162,
      "electrons": 6163,
      "cathedr": 6164,
      "mah": 6165,
      "irs": 6166,
      "acre": 6167,
      "naturally": 6168,
      "wald": 6169,
      "judges": 6170,
      "restaur": 6171,
      "certainly": 6172,
      "columbus": 6173,
      "soldier": 6174,
      "percentage": 6175,
      "driver": 6176,
      "recon": 6177,
      "unix": 6178,
      "stead": 6179,
      "variation": 6180,
      "animated": 6181,
      "basketball": 6182,
      "poverty": 6183,
      "rebellion": 6184,
      "grave": 6185,
      "icians": 6186,
      "stall": 6187,
      "cole": 6188,
      "ieth": 6189,
      "kinds": 6190,
      "baptism": 6191,
      "dynamics": 6192,
      "philipp": 6193,
      "procedure": 6194,
      "shaped": 6195,
      "comprehensive": 6196,
      "fis": 6197,
      "glu": 6198,
      "tis": 6199,
      "ani": 6200,
      "liby": 6201,
      "tests": 6202,
      "enterpr": 6203,
      "monet": 6204,
      "eras": 6205,
      "enzy": 6206,
      "adi": 6207,
      "ella": 6208,
      "boom": 6209,
      "warri": 6210,
      "originated": 6211,
      "ontario": 6212,
      "phe": 6213,
      "liberty": 6214,
      "ranked": 6215,
      "siles": 6216,
      "confused": 6217,
      "districts": 6218,
      "palestinian": 6219,
      "diplomatic": 6220,
      "uter": 6221,
      "outer": 6222,
      "exceed": 6223,
      "gran": 6224,
      "compla": 6225,
      "crimes": 6226,
      "maxim": 6227,
      "carrying": 6228,
      "briefly": 6229,
      "cort": 6230,
      "knew": 6231,
      "theolog": 6232,
      "ager": 6233,
      "abd": 6234,
      "headquarters": 6235,
      "defensive": 6236,
      "earthqu": 6237,
      "behaviour": 6238,
      "resur": 6239,
      "gosla": 6240,
      "nato": 6241,
      "agreements": 6242,
      "napoleon": 6243,
      "raw": 6244,
      "cker": 6245,
      "highway": 6246,
      "storm": 6247,
      "victoria": 6248,
      "assault": 6249,
      "send": 6250,
      "array": 6251,
      "exile": 6252,
      "vii": 6253,
      "ecli": 6254,
      "gravit": 6255,
      "disputed": 6256,
      "monarchy": 6257,
      "yugosla": 6258,
      "thum": 6259,
      "remove": 6260,
      "grass": 6261,
      "copies": 6262,
      "sunday": 6263,
      "abuse": 6264,
      "goals": 6265,
      "landing": 6266,
      "specul": 6267,
      "communism": 6268,
      "drink": 6269,
      "directors": 6270,
      "didn": 6271,
      "couple": 6272,
      "descendants": 6273,
      "bav": 6274,
      "emot": 6275,
      "thal": 6276,
      "inch": 6277,
      "conds": 6278,
      "sust": 6279,
      "thirty": 6280,
      "flex": 6281,
      "seemed": 6282,
      "hypothesis": 6283,
      "extinct": 6284,
      "wol": 6285,
      "roger": 6286,
      "focused": 6287,
      "afterwards": 6288,
      "offers": 6289,
      "senator": 6290,
      "kilometers": 6291,
      "performing": 6292,
      "celebrated": 6293,
      "aes": 6294,
      "ecol": 6295,
      "bases": 6296,
      "valent": 6297,
      "relevant": 6298,
      "debt": 6299,
      "client": 6300,
      "commentary": 6301,
      "charter": 6302,
      "longest": 6303,
      "enemies": 6304,
      "buddhist": 6305,
      "friedrich": 6306,
      "recipient": 6307,
      "conspira": 6308,
      "varies": 6309,
      "etz": 6310,
      "partially": 6311,
      "seek": 6312,
      "rug": 6313,
      "armies": 6314,
      "nasa": 6315,
      "opportunity": 6316,
      "enforce": 6317,
      "isen": 6318,
      "affil": 6319,
      "brad": 6320,
      "relativity": 6321,
      "basque": 6322,
      "deput": 6323,
      "holoc": 6324,
      "millenn": 6325,
      "definite": 6326,
      "assassination": 6327,
      "horizon": 6328,
      "fusion": 6329,
      "ati": 6330,
      "aca": 6331,
      "overview": 6332,
      "matrix": 6333,
      "matthew": 6334,
      "slave": 6335,
      "macedonia": 6336,
      "horses": 6337,
      "tap": 6338,
      "inhab": 6339,
      "onaut": 6340,
      "capit": 6341,
      "solutions": 6342,
      "copper": 6343,
      "prophet": 6344,
      "emergency": 6345,
      "apost": 6346,
      "conquered": 6347,
      "uals": 6348,
      "wers": 6349,
      "theod": 6350,
      "ensu": 6351,
      "unte": 6352,
      "whit": 6353,
      "marsh": 6354,
      "equator": 6355,
      "presidency": 6356,
      "secular": 6357,
      "holidays": 6358,
      "bibliography": 6359,
      "bility": 6360,
      "fs": 6361,
      "congreg": 6362,
      "sail": 6363,
      "contributions": 6364,
      "encouraged": 6365,
      "aar": 6366,
      "oy": 6367,
      "editions": 6368,
      "ask": 6369,
      "administer": 6370,
      "dublin": 6371,
      "predominant": 6372,
      "interaction": 6373,
      "carter": 6374,
      "easier": 6375,
      "sized": 6376,
      "races": 6377,
      "hism": 6378,
      "dismis": 6379,
      "fraction": 6380,
      "expert": 6381,
      "integration": 6382,
      "absence": 6383,
      "wish": 6384,
      "yr": 6385,
      "infin": 6386,
      "enor": 6387,
      "vienna": 6388,
      "brus": 6389,
      "trained": 6390,
      "interested": 6391,
      "indicates": 6392,
      "possession": 6393,
      "enge": 6394,
      "umental": 6395,
      "camps": 6396,
      "personality": 6397,
      "household": 6398,
      "phoen": 6399,
      "promise": 6400,
      "renaissance": 6401,
      "cathedral": 6402,
      "dir": 6403,
      "deli": 6404,
      "tape": 6405,
      "automatic": 6406,
      "sacred": 6407,
      "junction": 6408,
      "commodore": 6409,
      "bast": 6410,
      "netic": 6411,
      "spar": 6412,
      "electoral": 6413,
      "factory": 6414,
      "benjam": 6415,
      "survive": 6416,
      "taiwan": 6417,
      "lax": 6418,
      "phosph": 6419,
      "inducted": 6420,
      "continuing": 6421,
      "dylan": 6422,
      "suitable": 6423,
      "honey": 6424,
      "stages": 6425,
      "southeast": 6426,
      "immediate": 6427,
      "southwest": 6428,
      "senior": 6429,
      "substances": 6430,
      "promote": 6431,
      "sudden": 6432,
      "hack": 6433,
      "reactions": 6434,
      "archive": 6435,
      "specified": 6436,
      "constitu": 6437,
      "reaching": 6438,
      "automat": 6439,
      "difficulty": 6440,
      "victims": 6441,
      "migr": 6442,
      "ighth": 6443,
      "losing": 6444,
      "humanity": 6445,
      "passenger": 6446,
      "engineers": 6447,
      "finalist": 6448,
      "hotel": 6449,
      "kuwait": 6450,
      "relief": 6451,
      "lens": 6452,
      "proportion": 6453,
      "goog": 6454,
      "volunte": 6455,
      "indians": 6456,
      "lesser": 6457,
      "gregorian": 6458,
      "happened": 6459,
      "linguistic": 6460,
      "nol": 6461,
      "reco": 6462,
      "adjust": 6463,
      "raine": 6464,
      "sha": 6465,
      "steam": 6466,
      "presidents": 6467,
      "profession": 6468,
      "gates": 6469,
      "diverse": 6470,
      "shah": 6471,
      "clark": 6472,
      "ints": 6473,
      "braltar": 6474,
      "gibraltar": 6475,
      "dictator": 6476,
      "challenge": 6477,
      "pli": 6478,
      "ington": 6479,
      "manip": 6480,
      "gets": 6481,
      "bourg": 6482,
      "slaves": 6483,
      "distinctive": 6484,
      "campbell": 6485,
      "ownership": 6486,
      "constell": 6487,
      "deliber": 6488,
      "marit": 6489,
      "sentence": 6490,
      "colorado": 6491,
      "discussed": 6492,
      "secure": 6493,
      "lenin": 6494,
      "pairs": 6495,
      "schedul": 6496,
      "collapse": 6497,
      "designated": 6498,
      "romantic": 6499,
      "reduction": 6500,
      "candidates": 6501,
      "santa": 6502,
      "bulgaria": 6503,
      "bart": 6504,
      "stones": 6505,
      "chart": 6506,
      "decor": 6507,
      "noble": 6508,
      "describing": 6509,
      "welsh": 6510,
      "benjamin": 6511,
      "wound": 6512,
      "alber": 6513,
      "semin": 6514,
      "seconds": 6515,
      "ila": 6516,
      "rier": 6517,
      "intervent": 6518,
      "athlet": 6519,
      "passes": 6520,
      "everyone": 6521,
      "implemented": 6522,
      "vowels": 6523,
      "arbitr": 6524,
      "adapted": 6525,
      "scar": 6526,
      "roe": 6527,
      "sided": 6528,
      "oty": 6529,
      "ested": 6530,
      "buy": 6531,
      "epic": 6532,
      "baptist": 6533,
      "statistical": 6534,
      "dys": 6535,
      "lose": 6536,
      "loop": 6537,
      "electronics": 6538,
      "cue": 6539,
      "gart": 6540,
      "sli": 6541,
      "chose": 6542,
      "amate": 6543,
      "mining": 6544,
      "cleve": 6545,
      "patient": 6546,
      "ruling": 6547,
      "eur": 6548,
      "tin": 6549,
      "esper": 6550,
      "agues": 6551,
      "tony": 6552,
      "clau": 6553,
      "sharp": 6554,
      "twentieth": 6555,
      "situations": 6556,
      "erit": 6557,
      "rocks": 6558,
      "owa": 6559,
      "phar": 6560,
      "archbishop": 6561,
      "mixture": 6562,
      "flower": 6563,
      "fighter": 6564,
      "seasons": 6565,
      "sius": 6566,
      "imon": 6567,
      "moses": 6568,
      "acle": 6569,
      "accompan": 6570,
      "cription": 6571,
      "virus": 6572,
      "regardless": 6573,
      "psychological": 6574,
      "atlanta": 6575,
      "raid": 6576,
      "loose": 6577,
      "poison": 6578,
      "ptic": 6579,
      "secution": 6580,
      "transferred": 6581,
      "caval": 6582,
      "christopher": 6583,
      "gren": 6584,
      "hex": 6585,
      "ider": 6586,
      "artistic": 6587,
      "electromag": 6588,
      "horror": 6589,
      "libraries": 6590,
      "speaker": 6591,
      "arrangement": 6592,
      "phenomena": 6593,
      "princess": 6594,
      "paved": 6595,
      "nap": 6596,
      "tab": 6597,
      "yah": 6598,
      "infras": 6599,
      "beta": 6600,
      "makers": 6601,
      "eleph": 6602,
      "integer": 6603,
      "streets": 6604,
      "regularly": 6605,
      "restrictions": 6606,
      "hz": 6607,
      "tale": 6608,
      "ulating": 6609,
      "proport": 6610,
      "nova": 6611,
      "montre": 6612,
      "herbert": 6613,
      "variables": 6614,
      "funds": 6615,
      "merged": 6616,
      "diagram": 6617,
      "toler": 6618,
      "elab": 6619,
      "corner": 6620,
      "deploy": 6621,
      "lights": 6622,
      "biggest": 6623,
      "squad": 6624,
      "gli": 6625,
      "mt": 6626,
      "theor": 6627,
      "engaged": 6628,
      "doom": 6629,
      "aki": 6630,
      "borrow": 6631,
      "territorial": 6632,
      "duty": 6633,
      "hetero": 6634,
      "manufacturers": 6635,
      "migration": 6636,
      "oo": 6637,
      "iser": 6638,
      "imprison": 6639,
      "sox": 6640,
      "galaxy": 6641,
      "accompanied": 6642,
      "infrastru": 6643,
      "dil": 6644,
      "feld": 6645,
      "reverse": 6646,
      "arn": 6647,
      "leum": 6648,
      "uncertain": 6649,
      "ardo": 6650,
      "herself": 6651,
      "surrender": 6652,
      "turns": 6653,
      "etym": 6654,
      "insurance": 6655,
      "syndrome": 6656,
      "delay": 6657,
      "viii": 6658,
      "boeing": 6659,
      "intention": 6660,
      "animation": 6661,
      "varying": 6662,
      "shadow": 6663,
      "pill": 6664,
      "infect": 6665,
      "neck": 6666,
      "allen": 6667,
      "camera": 6668,
      "terminal": 6669,
      "criticized": 6670,
      "blade": 6671,
      "hend": 6672,
      "tot": 6673,
      "phones": 6674,
      "barrel": 6675,
      "spacecraft": 6676,
      "translations": 6677,
      "cleveland": 6678,
      "nur": 6679,
      "tight": 6680,
      "inium": 6681,
      "inspir": 6682,
      "belar": 6683,
      "accent": 6684,
      "disaster": 6685,
      "seeing": 6686,
      "membr": 6687,
      "fund": 6688,
      "empty": 6689,
      "tournam": 6690,
      "comparative": 6691,
      "demonstrated": 6692,
      "chancell": 6693,
      "depicted": 6694,
      "carolina": 6695,
      "lang": 6696,
      "rical": 6697,
      "leo": 6698,
      "peas": 6699,
      "disambig": 6700,
      "angular": 6701,
      "offices": 6702,
      "happy": 6703,
      "trigger": 6704,
      "bent": 6705,
      "mood": 6706,
      "powder": 6707,
      "sket": 6708,
      "reducing": 6709,
      "divor": 6710,
      "arranged": 6711,
      "geographic": 6712,
      "dum": 6713,
      "mia": 6714,
      "lifet": 6715,
      "solve": 6716,
      "commons": 6717,
      "handed": 6718,
      "helm": 6719,
      "grace": 6720,
      "planets": 6721,
      "horn": 6722,
      "salv": 6723,
      "properly": 6724,
      "declined": 6725,
      "educated": 6726,
      "democrats": 6727,
      "confusion": 6728,
      "buddhism": 6729,
      "investigation": 6730,
      "retained": 6731,
      "sovereignty": 6732,
      "gothic": 6733,
      "kazakh": 6734,
      "petroleum": 6735,
      "morocco": 6736,
      "isle": 6737,
      "escap": 6738,
      "oles": 6739,
      "nov": 6740,
      "eccles": 6741,
      "starts": 6742,
      "penalty": 6743,
      "fishing": 6744,
      "contrary": 6745,
      "exclusively": 6746,
      "conspiracy": 6747,
      "racial": 6748,
      "aco": 6749,
      "coin": 6750,
      "plastic": 6751,
      "assign": 6752,
      "cribed": 6753,
      "approval": 6754,
      "appearances": 6755,
      "bringing": 6756,
      "innov": 6757,
      "enab": 6758,
      "rie": 6759,
      "minnes": 6760,
      "scenes": 6761,
      "expedition": 6762,
      "debut": 6763,
      "imination": 6764,
      "illness": 6765,
      "females": 6766,
      "approxim": 6767,
      "molecule": 6768,
      "observations": 6769,
      "pollution": 6770,
      "advertising": 6771,
      "adelph": 6772,
      "jar": 6773,
      "rt": 6774,
      "sburg": 6775,
      "twin": 6776,
      "ope": 6777,
      "abil": 6778,
      "etics": 6779,
      "publicly": 6780,
      "custo": 6781,
      "topic": 6782,
      "miller": 6783,
      "civilian": 6784,
      "specialized": 6785,
      "cardinal": 6786,
      "invention": 6787,
      "alogue": 6788,
      "isaac": 6789,
      "montreal": 6790,
      "recept": 6791,
      "atol": 6792,
      "tering": 6793,
      "haus": 6794,
      "flop": 6795,
      "collect": 6796,
      "quebec": 6797,
      "separation": 6798,
      "prisoners": 6799,
      "replacement": 6800,
      "arithmetic": 6801,
      "jama": 6802,
      "esp": 6803,
      "veter": 6804,
      "assess": 6805,
      "cyprus": 6806,
      "transp": 6807,
      "indicated": 6808,
      "rolling": 6809,
      "tells": 6810,
      "bronze": 6811,
      "diversity": 6812,
      "mineral": 6813,
      "tribe": 6814,
      "isolated": 6815,
      "nichol": 6816,
      "holocaust": 6817,
      "bm": 6818,
      "det": 6819,
      "cyber": 6820,
      "generate": 6821,
      "bug": 6822,
      "cellular": 6823,
      "sweet": 6824,
      "dramatic": 6825,
      "elder": 6826,
      "expo": 6827,
      "dium": 6828,
      "airports": 6829,
      "differential": 6830,
      "sample": 6831,
      "session": 6832,
      "strategic": 6833,
      "monopoly": 6834,
      "yn": 6835,
      "condem": 6836,
      "dub": 6837,
      "boot": 6838,
      "syrian": 6839,
      "kness": 6840,
      "messages": 6841,
      "plas": 6842,
      "slowly": 6843,
      "purchase": 6844,
      "laser": 6845,
      "gallery": 6846,
      "sultan": 6847,
      "infrastructure": 6848,
      "alism": 6849,
      "orth": 6850,
      "ima": 6851,
      "acles": 6852,
      "creator": 6853,
      "liberation": 6854,
      "wonder": 6855,
      "torah": 6856,
      "disambiguation": 6857,
      "rin": 6858,
      "congo": 6859,
      "sixth": 6860,
      "worn": 6861,
      "feud": 6862,
      "earned": 6863,
      "playoff": 6864,
      "bread": 6865,
      "mason": 6866,
      "surviving": 6867,
      "houston": 6868,
      "monetary": 6869,
      "bod": 6870,
      "ood": 6871,
      "atus": 6872,
      "rays": 6873,
      "varieties": 6874,
      "cultiv": 6875,
      "supports": 6876,
      "anthony": 6877,
      "toxic": 6878,
      "iate": 6879,
      "andre": 6880,
      "chick": 6881,
      "convin": 6882,
      "adequ": 6883,
      "strictly": 6884,
      "explorer": 6885,
      "lom": 6886,
      "ode": 6887,
      "estate": 6888,
      "insul": 6889,
      "steven": 6890,
      "considerably": 6891,
      "handle": 6892,
      "winds": 6893,
      "cheap": 6894,
      "commerce": 6895,
      "inventor": 6896,
      "estimates": 6897,
      "routes": 6898,
      "benefits": 6899,
      "banned": 6900,
      "deck": 6901,
      "moreover": 6902,
      "overseas": 6903,
      "connections": 6904,
      "teachings": 6905,
      "involvement": 6906,
      "arrested": 6907,
      "franchise": 6908,
      "amateur": 6909,
      "rust": 6910,
      "wich": 6911,
      "chat": 6912,
      "whate": 6913,
      "statue": 6914,
      "drag": 6915,
      "millions": 6916,
      "receiving": 6917,
      "mounted": 6918,
      "slavery": 6919,
      "tank": 6920,
      "sale": 6921,
      "rear": 6922,
      "dios": 6923,
      "cian": 6924,
      "serial": 6925,
      "creative": 6926,
      "counted": 6927,
      "doesn": 6928,
      "experiences": 6929,
      "quantity": 6930,
      "disputes": 6931,
      "newspapers": 6932,
      "whatever": 6933,
      "select": 6934,
      "chet": 6935,
      "igno": 6936,
      "lith": 6937,
      "jane": 6938,
      "cathol": 6939,
      "siege": 6940,
      "coffee": 6941,
      "minnesota": 6942,
      "rev": 6943,
      "ilst": 6944,
      "option": 6945,
      "permitted": 6946,
      "brook": 6947,
      "franco": 6948,
      "prompt": 6949,
      "tet": 6950,
      "abu": 6951,
      "compris": 6952,
      "meter": 6953,
      "pace": 6954,
      "falling": 6955,
      "looked": 6956,
      "dimension": 6957,
      "fired": 6958,
      "whilst": 6959,
      "mete": 6960,
      "personnel": 6961,
      "winners": 6962,
      "baker": 6963,
      "discipline": 6964,
      "anglican": 6965,
      "theater": 6966,
      "cooperation": 6967,
      "lifetime": 6968,
      "adject": 6969,
      "optical": 6970,
      "resign": 6971,
      "gry": 6972,
      "pregn": 6973,
      "hyp": 6974,
      "romania": 6975,
      "participation": 6976,
      "broadcasting": 6977,
      "conclusion": 6978,
      "delivered": 6979,
      "explicitly": 6980,
      "taylor": 6981,
      "cavalry": 6982,
      "sans": 6983,
      "deser": 6984,
      "fined": 6985,
      "metals": 6986,
      "rocket": 6987,
      "astronomy": 6988,
      "confederate": 6989,
      "genesis": 6990,
      "admiral": 6991,
      "cricket": 6992,
      "ariz": 6993,
      "download": 6994,
      "planes": 6995,
      "footballer": 6996,
      "retire": 6997,
      "valuable": 6998,
      "efficiency": 6999,
      "punishment": 7000,
      "ether": 7001,
      "fract": 7002,
      "instant": 7003,
      "returning": 7004,
      "stability": 7005,
      "ented": 7006,
      "presu": 7007,
      "lawrence": 7008,
      "ranges": 7009,
      "restored": 7010,
      "excellent": 7011,
      "catholics": 7012,
      "revised": 7013,
      "alger": 7014,
      "essays": 7015,
      "guer": 7016,
      "interrupt": 7017,
      "developments": 7018,
      "bald": 7019,
      "anime": 7020,
      "orchestra": 7021,
      "inhabited": 7022,
      "gord": 7023,
      "ores": 7024,
      "parent": 7025,
      "pagan": 7026,
      "tat": 7027,
      "wet": 7028,
      "dioxide": 7029,
      "iang": 7030,
      "norman": 7031,
      "establishing": 7032,
      "conception": 7033,
      "thusi": 7034,
      "citizenship": 7035,
      "patriarch": 7036,
      "tempor": 7037,
      "illi": 7038,
      "ista": 7039,
      "peters": 7040,
      "coven": 7041,
      "controls": 7042,
      "framework": 7043,
      "ethiopia": 7044,
      "cf": 7045,
      "fate": 7046,
      "hut": 7047,
      "kom": 7048,
      "monaster": 7049,
      "hara": 7050,
      "collections": 7051,
      "synthe": 7052,
      "window": 7053,
      "voted": 7054,
      "mystery": 7055,
      "enthusi": 7056,
      "unfortun": 7057,
      "concrete": 7058,
      "oked": 7059,
      "terminology": 7060,
      "implies": 7061,
      "sphere": 7062,
      "ingly": 7063,
      "adic": 7064,
      "hai": 7065,
      "marvel": 7066,
      "geno": 7067,
      "mercur": 7068,
      "linguistics": 7069,
      "robinson": 7070,
      "consequently": 7071,
      "hunting": 7072,
      "hidden": 7073,
      "rep": 7074,
      "alaska": 7075,
      "abc": 7076,
      "worst": 7077,
      "gues": 7078,
      "curve": 7079,
      "eucli": 7080,
      "loyal": 7081,
      "enjoyed": 7082,
      "portrait": 7083,
      "intervention": 7084,
      "asci": 7085,
      "propon": 7086,
      "prosper": 7087,
      "marg": 7088,
      "centers": 7089,
      "missiles": 7090,
      "simpli": 7091,
      "confess": 7092,
      "observation": 7093,
      "devoted": 7094,
      "legitimate": 7095,
      "mul": 7096,
      "pale": 7097,
      "ardi": 7098,
      "therapy": 7099,
      "aya": 7100,
      "astero": 7101,
      "finds": 7102,
      "eleven": 7103,
      "immigration": 7104,
      "vacu": 7105,
      "esperanto": 7106,
      "hond": 7107,
      "juni": 7108,
      "oter": 7109,
      "temporary": 7110,
      "admitted": 7111,
      "ote": 7112,
      "voltage": 7113,
      "transmit": 7114,
      "equally": 7115,
      "journalist": 7116,
      "measurement": 7117,
      "bernard": 7118,
      "gm": 7119,
      "lig": 7120,
      "stere": 7121,
      "byte": 7122,
      "diac": 7123,
      "metaph": 7124,
      "gib": 7125,
      "koso": 7126,
      "printing": 7127,
      "vertical": 7128,
      "iranian": 7129,
      "recordings": 7130,
      "glaci": 7131,
      "isition": 7132,
      "rober": 7133,
      "aman": 7134,
      "configur": 7135,
      "guin": 7136,
      "interactive": 7137,
      "tsky": 7138,
      "latvia": 7139,
      "antiqu": 7140,
      "drives": 7141,
      "moldo": 7142,
      "dollars": 7143,
      "beauty": 7144,
      "consequences": 7145,
      "aristotle": 7146,
      "bble": 7147,
      "deut": 7148,
      "empir": 7149,
      "bicy": 7150,
      "premier": 7151,
      "khaz": 7152,
      "nings": 7153,
      "tig": 7154,
      "renew": 7155,
      "termed": 7156,
      "peer": 7157,
      "seeking": 7158,
      "cycles": 7159,
      "buck": 7160,
      "holes": 7161,
      "louisiana": 7162,
      "rotation": 7163,
      "maurit": 7164,
      "entropy": 7165,
      "inhib": 7166,
      "lace": 7167,
      "eta": 7168,
      "peru": 7169,
      "berry": 7170,
      "volumes": 7171,
      "hydr": 7172,
      "politicians": 7173,
      "clay": 7174,
      "processors": 7175,
      "cognitive": 7176,
      "reliable": 7177,
      "housing": 7178,
      "purchased": 7179,
      "prussia": 7180,
      "ceremony": 7181,
      "shorter": 7182,
      "anchor": 7183,
      "margin": 7184,
      "angles": 7185,
      "gery": 7186,
      "trip": 7187,
      "childhood": 7188,
      "adventure": 7189,
      "cill": 7190,
      "tomb": 7191,
      "dius": 7192,
      "loved": 7193,
      "hoo": 7194,
      "johnny": 7195,
      "physician": 7196,
      "fewer": 7197,
      "superman": 7198,
      "gamma": 7199,
      "guitarist": 7200,
      "legendary": 7201,
      "immigrants": 7202,
      "turing": 7203,
      "xon": 7204,
      "thrown": 7205,
      "lean": 7206,
      "deleg": 7207,
      "maj": 7208,
      "singing": 7209,
      "dave": 7210,
      "duties": 7211,
      "comedian": 7212,
      "dinosaur": 7213,
      "situated": 7214,
      "buffalo": 7215,
      "eph": 7216,
      "wings": 7217,
      "omes": 7218,
      "hash": 7219,
      "triple": 7220,
      "harrison": 7221,
      "bulgarian": 7222,
      "tube": 7223,
      "concentrated": 7224,
      "looks": 7225,
      "google": 7226,
      "caught": 7227,
      "theological": 7228,
      "amiga": 7229,
      "exposed": 7230,
      "versus": 7231,
      "jobs": 7232,
      "gerald": 7233,
      "pointed": 7234,
      "harmonic": 7235,
      "chancellor": 7236,
      "bare": 7237,
      "edin": 7238,
      "sier": 7239,
      "adjac": 7240,
      "cession": 7241,
      "philadelph": 7242,
      "releases": 7243,
      "ethical": 7244,
      "arizona": 7245,
      "gordon": 7246,
      "oque": 7247,
      "tends": 7248,
      "itative": 7249,
      "omon": 7250,
      "mao": 7251,
      "bless": 7252,
      "insist": 7253,
      "apolis": 7254,
      "julian": 7255,
      "remote": 7256,
      "nitro": 7257,
      "iowa": 7258,
      "genres": 7259,
      "scat": 7260,
      "muscle": 7261,
      "supers": 7262,
      "persist": 7263,
      "instrumental": 7264,
      "tunnel": 7265,
      "correctly": 7266,
      "gauge": 7267,
      "maritime": 7268,
      "thick": 7269,
      "enlight": 7270,
      "olar": 7271,
      "consequence": 7272,
      "aked": 7273,
      "northeast": 7274,
      "privi": 7275,
      "burning": 7276,
      "villa": 7277,
      "rush": 7278,
      "returns": 7279,
      "appearing": 7280,
      "stopped": 7281,
      "competitive": 7282,
      "removal": 7283,
      "exercis": 7284,
      "paradox": 7285,
      "cim": 7286,
      "pm": 7287,
      "infer": 7288,
      "una": 7289,
      "usions": 7290,
      "coat": 7291,
      "monitor": 7292,
      "cope": 7293,
      "heroes": 7294,
      "girls": 7295,
      "promoted": 7296,
      "assume": 7297,
      "circuits": 7298,
      "proposal": 7299,
      "revelation": 7300,
      "mund": 7301,
      "phony": 7302,
      "doors": 7303,
      "wayne": 7304,
      "adesh": 7305,
      "negotiations": 7306,
      "portrayed": 7307,
      "lion": 7308,
      "onel": 7309,
      "sevent": 7310,
      "strange": 7311,
      "transformation": 7312,
      "augustus": 7313,
      "difficulties": 7314,
      "concluded": 7315,
      "smooth": 7316,
      "finger": 7317,
      "kle": 7318,
      "pad": 7319,
      "yard": 7320,
      "eries": 7321,
      "eda": 7322,
      "conce": 7323,
      "veness": 7324,
      "phan": 7325,
      "prede": 7326,
      "finance": 7327,
      "governing": 7328,
      "singles": 7329,
      "siders": 7330,
      "varied": 7331,
      "decimal": 7332,
      "queens": 7333,
      "advantages": 7334,
      "suffering": 7335,
      "aer": 7336,
      "coins": 7337,
      "tram": 7338,
      "baroque": 7339,
      "attempting": 7340,
      "railroad": 7341,
      "reflected": 7342,
      "recovery": 7343,
      "meteor": 7344,
      "philadelphia": 7345,
      "jup": 7346,
      "amine": 7347,
      "ammon": 7348,
      "minster": 7349,
      "athy": 7350,
      "denied": 7351,
      "murray": 7352,
      "consonant": 7353,
      "pine": 7354,
      "edit": 7355,
      "elic": 7356,
      "accum": 7357,
      "customs": 7358,
      "lamb": 7359,
      "catch": 7360,
      "recognize": 7361,
      "crypt": 7362,
      "adjacent": 7363,
      "predecess": 7364,
      "anatom": 7365,
      "robot": 7366,
      "lia": 7367,
      "minimal": 7368,
      "cylin": 7369,
      "millennium": 7370,
      "mercury": 7371,
      "gus": 7372,
      "mate": 7373,
      "extend": 7374,
      "balls": 7375,
      "jacques": 7376,
      "settlements": 7377,
      "tort": 7378,
      "proclaimed": 7379,
      "chris": 7380,
      "reader": 7381,
      "ecu": 7382,
      "bourne": 7383,
      "thompson": 7384,
      "ifying": 7385,
      "adventures": 7386,
      "ongoing": 7387,
      "orb": 7388,
      "rio": 7389,
      "cuban": 7390,
      "benz": 7391,
      "objective": 7392,
      "algebraic": 7393,
      "palestine": 7394,
      "blocks": 7395,
      "hawaii": 7396,
      "cere": 7397,
      "fbi": 7398,
      "orious": 7399,
      "deem": 7400,
      "adher": 7401,
      "riel": 7402,
      "seventh": 7403,
      "perception": 7404,
      "authen": 7405,
      "numer": 7406,
      "taxes": 7407,
      "manufactured": 7408,
      "matt": 7409,
      "vig": 7410,
      "inches": 7411,
      "beam": 7412,
      "intense": 7413,
      "luke": 7414,
      "luxem": 7415,
      "clergy": 7416,
      "margaret": 7417,
      "unions": 7418,
      "cooper": 7419,
      "significance": 7420,
      "michel": 7421,
      "painted": 7422,
      "exceptions": 7423,
      "quantities": 7424,
      "scandina": 7425,
      "attracted": 7426,
      "wrest": 7427,
      "anderson": 7428,
      "lab": 7429,
      "landsc": 7430,
      "meanwhile": 7431,
      "dealing": 7432,
      "gregory": 7433,
      "quoted": 7434,
      "surrounded": 7435,
      "jupiter": 7436,
      "jury": 7437,
      "leaf": 7438,
      "shir": 7439,
      "afc": 7440,
      "cord": 7441,
      "versary": 7442,
      "easter": 7443,
      "troll": 7444,
      "mathematicians": 7445,
      "fossil": 7446,
      "simultaneously": 7447,
      "mits": 7448,
      "coo": 7449,
      "intermedi": 7450,
      "capita": 7451,
      "readers": 7452,
      "expend": 7453,
      "trotsky": 7454,
      "independently": 7455,
      "counties": 7456,
      "driving": 7457,
      "hunter": 7458,
      "decay": 7459,
      "rooms": 7460,
      "participate": 7461,
      "accuracy": 7462,
      "vacuum": 7463,
      "bam": 7464,
      "oz": 7465,
      "stig": 7466,
      "adoption": 7467,
      "flows": 7468,
      "provinci": 7469,
      "arrival": 7470,
      "bought": 7471,
      "eating": 7472,
      "sees": 7473,
      "unk": 7474,
      "comet": 7475,
      "manual": 7476,
      "ressing": 7477,
      "lore": 7478,
      "disorders": 7479,
      "thereby": 7480,
      "europeans": 7481,
      "belgian": 7482,
      "connect": 7483,
      "omorphism": 7484,
      "refugees": 7485,
      "complicated": 7486,
      "rhe": 7487,
      "yi": 7488,
      "tha": 7489,
      "alive": 7490,
      "itted": 7491,
      "gov": 7492,
      "marry": 7493,
      "corruption": 7494,
      "minerals": 7495,
      "flam": 7496,
      "advice": 7497,
      "scots": 7498,
      "tourist": 7499,
      "terrorist": 7500,
      "tribute": 7501,
      "gandhi": 7502,
      "phoenix": 7503,
      "dall": 7504,
      "embar": 7505,
      "apore": 7506,
      "worthy": 7507,
      "feast": 7508,
      "please": 7509,
      "requiring": 7510,
      "photos": 7511,
      "lieuten": 7512,
      "sensitive": 7513,
      "aimed": 7514,
      "authentic": 7515,
      "gnostic": 7516,
      "arose": 7517,
      "moor": 7518,
      "wider": 7519,
      "abul": 7520,
      "prefix": 7521,
      "mirror": 7522,
      "legislature": 7523,
      "malaysia": 7524,
      "magnitude": 7525,
      "orn": 7526,
      "oft": 7527,
      "forbid": 7528,
      "convers": 7529,
      "poets": 7530,
      "plains": 7531,
      "bry": 7532,
      "funding": 7533,
      "patrick": 7534,
      "luck": 7535,
      "static": 7536,
      "enormous": 7537,
      "krit": 7538,
      "reviews": 7539,
      "shr": 7540,
      "compare": 7541,
      "timore": 7542,
      "commem": 7543,
      "thanks": 7544,
      "expon": 7545,
      "kov": 7546,
      "acceptance": 7547,
      "violin": 7548,
      "symbolic": 7549,
      "sharing": 7550,
      "episcop": 7551,
      "sad": 7552,
      "scan": 7553,
      "tically": 7554,
      "bytes": 7555,
      "alloc": 7556,
      "coding": 7557,
      "milan": 7558,
      "singapore": 7559,
      "operators": 7560,
      "studios": 7561,
      "conservation": 7562,
      "lithuanian": 7563,
      "skept": 7564,
      "replic": 7565,
      "dial": 7566,
      "marie": 7567,
      "timeline": 7568,
      "oscar": 7569,
      "obsole": 7570,
      "indirect": 7571,
      "sheet": 7572,
      "casual": 7573,
      "moderate": 7574,
      "patron": 7575,
      "crops": 7576,
      "summary": 7577,
      "substanti": 7578,
      "drinking": 7579,
      "backs": 7580,
      "cay": 7581,
      "eb": 7582,
      "nag": 7583,
      "inus": 7584,
      "reconstruction": 7585,
      "forcing": 7586,
      "uls": 7587,
      "haust": 7588,
      "idae": 7589,
      "coron": 7590,
      "fru": 7591,
      "grain": 7592,
      "fallen": 7593,
      "approaches": 7594,
      "friendly": 7595,
      "guardian": 7596,
      "derivative": 7597,
      "ijing": 7598,
      "voyage": 7599,
      "oak": 7600,
      "zar": 7601,
      "raise": 7602,
      "therine": 7603,
      "diary": 7604,
      "acking": 7605,
      "preach": 7606,
      "broo": 7607,
      "courses": 7608,
      "designer": 7609,
      "threatened": 7610,
      "membrane": 7611,
      "hatt": 7612,
      "monroe": 7613,
      "pressing": 7614,
      "homes": 7615,
      "offering": 7616,
      "diego": 7617,
      "sophist": 7618,
      "vakia": 7619,
      "kosovo": 7620,
      "cree": 7621,
      "encing": 7622,
      "median": 7623,
      "hammer": 7624,
      "facing": 7625,
      "arabia": 7626,
      "employees": 7627,
      "maintains": 7628,
      "performances": 7629,
      "settlers": 7630,
      "ascii": 7631,
      "ancing": 7632,
      "segment": 7633,
      "uran": 7634,
      "resigned": 7635,
      "coined": 7636,
      "dust": 7637,
      "serbia": 7638,
      "fron": 7639,
      "clothing": 7640,
      "belt": 7641,
      "clinical": 7642,
      "exposure": 7643,
      "obsolete": 7644,
      "cats": 7645,
      "rfc": 7646,
      "xy": 7647,
      "iner": 7648,
      "unemployment": 7649,
      "ello": 7650,
      "pling": 7651,
      "mini": 7652,
      "generations": 7653,
      "cambo": 7654,
      "hitch": 7655,
      "taste": 7656,
      "mutual": 7657,
      "injury": 7658,
      "salvador": 7659,
      "iated": 7660,
      "lus": 7661,
      "tions": 7662,
      "tables": 7663,
      "beijing": 7664,
      "vibr": 7665,
      "aft": 7666,
      "desired": 7667,
      "worlds": 7668,
      "subset": 7669,
      "binding": 7670,
      "fragment": 7671,
      "toronto": 7672,
      "procedures": 7673,
      "autonomous": 7674,
      "nickname": 7675,
      "tang": 7676,
      "asi": 7677,
      "entr": 7678,
      "abund": 7679,
      "trivia": 7680,
      "legally": 7681,
      "entering": 7682,
      "cattle": 7683,
      "fold": 7684,
      "kis": 7685,
      "alab": 7686,
      "tward": 7687,
      "rifle": 7688,
      "exhaust": 7689,
      "gore": 7690,
      "brick": 7691,
      "tract": 7692,
      "communists": 7693,
      "programme": 7694,
      "masters": 7695,
      "colombia": 7696,
      "administered": 7697,
      "arama": 7698,
      "entity": 7699,
      "rent": 7700,
      "ensus": 7701,
      "barry": 7702,
      "defining": 7703,
      "stood": 7704,
      "marketing": 7705,
      "broadway": 7706,
      "costa": 7707,
      "immune": 7708,
      "nelson": 7709,
      "neighborhood": 7710,
      "fts": 7711,
      "mph": 7712,
      "anthem": 7713,
      "alia": 7714,
      "cht": 7715,
      "tea": 7716,
      "trains": 7717,
      "faction": 7718,
      "romance": 7719,
      "coverage": 7720,
      "stores": 7721,
      "shares": 7722,
      "weekly": 7723,
      "extensively": 7724,
      "albania": 7725,
      "abortion": 7726,
      "expendit": 7727,
      "eternal": 7728,
      "mals": 7729,
      "rous": 7730,
      "rium": 7731,
      "thanol": 7732,
      "nationalist": 7733,
      "struck": 7734,
      "lasted": 7735,
      "florence": 7736,
      "stanley": 7737,
      "brazilian": 7738,
      "exploration": 7739,
      "revival": 7740,
      "othe": 7741,
      "edict": 7742,
      "imony": 7743,
      "lap": 7744,
      "synon": 7745,
      "mines": 7746,
      "consensus": 7747,
      "voters": 7748,
      "wake": 7749,
      "conventions": 7750,
      "addresses": 7751,
      "dogs": 7752,
      "edinburgh": 7753,
      "mast": 7754,
      "elevation": 7755,
      "carn": 7756,
      "ieee": 7757,
      "receives": 7758,
      "tendency": 7759,
      "priests": 7760,
      "wearing": 7761,
      "shooting": 7762,
      "cn": 7763,
      "inau": 7764,
      "uncle": 7765,
      "whel": 7766,
      "agle": 7767,
      "agencies": 7768,
      "comfort": 7769,
      "ido": 7770,
      "ritual": 7771,
      "clos": 7772,
      "nett": 7773,
      "argues": 7774,
      "interpretations": 7775,
      "billy": 7776,
      "croatia": 7777,
      "ulu": 7778,
      "acknowled": 7779,
      "outs": 7780,
      "syd": 7781,
      "subsi": 7782,
      "borg": 7783,
      "untary": 7784,
      "ashes": 7785,
      "farming": 7786,
      "passion": 7787,
      "acceptable": 7788,
      "slavic": 7789,
      "kara": 7790,
      "narrative": 7791,
      "championships": 7792,
      "exercise": 7793,
      "adaptation": 7794,
      "physiology": 7795,
      "cocaine": 7796,
      "bosnia": 7797,
      "python": 7798,
      "aramaic": 7799,
      "kant": 7800,
      "mig": 7801,
      "yards": 7802,
      "bever": 7803,
      "resort": 7804,
      "formats": 7805,
      "trap": 7806,
      "wilhelm": 7807,
      "sequences": 7808,
      "besides": 7809,
      "slang": 7810,
      "saxon": 7811,
      "inspiration": 7812,
      "bones": 7813,
      "jab": 7814,
      "isations": 7815,
      "terior": 7816,
      "verbs": 7817,
      "confer": 7818,
      "appreci": 7819,
      "bohem": 7820,
      "flour": 7821,
      "considering": 7822,
      "complement": 7823,
      "liberals": 7824,
      "studying": 7825,
      "nationally": 7826,
      "compiler": 7827,
      "lieutenant": 7828,
      "hms": 7829,
      "sri": 7830,
      "alt": 7831,
      "andr": 7832,
      "sts": 7833,
      "embra": 7834,
      "etic": 7835,
      "illery": 7836,
      "mik": 7837,
      "natives": 7838,
      "kernel": 7839,
      "geographical": 7840,
      "ceremon": 7841,
      "paintings": 7842,
      "dart": 7843,
      "eco": 7844,
      "tick": 7845,
      "theas": 7846,
      "revers": 7847,
      "enh": 7848,
      "eros": 7849,
      "jos": 7850,
      "metres": 7851,
      "lasting": 7852,
      "facult": 7853,
      "bulk": 7854,
      "cutting": 7855,
      "happen": 7856,
      "encoding": 7857,
      "amino": 7858,
      "bee": 7859,
      "estimate": 7860,
      "trinity": 7861,
      "engers": 7862,
      "productive": 7863,
      "observer": 7864,
      "trek": 7865,
      "drama": 7866,
      "swing": 7867,
      "dolph": 7868,
      "assistant": 7869,
      "revenue": 7870,
      "errors": 7871,
      "dn": 7872,
      "alter": 7873,
      "creates": 7874,
      "nationality": 7875,
      "legs": 7876,
      "funeral": 7877,
      "latest": 7878,
      "mickey": 7879,
      "alongside": 7880,
      "bullet": 7881,
      "princip": 7882,
      "truly": 7883,
      "bombing": 7884,
      "liberalism": 7885,
      "tasks": 7886,
      "jen": 7887,
      "otro": 7888,
      "regist": 7889,
      "writes": 7890,
      "baron": 7891,
      "organism": 7892,
      "naming": 7893,
      "helium": 7894,
      "silent": 7895,
      "atlas": 7896,
      "ecclesi": 7897,
      "bip": 7898,
      "ogue": 7899,
      "vy": 7900,
      "replacing": 7901,
      "encompass": 7902,
      "atem": 7903,
      "item": 7904,
      "imposed": 7905,
      "persu": 7906,
      "memo": 7907,
      "strand": 7908,
      "trium": 7909,
      "battery": 7910,
      "arguably": 7911,
      "governors": 7912,
      "manifest": 7913,
      "schedule": 7914,
      "gluco": 7915,
      "aaron": 7916,
      "automatically": 7917,
      "ffe": 7918,
      "kay": 7919,
      "wag": 7920,
      "enburg": 7921,
      "esa": 7922,
      "stack": 7923,
      "impression": 7924,
      "comments": 7925,
      "prose": 7926,
      "collins": 7927,
      "bills": 7928,
      "nominated": 7929,
      "abolished": 7930,
      "supplies": 7931,
      "bund": 7932,
      "gis": 7933,
      "edu": 7934,
      "terrain": 7935,
      "ported": 7936,
      "statesman": 7937,
      "matches": 7938,
      "godzilla": 7939,
      "tied": 7940,
      "occasions": 7941,
      "feeling": 7942,
      "tactics": 7943,
      "ucky": 7944,
      "semitic": 7945,
      "merchant": 7946,
      "libya": 7947,
      "gom": 7948,
      "hin": 7949,
      "inf": 7950,
      "restri": 7951,
      "enhan": 7952,
      "ighters": 7953,
      "modu": 7954,
      "kees": 7955,
      "compens": 7956,
      "overwhel": 7957,
      "regulations": 7958,
      "larry": 7959,
      "borne": 7960,
      "trials": 7961,
      "harbour": 7962,
      "breath": 7963,
      "promised": 7964,
      "installed": 7965,
      "bard": 7966,
      "vital": 7967,
      "minim": 7968,
      "missing": 7969,
      "businesses": 7970,
      "requirement": 7971,
      "momentum": 7972,
      "itis": 7973,
      "thermo": 7974,
      "lav": 7975,
      "visional": 7976,
      "eugen": 7977,
      "cert": 7978,
      "baltimore": 7979,
      "criteria": 7980,
      "gray": 7981,
      "juan": 7982,
      "kingdoms": 7983,
      "activist": 7984,
      "centered": 7985,
      "reaches": 7986,
      "cataly": 7987,
      "ecuador": 7988,
      "bant": 7989,
      "kash": 7990,
      "pend": 7991,
      "sap": 7992,
      "tum": 7993,
      "attor": 7994,
      "arius": 7995,
      "britann": 7996,
      "remainder": 7997,
      "ranging": 7998,
      "genetics": 7999
    },
    "merges": [
      [
        "t",
        "h"
      ],
      [
        "i",
        "n"
      ],
      [
        "e",
        "r"
      ],
      [
        "o",
        "n"
      ],
      [
        "a",
        "n"
      ],
      [
        "th",
        "e"
      ],
      [
        "r",
        "e"
      ],
      [
        "e",
        "n"
      ],
      [
        "a",
        "t"
      ],
      [
        "a",
        "l"
      ],
      [
        "i",
        "s"
      ],
      [
        "o",
        "r"
      ],
      [
        "e",
        "d"
      ],
      [
        "o",
        "f"
      ],
      [
        "e",
        "s"
      ],
      [
        "a",
        "r"
      ],
      [
        "a",
        "s"
      ],
      [
        "an",
        "d"
      ],
      [
        "i",
        "c"
      ],
      [
        "i",
        "t"
      ],
      [
        "o",
        "u"
      ],
      [
        "on",
        "e"
      ],
      [
        "t",
        "o"
      ],
      [
        "i",
        "on"
      ],
      [
        "in",
        "g"
      ],
      [
        "s",
        "t"
      ],
      [
        "s",
        "e"
      ],
      [
        "l",
        "e"
      ],
      [
        "r",
        "o"
      ],
      [
        "c",
        "h"
      ],
      [
        "in",
        "e"
      ],
      [
        "v",
        "e"
      ],
      [
        "en",
        "t"
      ],
      [
        "i",
        "g"
      ],
      [
        "er",
        "o"
      ],
      [
        "z",
        "ero"
      ],
      [
        "o",
        "m"
      ],
      [
        "n",
        "ine"
      ],
      [
        "a",
        "m"
      ],
      [
        "l",
        "y"
      ],
      [
        "d",
        "e"
      ],
      [
        "c",
        "t"
      ],
      [
        "b",
        "e"
      ],
      [
        "i",
        "l"
      ],
      [
        "t",
        "w"
      ],
      [
        "o",
        "l"
      ],
      [
        "s",
        "i"
      ],
      [
        "f",
        "or"
      ],
      [
        "tw",
        "o"
      ],
      [
        "ig",
        "h"
      ],
      [
        "c",
        "e"
      ],
      [
        "u",
        "n"
      ],
      [
        "f",
        "i"
      ],
      [
        "a",
        "d"
      ],
      [
        "t",
        "er"
      ],
      [
        "at",
        "ion"
      ],
      [
        "u",
        "s"
      ],
      [
        "i",
        "m"
      ],
      [
        "igh",
        "t"
      ],
      [
        "v",
        "er"
      ],
      [
        "c",
        "on"
      ],
      [
        "w",
        "h"
      ],
      [
        "u",
        "r"
      ],
      [
        "ou",
        "r"
      ],
      [
        "o",
        "w"
      ],
      [
        "r",
        "a"
      ],
      [
        "re",
        "e"
      ],
      [
        "m",
        "o"
      ],
      [
        "u",
        "l"
      ],
      [
        "a",
        "g"
      ],
      [
        "is",
        "t"
      ],
      [
        "c",
        "om"
      ],
      [
        "e",
        "ight"
      ],
      [
        "v",
        "en"
      ],
      [
        "e",
        "l"
      ],
      [
        "w",
        "i"
      ],
      [
        "b",
        "y"
      ],
      [
        "a",
        "re"
      ],
      [
        "th",
        "er"
      ],
      [
        "m",
        "a"
      ],
      [
        "l",
        "a"
      ],
      [
        "o",
        "t"
      ],
      [
        "o",
        "p"
      ],
      [
        "w",
        "as"
      ],
      [
        "fi",
        "ve"
      ],
      [
        "th",
        "ree"
      ],
      [
        "p",
        "ro"
      ],
      [
        "r",
        "i"
      ],
      [
        "u",
        "t"
      ],
      [
        "e",
        "x"
      ],
      [
        "s",
        "u"
      ],
      [
        "e",
        "m"
      ],
      [
        "a",
        "b"
      ],
      [
        "f",
        "our"
      ],
      [
        "th",
        "at"
      ],
      [
        "p",
        "e"
      ],
      [
        "wi",
        "th"
      ],
      [
        "i",
        "r"
      ],
      [
        "l",
        "i"
      ],
      [
        "si",
        "x"
      ],
      [
        "d",
        "i"
      ],
      [
        "se",
        "ven"
      ],
      [
        "h",
        "e"
      ],
      [
        "m",
        "an"
      ],
      [
        "n",
        "e"
      ],
      [
        "re",
        "s"
      ],
      [
        "al",
        "l"
      ],
      [
        "a",
        "p"
      ],
      [
        "er",
        "s"
      ],
      [
        "c",
        "i"
      ],
      [
        "s",
        "o"
      ],
      [
        "es",
        "t"
      ],
      [
        "e",
        "t"
      ],
      [
        "ou",
        "n"
      ],
      [
        "a",
        "c"
      ],
      [
        "ar",
        "t"
      ],
      [
        "ro",
        "m"
      ],
      [
        "at",
        "e"
      ],
      [
        "l",
        "o"
      ],
      [
        "u",
        "m"
      ],
      [
        "it",
        "y"
      ],
      [
        "q",
        "u"
      ],
      [
        "p",
        "o"
      ],
      [
        "v",
        "i"
      ],
      [
        "f",
        "rom"
      ],
      [
        "an",
        "t"
      ],
      [
        "s",
        "h"
      ],
      [
        "d",
        "er"
      ],
      [
        "p",
        "h"
      ],
      [
        "ic",
        "h"
      ],
      [
        "is",
        "h"
      ],
      [
        "m",
        "ent"
      ],
      [
        "p",
        "er"
      ],
      [
        "ic",
        "al"
      ],
      [
        "a",
        "y"
      ],
      [
        "g",
        "e"
      ],
      [
        "h",
        "is"
      ],
      [
        "es",
        "s"
      ],
      [
        "er",
        "e"
      ],
      [
        "a",
        "ct"
      ],
      [
        "c",
        "l"
      ],
      [
        "c",
        "o"
      ],
      [
        "n",
        "ot"
      ],
      [
        "t",
        "e"
      ],
      [
        "i",
        "es"
      ],
      [
        "th",
        "is"
      ],
      [
        "i",
        "an"
      ],
      [
        "h",
        "a"
      ],
      [
        "o",
        "d"
      ],
      [
        "d",
        "u"
      ],
      [
        "b",
        "er"
      ],
      [
        "w",
        "or"
      ],
      [
        "a",
        "u"
      ],
      [
        "t",
        "r"
      ],
      [
        "k",
        "e"
      ],
      [
        "f",
        "e"
      ],
      [
        "il",
        "l"
      ],
      [
        "wh",
        "ich"
      ],
      [
        "a",
        "in"
      ],
      [
        "or",
        "t"
      ],
      [
        "l",
        "d"
      ],
      [
        "g",
        "h"
      ],
      [
        "ar",
        "d"
      ],
      [
        "b",
        "o"
      ],
      [
        "i",
        "d"
      ],
      [
        "en",
        "d"
      ],
      [
        "at",
        "ed"
      ],
      [
        "ar",
        "y"
      ],
      [
        "al",
        "ly"
      ],
      [
        "am",
        "e"
      ],
      [
        "e",
        "ar"
      ],
      [
        "s",
        "p"
      ],
      [
        "ou",
        "t"
      ],
      [
        "o",
        "ther"
      ],
      [
        "for",
        "m"
      ],
      [
        "i",
        "ve"
      ],
      [
        "g",
        "r"
      ],
      [
        "u",
        "re"
      ],
      [
        "i",
        "a"
      ],
      [
        "b",
        "ut"
      ],
      [
        "ou",
        "s"
      ],
      [
        "com",
        "p"
      ],
      [
        "ag",
        "e"
      ],
      [
        "a",
        "f"
      ],
      [
        "as",
        "t"
      ],
      [
        "m",
        "e"
      ],
      [
        "al",
        "so"
      ],
      [
        "r",
        "it"
      ],
      [
        "c",
        "an"
      ],
      [
        "p",
        "t"
      ],
      [
        "ion",
        "s"
      ],
      [
        "ou",
        "gh"
      ],
      [
        "g",
        "u"
      ],
      [
        "om",
        "e"
      ],
      [
        "p",
        "l"
      ],
      [
        "f",
        "ic"
      ],
      [
        "p",
        "re"
      ],
      [
        "st",
        "r"
      ],
      [
        "g",
        "o"
      ],
      [
        "p",
        "art"
      ],
      [
        "it",
        "s"
      ],
      [
        "p",
        "la"
      ],
      [
        "f",
        "er"
      ],
      [
        "con",
        "t"
      ],
      [
        "s",
        "y"
      ],
      [
        "on",
        "g"
      ],
      [
        "ha",
        "ve"
      ],
      [
        "h",
        "as"
      ],
      [
        "u",
        "d"
      ],
      [
        "k",
        "s"
      ],
      [
        "in",
        "t"
      ],
      [
        "o",
        "g"
      ],
      [
        "en",
        "ce"
      ],
      [
        "w",
        "ere"
      ],
      [
        "n",
        "o"
      ],
      [
        "l",
        "and"
      ],
      [
        "oun",
        "d"
      ],
      [
        "s",
        "er"
      ],
      [
        "m",
        "on"
      ],
      [
        "m",
        "ar"
      ],
      [
        "p",
        "r"
      ],
      [
        "b",
        "l"
      ],
      [
        "c",
        "ent"
      ],
      [
        "or",
        "y"
      ],
      [
        "ow",
        "n"
      ],
      [
        "p",
        "ort"
      ],
      [
        "an",
        "s"
      ],
      [
        "ul",
        "t"
      ],
      [
        "as",
        "s"
      ],
      [
        "i",
        "p"
      ],
      [
        "ation",
        "s"
      ],
      [
        "k",
        "ing"
      ],
      [
        "g",
        "en"
      ],
      [
        "in",
        "ter"
      ],
      [
        "d",
        "is"
      ],
      [
        "c",
        "ol"
      ],
      [
        "f",
        "o"
      ],
      [
        "el",
        "l"
      ],
      [
        "c",
        "k"
      ],
      [
        "ct",
        "ion"
      ],
      [
        "s",
        "ome"
      ],
      [
        "ig",
        "n"
      ],
      [
        "d",
        "es"
      ],
      [
        "i",
        "z"
      ],
      [
        "re",
        "n"
      ],
      [
        "ne",
        "w"
      ],
      [
        "po",
        "s"
      ],
      [
        "mo",
        "st"
      ],
      [
        "it",
        "ion"
      ],
      [
        "a",
        "ch"
      ],
      [
        "fi",
        "r"
      ],
      [
        "c",
        "re"
      ],
      [
        "i",
        "v"
      ],
      [
        "c",
        "or"
      ],
      [
        "ou",
        "ld"
      ],
      [
        "t",
        "im"
      ],
      [
        "the",
        "ir"
      ],
      [
        "m",
        "in"
      ],
      [
        "i",
        "al"
      ],
      [
        "c",
        "es"
      ],
      [
        "p",
        "res"
      ],
      [
        "en",
        "g"
      ],
      [
        "d",
        "o"
      ],
      [
        "ab",
        "le"
      ],
      [
        "h",
        "ad"
      ],
      [
        "wh",
        "o"
      ],
      [
        "at",
        "t"
      ],
      [
        "b",
        "r"
      ],
      [
        "u",
        "p"
      ],
      [
        "at",
        "es"
      ],
      [
        "re",
        "d"
      ],
      [
        "fir",
        "st"
      ],
      [
        "c",
        "oun"
      ],
      [
        "j",
        "e"
      ],
      [
        "man",
        "y"
      ],
      [
        "t",
        "en"
      ],
      [
        "the",
        "y"
      ],
      [
        "er",
        "ic"
      ],
      [
        "l",
        "ow"
      ],
      [
        "mo",
        "re"
      ],
      [
        "w",
        "e"
      ],
      [
        "ver",
        "s"
      ],
      [
        "ve",
        "l"
      ],
      [
        "us",
        "ed"
      ],
      [
        "an",
        "ce"
      ],
      [
        "f",
        "in"
      ],
      [
        "it",
        "e"
      ],
      [
        "is",
        "m"
      ],
      [
        "a",
        "v"
      ],
      [
        "at",
        "er"
      ],
      [
        "a",
        "k"
      ],
      [
        "ther",
        "e"
      ],
      [
        "c",
        "ed"
      ],
      [
        "s",
        "pe"
      ],
      [
        "an",
        "g"
      ],
      [
        "am",
        "eric"
      ],
      [
        "p",
        "ol"
      ],
      [
        "e",
        "ver"
      ],
      [
        "j",
        "o"
      ],
      [
        "b",
        "le"
      ],
      [
        "com",
        "m"
      ],
      [
        "ic",
        "s"
      ],
      [
        "be",
        "en"
      ],
      [
        "e",
        "le"
      ],
      [
        "k",
        "n"
      ],
      [
        "y",
        "ear"
      ],
      [
        "f",
        "l"
      ],
      [
        "su",
        "ch"
      ],
      [
        "t",
        "y"
      ],
      [
        "re",
        "l"
      ],
      [
        "i",
        "f"
      ],
      [
        "r",
        "y"
      ],
      [
        "g",
        "er"
      ],
      [
        "ic",
        "e"
      ],
      [
        "e",
        "v"
      ],
      [
        "c",
        "ar"
      ],
      [
        "n",
        "or"
      ],
      [
        "p",
        "u"
      ],
      [
        "p",
        "le"
      ],
      [
        "f",
        "r"
      ],
      [
        "l",
        "in"
      ],
      [
        "o",
        "ver"
      ],
      [
        "t",
        "s"
      ],
      [
        "w",
        "ar"
      ],
      [
        "ter",
        "n"
      ],
      [
        "af",
        "ter"
      ],
      [
        "ation",
        "al"
      ],
      [
        "b",
        "as"
      ],
      [
        "it",
        "ed"
      ],
      [
        "p",
        "ar"
      ],
      [
        "pla",
        "y"
      ],
      [
        "f",
        "a"
      ],
      [
        "o",
        "s"
      ],
      [
        "in",
        "cl"
      ],
      [
        "c",
        "ess"
      ],
      [
        "h",
        "er"
      ],
      [
        "re",
        "g"
      ],
      [
        "h",
        "ow"
      ],
      [
        "ul",
        "ar"
      ],
      [
        "e",
        "f"
      ],
      [
        "c",
        "ur"
      ],
      [
        "ar",
        "i"
      ],
      [
        "se",
        "e"
      ],
      [
        "a",
        "th"
      ],
      [
        "i",
        "le"
      ],
      [
        "w",
        "ay"
      ],
      [
        "in",
        "to"
      ],
      [
        "tim",
        "e"
      ],
      [
        "ma",
        "y"
      ],
      [
        "u",
        "se"
      ],
      [
        "d",
        "s"
      ],
      [
        "t",
        "ra"
      ],
      [
        "c",
        "al"
      ],
      [
        "or",
        "s"
      ],
      [
        "h",
        "ist"
      ],
      [
        "t",
        "a"
      ],
      [
        "ol",
        "og"
      ],
      [
        "d",
        "ay"
      ],
      [
        "wh",
        "en"
      ],
      [
        "c",
        "y"
      ],
      [
        "be",
        "c"
      ],
      [
        "th",
        "an"
      ],
      [
        "pu",
        "bl"
      ],
      [
        "americ",
        "an"
      ],
      [
        "m",
        "ed"
      ],
      [
        "o",
        "k"
      ],
      [
        "st",
        "em"
      ],
      [
        "r",
        "ic"
      ],
      [
        "the",
        "m"
      ],
      [
        "ent",
        "s"
      ],
      [
        "wor",
        "ld"
      ],
      [
        "un",
        "i"
      ],
      [
        "the",
        "se"
      ],
      [
        "se",
        "l"
      ],
      [
        "d",
        "ing"
      ],
      [
        "an",
        "y"
      ],
      [
        "ch",
        "ar"
      ],
      [
        "o",
        "c"
      ],
      [
        "sy",
        "stem"
      ],
      [
        "l",
        "es"
      ],
      [
        "l",
        "ar"
      ],
      [
        "on",
        "ly"
      ],
      [
        "g",
        "re"
      ],
      [
        "th",
        "ough"
      ],
      [
        "un",
        "der"
      ],
      [
        "p",
        "op"
      ],
      [
        "e",
        "en"
      ],
      [
        "at",
        "ive"
      ],
      [
        "m",
        "il"
      ],
      [
        "su",
        "b"
      ],
      [
        "n",
        "um"
      ],
      [
        "gen",
        "er"
      ],
      [
        "l",
        "ish"
      ],
      [
        "v",
        "ed"
      ],
      [
        "fo",
        "re"
      ],
      [
        "v",
        "is"
      ],
      [
        "in",
        "s"
      ],
      [
        "l",
        "an"
      ],
      [
        "ac",
        "k"
      ],
      [
        "ar",
        "ch"
      ],
      [
        "u",
        "e"
      ],
      [
        "c",
        "all"
      ],
      [
        "n",
        "ational"
      ],
      [
        "ic",
        "t"
      ],
      [
        "u",
        "st"
      ],
      [
        "s",
        "c"
      ],
      [
        "ur",
        "ing"
      ],
      [
        "w",
        "ould"
      ],
      [
        "so",
        "ci"
      ],
      [
        "m",
        "us"
      ],
      [
        "s",
        "ch"
      ],
      [
        "as",
        "e"
      ],
      [
        "ol",
        "d"
      ],
      [
        "pro",
        "du"
      ],
      [
        "i",
        "re"
      ],
      [
        "o",
        "b"
      ],
      [
        "di",
        "f"
      ],
      [
        "h",
        "igh"
      ],
      [
        "e",
        "u"
      ],
      [
        "m",
        "s"
      ],
      [
        "ex",
        "t"
      ],
      [
        "f",
        "ul"
      ],
      [
        "ct",
        "ed"
      ],
      [
        "en",
        "s"
      ],
      [
        "c",
        "a"
      ],
      [
        "b",
        "or"
      ],
      [
        "c",
        "r"
      ],
      [
        "l",
        "ed"
      ],
      [
        "ro",
        "w"
      ],
      [
        "p",
        "s"
      ],
      [
        "m",
        "y"
      ],
      [
        "go",
        "ver"
      ],
      [
        "al",
        "s"
      ],
      [
        "w",
        "rit"
      ],
      [
        "t",
        "ri"
      ],
      [
        "g",
        "an"
      ],
      [
        "ist",
        "s"
      ],
      [
        "how",
        "ever"
      ],
      [
        "be",
        "tw"
      ],
      [
        "betw",
        "een"
      ],
      [
        "a",
        "ir"
      ],
      [
        "pe",
        "op"
      ],
      [
        "ab",
        "out"
      ],
      [
        "kn",
        "own"
      ],
      [
        "b",
        "i"
      ],
      [
        "an",
        "n"
      ],
      [
        "y",
        "s"
      ],
      [
        "c",
        "er"
      ],
      [
        "th",
        "r"
      ],
      [
        "wh",
        "ere"
      ],
      [
        "h",
        "im"
      ],
      [
        "m",
        "em"
      ],
      [
        "st",
        "ates"
      ],
      [
        "in",
        "d"
      ],
      [
        "v",
        "ol"
      ],
      [
        "incl",
        "ud"
      ],
      [
        "ma",
        "in"
      ],
      [
        "ter",
        "s"
      ],
      [
        "je",
        "ct"
      ],
      [
        "s",
        "a"
      ],
      [
        "b",
        "u"
      ],
      [
        "le",
        "g"
      ],
      [
        "u",
        "ally"
      ],
      [
        "year",
        "s"
      ],
      [
        "f",
        "il"
      ],
      [
        "f",
        "t"
      ],
      [
        "h",
        "u"
      ],
      [
        "in",
        "ce"
      ],
      [
        "se",
        "t"
      ],
      [
        "peop",
        "le"
      ],
      [
        "st",
        "e"
      ],
      [
        "at",
        "ing"
      ],
      [
        "d",
        "uring"
      ],
      [
        "un",
        "ited"
      ],
      [
        "lan",
        "gu"
      ],
      [
        "f",
        "ol"
      ],
      [
        "v",
        "ing"
      ],
      [
        "v",
        "al"
      ],
      [
        "it",
        "ies"
      ],
      [
        "ut",
        "ion"
      ],
      [
        "the",
        "n"
      ],
      [
        "call",
        "ed"
      ],
      [
        "ch",
        "r"
      ],
      [
        "w",
        "ell"
      ],
      [
        "li",
        "ke"
      ],
      [
        "su",
        "p"
      ],
      [
        "ing",
        "s"
      ],
      [
        "l",
        "l"
      ],
      [
        "t",
        "ur"
      ],
      [
        "wor",
        "k"
      ],
      [
        "s",
        "ou"
      ],
      [
        "gover",
        "n"
      ],
      [
        "u",
        "al"
      ],
      [
        "t",
        "ed"
      ],
      [
        "d",
        "ed"
      ],
      [
        "c",
        "ap"
      ],
      [
        "ce",
        "pt"
      ],
      [
        "it",
        "al"
      ],
      [
        "publ",
        "ic"
      ],
      [
        "r",
        "u"
      ],
      [
        "ra",
        "ph"
      ],
      [
        "d",
        "om"
      ],
      [
        "tr",
        "ans"
      ],
      [
        "s",
        "m"
      ],
      [
        "w",
        "ill"
      ],
      [
        "b",
        "rit"
      ],
      [
        "h",
        "o"
      ],
      [
        "st",
        "ate"
      ],
      [
        "i",
        "de"
      ],
      [
        "s",
        "on"
      ],
      [
        "thr",
        "ough"
      ],
      [
        "s",
        "ion"
      ],
      [
        "p",
        "ow"
      ],
      [
        "s",
        "ing"
      ],
      [
        "ur",
        "y"
      ],
      [
        "gr",
        "ou"
      ],
      [
        "c",
        "ity"
      ],
      [
        "f",
        "am"
      ],
      [
        "uni",
        "vers"
      ],
      [
        "al",
        "e"
      ],
      [
        "spe",
        "ci"
      ],
      [
        "vi",
        "e"
      ],
      [
        "i",
        "e"
      ],
      [
        "in",
        "di"
      ],
      [
        "d",
        "ist"
      ],
      [
        "con",
        "d"
      ],
      [
        "str",
        "u"
      ],
      [
        "ex",
        "am"
      ],
      [
        "ag",
        "es"
      ],
      [
        "t",
        "ain"
      ],
      [
        "t",
        "on"
      ],
      [
        "i",
        "i"
      ],
      [
        "of",
        "ten"
      ],
      [
        "w",
        "ard"
      ],
      [
        "au",
        "se"
      ],
      [
        "c",
        "le"
      ],
      [
        "el",
        "d"
      ],
      [
        "wh",
        "ile"
      ],
      [
        "v",
        "es"
      ],
      [
        "de",
        "p"
      ],
      [
        "am",
        "es"
      ],
      [
        "h",
        "y"
      ],
      [
        "govern",
        "ment"
      ],
      [
        "hist",
        "ory"
      ],
      [
        "l",
        "ong"
      ],
      [
        "la",
        "w"
      ],
      [
        "m",
        "is"
      ],
      [
        "po",
        "int"
      ],
      [
        "dif",
        "fer"
      ],
      [
        "s",
        "ci"
      ],
      [
        "si",
        "d"
      ],
      [
        "vel",
        "op"
      ],
      [
        "o",
        "se"
      ],
      [
        "u",
        "res"
      ],
      [
        "v",
        "ari"
      ],
      [
        "eu",
        "ro"
      ],
      [
        "ical",
        "ly"
      ],
      [
        "f",
        "ound"
      ],
      [
        "de",
        "velop"
      ],
      [
        "sh",
        "ip"
      ],
      [
        "f",
        "un"
      ],
      [
        "ele",
        "ct"
      ],
      [
        "or",
        "ig"
      ],
      [
        "s",
        "ol"
      ],
      [
        "com",
        "mon"
      ],
      [
        "re",
        "fer"
      ],
      [
        "s",
        "ur"
      ],
      [
        "ag",
        "ain"
      ],
      [
        "pol",
        "it"
      ],
      [
        "fol",
        "low"
      ],
      [
        "z",
        "e"
      ],
      [
        "m",
        "et"
      ],
      [
        "eng",
        "lish"
      ],
      [
        "st",
        "and"
      ],
      [
        "num",
        "ber"
      ],
      [
        "ma",
        "de"
      ],
      [
        "m",
        "u"
      ],
      [
        "of",
        "fic"
      ],
      [
        "p",
        "a"
      ],
      [
        "be",
        "ing"
      ],
      [
        "olog",
        "y"
      ],
      [
        "bo",
        "th"
      ],
      [
        "r",
        "ight"
      ],
      [
        "p",
        "ers"
      ],
      [
        "h",
        "n"
      ],
      [
        "at",
        "ure"
      ],
      [
        "ser",
        "v"
      ],
      [
        "s",
        "s"
      ],
      [
        "sel",
        "f"
      ],
      [
        "j",
        "or"
      ],
      [
        "h",
        "ar"
      ],
      [
        "re",
        "qu"
      ],
      [
        "l",
        "ine"
      ],
      [
        "ic",
        "k"
      ],
      [
        "gr",
        "am"
      ],
      [
        "pres",
        "ent"
      ],
      [
        "l",
        "it"
      ],
      [
        "p",
        "ri"
      ],
      [
        "ver",
        "y"
      ],
      [
        "comm",
        "un"
      ],
      [
        "ment",
        "s"
      ],
      [
        "a",
        "ce"
      ],
      [
        "di",
        "re"
      ],
      [
        "f",
        "act"
      ],
      [
        "n",
        "ame"
      ],
      [
        "e",
        "p"
      ],
      [
        "euro",
        "pe"
      ],
      [
        "g",
        "i"
      ],
      [
        "n",
        "ing"
      ],
      [
        "is",
        "e"
      ],
      [
        "l",
        "ater"
      ],
      [
        "b",
        "ro"
      ],
      [
        "em",
        "p"
      ],
      [
        "fe",
        "ct"
      ],
      [
        "m",
        "er"
      ],
      [
        "d",
        "a"
      ],
      [
        "b",
        "ers"
      ],
      [
        "v",
        "ent"
      ],
      [
        "orig",
        "in"
      ],
      [
        "l",
        "ess"
      ],
      [
        "es",
        "e"
      ],
      [
        "si",
        "ve"
      ],
      [
        "per",
        "i"
      ],
      [
        "chr",
        "ist"
      ],
      [
        "on",
        "s"
      ],
      [
        "ur",
        "al"
      ],
      [
        "m",
        "i"
      ],
      [
        "s",
        "he"
      ],
      [
        "s",
        "ign"
      ],
      [
        "li",
        "fe"
      ],
      [
        "se",
        "ver"
      ],
      [
        "n",
        "a"
      ],
      [
        "b",
        "ar"
      ],
      [
        "b",
        "re"
      ],
[...]
