{
  "version": "1.0",
  "truncation": null,
  "padding": null,
  "added_tokens": [
    {
      "id": 0,
      "content": "<PAD>",
      "single_word": false,
      "lstrip": false,
      "rstrip": false,
      "normalized": false,
      "special": true
    },
    {
      "id": 1,
      "content": "<UNK>",
      "single_word": false,
      "lstrip": false,
      "rstrip": false,
      "normalized": false,
      "special": true
    },
    {
      "id": 2,
      "content": "<BOS>",
      "single_word": false,
      "lstrip": false,
      "rstrip": false,
      "normalized": false,
      "special": true
    },
    {
      "id": 3,
      "content": "<EOS>",
      "single_word": false,
      "lstrip": false,
      "rstrip": false,
      "normalized": false,
      "special": true
    }
  ],
  "normalizer": null,
  "pre_tokenizer": {
    "type": "Whitespace"
  },
  "post_processor": null,
  "decoder": null,
  "model": {
    "type": "BPE",
    "dropout": null,
    "unk_token": "<UNK>",
    "continuing_subword_prefix": null,
    "end_of_word_suffix": null,
    "fuse_unk": false,
    "byte_fallback": false,
    "ignore_merges": false,
    "vocab": {
      "<PAD>": 0,
      "<UNK>": 1,
      "<BOS>": 2,
      "<EOS>": 3,
      "!": 4,
      "\"": 5,
      "'": 6,
      "(": 7,
      ")": 8,
      ",": 9,
      "-": 10,
      ".": 11,
      "0": 12,
      "1": 13,
      "2": 14,
      "3": 15,
      "4": 16,
      "5": 17,
      "6": 18,
      "7": 19,
      "8": 20,
      "9": 21,
      ":": 22,
      ";": 23,
      "?": 24,
      "a": 25,
      "b": 26,
      "c": 27,
      "d": 28,
      "e": 29,
      "f": 30,
      "g": 31,
      "h": 32,
      "i": 33,
      "j": 34,
      "k": 35,
      "l": 36,
      "m": 37,
      "n": 38,
      "o": 39,
      "p": 40,
      "q": 41,
      "r": 42,
      "s": 43,
      "t": 44,
      "u": 45,
      "v": 46,
      "w": 47,
      "x": 48,
      "y": 49,
      "z": 50,
      "th": 51,
      "in": 52,
      "er": 53,
      "an": 54,
      "on": 55,
      "the": 56,
      "re": 57,
      "or": 58,
      "at": 59,
      "en": 60,
      "al": 61,
      "is": 62,
      "es": 63,
      "ar": 64,
      "ed": 65,
      "of": 66,
      "it": 67,
      "as": 68,
      "''": 69,
      "ic": 70,
      "and": 71,
      "ion": 72,
      "le": 73,
      "to": 74,
      "st": 75,
      "ro": 76,
      "ing": 77,
      "am": 78,
      "co": 79,
      "ot": 80,
      "ch": 81,
      "ent": 82,
      "qu": 83,
      "us": 84,
      "un": 85,
      "el": 86,
      "id": 87,
      "ac": 88,
      "il": 89,
      "im": 90,
      "quot": 91,
      "ur": 92,
      "se": 93,
      "ad": 94,
      "ut": 95,
      "ag": 96,
      "ol": 97,
      "be": 98,
      "con": 99,
      "for": 100,
      "ig": 101,
      "de": 102,
      "ly": 103,
      "ation": 104,
      "ter": 105,
      "com": 106,
      "iv": 107,
      "tr": 108,
      "lt": 109,
      "so": 110,
      "ct": 111,
      "ce": 112,
      "ht": 113,
      "19": 114,
      "ir": 115,
      "wh": 116,
      "su": 117,
      "ex": 118,
      "mo": 119,
      "ow": 120,
      "em": 121,
      "ver": 122,
      "gt": 123,
      "ap": 124,
      "ab": 125,
      "amp": 126,
      "sp": 127,
      "ul": 128,
      "ist": 129,
      "00": 130,
      "et": 131,
      "are": 132,
      "ay": 133,
      "ith": 134,
      "pro": 135,
      "ers": 136,
      "by": 137,
      "est": 138,
      "um": 139,
      "ate": 140,
      "op": 141,
      "av": 142,
      "all": 143,
      "'''": 144,
      "ther": 145,
      "was": 146,
      "age": 147,
      "that": 148,
      "with": 149,
      "res": 150,
      "pl": 151,
      "br": 152,
      "he": 153,
      "ww": 154,
      "ain": 155,
      "if": 156,
      "ne": 157,
      "me": 158,
      "man": 159,
      "cl": 160,
      "ib": 161,
      "ment": 162,
      "art": 163,
      "ies": 164,
      "ian": 165,
      "ia": 166,
      "ity": 167,
      "bo": 168,
      "ip": 169,
      "lo": 170,
      "po": 171,
      "ame": 172,
      "sh": 173,
      "rom": 174,
      "ant": 175,
      "ish": 176,
      "ory": 177,
      "ug": 178,
      "und": 179,
      "pe": 180,
      "om": 181,
      "ge": 182,
      "ess": 183,
      "from": 184,
      "ph": 185,
      "per": 186,
      "ich": 187,
      "ma": 188,
      "ical": 189,
      "ial": 190,
      "200": 191,
      "ill": 192,
      "act": 193,
      "not": 194,
      "fo": 195,
      "tim": 196,
      "wor": 197,
      "tp": 198,
      "ive": 199,
      "te": 200,
      "http": 201,
      "pr": 202,
      "ard": 203,
      "ere": 204,
      "one": 205,
      "ie": 206,
      "od": 207,
      "ber": 208,
      "af": 209,
      "gr": 210,
      "this": 211,
      "str": 212,
      "ell": 213,
      "his": 214,
      "pres": 215,
      "ke": 216,
      "ort": 217,
      "cr": 218,
      "ang": 219,
      "ight": 220,
      "ine": 221,
      "du": 222,
      "ext": 223,
      "end": 224,
      "ary": 225,
      "ign": 226,
      "which": 227,
      "ud": 228,
      "ear": 229,
      "ire": 230,
      "bl": 231,
      "io": 232,
      "cent": 233,
      "ure": 234,
      "no": 235,
      "rev": 236,
      "we": 237,
      "up": 238,
      "fr": 239,
      "ave": 240,
      "ated": 241,
      "ast": 242,
      "ve": 243,
      "www": 244,
      "go": 245,
      "iz": 246,
      "form": 247,
      "comp": 248,
      "wo": 249,
      "can": 250,
      "col": 251,
      "ass": 252,
      "out": 253,
      "ace": 254,
      "ision": 255,
      "land": 256,
      "its": 257,
      "dis": 258,
      "18": 259,
      "do": 260,
      "sy": 261,
      "use": 262,
      "fe": 263,
      "also": 264,
      "ction": 265,
      "ks": 266,
      "fer": 267,
      "au": 268,
      "ence": 269,
      "part": 270,
      "ind": 271,
      "tit": 272,
      "ho": 273,
      "other": 274,
      "ord": 275,
      "trib": 276,
      "text": 277,
      "comm": 278,
      "pt": 279,
      "ong": 280,
      "tern": 281,
      "ition": 282,
      "ern": 283,
      "have": 284,
      "has": 285,
      "ser": 286,
      "tribut": 287,
      "ci": 288,
      "gen": 289,
      "mar": 290,
      "int": 291,
      "ally": 292,
      "title": 293,
      "ugh": 294,
      "new": 295,
      "ide": 296,
      "aw": 297,
      "but": 298,
      "ans": 299,
      "were": 300,
      "ca": 301,
      "king": 302,
      "min": 303,
      "ateg": 304,
      "og": 305,
      "eng": 306,
      ").": 307,
      "red": 308,
      "page": 309,
      "own": 310,
      "port": 311,
      "ations": 312,
      "fl": 313,
      "gre": 314,
      "cont": 315,
      "199": 316,
      "),": 317,
      "categ": 318,
      "ml": 319,
      "ite": 320,
      "ach": 321,
      "ack": 322,
      "contribut": 323,
      "ren": 324,
      "able": 325,
      "ates": 326,
      "sub": 327,
      "li": 328,
      "category": 329,
      "ism": 330,
      "ev": 331,
      "pos": 332,
      "some": 333,
      "ics": 334,
      "spe": 335,
      "jo": 336,
      "15": 337,
      "coun": 338,
      "fir": 339,
      "org": 340,
      "ak": 341,
      "ele": 342,
      "tho": 343,
      "cre": 344,
      "most": 345,
      "revision": 346,
      "uld": 347,
      "pol": 348,
      "contributor": 349,
      "estamp": 350,
      "timestamp": 351,
      "their": 352,
      "des": 353,
      "10": 354,
      "sion": 355,
      "gro": 356,
      "sup": 357,
      "eric": 358,
      "je": 359,
      "ely": 360,
      "many": 361,
      "pu": 362,
      "ice": 363,
      "first": 364,
      "'',": 365,
      "dr": 366,
      "ces": 367,
      "who": 368,
      "ited": 369,
      "ance": 370,
      "more": 371,
      "her": 372,
      "they": 373,
      "had": 374,
      "used": 375,
      "ile": 376,
      "lang": 377,
      "year": 378,
      "--": 379,
      "rel": 380,
      "ger": 381,
      "ck": 382,
      "comment": 383,
      "ict": 384,
      "ater": 385,
      "ty": 386,
      "car": 387,
      "lin": 388,
      "ational": 389,
      "vel": 390,
      "les": 391,
      "att": 392,
      "mon": 393,
      "cc": 394,
      "ust": 395,
      "there": 396,
      "olog": 397,
      "old": 398,
      "ten": 399,
      "langu": 400,
      "ok": 401,
      "fin": 402,
      "ase": 403,
      "ash": 404,
      "hist": 405,
      "12": 406,
      "par": 407,
      "ever": 408,
      "nor": 409,
      "ied": 410,
      "americ": 411,
      "publ": 412,
      "ult": 413,
      "17": 414,
      "ta": 415,
      "ra": 416,
      "td": 417,
      "ld": 418,
      "right": 419,
      "been": 420,
      "cal": 421,
      "such": 422,
      "kn": 423,
      "ue": 424,
      "over": 425,
      "war": 426,
      "inter": 427,
      "ens": 428,
      "air": 429,
      "arch": 430,
      "16": 431,
      "cy": 432,
      "play": 433,
      "usern": 434,
      "main": 435,
      "username": 436,
      "os": 437,
      "see": 438,
      "20": 439,
      "low": 440,
      "how": 441,
      "char": 442,
      "after": 443,
      "198": 444,
      "off": 445,
      "ik": 446,
      "world": 447,
      "stem": 448,
      "incl": 449,
      "reg": 450,
      "space": 451,
      "sm": 452,
      "bet": 453,
      "ions": 454,
      "ents": 455,
      "only": 456,
      "ular": 457,
      "ms": 458,
      "two": 459,
      "ree": 460,
      "image": 461,
      "time": 462,
      "than": 463,
      "med": 464,
      "pre": 465,
      "ors": 466,
      "may": 467,
      "ts": 468,
      "system": 469,
      "14": 470,
      "num": 471,
      "ced": 472,
      "cial": 473,
      "gu": 474,
      "ade": 475,
      "ual": 476,
      "into": 477,
      "rit": 478,
      "any": 479,
      "align": 480,
      "bel": 481,
      "pop": 482,
      "when": 483,
      "way": 484,
      "hy": 485,
      "united": 486,
      "cons": 487,
      "eu": 488,
      "gener": 489,
      "sch": 490,
      "ious": 491,
      "under": 492,
      "mod": 493,
      "these": 494,
      "igh": 495,
      "cor": 496,
      "lar": 497,
      "language": 498,
      "fore": 499,
      "will": 500,
      "day": 501,
      "ivers": 502,
      "13": 503,
      "lish": 504,
      "fil": 505,
      "states": 506,
      "cur": 507,
      "math": 508,
      "ii": 509,
      "ved": 510,
      "197": 511,
      "ath": 512,
      "bas": 513,
      "cap": 514,
      "fi": 515,
      "bro": 516,
      "mus": 517,
      "urn": 518,
      "call": 519,
      "ific": 520,
      "american": 521,
      "ative": 522,
      "produ": 523,
      "add": 524,
      "cess": 525,
      "mat": 526,
      "ys": 527,
      "la": 528,
      "chr": 529,
      "ons": 530,
      "yo": 531,
      "uring": 532,
      "dash": 533,
      "work": 534,
      "sim": 535,
      "html": 536,
      "25": 537,
      "ject": 538,
      "ep": 539,
      "ous": 540,
      "ub": 541,
      "irect": 542,
      "dif": 543,
      "peop": 544,
      "ings": 545,
      "list": 546,
      "umb": 547,
      "ob": 548,
      "ry": 549,
      "dom": 550,
      "preser": 551,
      "ful": 552,
      "unt": 553,
      "eld": 554,
      "ital": 555,
      "thro": 556,
      "would": 557,
      "met": 558,
      "try": 559,
      "public": 560,
      "history": 561,
      "az": 562,
      "ities": 563,
      "univers": 564,
      "ton": 565,
      "ft": 566,
      "ann": 567,
      "ond": 568,
      "leg": 569,
      "ident": 570,
      "gover": 571,
      "grap": 572,
      "my": 573,
      "people": 574,
      "about": 575,
      "xml": 576,
      "fa": 577,
      "196": 578,
      "ution": 579,
      "preserve": 580,
      "ss": 581,
      "brit": 582,
      "ween": 583,
      "set": 584,
      "ology": 585,
      "ric": 586,
      "between": 587,
      "ild": 588,
      "ages": 589,
      "mem": 590,
      "center": 591,
      "however": 592,
      "euro": 593,
      "ters": 594,
      "ince": 595,
      "intern": 596,
      "ah": 597,
      "known": 598,
      "where": 599,
      "uth": 600,
      "though": 601,
      "ef": 602,
      "ually": 603,
      "let": 604,
      "11": 605,
      "cord": 606,
      "small": 607,
      "years": 608,
      "includ": 609,
      "''.": 610,
      "cle": 611,
      "nb": 612,
      "prov": 613,
      "state": 614,
      "name": 615,
      "ily": 616,
      "then": 617,
      "var": 618,
      "high": 619,
      "led": 620,
      "bu": 621,
      "well": 622,
      "02": 623,
      "trans": 624,
      "ball": 625,
      "ins": 626,
      "net": 627,
      "ating": 628,
      "group": 629,
      "ury": 630,
      "fol": 631,
      "ists": 632,
      "ames": 633,
      "serv": 634,
      "him": 635,
      "cond": 636,
      "uk": 637,
      "cept": 638,
      "03": 639,
      "als": 640,
      "ible": 641,
      "inv": 642,
      "vi": 643,
      "px": 644,
      "pg": 645,
      "writ": 646,
      "govern": 647,
      "called": 648,
      "2005": 649,
      "2006": 650,
      "order": 651,
      "number": 652,
      "city": 653,
      "tain": 654,
      "ick": 655,
      "sk": 656,
      "during": 657,
      "gram": 658,
      "english": 659,
      "ple": 660,
      "class": 661,
      "nbsp": 662,
      "fam": 663,
      "ix": 664,
      "pow": 665,
      "left": 666,
      "mis": 667,
      "son": 668,
      "top": 669,
      "val": 670,
      "pers": 671,
      "lif": 672,
      "line": 673,
      "inst": 674,
      "ier": 675,
      "sci": 676,
      "mer": 677,
      "refer": 678,
      "bar": 679,
      "comput": 680,
      "through": 681,
      "ref": 682,
      "stand": 683,
      "ship": 684,
      "ium": 685,
      "vie": 686,
      "point": 687,
      "europe": 688,
      "har": 689,
      "000": 690,
      "velop": 691,
      "hum": 692,
      "differ": 693,
      "ted": 694,
      "often": 695,
      "cer": 696,
      "thumb": 697,
      "orig": 698,
      "sing": 699,
      "jpg": 700,
      "christ": 701,
      "law": 702,
      "ale": 703,
      "elf": 704,
      "develop": 705,
      "national": 706,
      "ures": 707,
      "ature": 708,
      "polit": 709,
      "came": 710,
      "ank": 711,
      "cause": 712,
      "joh": 713,
      "ement": 714,
      "lit": 715,
      "stru": 716,
      "fect": 717,
      "commun": 718,
      "them": 719,
      "while": 720,
      "back": 721,
      "fact": 722,
      "found": 723,
      "government": 724,
      "examp": 725,
      "soci": 726,
      "sa": 727,
      "gy": 728,
      "ically": 729,
      "ff": 730,
      "ize": 731,
      ";,": 732,
      "now": 733,
      "uss": 734,
      "ider": 735,
      "rol": 736,
      "30": 737,
      "mil": 738,
      "bre": 739,
      "dep": 740,
      "sur": 741,
      "dy": 742,
      "requ": 743,
      "sol": 744,
      "ise": 745,
      "24": 746,
      "sty": 747,
      "mb": 748,
      "194": 749,
      "ese": 750,
      "like": 751,
      "book": 752,
      "both": 753,
      "na": 754,
      "follow": 755,
      "di": 756,
      "ctr": 757,
      "being": 758,
      "div": 759,
      "music": 760,
      "por": 761,
      "university": 762,
      "film": 763,
      "que": 764,
      "195": 765,
      "again": 766,
      "ural": 767,
      "mu": 768,
      "present": 769,
      "word": 770,
      "ians": 771,
      "john": 772,
      "23": 773,
      "stud": 774,
      "ont": 775,
      "long": 776,
      "oper": 777,
      "da": 778,
      "made": 779,
      "origin": 780,
      "british": 781,
      "der": 782,
      ";.": 783,
      "century": 784,
      "urch": 785,
      "cted": 786,
      "wn": 787,
      "ina": 788,
      "hol": 789,
      "less": 790,
      "cro": 791,
      "econ": 792,
      "very": 793,
      "cour": 794,
      "artic": 795,
      "edu": 796,
      "mark": 797,
      "organ": 798,
      "ized": 799,
      "econom": 800,
      "22": 801,
      "sign": 802,
      "tech": 803,
      "const": 804,
      "great": 805,
      "equ": 806,
      "peri": 807,
      "ange": 808,
      "ek": 809,
      "ward": 810,
      "god": 811,
      "later": 812,
      "beg": 813,
      "bor": 814,
      "bers": 815,
      "power": 816,
      "color": 817,
      "island": 818,
      "colle": 819,
      "life": 820,
      "since": 821,
      "program": 822,
      "sever": 823,
      "read": 824,
      "oc": 825,
      "lead": 826,
      "contin": 827,
      "ives": 828,
      "sl": 829,
      "tal": 830,
      "style": 831,
      "ude": 832,
      "even": 833,
      "general": 834,
      "maj": 835,
      "charac": 836,
      "phil": 837,
      "version": 838,
      "ulation": 839,
      "tw": 840,
      "ress": 841,
      "sult": 842,
      "tre": 843,
      "ung": 844,
      "iver": 845,
      "what": 846,
      "spec": 847,
      "german": 848,
      "partic": 849,
      "because": 850,
      "early": 851,
      "ndash": 852,
      "roman": 853,
      "three": 854,
      "ility": 855,
      "sco": 856,
      "come": 857,
      "game": 858,
      "sour": 859,
      "28": 860,
      "second": 861,
      "turn": 862,
      "rad": 863,
      "cell": 864,
      "ught": 865,
      "minor": 866,
      "trad": 867,
      "each": 868,
      "inn": 869,
      "den": 870,
      "example": 871,
      "same": 872,
      "techn": 873,
      "gl": 874,
      "church": 875,
      "26": 876,
      "consider": 877,
      "she": 878,
      "common": 879,
      "direct": 880,
      "appe": 881,
      "ru": 882,
      "htm": 883,
      "ences": 884,
      "major": 885,
      "thor": 886,
      "south": 887,
      "cult": 888,
      "ments": 889,
      "pa": 890,
      "fun": 891,
      "austr": 892,
      "occ": 893,
      "sho": 894,
      "50": 895,
      "rench": 896,
      "(''": 897,
      "wik": 898,
      "prob": 899,
      "bur": 900,
      "press": 901,
      "links": 902,
      "2004": 903,
      "aim": 904,
      "import": 905,
      "before": 906,
      "including": 907,
      "different": 908,
      "ja": 909,
      "non": 910,
      "stat": 911,
      "27": 912,
      "death": 913,
      "vir": 914,
      "french": 915,
      "view": 916,
      "ri": 917,
      "depend": 918,
      "ley": 919,
      "ham": 920,
      "men": 921,
      "nam": 922,
      "40": 923,
      "adv": 924,
      "sw": 925,
      "dec": 926,
      "hel": 927,
      "ime": 928,
      "north": 929,
      "mal": 930,
      "ars": 931,
      "mag": 932,
      "west": 933,
      ":''": 934,
      "design": 935,
      "international": 936,
      "minis": 937,
      "ety": 938,
      "offic": 939,
      "pat": 940,
      "although": 941,
      "poss": 942,
      "0s": 943,
      "several": 944,
      "ator": 945,
      "became": 946,
      ";''": 947,
      "box": 948,
      "centr": 949,
      "electr": 950,
      "much": 951,
      "person": 952,
      "field": 953,
      "result": 954,
      "ternal": 955,
      "formation": 956,
      "human": 957,
      "using": 958,
      "put": 959,
      "..": 960,
      "curren": 961,
      "foot": 962,
      "four": 963,
      "modern": 964,
      "mor": 965,
      "lat": 966,
      "series": 967,
      "position": 968,
      "span": 969,
      "193": 970,
      "bi": 971,
      "bal": 972,
      "computer": 973,
      "ctions": 974,
      "mov": 975,
      "app": 976,
      "ived": 977,
      "term": 978,
      "ste": 979,
      "ven": 980,
      "29": 981,
      "emper": 982,
      "bc": 983,
      "ants": 984,
      "head": 985,
      "show": 986,
      "ox": 987,
      "ane": 988,
      "aro": 989,
      "ization": 990,
      "party": 991,
      "get": 992,
      "belie": 993,
      "ament": 994,
      "hand": 995,
      "gest": 996,
      "author": 997,
      "els": 998,
      "external": 999,
      "president": 1000,
      "succ": 1001,
      "last": 1002,
      "21": 1003,
      "iction": 1004,
      "ished": 1005,
      "those": 1006,
      "dist": 1007,
      "could": 1008,
      "country": 1009,
      "house": 1010,
      "inc": 1011,
      "nat": 1012,
      "cover": 1013,
      "search": 1014,
      "against": 1015,
      "record": 1016,
      "mot": 1017,
      "ency": 1018,
      "blo": 1019,
      "flu": 1020,
      "graph": 1021,
      "ga": 1022,
      "ata": 1023,
      "eas": 1024,
      "ting": 1025,
      "success": 1026,
      "free": 1027,
      "crip": 1028,
      "based": 1029,
      "mill": 1030,
      "cus": 1031,
      "ore": 1032,
      "indu": 1033,
      "web": 1034,
      "sum": 1035,
      "large": 1036,
      "oth": 1037,
      "def": 1038,
      "histor": 1039,
      "ason": 1040,
      "bert": 1041,
      "wid": 1042,
      "del": 1043,
      "mid": 1044,
      "process": 1045,
      "real": 1046,
      "lim": 1047,
      "ec": 1048,
      "test": 1049,
      "vol": 1050,
      "another": 1051,
      "run": 1052,
      "down": 1053,
      "control": 1054,
      "expl": 1055,
      "phys": 1056,
      "just": 1057,
      "key": 1058,
      "popular": 1059,
      "lab": 1060,
      "sc": 1061,
      "start": 1062,
      "comple": 1063,
      "ool": 1064,
      "bus": 1065,
      "2002": 1066,
      "tle": 1067,
      "ius": 1068,
      "our": 1069,
      "ling": 1070,
      "thod": 1071,
      "pass": 1072,
      "01": 1073,
      "side": 1074,
      "article": 1075,
      "bir": 1076,
      "allow": 1077,
      "effect": 1078,
      "ze": 1079,
      "plac": 1080,
      "ner": 1081,
      "arr": 1082,
      "area": 1083,
      "defin": 1084,
      "ae": 1085,
      "ared": 1086,
      "bn": 1087,
      "water": 1088,
      "milit": 1089,
      "uary": 1090,
      ":'''": 1091,
      "you": 1092,
      "ail": 1093,
      "bin": 1094,
      "90": 1095,
      "mdash": 1096,
      "ute": 1097,
      "batt": 1098,
      "soph": 1099,
      "character": 1100,
      "claim": 1101,
      "east": 1102,
      "relig": 1103,
      "tradition": 1104,
      "eral": 1105,
      "home": 1106,
      "remain": 1107,
      "hav": 1108,
      "still": 1109,
      "school": 1110,
      "cas": 1111,
      "ground": 1112,
      "ired": 1113,
      "vis": 1114,
      "theory": 1115,
      "note": 1116,
      "christian": 1117,
      "ben": 1118,
      "usually": 1119,
      "action": 1120,
      "open": 1121,
      "support": 1122,
      "vo": 1123,
      "sen": 1124,
      "ember": 1125,
      "giv": 1126,
      "'')": 1127,
      "2003": 1128,
      "hal": 1129,
      "ively": 1130,
      "fran": 1131,
      "code": 1132,
      "ices": 1133,
      "resp": 1134,
      "did": 1135,
      "ories": 1136,
      "ipa": 1137,
      "tele": 1138,
      "population": 1139,
      "cat": 1140,
      "ves": 1141,
      "canad": 1142,
      "sof": 1143,
      "place": 1144,
      "sport": 1145,
      "uses": 1146,
      "imes": 1147,
      "afric": 1148,
      "jap": 1149,
      "chem": 1150,
      "ban": 1151,
      "redirect": 1152,
      "far": 1153,
      "self": 1154,
      "hor": 1155,
      "atic": 1156,
      "standard": 1157,
      "big": 1158,
      "until": 1159,
      "nl": 1160,
      "republic": 1161,
      "cir": 1162,
      "political": 1163,
      "light": 1164,
      "graphy": 1165,
      "cript": 1166,
      "rele": 1167,
      "80": 1168,
      "olution": 1169,
      "exp": 1170,
      "current": 1171,
      "che": 1172,
      "crit": 1173,
      "science": 1174,
      "official": 1175,
      "ided": 1176,
      "black": 1177,
      "wes": 1178,
      ".)": 1179,
      "thern": 1180,
      "roy": 1181,
      "struct": 1182,
      "demo": 1183,
      "japan": 1184,
      "team": 1185,
      "ased": 1186,
      "ended": 1187,
      "russ": 1188,
      "py": 1189,
      "oks": 1190,
      "kingdom": 1191,
      "ford": 1192,
      "cum": 1193,
      "incre": 1194,
      "ient": 1195,
      "tt": 1196,
      "period": 1197,
      "emp": 1198,
      "ilar": 1199,
      "gn": 1200,
      "civ": 1201,
      "times": 1202,
      "european": 1203,
      "appro": 1204,
      "dro": 1205,
      "ork": 1206,
      "typ": 1207,
      "fur": 1208,
      "cts": 1209,
      "child": 1210,
      "36": 1211,
      "aug": 1212,
      "similar": 1213,
      "35": 1214,
      "philo": 1215,
      "ional": 1216,
      "mit": 1217,
      "austral": 1218,
      "military": 1219,
      "short": 1220,
      "rich": 1221,
      "ness": 1222,
      "continu": 1223,
      "sto": 1224,
      "ps": 1225,
      "ctor": 1226,
      "among": 1227,
      "ha": 1228,
      "ster": 1229,
      "dav": 1230,
      "loc": 1231,
      "information": 1232,
      "members": 1233,
      "include": 1234,
      "ways": 1235,
      "ko": 1236,
      "site": 1237,
      "ably": 1238,
      "central": 1239,
      "anim": 1240,
      "plic": 1241,
      "ified": 1242,
      "isbn": 1243,
      "philosoph": 1244,
      "gar": 1245,
      "ones": 1246,
      "every": 1247,
      "band": 1248,
      "sex": 1249,
      "sv": 1250,
      "ng": 1251,
      "tro": 1252,
      "prof": 1253,
      "prev": 1254,
      "ming": 1255,
      "near": 1256,
      "around": 1257,
      "mean": 1258,
      "posed": 1259,
      "tic": 1260,
      "york": 1261,
      "jew": 1262,
      "04": 1263,
      "exist": 1264,
      "mic": 1265,
      "england": 1266,
      "han": 1267,
      "edia": 1268,
      "mas": 1269,
      "sal": 1270,
      "clo": 1271,
      "pal": 1272,
      "ains": 1273,
      "news": 1274,
      "case": 1275,
      "ler": 1276,
      "associ": 1277,
      "bit": 1278,
      "don": 1279,
      "pen": 1280,
      "ines": 1281,
      "fic": 1282,
      "37": 1283,
      "social": 1284,
      "family": 1285,
      "union": 1286,
      "civil": 1287,
      "size": 1288,
      "tries": 1289,
      "aft": 1290,
      "bg": 1291,
      "particular": 1292,
      "mass": 1293,
      "99": 1294,
      "lib": 1295,
      "force": 1296,
      "following": 1297,
      "due": 1298,
      "within": 1299,
      "thus": 1300,
      "fre": 1301,
      "base": 1302,
      "une": 1303,
      "iam": 1304,
      "ior": 1305,
      "arg": 1306,
      "does": 1307,
      "cu": 1308,
      "important": 1309,
      "sequ": 1310,
      "issu": 1311,
      "pract": 1312,
      "languages": 1313,
      "sis": 1314,
      "special": 1315,
      "lu": 1316,
      "empt": 1317,
      "pur": 1318,
      "somet": 1319,
      "log": 1320,
      "jan": 1321,
      "inde": 1322,
      "fed": 1323,
      "hold": 1324,
      "ino": 1325,
      "nov": 1326,
      "acy": 1327,
      "dan": 1328,
      "2000": 1329,
      "thing": 1330,
      "jud": 1331,
      "row": 1332,
      "cast": 1333,
      "dev": 1334,
      "good": 1335,
      "considered": 1336,
      "france": 1337,
      "2001": 1338,
      "cs": 1339,
      "ately": 1340,
      "geo": 1341,
      "western": 1342,
      "ches": 1343,
      "earth": 1344,
      "eth": 1345,
      "ka": 1346,
      "influ": 1347,
      "proble": 1348,
      "ax": 1349,
      "accord": 1350,
      "chang": 1351,
      "05": 1352,
      "make": 1353,
      "isl": 1354,
      "ised": 1355,
      "constit": 1356,
      "represent": 1357,
      "wal": 1358,
      "hard": 1359,
      "greek": 1360,
      "45": 1361,
      "anal": 1362,
      "ability": 1363,
      "august": 1364,
      "sometimes": 1365,
      "given": 1366,
      "estab": 1367,
      "auto": 1368,
      "works": 1369,
      "hen": 1370,
      "should": 1371,
      "vision": 1372,
      "38": 1373,
      "change": 1374,
      "bat": 1375,
      "ped": 1376,
      "cam": 1377,
      "independ": 1378,
      "town": 1379,
      "establish": 1380,
      "countries": 1381,
      "tak": 1382,
      "vers": 1383,
      "data": 1384,
      "level": 1385,
      "player": 1386,
      "thir": 1387,
      "germany": 1388,
      "clear": 1389,
      "football": 1390,
      "ets": 1391,
      "ony": 1392,
      "cil": 1393,
      "without": 1394,
      "ential": 1395,
      "systems": 1396,
      "rul": 1397,
      "company": 1398,
      "cho": 1399,
      "camp": 1400,
      "prote": 1401,
      "addition": 1402,
      "mult": 1403,
      "themat": 1404,
      "ides": 1405,
      "post": 1406,
      ".,": 1407,
      "onic": 1408,
      "build": 1409,
      "treat": 1410,
      "ju": 1411,
      "47": 1412,
      "ring": 1413,
      "ague": 1414,
      "proper": 1415,
      "ither": 1416,
      "vent": 1417,
      "cul": 1418,
      "function": 1419,
      "books": 1420,
      "omen": 1421,
      "mi": 1422,
      "industr": 1423,
      "engine": 1424,
      "urs": 1425,
      "08": 1426,
      "hip": 1427,
      "must": 1428,
      "stre": 1429,
      "orge": 1430,
      "flag": 1431,
      "ths": 1432,
      "mac": 1433,
      "body": 1434,
      "mathemat": 1435,
      "card": 1436,
      "ba": 1437,
      "ee": 1438,
      "descr": 1439,
      "48": 1440,
      "prim": 1441,
      "font": 1442,
      "sea": 1443,
      ";)": 1444,
      "games": 1445,
      "few": 1446,
      "intro": 1447,
      "istic": 1448,
      "original": 1449,
      "ison": 1450,
      "iving": 1451,
      "object": 1452,
      "gal": 1453,
      "ival": 1454,
      "empire": 1455,
      "ril": 1456,
      "bill": 1457,
      "vari": 1458,
      "46": 1459,
      "born": 1460,
      "development": 1461,
      "100": 1462,
      "need": 1463,
      "95": 1464,
      "ark": 1465,
      "ander": 1466,
      "alth": 1467,
      "alex": 1468,
      "06": 1469,
      "research": 1470,
      "best": 1471,
      "ently": 1472,
      "ief": 1473,
      "report": 1474,
      "david": 1475,
      "wood": 1476,
      "bot": 1477,
      "method": 1478,
      "william": 1479,
      "various": 1480,
      "america": 1481,
      "33": 1482,
      "battle": 1483,
      "ality": 1484,
      "court": 1485,
      "ged": 1486,
      "others": 1487,
      "certain": 1488,
      "george": 1489,
      "natural": 1490,
      "bs": 1491,
      "ivid": 1492,
      "written": 1493,
      "former": 1494,
      "dece": 1495,
      "groups": 1496,
      "dig": 1497,
      "formed": 1498,
      "project": 1499,
      "face": 1500,
      "single": 1501,
      "college": 1502,
      ".''": 1503,
      "according": 1504,
      "sat": 1505,
      "become": 1506,
      "here": 1507,
      "tra": 1508,
      "liter": 1509,
      "arab": 1510,
      "return": 1511,
      "abo": 1512,
      "song": 1513,
      "introdu": 1514,
      "democr": 1515,
      "ning": 1516,
      "rest": 1517,
      "type": 1518,
      "possible": 1519,
      "km": 1520,
      "ological": 1521,
      "individ": 1522,
      "islands": 1523,
      "hu": 1524,
      "generally": 1525,
      "craft": 1526,
      "further": 1527,
      "never": 1528,
      "forms": 1529,
      "rael": 1530,
      "recent": 1531,
      "source": 1532,
      "mber": 1533,
      "chin": 1534,
      "win": 1535,
      "rece": 1536,
      "aren": 1537,
      "conne": 1538,
      "spir": 1539,
      "aud": 1540,
      "tran": 1541,
      "sit": 1542,
      "ener": 1543,
      "know": 1544,
      "idge": 1545,
      "element": 1546,
      "lond": 1547,
      "nic": 1548,
      "bio": 1549,
      "ats": 1550,
      "anti": 1551,
      "educ": 1552,
      "capital": 1553,
      "fac": 1554,
      "white": 1555,
      "late": 1556,
      "syn": 1557,
      "nav": 1558,
      "ays": 1559,
      "bon": 1560,
      "story": 1561,
      "scient": 1562,
      "plan": 1563,
      "''',": 1564,
      "96": 1565,
      "ene": 1566,
      "nia": 1567,
      "zh": 1568,
      "gree": 1569,
      "bul": 1570,
      "tar": 1571,
      "began": 1572,
      "individual": 1573,
      "ured": 1574,
      "event": 1575,
      "star": 1576,
      "cath": 1577,
      "31": 1578,
      "1999": 1579,
      "olic": 1580,
      "tur": 1581,
      "ues": 1582,
      "07": 1583,
      "london": 1584,
      "river": 1585,
      "fall": 1586,
      "alb": 1587,
      "burg": 1588,
      "ago": 1589,
      "strong": 1590,
      "ink": 1591,
      "attempt": 1592,
      "espe": 1593,
      "empl": 1594,
      "service": 1595,
      "tware": 1596,
      "map": 1597,
      "cel": 1598,
      "spect": 1599,
      "alph": 1600,
      "israel": 1601,
      "take": 1602,
      "rather": 1603,
      "quest": 1604,
      "economic": 1605,
      "oy": 1606,
      "sil": 1607,
      "software": 1608,
      "local": 1609,
      "viet": 1610,
      "million": 1611,
      "army": 1612,
      "role": 1613,
      "board": 1614,
      "97": 1615,
      "gold": 1616,
      "culture": 1617,
      "access": 1618,
      "tract": 1619,
      "ica": 1620,
      "wind": 1621,
      "lands": 1622,
      "super": 1623,
      "along": 1624,
      "ification": 1625,
      "count": 1626,
      "invol": 1627,
      "0px": 1628,
      "chan": 1629,
      "hit": 1630,
      "kill": 1631,
      "heav": 1632,
      "ply": 1633,
      "rock": 1634,
      "ense": 1635,
      "enter": 1636,
      "65": 1637,
      "ained": 1638,
      "third": 1639,
      "charles": 1640,
      "termin": 1641,
      "gov": 1642,
      "ids": 1643,
      "85": 1644,
      "broad": 1645,
      "fem": 1646,
      "itive": 1647,
      "pho": 1648,
      "link": 1649,
      "published": 1650,
      "region": 1651,
      "iso": 1652,
      "amo": 1653,
      "cially": 1654,
      "sound": 1655,
      "nu": 1656,
      "idence": 1657,
      "index": 1658,
      "tail": 1659,
      "instit": 1660,
      "council": 1661,
      "feat": 1662,
      "anci": 1663,
      "cing": 1664,
      "appear": 1665,
      "decl": 1666,
      "cogn": 1667,
      "either": 1668,
      "corpor": 1669,
      "today": 1670,
      "society": 1671,
      "fort": 1672,
      "named": 1673,
      "total": 1674,
      "concept": 1675,
      "75": 1676,
      "mater": 1677,
      "cross": 1678,
      "yl": 1679,
      "gi": 1680,
      "grow": 1681,
      "border": 1682,
      "43": 1683,
      "mp": 1684,
      "interest": 1685,
      "xim": 1686,
      "inste": 1687,
      "words": 1688,
      "frequ": 1689,
      "ris": 1690,
      "green": 1691,
      "iness": 1692,
      "ana": 1693,
      "ends": 1694,
      "december": 1695,
      "activ": 1696,
      ";!": 1697,
      "whe": 1698,
      "cost": 1699,
      "held": 1700,
      "png": 1701,
      "ery": 1702,
      "date": 1703,
      "febr": 1704,
      "fire": 1705,
      "acks": 1706,
      "said": 1707,
      "april": 1708,
      "ram": 1709,
      "cry": 1710,
      ";!--": 1711,
      "sources": 1712,
      "cit": 1713,
      "member": 1714,
      "league": 1715,
      "separ": 1716,
      "emperor": 1717,
      "ken": 1718,
      "ensive": 1719,
      "developed": 1720,
      "means": 1721,
      "mach": 1722,
      "mount": 1723,
      "radio": 1724,
      "domin": 1725,
      "sou": 1726,
      "pan": 1727,
      "rap": 1728,
      "ique": 1729,
      "material": 1730,
      "full": 1731,
      "ny": 1732,
      "ancient": 1733,
      "march": 1734,
      "canada": 1735,
      "sure": 1736,
      "fiction": 1737,
      "care": 1738,
      "1998": 1739,
      "ances": 1740,
      "98": 1741,
      "42": 1742,
      "squ": 1743,
      "san": 1744,
      "bgcolor": 1745,
      "lic": 1746,
      "six": 1747,
      "atom": 1748,
      "pap": 1749,
      "psy": 1750,
      "itions": 1751,
      "gress": 1752,
      "round": 1753,
      "ero": 1754,
      "indian": 1755,
      "find": 1756,
      "mich": 1757,
      "references": 1758,
      "meas": 1759,
      "famous": 1760,
      "tion": 1761,
      "communic": 1762,
      "father": 1763,
      "tom": 1764,
      "ument": 1765,
      "subject": 1766,
      "fair": 1767,
      "van": 1768,
      "glo": 1769,
      "regard": 1770,
      "especially": 1771,
      "took": 1772,
      "vot": 1773,
      "mission": 1774,
      "ron": 1775,
      "territ": 1776,
      "flo": 1777,
      "uel": 1778,
      "award": 1779,
      "children": 1780,
      "dle": 1781,
      "james": 1782,
      "related": 1783,
      "novel": 1784,
      "inning": 1785,
      "above": 1786,
      "aut": 1787,
      "alpha": 1788,
      "66": 1789,
      "describ": 1790,
      "ots": 1791,
      "----": 1792,
      "africa": 1793,
      "09": 1794,
      "television": 1795,
      "constitution": 1796,
      "foreign": 1797,
      "hi": 1798,
      "pression": 1799,
      "india": 1800,
      "init": 1801,
      "chinese": 1802,
      "49": 1803,
      "32": 1804,
      "conf": 1805,
      "symb": 1806,
      "minister": 1807,
      "paul": 1808,
      "complex": 1809,
      "china": 1810,
      "forces": 1811,
      "seen": 1812,
      "avail": 1813,
      "parli": 1814,
      "hab": 1815,
      "era": 1816,
      "subst": 1817,
      "ov": 1818,
      "production": 1819,
      "ilt": 1820,
      "ni": 1821,
      "poly": 1822,
      "album": 1823,
      "aint": 1824,
      "cis": 1825,
      "having": 1826,
      "accept": 1827,
      "energy": 1828,
      "colo": 1829,
      "catholic": 1830,
      "dam": 1831,
      "january": 1832,
      "frank": 1833,
      "ari": 1834,
      "rights": 1835,
      "journ": 1836,
      "iii": 1837,
      "fund": 1838,
      "inte": 1839,
      "final": 1840,
      "lect": 1841,
      "manag": 1842,
      "community": 1843,
      "redu": 1844,
      "parliament": 1845,
      "pot": 1846,
      "upon": 1847,
      "played": 1848,
      "placed": 1849,
      "vict": 1850,
      "itself": 1851,
      "gor": 1852,
      "five": 1853,
      "ges": 1854,
      "88": 1855,
      "width": 1856,
      "eastern": 1857,
      "relation": 1858,
      "ai": 1859,
      "ify": 1860,
      "largest": 1861,
      "exec": 1862,
      "egy": 1863,
      "religious": 1864,
      "wards": 1865,
      "road": 1866,
      "division": 1867,
      "iple": 1868,
      "ira": 1869,
      "bridge": 1870,
      "cut": 1871,
      "little": 1872,
      "half": 1873,
      "ama": 1874,
      "ned": 1875,
      "39": 1876,
      "northern": 1877,
      "sept": 1878,
      "moved": 1879,
      "created": 1880,
      "64": 1881,
      "ds": 1882,
      "ker": 1883,
      "1997": 1884,
      ";'''": 1885,
      "market": 1886,
      "micro": 1887,
      "libr": 1888,
      "australia": 1889,
      "300": 1890,
      "fle": 1891,
      "ney": 1892,
      "signific": 1893,
      "sent": 1894,
      "host": 1895,
      "once": 1896,
      "imate": 1897,
      "vide": 1898,
      "terms": 1899,
      "constru": 1900,
      "study": 1901,
      "middle": 1902,
      "60": 1903,
      "gas": 1904,
      "hon": 1905,
      "movement": 1906,
      "egypt": 1907,
      "business": 1908,
      "fix": 1909,
      "henry": 1910,
      "atl": 1911,
      "77": 1912,
      "profess": 1913,
      "ination": 1914,
      "agre": 1915,
      "polic": 1916,
      "almost": 1917,
      "season": 1918,
      "draw": 1919,
      "ico": 1920,
      "internet": 1921,
      "bud": 1922,
      "ald": 1923,
      "fri": 1924,
      "food": 1925,
      "background": 1926,
      "berg": 1927,
      "days": 1928,
      "mart": 1929,
      "blue": 1930,
      "55": 1931,
      "irish": 1932,
      "areas": 1933,
      "priv": 1934,
      "docum": 1935,
      "names": 1936,
      "sun": 1937,
      "himself": 1938,
      "arian": 1939,
      "making": 1940,
      "transl": 1941,
      "technology": 1942,
      "prime": 1943,
      "produced": 1944,
      "envir": 1945,
      "simple": 1946,
      "altern": 1947,
      "economy": 1948,
      "soviet": 1949,
      "thought": 1950,
      "sexual": 1951,
      "young": 1952,
      "sug": 1953,
      "legal": 1954,
      "numbers": 1955,
      "vert": 1956,
      "comes": 1957,
      "environ": 1958,
      "movie": 1959,
      "might": 1960,
      "grand": 1961,
      "constant": 1962,
      "secre": 1963,
      "pd": 1964,
      "'''''": 1965,
      "wide": 1966,
      "july": 1967,
      "spanish": 1968,
      "dut": 1969,
      "gin": 1970,
      "model": 1971,
      "rate": 1972,
      "doub": 1973,
      "pet": 1974,
      "itch": 1975,
      "publish": 1976,
      "ried": 1977,
      "built": 1978,
      "ror": 1979,
      "grad": 1980,
      "available": 1981,
      "aining": 1982,
      "parts": 1983,
      "latin": 1984,
      "thom": 1985,
      "lord": 1986,
      "44": 1987,
      "tober": 1988,
      "range": 1989,
      "compet": 1990,
      "1996": 1991,
      "tor": 1992,
      "wall": 1993,
      "meaning": 1994,
      "living": 1995,
      "hop": 1996,
      "mand": 1997,
      "network": 1998,
      "reach": 1999,
      "toge": 2000,
      "philosophy": 2001,
      "exper": 2002,
      "imm": 2003,
      "october": 2004,
      "ington": 2005,
      "ering": 2006,
      "wikip": 2007,
      "say": 2008,
      "86": 2009,
      "together": 2010,
      "ements": 2011,
      "established": 2012,
      "hr": 2013,
      "cali": 2014,
      "unit": 2015,
      "wa": 2016,
      "astr": 2017,
      "cd": 2018,
      "ough": 2019,
      "earli": 2020,
      "neg": 2021,
      "hydro": 2022,
      "itz": 2023,
      "suggest": 2024,
      "trade": 2025,
      "trav": 2026,
      "istan": 2027,
      "royal": 2028,
      "tv": 2029,
      "november": 2030,
      "next": 2031,
      "ross": 2032,
      "ireland": 2033,
      "structure": 2034,
      "recogn": 2035,
      "combin": 2036,
      "historical": 2037,
      "journal": 2038,
      "except": 2039,
      "compan": 2040,
      "lines": 2041,
      "taken": 2042,
      "aries": 2043,
      "pri": 2044,
      "istics": 2045,
      "species": 2046,
      "nature": 2047,
      "women": 2048,
      "aster": 2049,
      "wikipedia": 2050,
      "released": 2051,
      "fish": 2052,
      "viol": 2053,
      "34": 2054,
      "tax": 2055,
      "apt": 2056,
      "rail": 2057,
      "chemical": 2058,
      "aps": 2059,
      "transport": 2060,
      "califor": 2061,
      "psych": 2062,
      "clos": 2063,
      "mel": 2064,
      "ns": 2065,
      "june": 2066,
      "symbol": 2067,
      "fig": 2068,
      "revolution": 2069,
      "colspan": 2070,
      "september": 2071,
      "info": 2072,
      "education": 2073,
      "rain": 2074,
      "occur": 2075,
      "ined": 2076,
      "traditional": 2077,
      "nd": 2078,
      "57": 2079,
      "rac": 2080,
      "temper": 2081,
      "covered": 2082,
      "67": 2083,
      "cite": 2084,
      "bell": 2085,
      "asing": 2086,
      "deb": 2087,
      "front": 2088,
      "quar": 2089,
      "county": 2090,
      "lower": 2091,
      "italian": 2092,
      "82": 2093,
      "fail": 2094,
      "fred": 2095,
      "died": 2096,
      "ension": 2097,
      "kes": 2098,
      "asse": 2099,
      "february": 2100,
      "ono": 2101,
      "wer": 2102,
      "significant": 2103,
      "vin": 2104,
      "iation": 2105,
      "japanese": 2106,
      "islam": 2107,
      "instead": 2108,
      "applic": 2109,
      "ending": 2110,
      "coast": 2111,
      "87": 2112,
      "bbc": 2113,
      "arily": 2114,
      "elves": 2115,
      "actor": 2116,
      "video": 2117,
      "angel": 2118,
      "adding": 2119,
      "least": 2120,
      "wr": 2121,
      "acad": 2122,
      "ops": 2123,
      "uis": 2124,
      "environment": 2125,
      "intell": 2126,
      "187": 2127,
      "hom": 2128,
      "uation": 2129,
      "user": 2130,
      "jewish": 2131,
      "california": 2132,
      "always": 2133,
      "active": 2134,
      "night": 2135,
      "dest": 2136,
      "online": 2137,
      "convent": 2138,
      "cities": 2139,
      "dar": 2140,
      "robert": 2141,
      "value": 2142,
      "hig": 2143,
      "mad": 2144,
      "apo": 2145,
      "southern": 2146,
      "ators": 2147,
      "done": 2148,
      "commer": 2149,
      "gun": 2150,
      "colon": 2151,
      "mur": 2152,
      "love": 2153,
      "iss": 2154,
      "commit": 2155,
      "...": 2156,
      "included": 2157,
      "nations": 2158,
      "myth": 2159,
      "mechan": 2160,
      "lost": 2161,
      "feature": 2162,
      "ties": 2163,
      "election": 2164,
      "aircraft": 2165,
      "asia": 2166,
      "adminis": 2167,
      "players": 2168,
      "instr": 2169,
      "attack": 2170,
      "sold": 2171,
      "fut": 2172,
      "edit": 2173,
      "distribut": 2174,
      "1995": 2175,
      "evidence": 2176,
      "complet": 2177,
      "bank": 2178,
      "club": 2179,
      "below": 2180,
      "relat": 2181,
      "eo": 2182,
      "conc": 2183,
      "entire": 2184,
      "champ": 2185,
      "detail": 2186,
      "pose": 2187,
      "rule": 2188,
      "isto": 2189,
      "articles": 2190,
      "1994": 2191,
      "mc": 2192,
      "complete": 2193,
      "administr": 2194,
      "aves": 2195,
      "electric": 2196,
      "previous": 2197,
      "move": 2198,
      "programming": 2199,
      "elements": 2200,
      "experi": 2201,
      "ti": 2202,
      "table": 2203,
      "jer": 2204,
      "ows": 2205,
      "bra": 2206,
      "too": 2207,
      "successful": 2208,
      "past": 2209,
      "office": 2210,
      "indic": 2211,
      "ran": 2212,
      "intellig": 2213,
      "41": 2214,
      "noun": 2215,
      "pun": 2216,
      "reason": 2217,
      "ula": 2218,
      "ble": 2219,
      "nation": 2220,
      "ships": 2221,
      "won": 2222,
      "ille": 2223,
      "die": 2224,
      "onom": 2225,
      "basic": 2226,
      "ission": 2227,
      "hib": 2228,
      "pred": 2229,
      "secret": 2230,
      "invest": 2231,
      "proto": 2232,
      "organization": 2233,
      "oney": 2234,
      "distin": 2235,
      "problem": 2236,
      "bab": 2237,
      "library": 2238,
      "dead": 2239,
      "ll": 2240,
      "inal": 2241,
      "edition": 2242,
      "princ": 2243,
      "wat": 2244,
      "true": 2245,
      "speed": 2246,
      "cases": 2247,
      "gam": 2248,
      "asp": 2249,
      "building": 2250,
      "help": 2251,
      "51": 2252,
      "live": 2253,
      "italy": 2254,
      "specific": 2255,
      "alexander": 2256,
      "ades": 2257,
      "1993": 2258,
      "politics": 2259,
      "usion": 2260,
      "academ": 2261,
      "conversion": 2262,
      "employ": 2263,
      "counter": 2264,
      "seem": 2265,
      "archite": 2266,
      "extre": 2267,
      "command": 2268,
      "labor": 2269,
      "lay": 2270,
      "apol": 2271,
      "lik": 2272,
      "etic": 2273,
      "ert": 2274,
      "igr": 2275,
      "teach": 2276,
      "characters": 2277,
      "necess": 2278,
      "ey": 2279,
      "print": 2280,
      "product": 2281,
      "strict": 2282,
      "chap": 2283,
      "pp": 2284,
      "copy": 2285,
      "writer": 2286,
      "68": 2287,
      "thems": 2288,
      "wash": 2289,
      "imp": 2290,
      "conserv": 2291,
      "ceed": 2292,
      "peace": 2293,
      "hind": 2294,
      "ask": 2295,
      "health": 2296,
      "ida": 2297,
      "park": 2298,
      "diffic": 2299,
      "letter": 2300,
      "ques": 2301,
      "whose": 2302,
      "birth": 2303,
      "hall": 2304,
      "lear": 2305,
      "reference": 2306,
      "dial": 2307,
      "bish": 2308,
      "section": 2309,
      "media": 2310,
      "tem": 2311,
      "higher": 2312,
      "mary": 2313,
      "difficult": 2314,
      "aver": 2315,
      "aged": 2316,
      "script": 2317,
      "enced": 2318,
      "phen": 2319,
      "adop": 2320,
      "ya": 2321,
      "station": 2322,
      "fav": 2323,
      "referred": 2324,
      "wro": 2325,
      "tu": 2326,
      "blood": 2327,
      "execut": 2328,
      "chann": 2329,
      "personal": 2330,
      "britain": 2331,
      "mes": 2332,
      "religion": 2333,
      "mir": 2334,
      "muse": 2335,
      "erous": 2336,
      "pdf": 2337,
      "whether": 2338,
      "nes": 2339,
      "iment": 2340,
      "ael": 2341,
      "therefore": 2342,
      "particularly": 2343,
      "leng": 2344,
      "classical": 2345,
      "bow": 2346,
      "scot": 2347,
      "spirit": 2348,
      "bac": 2349,
      "cia": 2350,
      "pain": 2351,
      "hung": 2352,
      "films": 2353,
      "your": 2354,
      "desp": 2355,
      "african": 2356,
      "independent": 2357,
      "points": 2358,
      "secur": 2359,
      "ordin": 2360,
      "themselves": 2361,
      "ising": 2362,
      "ention": 2363,
      "hill": 2364,
      "interpre": 2365,
      "continued": 2366,
      "ume": 2367,
      "federal": 2368,
      "photo": 2369,
      "lan": 2370,
      "sam": 2371,
      "spain": 2372,
      "chief": 2373,
      "physical": 2374,
      "ases": 2375,
      "respond": 2376,
      "types": 2377,
      "compo": 2378,
      "columb": 2379,
      "59": 2380,
      "56": 2381,
      "ech": 2382,
      "contr": 2383,
      "brew": 2384,
      "quant": 2385,
      "elling": 2386,
      "baseball": 2387,
      "mix": 2388,
      "1990": 2389,
      "industry": 2390,
      "rup": 2391,
      "belief": 2392,
      "cens": 2393,
      "ali": 2394,
      "arm": 2395,
      "pi": 2396,
      "anch": 2397,
      "mole": 2398,
      "served": 2399,
      "evolution": 2400,
      "russian": 2401,
      "influence": 2402,
      "concern": 2403,
      "clop": 2404,
      "digital": 2405,
      "chic": 2406,
      "events": 2407,
      "double": 2408,
      "disc": 2409,
      "leader": 2410,
      "analys": 2411,
      "scientific": 2412,
      "critic": 2413,
      "wrote": 2414,
      "mess": 2415,
      "rat": 2416,
      "problems": 2417,
      "russia": 2418,
      "dol": 2419,
      "throughout": 2420,
      "originally": 2421,
      "block": 2422,
      "wiki": 2423,
      "oil": 2424,
      "ially": 2425,
      "ledge": 2426,
      "agon": 2427,
      "bass": 2428,
      "pie": 2429,
      "1992": 2430,
      "integr": 2431,
      "ambig": 2432,
      "zo": 2433,
      "bed": 2434,
      "mother": 2435,
      "ready": 2436,
      "jes": 2437,
      "bol": 2438,
      "eration": 2439,
      "tour": 2440,
      "thomas": 2441,
      "museum": 2442,
      "pac": 2443,
      "fan": 2444,
      "services": 2445,
      "scal": 2446,
      "ush": 2447,
      "plied": 2448,
      "working": 2449,
      "hot": 2450,
      "ose": 2451,
      "ada": 2452,
      "haw": 2453,
      "consist": 2454,
      "1991": 2455,
      "francis": 2456,
      "ona": 2457,
      "commonly": 2458,
      "architect": 2459,
      "soon": 2460,
      "coming": 2461,
      "schol": 2462,
      "ician": 2463,
      "issue": 2464,
      "saw": 2465,
      "seven": 2466,
      "added": 2467,
      "canadian": 2468,
      "speak": 2469,
      "notes": 2470,
      "oce": 2471,
      "kind": 2472,
      "rew": 2473,
      "iew": 2474,
      "89": 2475,
      "standing": 2476,
      "holy": 2477,
      "association": 2478,
      "imper": 2479,
      "ston": 2480,
      "close": 2481,
      "away": 2482,
      "nom": 2483,
      "mathematics": 2484,
      "described": 2485,
      "richard": 2486,
      "practice": 2487,
      "distr": 2488,
      "drug": 2489,
      "elect": 2490,
      "eventually": 2491,
      "contro": 2492,
      "writing": 2493,
      "mun": 2494,
      "acts": 2495,
      "maintain": 2496,
      "despite": 2497,
      "boy": 2498,
      "iding": 2499,
      "intel": 2500,
      "female": 2501,
      "valign": 2502,
      "plant": 2503,
      "illa": 2504,
      "defined": 2505,
      "examples": 2506,
      "arts": 2507,
      "sin": 2508,
      "ili": 2509,
      "features": 2510,
      "cub": 2511,
      "bond": 2512,
      "course": 2513,
      "asion": 2514,
      "ghan": 2515,
      "ls": 2516,
      "diction": 2517,
      "actually": 2518,
      "ini": 2519,
      "offer": 2520,
      "ses": 2521,
      "52": 2522,
      "portug": 2523,
      "kar": 2524,
      "male": 2525,
      "stor": 2526,
      "respect": 2527,
      "flow": 2528,
      "ving": 2529,
      "content": 2530,
      "went": 2531,
      "prop": 2532,
      "encyclop": 2533,
      "document": 2534,
      "keep": 2535,
      "ife": 2536,
      "idea": 2537,
      "occup": 2538,
      "includes": 2539,
      "coll": 2540,
      "talk": 2541,
      "future": 2542,
      "australian": 2543,
      "58": 2544,
      "rome": 2545,
      "depart": 2546,
      "actions": 2547,
      "typically": 2548,
      "security": 2549,
      "usa": 2550,
      "plement": 2551,
      "changes": 2552,
      "regular": 2553,
      "ome": 2554,
      "liberal": 2555,
      "deal": 2556,
      "carbon": 2557,
      "din": 2558,
      "php": 2559,
      "outside": 2560,
      "medi": 2561,
      "limited": 2562,
      "determin": 2563,
      "studies": 2564,
      "construction": 2565,
      "stories": 2566,
      "cannot": 2567,
      "gian": 2568,
      "policy": 2569,
      "definition": 2570,
      "cipl": 2571,
      "break": 2572,
      "respons": 2573,
      "93": 2574,
      "saint": 2575,
      "bad": 2576,
      "sus": 2577,
      "analysis": 2578,
      "mind": 2579,
      "swed": 2580,
      "tru": 2581,
      "rules": 2582,
      "bib": 2583,
      "relations": 2584,
      "followed": 2585,
      "length": 2586,
      "approxim": 2587,
      "manu": 2588,
      "ray": 2589,
      "step": 2590,
      "brown": 2591,
      "bound": 2592,
      "associated": 2593,
      "atlant": 2594,
      "dim": 2595,
      "magaz": 2596,
      "surv": 2597,
      ");": 2598,
      "laws": 2599,
      "district": 2600,
      "medic": 2601,
      "gall": 2602,
      "1989": 2603,
      "claimed": 2604,
      "machine": 2605,
      "operation": 2606,
      "dog": 2607,
      "corre": 2608,
      "sense": 2609,
      "aking": 2610,
      "simply": 2611,
      "suf": 2612,
      "saf": 2613,
      "ano": 2614,
      "250px": 2615,
      "dutch": 2616,
      "arent": 2617,
      "smith": 2618,
      "beginning": 2619,
      "pict": 2620,
      "received": 2621,
      "iel": 2622,
      "sec": 2623,
      "orthod": 2624,
      "widely": 2625,
      "issues": 2626,
      "peter": 2627,
      "yet": 2628,
      "bay": 2629,
      "website": 2630,
      "nel": 2631,
      "za": 2632,
      "sac": 2633,
      "prince": 2634,
      "independence": 2635,
      "behav": 2636,
      "manufact": 2637,
      "orthodox": 2638,
      "ibe": 2639,
      "creation": 2640,
      "scott": 2641,
      "aur": 2642,
      "acc": 2643,
      "agric": 2644,
      "demon": 2645,
      "metal": 2646,
      "status": 2647,
      "believe": 2648,
      "sky": 2649,
      "literature": 2650,
      "ado": 2651,
      "atory": 2652,
      "ibility": 2653,
      "located": 2654,
      "::": 2655,
      "democratic": 2656,
      "michael": 2657,
      "wise": 2658,
      "atives": 2659,
      "larger": 2660,
      "70": 2661,
      "bey": 2662,
      "currently": 2663,
      "acid": 2664,
      "utes": 2665,
      "designed": 2666,
      "53": 2667,
      "elected": 2668,
      "cape": 2669,
      "washington": 2670,
      "fight": 2671,
      "iff": 2672,
      "native": 2673,
      "leaders": 2674,
      "likely": 2675,
      "db": 2676,
      "cop": 2677,
      "icon": 2678,
      "required": 2679,
      "freed": 2680,
      "54": 2681,
      "leading": 2682,
      "introduced": 2683,
      "louis": 2684,
      "georg": 2685,
      "achie": 2686,
      "citiz": 2687,
      "92": 2688,
      "majority": 2689,
      "products": 2690,
      "scre": 2691,
      "etc": 2692,
      "nas": 2693,
      "homo": 2694,
      "ened": 2695,
      "utions": 2696,
      "started": 2697,
      "ria": 2698,
      "stone": 2699,
      "meet": 2700,
      "playing": 2701,
      "fal": 2702,
      "allowed": 2703,
      "probably": 2704,
      "increasing": 2705,
      "forman": 2706,
      "jews": 2707,
      "argu": 2708,
      "fell": 2709,
      "avo": 2710,
      "effects": 2711,
      "companies": 2712,
      "err": 2713,
      "amount": 2714,
      "pages": 2715,
      "ilities": 2716,
      "mob": 2717,
      "fant": 2718,
      "wil": 2719,
      "knowledge": 2720,
      "cription": 2721,
      "94": 2722,
      "sor": 2723,
      "istry": 2724,
      "emer": 2725,
      "weap": 2726,
      "provide": 2727,
      "quick": 2728,
      "unch": 2729,
      "require": 2730,
      "spac": 2731,
      "ocean": 2732,
      "ape": 2733,
      "square": 2734,
      "ara": 2735,
      "greater": 2736,
      "changed": 2737,
      "territory": 2738,
      "cip": 2739,
      "ku": 2740,
      "approach": 2741,
      "apple": 2742,
      "fif": 2743,
      "file": 2744,
      "physics": 2745,
      "lor": 2746,
      "pay": 2747,
      "starting": 2748,
      "flict": 2749,
      "review": 2750,
      "jose": 2751,
      "guard": 2752,
      "expe": 2753,
      "commission": 2754,
      "agricult": 2755,
      "ference": 2756,
      "things": 2757,
      "race": 2758,
      "ato": 2759,
      "chicago": 2760,
      "believed": 2761,
      "83": 2762,
      "guit": 2763,
      "growth": 2764,
      "got": 2765,
      "hem": 2766,
      "commercial": 2767,
      "bes": 2768,
      "founded": 2769,
      "ware": 2770,
      "governor": 2771,
      "theore": 2772,
      "wealth": 2773,
      "produce": 2774,
      "stan": 2775,
      "across": 2776,
      "oh": 2777,
      "prize": 2778,
      "84": 2779,
      "express": 2780,
      "aust": 2781,
      "dat": 2782,
      "appoint": 2783,
      "cultural": 2784,
      "burn": 2785,
      "legisl": 2786,
      "load": 2787,
      "prin": 2788,
      "champion": 2789,
      "nn": 2790,
      "wis": 2791,
      "earlier": 2792,
      "weight": 2793,
      "brought": 2794,
      "iran": 2795,
      "anted": 2796,
      "appeared": 2797,
      "treaty": 2798,
      "ake": 2799,
      "already": 2800,
      "oly": 2801,
      "91": 2802,
      "give": 2803,
      "room": 2804,
      "zy": 2805,
      "larg": 2806,
      "calcul": 2807,
      "mostly": 2808,
      "queen": 2809,
      "arth": 2810,
      "matter": 2811,
      "corn": 2812,
      "better": 2813,
      "olf": 2814,
      "results": 2815,
      "rand": 2816,
      "wing": 2817,
      "jesus": 2818,
      "protest": 2819,
      "question": 2820,
      "eight": 2821,
      "lingu": 2822,
      "ites": 2823,
      "formal": 2824,
      "asy": 2825,
      "authority": 2826,
      "private": 2827,
      "scotland": 2828,
      "happ": 2829,
      "parties": 2830,
      "sr": 2831,
      "frame": 2832,
      "mann": 2833,
      "bob": 2834,
      "normal": 2835,
      "longer": 2836,
      "bomb": 2837,
      "remains": 2838,
      "performan": 2839,
      "address": 2840,
      "jun": 2841,
      "location": 2842,
      "orial": 2843,
      "fast": 2844,
      "lad": 2845,
      "ctive": 2846,
      "miss": 2847,
      "deaths": 2848,
      "cand": 2849,
      "faith": 2850,
      "volume": 2851,
      "memory": 2852,
      "adam": 2853,
      "bah": 2854,
      "multi": 2855,
      "ips": 2856,
      "capt": 2857,
      "ption": 2858,
      "surface": 2859,
      "alphabet": 2860,
      "kings": 2861,
      "ky": 2862,
      "bod": 2863,
      "magazine": 2864,
      "destroy": 2865,
      "lying": 2866,
      "'''.": 2867,
      "contains": 2868,
      "channel": 2869,
      "haps": 2870,
      "animal": 2871,
      "las": 2872,
      "stop": 2873,
      ";-": 2874,
      "sele": 2875,
      "200px": 2876,
      "fully": 2877,
      "property": 2878,
      "look": 2879,
      "months": 2880,
      "soft": 2881,
      "paper": 2882,
      "alco": 2883,
      "isa": 2884,
      "isms": 2885,
      "master": 2886,
      "greece": 2887,
      "loss": 2888,
      "whole": 2889,
      "solid": 2890,
      "uge": 2891,
      "dor": 2892,
      "flight": 2893,
      "alge": 2894,
      "1987": 2895,
      "1986": 2896,
      "christianity": 2897,
      "500": 2898,
      "sey": 2899,
      "letters": 2900,
      "iers": 2901,
      "format": 2902,
      "director": 2903,
      "directly": 2904,
      "separate": 2905,
      "perhaps": 2906,
      "catal": 2907,
      "ji": 2908,
      "primary": 2909,
      "sole": 2910,
      "aff": 2911,
      "nuclear": 2912,
      "hero": 2913,
      "records": 2914,
      "latter": 2915,
      "tric": 2916,
      "ault": 2917,
      "lie": 2918,
      "uit": 2919,
      "uch": 2920,
      "condu": 2921,
      "orders": 2922,
      "1590": 2923,
      "20th": 2924,
      "iverse": 2925,
      "bour": 2926,
      "asons": 2927,
      "frac": 2928,
      "1980": 2929,
      "duke": 2930,
      "insu": 2931,
      "assemb": 2932,
      "''),": 2933,
      "ivity": 2934,
      "si": 2935,
      "makes": 2936,
      "ola": 2937,
      "apollo": 2938,
      "tend": 2939,
      "enc": 2940,
      "largely": 2941,
      "street": 2942,
      "dire": 2943,
      "edward": 2944,
      "broadcast": 2945,
      "hebrew": 2946,
      "anced": 2947,
      "province": 2948,
      "singer": 2949,
      "measure": 2950,
      "ease": 2951,
      "conflict": 2952,
      "implement": 2953,
      "proved": 2954,
      "sports": 2955,
      "62": 2956,
      "freedom": 2957,
      "kr": 2958,
      "pack": 2959,
      "ingu": 2960,
      "aign": 2961,
      "bible": 2962,
      "mm": 2963,
      "ered": 2964,
      "1984": 2965,
      "braz": 2966,
      "1988": 2967,
      "rd": 2968,
      "via": 2969,
      "algor": 2970,
      "va": 2971,
      "cele": 2972,
      "observ": 2973,
      "release": 2974,
      "institute": 2975,
      "caused": 2976,
      "divided": 2977,
      "cin": 2978,
      "disambig": 2979,
      "gave": 2980,
      "towards": 2981,
      "rare": 2982,
      "congress": 2983,
      "disput": 2984,
      "invent": 2985,
      "universe": 2986,
      "enough": 2987,
      "account": 2988,
      "highly": 2989,
      "engineering": 2990,
      "hell": 2991,
      "ret": 2992,
      "iber": 2993,
      "collection": 2994,
      "padding": 2995,
      "tool": 2996,
      "nit": 2997,
      "week": 2998,
      "smaller": 2999,
      "ded": 3000,
      "assist": 3001,
      "continent": 3002,
      "kil": 3003,
      "ita": 3004,
      "degree": 3005,
      "census": 3006,
      "gd": 3007,
      "notable": 3008,
      "births": 3009,
      "tree": 3010,
      "iron": 3011,
      "dun": 3012,
      "1985": 3013,
      "methods": 3014,
      "mut": 3015,
      "calend": 3016,
      "killed": 3017,
      "nar": 3018,
      "mention": 3019,
      "afghan": 3020,
      "subsequ": 3021,
      "moon": 3022,
      "basis": 3023,
      "global": 3024,
      "compar": 3025,
      "03t": 3026,
      "wife": 3027,
      "shar": 3028,
      "elementbox": 3029,
      "ports": 3030,
      "dd": 3031,
      "rank": 3032,
      "tun": 3033,
      "thr": 3034,
      "campaign": 3035,
      "ires": 3036,
      "resources": 3037,
      "instrument": 3038,
      "excl": 3039,
      "remained": 3040,
      "alle": 3041,
      "rot": 3042,
      "medical": 3043,
      "heavy": 3044,
      "bishop": 3045,
      "average": 3046,
      "crim": 3047,
      "ki": 3048,
      "cup": 3049,
      "guide": 3050,
      "money": 3051,
      "claims": 3052,
      "heart": 3053,
      "musical": 3054,
      "iance": 3055,
      "virt": 3056,
      "industrial": 3057,
      "diale": 3058,
      "replaced": 3059,
      "going": 3060,
      "uments": 3061,
      "provided": 3062,
      "81": 3063,
      "lake": 3064,
      "astro": 3065,
      "mous": 3066,
      "los": 3067,
      "sir": 3068,
      "onents": 3069,
      "cred": 3070,
      "married": 3071,
      "animals": 3072,
      "berlin": 3073,
      "graphics": 3074,
      "friend": 3075,
      "graphic": 3076,
      "63": 3077,
      "brother": 3078,
      "inner": 3079,
      "travel": 3080,
      ";(": 3081,
      "planet": 3082,
      "algorith": 3083,
      "1st": 3084,
      "onia": 3085,
      "climate": 3086,
      "units": 3087,
      "19th": 3088,
      "assembly": 3089,
      "stra": 3090,
      "chemistry": 3091,
      "encyclopedia": 3092,
      "muslim": 3093,
      "fc": 3094,
      "forced": 3095,
      "hood": 3096,
      "porary": 3097,
      "brazil": 3098,
      "gif": 3099,
      "navy": 3100,
      "quote": 3101,
      "electron": 3102,
      "cks": 3103,
      "ping": 3104,
      "1983": 3105,
      "prevent": 3106,
      "teen": 3107,
      "share": 3108,
      "nobel": 3109,
      "izations": 3110,
      "pope": 3111,
      "1982": 3112,
      "existence": 3113,
      "alcohol": 3114,
      "jack": 3115,
      "1975": 3116,
      "career": 3117,
      "ador": 3118,
      "grav": 3119,
      "appears": 3120,
      "temperature": 3121,
      "thesis": 3122,
      "acqu": 3123,
      "nast": 3124,
      "pair": 3125,
      "sens": 3126,
      "arms": 3127,
      "1970": 3128,
      "schools": 3129,
      "liber": 3130,
      "guitar": 3131,
      "lam": 3132,
      "rever": 3133,
      "correspond": 3134,
      "nearly": 3135,
      "victor": 3136,
      "vill": 3137,
      "brain": 3138,
      "habit": 3139,
      "enn": 3140,
      "correct": 3141,
      "shot": 3142,
      "algebra": 3143,
      "celebr": 3144,
      "vic": 3145,
      "strateg": 3146,
      "von": 3147,
      "uries": 3148,
      "monarch": 3149,
      "wild": 3150,
      "inet": 3151,
      "arthur": 3152,
      "):": 3153,
      "launch": 3154,
      "programs": 3155,
      "decision": 3156,
      "defense": 3157,
      "pc": 3158,
      "ogy": 3159,
      "restrict": 3160,
      "paris": 3161,
      "naz": 3162,
      "deep": 3163,
      "whom": 3164,
      "motion": 3165,
      "zone": 3166,
      "cles": 3167,
      "elections": 3168,
      "daugh": 3169,
      "frequently": 3170,
      "ulated": 3171,
      "pattern": 3172,
      "prison": 3173,
      "iques": 3174,
      "astronom": 3175,
      "ging": 3176,
      "intelligence": 3177,
      "odes": 3178,
      "centre": 3179,
      "horse": 3180,
      "variety": 3181,
      "mythology": 3182,
      "folk": 3183,
      "stream": 3184,
      "fas": 3185,
      "joseph": 3186,
      "isation": 3187,
      "aspe": 3188,
      "1979": 3189,
      "functions": 3190,
      "ding": 3191,
      "uc": 3192,
      "gene": 3193,
      "phr": 3194,
      "particip": 3195,
      "61": 3196,
      "ffff": 3197,
      ";).": 3198,
      "convention": 3199,
      "dance": 3200,
      "hic": 3201,
      "discovered": 3202,
      "alleg": 3203,
      "increase": 3204,
      "martin": 3205,
      "69": 3206,
      "eg": 3207,
      "alternative": 3208,
      "scale": 3209,
      "performance": 3210,
      "pul": 3211,
      "takes": 3212,
      "potential": 3213,
      "comed": 3214,
      "dens": 3215,
      "conver": 3216,
      "communications": 3217,
      "imperial": 3218,
      "reser": 3219,
      "prior": 3220,
      "fried": 3221,
      "conditions": 3222,
      "increased": 3223,
      "geography": 3224,
      "brand": 3225,
      "advent": 3226,
      "places": 3227,
      "objects": 3228,
      "iraq": 3229,
      "pressure": 3230,
      "taking": 3231,
      "iki": 3232,
      "reading": 3233,
      "lack": 3234,
      "ables": 3235,
      "ideas": 3236,
      "1981": 3237,
      "operating": 3238,
      "students": 3239,
      "bapt": 3240,
      "kong": 3241,
      "ville": 3242,
      "windows": 3243,
      "committe": 3244,
      "path": 3245,
      "universities": 3246,
      "highest": 3247,
      "circum": 3248,
      "relatively": 3249,
      "joy": 3250,
      "recently": 3251,
      "pil": 3252,
      "izing": 3253,
      "greg": 3254,
      "cussion": 3255,
      "urban": 3256,
      "sett": 3257,
      "screen": 3258,
      "albert": 3259,
      "itable": 3260,
      "experiment": 3261,
      "calendar": 3262,
      "colleg": 3263,
      "dark": 3264,
      "'').": 3265,
      "1974": 3266,
      "fundament": 3267,
      "thous": 3268,
      "equip": 3269,
      "involved": 3270,
      "protocol": 3271,
      "regions": 3272,
      "idents": 3273,
      "finan": 3274,
      "perform": 3275,
      "powers": 3276,
      "roll": 3277,
      "corporation": 3278,
      "older": 3279,
      "equal": 3280,
      "fat": 3281,
      "effic": 3282,
      "moving": 3283,
      "create": 3284,
      "thousand": 3285,
      "essential": 3286,
      "sym": 3287,
      "gard": 3288,
      "400": 3289,
      "hil": 3290,
      "becomes": 3291,
      "concentr": 3292,
      "relationship": 3293,
      "300px": 3294,
      "''':": 3295,
      "disco": 3296,
      "arabic": 3297,
      "nan": 3298,
      "mouth": 3299,
      "estic": 3300,
      "affect": 3301,
      "rang": 3302,
      "nether": 3303,
      "applied": 3304,
      "introduction": 3305,
      "finally": 3306,
      "professional": 3307,
      "announ": 3308,
      "percent": 3309,
      "context": 3310,
      "estim": 3311,
      "159": 3312,
      "settle": 3313,
      "72": 3314,
      "rh": 3315,
      "rise": 3316,
      "itation": 3317,
      "medicine": 3318,
      "1973": 3319,
      "ez": 3320,
      "ij": 3321,
      "none": 3322,
      "disease": 3323,
      "t15": 3324,
      "ibly": 3325,
      "infin": 3326,
      "forest": 3327,
      "equival": 3328,
      "sand": 3329,
      "ctic": 3330,
      "poor": 3331,
      "worth": 3332,
      "bear": 3333,
      "tex": 3334,
      "rough": 3335,
      "spring": 3336,
      "something": 3337,
      "biology": 3338,
      "resist": 3339,
      "sphere": 3340,
      "pas": 3341,
      "contract": 3342,
      "operations": 3343,
      "advant": 3344,
      "winter": 3345,
      "immedi": 3346,
      "contain": 3347,
      "users": 3348,
      "comics": 3349,
      "interpret": 3350,
      "pacific": 3351,
      "fm": 3352,
      "adopted": 3353,
      "len": 3354,
      "uni": 3355,
      "tered": 3356,
      "onse": 3357,
      "netherlands": 3358,
      "mex": 3359,
      "coal": 3360,
      "experience": 3361,
      "pic": 3362,
      "contem": 3363,
      "orient": 3364,
      "hypo": 3365,
      "bb": 3366,
      "gir": 3367,
      "opt": 3368,
      "numerous": 3369,
      "derived": 3370,
      "virgin": 3371,
      "cm": 3372,
      ";),": 3373,
      "weak": 3374,
      "riage": 3375,
      "shows": 3376,
      "stage": 3377,
      "dio": 3378,
      "austria": 3379,
      "woman": 3380,
      "1972": 3381,
      "1969": 3382,
      "twent": 3383,
      "dna": 3384,
      "progress": 3385,
      "universal": 3386,
      "views": 3387,
      "1990s": 3388,
      "condition": 3389,
      "electronic": 3390,
      "aa": 3391,
      "astic": 3392,
      "server": 3393,
      "additional": 3394,
      "month": 3395,
      "instance": 3396,
      "sequence": 3397,
      "primarily": 3398,
      "publisher": 3399,
      "onto": 3400,
      "itor": 3401,
      "foundation": 3402,
      "multiple": 3403,
      "agreement": 3404,
      "transfer": 3405,
      "hund": 3406,
      "department": 3407,
      "dre": 3408,
      "running": 3409,
      "behind": 3410,
      "consu": 3411,
      "charge": 3412,
      "1980s": 3413,
      "regional": 3414,
      "target": 3415,
      "iah": 3416,
      "passed": 3417,
      "argent": 3418,
      "properties": 3419,
      "dictionary": 3420,
      "vow": 3421,
      "amin": 3422,
      "mainly": 3423,
      "internal": 3424,
      "motor": 3425,
      "mail": 3426,
      "fu": 3427,
      "amed": 3428,
      "spok": 3429,
      "boston": 3430,
      "iro": 3431,
      "cher": 3432,
      "accepted": 3433,
      "budd": 3434,
      "smo": 3435,
      "ws": 3436,
      "supre": 3437,
      "pto": 3438,
      "leon": 3439,
      "beat": 3440,
      "writers": 3441,
      "doctor": 3442,
      "necessary": 3443,
      "reported": 3444,
      "sav": 3445,
      "cha": 3446,
      "scr": 3447,
      "purpose": 3448,
      "architecture": 3449,
      "76": 3450,
      "distingu": 3451,
      "levels": 3452,
      "fill": 3453,
      "slow": 3454,
      "thre": 3455,
      "ati": 3456,
      "sets": 3457,
      "neigh": 3458,
      "anton": 3459,
      "beth": 3460,
      "onent": 3461,
      "stal": 3462,
      "heat": 3463,
      "audio": 3464,
      "activity": 3465,
      "shown": 3466,
      "stic": 3467,
      "dimension": 3468,
      "branch": 3469,
      "famil": 3470,
      "computers": 3471,
      "concl": 3472,
      "possess": 3473,
      "track": 3474,
      "fel": 3475,
      "dete": 3476,
      "display": 3477,
      "1976": 3478,
      "circu": 3479,
      "igation": 3480,
      "summer": 3481,
      "returned": 3482,
      "bibl": 3483,
      "management": 3484,
      "translation": 3485,
      "exact": 3486,
      "sid": 3487,
      "ender": 3488,
      "serious": 3489,
      "desc": 3490,
      "suffer": 3491,
      "stad": 3492,
      "ustr": 3493,
      "speech": 3494,
      "obtain": 3495,
      "geome": 3496,
      "flor": 3497,
      "wit": 3498,
      "1978": 3499,
      "quite": 3500,
      "explo": 3501,
      "cold": 3502,
      "biography": 3503,
      "lived": 3504,
      "ski": 3505,
      "finland": 3506,
      "opp": 3507,
      "ika": 3508,
      "1967": 3509,
      "mol": 3510,
      "indo": 3511,
      "philip": 3512,
      "fest": 3513,
      "ua": 3514,
      "accur": 3515,
      "oxford": 3516,
      "labour": 3517,
      "promot": 3518,
      "ipal": 3519,
      "apparent": 3520,
      "expand": 3521,
      "abb": 3522,
      "dynast": 3523,
      "rier": 3524,
      "versions": 3525,
      "cambridge": 3526,
      "hong": 3527,
      "plann": 3528,
      "stein": 3529,
      "signal": 3530,
      "cular": 3531,
      "iot": 3532,
      "maxim": 3533,
      "carry": 3534,
      "colleges": 3535,
      "height": 3536,
      "domestic": 3537,
      "harv": 3538,
      "pier": 3539,
      "stars": 3540,
      "plat": 3541,
      "alo": 3542,
      "recorded": 3543,
      "compl": 3544,
      "conservative": 3545,
      "anarch": 3546,
      "1971": 3547,
      "sites": 3548,
      "yr": 3549,
      "reform": 3550,
      "proposed": 3551,
      "executive": 3552,
      "commons": 3553,
      "values": 3554,
      "treatment": 3555,
      "gers": 3556,
      "removed": 3557,
      "techniques": 3558,
      "anthro": 3559,
      "cycle": 3560,
      "mitted": 3561,
      "write": 3562,
      "committee": 3563,
      "eds": 3564,
      "solution": 3565,
      "vehic": 3566,
      "coup": 3567,
      "1945": 3568,
      "surround": 3569,
      "hundred": 3570,
      "repe": 3571,
      "critical": 3572,
      "quickly": 3573,
      "advanced": 3574,
      "agan": 3575,
      "discussion": 3576,
      "response": 3577,
      "administration": 3578,
      "wel": 3579,
      "theat": 3580,
      "enem": 3581,
      "norm": 3582,
      "regis": 3583,
      "refers": 3584,
      "golden": 3585,
      "ella": 3586,
      "iza": 3587,
      "cells": 3588,
      "billion": 3589,
      "direction": 3590,
      "tery": 3591,
      "vey": 3592,
      "cav": 3593,
      "phon": 3594,
      "compil": 3595,
      "benef": 3596,
      "cious": 3597,
      "disk": 3598,
      "consists": 3599,
      "1977": 3600,
      "computing": 3601,
      "sn": 3602,
      "forum": 3603,
      "noted": 3604,
      "ethnic": 3605,
      "string": 3606,
      "1960": 3607,
      "communication": 3608,
      "substant": 3609,
      "generation": 3610,
      "troops": 3611,
      "inton": 3612,
      "mont": 3613,
      "rapid": 3614,
      "gdp": 3615,
      "ios": 3616,
      "individuals": 3617,
      "phone": 3618,
      "mr": 3619,
      "opin": 3620,
      "approximately": 3621,
      "hur": 3622,
      "kept": 3623,
      "figure": 3624,
      "daughter": 3625,
      "gs": 3626,
      "rid": 3627,
      "centuries": 3628,
      "beyond": 3629,
      "distribution": 3630,
      "academy": 3631,
      "jul": 3632,
      "quality": 3633,
      "ises": 3634,
      "poland": 3635,
      "financial": 3636,
      "logo": 3637,
      "why": 3638,
      "capac": 3639,
      "bring": 3640,
      "ux": 3641,
      "affair": 3642,
      "extrem": 3643,
      "hun": 3644,
      "adel": 3645,
      "prefer": 3646,
      ",''": 3647,
      "78": 3648,
      "aid": 3649,
      "ibm": 3650,
      "elled": 3651,
      "hus": 3652,
      "wars": 3653,
      "domain": 3654,
      "standards": 3655,
      "1930": 3656,
      "communist": 3657,
      "compound": 3658,
      "jur": 3659,
      "attribut": 3660,
      "technical": 3661,
      "gosp": 3662,
      "74": 3663,
      "reaction": 3664,
      "fundamental": 3665,
      "ients": 3666,
      "prono": 3667,
      "syl": 3668,
      "humans": 3669,
      "bil": 3670,
      "gul": 3671,
      "sort": 3672,
      "tel": 3673,
      "usage": 3674,
      "logic": 3675,
      "ift": 3676,
      "1966": 3677,
      "stock": 3678,
      "71": 3679,
      "ems": 3680,
      "1968": 3681,
      "bach": 3682,
      "speaking": 3683,
      "songs": 3684,
      "instru": 3685,
      "brief": 3686,
      "copyright": 3687,
      "topics": 3688,
      "needed": 3689,
      "tas": 3690,
      "feel": 3691,
      "harmon": 3692,
      "pronoun": 3693,
      "else": 3694,
      "performed": 3695,
      "provides": 3696,
      "visit": 3697,
      "applications": 3698,
      "anth": 3699,
      "mobile": 3700,
      "appointed": 3701,
      "hed": 3702,
      "archive": 3703,
      "gary": 3704,
      "ias": 3705,
      "regarded": 3706,
      "mn": 3707,
      "positions": 3708,
      "olymp": 3709,
      "mountain": 3710,
      "density": 3711,
      "ctors": 3712,
      "mode": 3713,
      "marriage": 3714,
      "hyper": 3715,
      "hydrogen": 3716,
      "een": 3717,
      "match": 3718,
      "lee": 3719,
      "aging": 3720,
      "fields": 3721,
      "succession": 3722,
      "ump": 3723,
      "varian": 3724,
      "intended": 3725,
      "1970s": 3726,
      "darwin": 3727,
      "strip": 3728,
      "actress": 3729,
      "phenomen": 3730,
      "behavior": 3731,
      "cham": 3732,
      "promin": 3733,
      "distance": 3734,
      "cab": 3735,
      "wave": 3736,
      "stren": 3737,
      "spoken": 3738,
      "ike": 3739,
      "police": 3740,
      "drive": 3741,
      "epis": 3742,
      "legend": 3743,
      "zeal": 3744,
      "palest": 3745,
      "!!": 3746,
      "demand": 3747,
      "supported": 3748,
      "ries": 3749,
      "candid": 3750,
      "serve": 3751,
      "datab": 3752,
      "hungary": 3753,
      "nis": 3754,
      "think": 3755,
      "1920": 3756,
      "alexand": 3757,
      "rey": 3758,
      "contrast": 3759,
      "reject": 3760,
      "limit": 3761,
      "afghanistan": 3762,
      "pitch": 3763,
      "sax": 3764,
      "comic": 3765,
      "ously": 3766,
      "diam": 3767,
      "'':": 3768,
      "glass": 3769,
      "ou": 3770,
      "turk": 3771,
      "athen": 3772,
      "ield": 3773,
      "actual": 3774,
      "johnson": 3775,
      "encies": 3776,
      "crown": 3777,
      "oppos": 3778,
      "nfl": 3779,
      "upper": 3780,
      "doctr": 3781,
      "jim": 3782,
      "fuel": 3783,
      "sel": 3784,
      "theories": 3785,
      "defe": 3786,
      "episo": 3787,
      "skill": 3788,
      "terror": 3789,
      "worked": 3790,
      "signed": 3791,
      "contemporary": 3792,
      "fourth": 3793,
      "allows": 3794,
      "argument": 3795,
      "ciples": 3796,
      "episode": 3797,
      "logical": 3798,
      "erson": 3799,
      "appearance": 3800,
      "columbia": 3801,
      "79": 3802,
      "lot": 3803,
      "unique": 3804,
      "emph": 3805,
      "spread": 3806,
      "miles": 3807,
      "dynam": 3808,
      "reign": 3809,
      "shire": 3810,
      "churches": 3811,
      "donald": 3812,
      "ema": 3813,
      "airport": 3814,
      "ala": 3815,
      "render": 3816,
      "supreme": 3817,
      "kin": 3818,
      "orph": 3819,
      "utr": 3820,
      "focus": 3821,
      "125": 3822,
      "mathematical": 3823,
      "alone": 3824,
      "streng": 3825,
      "fit": 3826,
      "tan": 3827,
      "inside": 3828,
      "alan": 3829,
      "trial": 3830,
      "formula": 3831,
      "scottish": 3832,
      "rod": 3833,
      "islamic": 3834,
      "description": 3835,
      "netic": 3836,
      "dict": 3837,
      "tes": 3838,
      "protection": 3839,
      "chos": 3840,
      "justice": 3841,
      "initial": 3842,
      "apse": 3843,
      "vote": 3844,
      "demonstr": 3845,
      "iop": 3846,
      "assu": 3847,
      "bern": 3848,
      "provin": 3849,
      "reached": 3850,
      "cze": 3851,
      "exchange": 3852,
      "dollar": 3853,
      "gate": 3854,
      "lis": 3855,
      "akes": 3856,
      "kore": 3857,
      "shall": 3858,
      "difference": 3859,
      "application": 3860,
      "explor": 3861,
      "holds": 3862,
      "bacter": 3863,
      "gives": 3864,
      "tell": 3865,
      "bang": 3866,
      "aware": 3867,
      "polish": 3868,
      "guine": 3869,
      "inois": 3870,
      "environmental": 3871,
      "notably": 3872,
      "sup2": 3873,
      "bush": 3874,
      "influenced": 3875,
      "andrew": 3876,
      "url": 3877,
      "nowiki": 3878,
      "ather": 3879,
      "hat": 3880,
      "previously": 3881,
      "atlantic": 3882,
      "extra": 3883,
      "joined": 3884,
      "vation": 3885,
      "iced": 3886,
      "entry": 3887,
      "eties": 3888,
      "plus": 3889,
      "device": 3890,
      "fixed": 3891,
      "cgi": 3892,
      "dur": 3893,
      "texas": 3894,
      "thin": 3895,
      "images": 3896,
      "extremely": 3897,
      "hl": 3898,
      "portugu": 3899,
      "73": 3900,
      "dv": 3901,
      "iang": 3902,
      "texts": 3903,
      "mentioned": 3904,
      "aper": 3905,
      "abstr": 3906,
      "promis": 3907,
      "arrang": 3908,
      "favor": 3909,
      "bury": 3910,
      "portion": 3911,
      "autom": 3912,
      "attract": 3913,
      "evol": 3914,
      "publications": 3915,
      "otto": 3916,
      "canon": 3917,
      "illinois": 3918,
      "models": 3919,
      "slight": 3920,
      "classic": 3921,
      "bic": 3922,
      "0000": 3923,
      "newsp": 3924,
      "transportation": 3925,
      "sweden": 3926,
      "poe": 3927,
      "ket": 3928,
      "goal": 3929,
      "featured": 3930,
      "portuguese": 3931,
      "reasons": 3932,
      "closed": 3933,
      "dynasty": 3934,
      "uten": 3935,
      "hours": 3936,
      "jean": 3937,
      "request": 3938,
      "expected": 3939,
      "mbl": 3940,
      "expans": 3941,
      "responsible": 3942,
      "stated": 3943,
      "usal": 3944,
      "plies": 3945,
      "marine": 3946,
      "qual": 3947,
      "izes": 3948,
      "audi": 3949,
      "armed": 3950,
      "giving": 3951,
      "scholars": 3952,
      "assign": 3953,
      "dry": 3954,
      "turned": 3955,
      "icode": 3956,
      "friends": 3957,
      "drop": 3958,
      "frequency": 3959,
      "icel": 3960,
      "pin": 3961,
      "forts": 3962,
      "icient": 3963,
      "unicode": 3964,
      "ards": 3965,
      "useful": 3966,
      "carried": 3967,
      "samp": 3968,
      "1911": 3969,
      "causes": 3970,
      "greatest": 3971,
      "controvers": 3972,
      "oking": 3973,
      "retr": 3974,
      "chall": 3975,
      "suc": 3976,
      "presidential": 3977,
      "iger": 3978,
      "reve": 3979,
      "core": 3980,
      "plane": 3981,
      "positive": 3982,
      "atomic": 3983,
      "equipment": 3984,
      "gab": 3985,
      "bron": 3986,
      "perman": 3987,
      "valley": 3988,
      "distinct": 3989,
      "imal": 3990,
      "artist": 3991,
      "negative": 3992,
      "secretary": 3993,
      "kel": 3994,
      "improv": 3995,
      "morph": 3996,
      "describe": 3997,
      "conson": 3998,
      "threat": 3999,
      "diag": 4000,
      "moral": 4001,
      "activities": 4002,
      "lb": 4003,
      "anto": 4004,
      "ads": 4005,
      "conscious": 4006,
      "electro": 4007,
      "hay": 4008,
      "etics": 4009,
      "2nd": 4010,
      "statistics": 4011,
      "voice": 4012,
      "senate": 4013,
      "accoun": 4014,
      "archae": 4015,
      "persian": 4016,
      "connected": 4017,
      "dj": 4018,
      "purch": 4019,
      "vary": 4020,
      "completely": 4021,
      "principle": 4022,
      "opposition": 4023,
      "metro": 4024,
      "eliza": 4025,
      "iga": 4026,
      "sover": 4027,
      "emphas": 4028,
      "gh": 4029,
      "phase": 4030,
      "1965": 4031,
      "details": 4032,
      "chapter": 4033,
      "diamond": 4034,
      "''(": 4035,
      "unlike": 4036,
      "temple": 4037,
      "follows": 4038,
      "remaining": 4039,
      "critics": 4040,
      "teams": 4041,
      "dang": 4042,
      "anda": 4043,
      "gnu": 4044,
      "indones": 4045,
      "nt": 4046,
      "atures": 4047,
      "understanding": 4048,
      "ena": 4049,
      "unknown": 4050,
      "expression": 4051,
      "possibly": 4052,
      "ole": 4053,
      "usual": 4054,
      "abol": 4055,
      "fox": 4056,
      "paralle": 4057,
      "currency": 4058,
      "wales": 4059,
      "doug": 4060,
      "satell": 4061,
      "agriculture": 4062,
      "apart": 4063,
      "lincol": 4064,
      "',": 4065,
      "uro": 4066,
      "phi": 4067,
      "specif": 4068,
      "intellect": 4069,
      "1964": 4070,
      "continue": 4071,
      "farm": 4072,
      "feder": 4073,
      "bulgar": 4074,
      "watch": 4075,
      "seems": 4076,
      "zealand": 4077,
      "ione": 4078,
      "wan": 4079,
      "alk": 4080,
      "minus": 4081,
      "420": 4082,
      "gno": 4083,
      "cook": 4084,
      "ulations": 4085,
      "plants": 4086,
      "rug": 4087,
      "omin": 4088,
      "lives": 4089,
      "aints": 4090,
      "christians": 4091,
      "genetic": 4092,
      "dates": 4093,
      "alban": 4094,
      "root": 4095,
      "crick": 4096,
      "clean": 4097,
      "linear": 4098,
      "weapons": 4099,
      "pit": 4100,
      "zz": 4101,
      "stub": 4102,
      "opposed": 4103,
      "clar": 4104,
      "somewhat": 4105,
      "guinea": 4106,
      "lincoln": 4107,
      "hindu": 4108,
      "ales": 4109,
      "drum": 4110,
      "cccc": 4111,
      "honor": 4112,
      "ante": 4113,
      "gel": 4114,
      "compared": 4115,
      "genes": 4116,
      "newton": 4117,
      "powerful": 4118,
      "pak": 4119,
      "combat": 4120,
      "igration": 4121,
      "zero": 4122,
      "exists": 4123,
      "indeed": 4124,
      "pure": 4125,
      "extended": 4126,
      "knight": 4127,
      "refle": 4128,
      "harvard": 4129,
      "liqu": 4130,
      "identity": 4131,
      "democracy": 4132,
      "collapse": 4133,
      "iated": 4134,
      "tz": 4135,
      "icit": 4136,
      "iles": 4137,
      "training": 4138,
      "dipl": 4139,
      "occasion": 4140,
      "lock": 4141,
      "attacks": 4142,
      "murder": 4143,
      "swe": 4144,
      "perfect": 4145,
      "illustr": 4146,
      "cert": 4147,
      "organizations": 4148,
      "sons": 4149,
      "decre": 4150,
      "impact": 4151,
      "1960s": 4152,
      "hands": 4153,
      "rational": 4154,
      "amaz": 4155,
      "ull": 4156,
      "genre": 4157,
      "poses": 4158,
      "combined": 4159,
      "bak": 4160,
      "cp": 4161,
      "igen": 4162,
      "extin": 4163,
      "microsoft": 4164,
      "fans": 4165,
      "pent": 4166,
      "differences": 4167,
      "marked": 4168,
      "lon": 4169,
      "paren": 4170,
      "cool": 4171,
      "understand": 4172,
      "cards": 4173,
      "quarter": 4174,
      "slo": 4175,
      "origins": 4176,
      "occurs": 4177,
      "resulting": 4178,
      "clock": 4179,
      "thers": 4180,
      "eeee": 4181,
      "families": 4182,
      "atmo": 4183,
      "asian": 4184,
      "ava": 4185,
      "contact": 4186,
      "1963": 4187,
      ")''": 4188,
      "onian": 4189,
      "unity": 4190,
      "attempts": 4191,
      "indiana": 4192,
      "failed": 4193,
      "kg": 4194,
      "quantum": 4195,
      "jones": 4196,
      "conference": 4197,
      "composed": 4198,
      "bru": 4199,
      "alism": 4200,
      "firm": 4201,
      "athe": 4202,
      "fear": 4203,
      "kh": 4204,
      "rence": 4205,
      "classes": 4206,
      "denmark": 4207,
      "allowing": 4208,
      "represented": 4209,
      "carol": 4210,
      "technique": 4211,
      "decided": 4212,
      "declared": 4213,
      "equivalent": 4214,
      "database": 4215,
      "incorpor": 4216,
      "mond": 4217,
      "runs": 4218,
      "label": 4219,
      "republican": 4220,
      "chester": 4221,
      "clinton": 4222,
      "chile": 4223,
      "crew": 4224,
      "juda": 4225,
      "priest": 4226,
      "jac": 4227,
      "kins": 4228,
      "retain": 4229,
      "arc": 4230,
      "cting": 4231,
      "growing": 4232,
      "automated": 4233,
      "cellpadding": 4234,
      "matic": 4235,
      "piece": 4236,
      "theorem": 4237,
      "aled": 4238,
      "becoming": 4239,
      "economics": 4240,
      "gospel": 4241,
      "evil": 4242,
      "peoples": 4243,
      "easily": 4244,
      "avoid": 4245,
      "suff": 4246,
      "nothing": 4247,
      "otherwise": 4248,
      "chronic": 4249,
      "110": 4250,
      "debate": 4251,
      "algorithm": 4252,
      "toms": 4253,
      "ido": 4254,
      "poet": 4255,
      "goth": 4256,
      "feet": 4257,
      "joint": 4258,
      "infobox": 4259,
      "presents": 4260,
      "contributions": 4261,
      "rupt": 4262,
      "umin": 4263,
      "succeed": 4264,
      "fro": 4265,
      "absol": 4266,
      "belong": 4267,
      "fantasy": 4268,
      "immediately": 4269,
      "nine": 4270,
      "controlled": 4271,
      "xx": 4272,
      "split": 4273,
      "crime": 4274,
      "efforts": 4275,
      "factor": 4276,
      "prove": 4277,
      "testament": 4278,
      "spacing": 4279,
      "expansion": 4280,
      "iven": 4281,
      "proph": 4282,
      "1962": 4283,
      "scientists": 4284,
      "igan": 4285,
      "hunt": 4286,
      "choice": 4287,
      "directed": 4288,
      "deliver": 4289,
      "rix": 4290,
      "''-": 4291,
      "herit": 4292,
      "communities": 4293,
      "student": 4294,
      "croat": 4295,
      "florida": 4296,
      "imag": 4297,
      "daily": 4298,
      "advoc": 4299,
      "sq": 4300,
      "1961": 4301,
      "determined": 4302,
      "aving": 4303,
      "max": 4304,
      "tonic": 4305,
      "victory": 4306,
      "dram": 4307,
      "constitutional": 4308,
      "advantage": 4309,
      "icians": 4310,
      "cos": 4311,
      "adult": 4312,
      "verse": 4313,
      "versy": 4314,
      "owned": 4315,
      "gradu": 4316,
      "coach": 4317,
      "25t15": 4318,
      "discovery": 4319,
      "inian": 4320,
      "stations": 4321,
      "relative": 4322,
      "americans": 4323,
      "belg": 4324,
      "scene": 4325,
      "mam": 4326,
      "ruled": 4327,
      "entertain": 4328,
      "aus": 4329,
      "presence": 4330,
      "federation": 4331,
      "ckey": 4332,
      "cru": 4333,
      "effective": 4334,
      "situation": 4335,
      "controversy": 4336,
      "income": 4337,
      "patri": 4338,
      "risk": 4339,
      "ican": 4340,
      "truth": 4341,
      "daniel": 4342,
      "materials": 4343,
      "encour": 4344,
      "christmas": 4345,
      "railway": 4346,
      "fly": 4347,
      "ieval": 4348,
      "02t": 4349,
      "equation": 4350,
      "oxy": 4351,
      "frederic": 4352,
      "templ": 4353,
      "containing": 4354,
      "ifying": 4355,
      "composer": 4356,
      "aco": 4357,
      "ote": 4358,
      "''')": 4359,
      "acting": 4360,
      "substantial": 4361,
      "iter": 4362,
      "eman": 4363,
      "predict": 4364,
      "disambiguation": 4365,
      "entirely": 4366,
      "ien": 4367,
      "bean": 4368,
      "bos": 4369,
      "crete": 4370,
      "francisco": 4371,
      "infl": 4372,
      "traf": 4373,
      "1939": 4374,
      "citizens": 4375,
      "sar": 4376,
      "infr": 4377,
      "ura": 4378,
      "extensive": 4379,
      "achus": 4380,
      "binary": 4381,
      "territories": 4382,
      "aska": 4383,
      "carto": 4384,
      "begin": 4385,
      "processing": 4386,
      "babyl": 4387,
      "earliest": 4388,
      "dale": 4389,
      "agen": 4390,
      "writings": 4391,
      "jr": 4392,
      "abra": 4393,
      "nucle": 4394,
      "iom": 4395,
      "rob": 4396,
      "cou": 4397,
      "spr": 4398,
      "protestant": 4399,
      "tower": 4400,
      "lyn": 4401,
      "reports": 4402,
      "silver": 4403,
      "announced": 4404,
      "meant": 4405,
      "1948": 4406,
      "musician": 4407,
      "traditionally": 4408,
      "burgh": 4409,
      "spiritual": 4410,
      "vice": 4411,
      "delta": 4412,
      "cable": 4413,
      "forward": 4414,
      "principles": 4415,
      "circuit": 4416,
      "dc": 4417,
      "carl": 4418,
      "invasion": 4419,
      "gods": 4420,
      "mud": 4421,
      "erc": 4422,
      "stable": 4423,
      "ayed": 4424,
      "extension": 4425,
      "auth": 4426,
      "guy": 4427,
      "connection": 4428,
      "femin": 4429,
      "reduced": 4430,
      "recognized": 4431,
      "combination": 4432,
      "bag": 4433,
      "theless": 4434,
      "proof": 4435,
      "ners": 4436,
      "movies": 4437,
      "georgia": 4438,
      "cosm": 4439,
      "trig": 4440,
      "germanic": 4441,
      "initially": 4442,
      "chess": 4443,
      "umn": 4444,
      "lists": 4445,
      "rif": 4446,
      "robot": 4447,
      "analy": 4448,
      "itzer": 4449,
      "1950": 4450,
      "cules": 4451,
      "dic": 4452,
      "lav": 4453,
      "plate": 4454,
      "bottom": 4455,
      "argued": 4456,
      "agency": 4457,
      "proced": 4458,
      "output": 4459,
      "marx": 4460,
      "pip": 4461,
      "elizabeth": 4462,
      "chain": 4463,
      "iana": 4464,
      "fictional": 4465,
      "suggested": 4466,
      "ulate": 4467,
      "requires": 4468,
      "1940": 4469,
      "tools": 4470,
      "pick": 4471,
      "captain": 4472,
      "historic": 4473,
      "random": 4474,
      "diplom": 4475,
      "aqu": 4476,
      "bid": 4477,
      "pse": 4478,
      "says": 4479,
      "cellspacing": 4480,
      "reality": 4481,
      "byz": 4482,
      "inj": 4483,
      "parad": 4484,
      "1958": 4485,
      "portugal": 4486,
      "fighting": 4487,
      "fare": 4488,
      "etts": 4489,
      "price": 4490,
      "goes": 4491,
      "battles": 4492,
      "plays": 4493,
      "civilization": 4494,
      "intellectual": 4495,
      "bf": 4496,
      "altar": 4497,
      "cris": 4498,
      "figures": 4499,
      "pakistan": 4500,
      "onso": 4501,
      "beaut": 4502,
      "deut": 4503,
      "criticism": 4504,
      "eign": 4505,
      "consum": 4506,
      "brian": 4507,
      "antine": 4508,
      "coordin": 4509,
      "aux": 4510,
      "factors": 4511,
      "lev": 4512,
      "citizen": 4513,
      "staff": 4514,
      "electrical": 4515,
      "judaism": 4516,
      "aer": 4517,
      "cow": 4518,
      "files": 4519,
      "typical": 4520,
      "license": 4521,
      "completed": 4522,
      "atari": 4523,
      "bird": 4524,
      "massachus": 4525,
      "ario": 4526,
      "cuba": 4527,
      "chair": 4528,
      "suit": 4529,
      "spectr": 4530,
      "officially": 4531,
      "hardware": 4532,
      "edge": 4533,
      "supply": 4534,
      "sovereign": 4535,
      "belgium": 4536,
      "stu": 4537,
      "ibn": 4538,
      "artists": 4539,
      "150": 4540,
      "annual": 4541,
      "existing": 4542,
      "specifically": 4543,
      "keley": 4544,
      "simpl": 4545,
      "mexico": 4546,
      "input": 4547,
      "devices": 4548,
      "massachusetts": 4549,
      "gained": 4550,
      "join": 4551,
      "ighter": 4552,
      "custom": 4553,
      "1947": 4554,
      "projects": 4555,
      "violence": 4556,
      "insp": 4557,
      "hear": 4558,
      "unders": 4559,
      "owners": 4560,
      "deriv": 4561,
      "depending": 4562,
      "mos": 4563,
      "earl": 4564,
      "statement": 4565,
      "cuis": 4566,
      "hence": 4567,
      "partial": 4568,
      "structures": 4569,
      "celtic": 4570,
      "gol": 4571,
      "attention": 4572,
      "popularity": 4573,
      "tical": 4574,
      "alfred": 4575,
      "aka": 4576,
      "galax": 4577,
      "lun": 4578,
      "loy": 4579,
      "literary": 4580,
      "extreme": 4581,
      "satellite": 4582,
      "3rd": 4583,
      "gay": 4584,
      "ening": 4585,
      "aria": 4586,
      "ils": 4587,
      "berkeley": 4588,
      "margin": 4589,
      "eye": 4590,
      "declar": 4591,
      "message": 4592,
      "authors": 4593,
      "aristo": 4594,
      "forth": 4595,
      "boe": 4596,
      "ugg": 4597,
      "grammar": 4598,
      "picture": 4599,
      "gem": 4600,
      "kir": 4601,
      "winning": 4602,
      "conqu": 4603,
      "medieval": 4604,
      "slightly": 4605,
      "gio": 4606,
      "consequ": 4607,
      "epist": 4608,
      "please": 4609,
      "damage": 4610,
      "storage": 4611,
      "eug": 4612,
      "hex": 4613,
      "wanted": 4614,
      "commonwealth": 4615,
      "steel": 4616,
      "polytonic": 4617,
      "nasa": 4618,
      "affairs": 4619,
      "advert": 4620,
      "beta": 4621,
      "twenty": 4622,
      "goog": 4623,
      "ciation": 4624,
      "flat": 4625,
      "graphical": 4626,
      "protein": 4627,
      "championship": 4628,
      "composition": 4629,
      "moment": 4630,
      "holid": 4631,
      "usalem": 4632,
      "bis": 4633,
      "och": 4634,
      "blues": 4635,
      "check": 4636,
      "instein": 4637,
      "occurred": 4638,
      "kon": 4639,
      "zen": 4640,
      "dream": 4641,
      ";;": 4642,
      "shap": 4643,
      "rout": 4644,
      "logy": 4645,
      "stro": 4646,
      "prominent": 4647,
      "closely": 4648,
      "theatre": 4649,
      "gent": 4650,
      "iti": 4651,
      "cars": 4652,
      "600": 4653,
      "calvin": 4654,
      "organized": 4655,
      "electricity": 4656,
      "learning": 4657,
      "abstract": 4658,
      "rig": 4659,
      "enger": 4660,
      "entered": 4661,
      "continental": 4662,
      "argentina": 4663,
      "gang": 4664,
      "wear": 4665,
      "ito": 4666,
      "opened": 4667,
      "danish": 4668,
      "discuss": 4669,
      "gly": 4670,
      "identified": 4671,
      "begins": 4672,
      "agreed": 4673,
      "jerusalem": 4674,
      "andon": 4675,
      "pian": 4676,
      "toward": 4677,
      "hosp": 4678,
      "azz": 4679,
      "buildings": 4680,
      "instruments": 4681,
      "parallel": 4682,
      "yan": 4683,
      "lewis": 4684,
      "chi": 4685,
      "compat": 4686,
      "houses": 4687,
      "shoot": 4688,
      "appropri": 4689,
      "sister": 4690,
      "competition": 4691,
      "ubl": 4692,
      "plot": 4693,
      "endo": 4694,
      "israeli": 4695,
      "lind": 4696,
      "vs": 4697,
      "inhabit": 4698,
      "otic": 4699,
      "1941": 4700,
      "estimated": 4701,
      "compos": 4702,
      "aber": 4703,
      "doctrine": 4704,
      "wee": 4705,
      "solar": 4706,
      "hes": 4707,
      "sed": 4708,
      "rose": 4709,
      "abs": 4710,
      "fing": 4711,
      "gain": 4712,
      "eta": 4713,
      "maps": 4714,
      "normally": 4715,
      "moore": 4716,
      "shell": 4717,
      "assass": 4718,
      "homosexual": 4719,
      "nazi": 4720,
      "wire": 4721,
      "castle": 4722,
      "destroyed": 4723,
      "cock": 4724,
      "importance": 4725,
      "opening": 4726,
      "biological": 4727,
      "flagicon": 4728,
      "defeated": 4729,
      "pher": 4730,
      "interface": 4731,
      "processes": 4732,
      "increasingly": 4733,
      "bits": 4734,
      "uan": 4735,
      "argue": 4736,
      "aspects": 4737,
      "'.": 4738,
      "destru": 4739,
      "speakers": 4740,
      "soul": 4741,
      "governments": 4742,
      "hungarian": 4743,
      "heim": 4744,
      "veget": 4745,
      "feed": 4746,
      "ohio": 4747,
      "traffic": 4748,
      "pes": 4749,
      "1949": 4750,
      "metric": 4751,
      "switch": 4752,
      "circle": 4753,
      "mountains": 4754,
      "manner": 4755,
      "nish": 4756,
      "anc": 4757,
      "theast": 4758,
      "continuous": 4759,
      "controversial": 4760,
      "codes": 4761,
      "beliefs": 4762,
      "exhib": 4763,
      "1956": 4764,
      "munic": 4765,
      "offered": 4766,
      "ching": 4767,
      "shape": 4768,
      "discover": 4769,
      "train": 4770,
      "traditions": 4771,
      "situ": 4772,
      "attempted": 4773,
      "machines": 4774,
      "aks": 4775,
      "trac": 4776,
      "proceed": 4777,
      "preced": 4778,
      "holly": 4779,
      "naval": 4780,
      "bia": 4781,
      "tos": 4782,
      "fleet": 4783,
      "boys": 4784,
      "1944": 4785,
      "resulted": 4786,
      "vowel": 4787,
      "permanent": 4788,
      "yell": 4789,
      "ogue": 4790,
      "batman": 4791,
      "sides": 4792,
      "titles": 4793,
      "cycl": 4794,
      "workers": 4795,
      "diver": 4796,
      "czech": 4797,
      "oxygen": 4798,
      "mist": 4799,
      "assum": 4800,
      "abandon": 4801,
      "visual": 4802,
      "penn": 4803,
      "atoms": 4804,
      "tag": 4805,
      "beer": 4806,
      "brun": 4807,
      "academic": 4808,
      "juris": 4809,
      "cuisine": 4810,
      "want": 4811,
      "semi": 4812,
      "bran": 4813,
      "ody": 4814,
      "exclus": 4815,
      "ros": 4816,
      "elim": 4817,
      "faq": 4818,
      "needs": 4819,
      "concepts": 4820,
      "einstein": 4821,
      "mort": 4822,
      "artific": 4823,
      "tribes": 4824,
      "heaven": 4825,
      "--------": 4826,
      "thousands": 4827,
      "prec": 4828,
      "1946": 4829,
      "characteristics": 4830,
      "scholar": 4831,
      "comedy": 4832,
      "inated": 4833,
      "actors": 4834,
      "depict": 4835,
      "1959": 4836,
      "institutions": 4837,
      "carib": 4838,
      "safety": 4839,
      "friedrich": 4840,
      "turkish": 4841,
      "1957": 4842,
      "symbols": 4843,
      "interpretation": 4844,
      "depression": 4845,
      "clim": 4846,
      "hydr": 4847,
      "blockquote": 4848,
      "straight": 4849,
      "800": 4850,
      "arrow": 4851,
      "eme": 4852,
      "alliance": 4853,
      "frag": 4854,
      "colorado": 4855,
      "decades": 4856,
      "galile": 4857,
      "bce": 4858,
      "kan": 4859,
      "isol": 4860,
      "lex": 4861,
      "etary": 4862,
      "blin": 4863,
      "continues": 4864,
      "phrase": 4865,
      "virginia": 4866,
      "chosen": 4867,
      "leave": 4868,
      "mental": 4869,
      "radiation": 4870,
      "cultures": 4871,
      "franklin": 4872,
      "psychology": 4873,
      "roughly": 4874,
      "festival": 4875,
      "cant": 4876,
      "sant": 4877,
      "wi": 4878,
      "alt": 4879,
      "adapt": 4880,
      "sul": 4881,
      "creating": 4882,
      "documents": 4883,
      "pronounced": 4884,
      "snow": 4885,
      "alty": 4886,
      "ayer": 4887,
      "turkey": 4888,
      "bodies": 4889,
      "pical": 4890,
      "sess": 4891,
      "comb": 4892,
      "phy": 4893,
      "hockey": 4894,
      "laure": 4895,
      "topic": 4896,
      "retrie": 4897,
      "3d": 4898,
      "rick": 4899,
      "crypto": 4900,
      "alaska": 4901,
      "keyboard": 4902,
      "mixed": 4903,
      "dess": 4904,
      "ras": 4905,
      "told": 4906,
      "ishes": 4907,
      "myster": 4908,
      "policies": 4909,
      "inspired": 4910,
      "representation": 4911,
      "failure": 4912,
      "swedish": 4913,
      "seats": 4914,
      "ologies": 4915,
      "practical": 4916,
      "asked": 4917,
      "criminal": 4918,
      "capacity": 4919,
      "attach": 4920,
      "secondary": 4921,
      "helped": 4922,
      "goods": 4923,
      "questions": 4924,
      "expressed": 4925,
      "fasc": 4926,
      "lies": 4927,
      "enjoy": 4928,
      "marks": 4929,
      "advance": 4930,
      "tact": 4931,
      "passage": 4932,
      "rab": 4933,
      "bee": 4934,
      "vector": 4935,
      "effort": 4936,
      "settlement": 4937,
      "clust": 4938,
      "someone": 4939,
      "prep": 4940,
      "1952": 4941,
      "1955": 4942,
      "palace": 4943,
      "yellow": 4944,
      "vast": 4945,
      "inf": 4946,
      "seat": 4947,
      "desert": 4948,
      "bm": 4949,
      "fash": 4950,
      "eline": 4951,
      "divine": 4952,
      "crow": 4953,
      "vocal": 4954,
      "legislative": 4955,
      "'';": 4956,
      "abilities": 4957,
      "worship": 4958,
      "discipl": 4959,
      "commander": 4960,
      "minutes": 4961,
      "chron": 4962,
      "heavily": 4963,
      "-----": 4964,
      "respectively": 4965,
      "sie": 4966,
      "shtml": 4967,
      "prise": 4968,
      "observed": 4969,
      "ethiop": 4970,
      "gallery": 4971,
      "pictures": 4972,
      "dvd": 4973,
      "bann": 4974,
      "extent": 4975,
      "novels": 4976,
      "manufactur": 4977,
      "jacks": 4978,
      "sig": 4979,
      "atlas": 4980,
      "subsequent": 4981,
      "owa": 4982,
      "spot": 4983,
      "blind": 4984,
      "egyptian": 4985,
      "dal": 4986,
      "thetic": 4987,
      "historians": 4988,
      "sufficient": 4989,
      "hair": 4990,
      "tin": 4991,
      "leaving": 4992,
      "producer": 4993,
      "cinema": 4994,
      "subsequently": 4995,
      "napo": 4996,
      "semit": 4997,
      "oles": 4998,
      "aine": 4999,
      "raised": 5000,
      "1953": 5001,
      "angeles": 5002,
      "drugs": 5003,
      "meeting": 5004,
      "parents": 5005,
      "rhy": 5006,
      "enna": 5007,
      "brid": 5008,
      "reven": 5009,
      "radical": 5010,
      "hier": 5011,
      "neutr": 5012,
      "philosophical": 5013,
      "ordinary": 5014,
      "fame": 5015,
      "kur": 5016,
      "mers": 5017,
      "tam": 5018,
      "rese": 5019,
      "esper": 5020,
      "caes": 5021,
      "pieces": 5022,
      "ost": 5023,
      "chlor": 5024,
      "esty": 5025,
      "pressed": 5026,
      "professor": 5027,
      "colonial": 5028,
      "mechanics": 5029,
      "occupied": 5030,
      "xi": 5031,
      "insur": 5032,
      "austrian": 5033,
      "formerly": 5034,
      "regarding": 5035,
      "1000": 5036,
      "pound": 5037,
      "weapon": 5038,
      "stadium": 5039,
      "kal": 5040,
      "18th": 5041,
      "ordered": 5042,
      "presented": 5043,
      "judic": 5044,
      "strength": 5045,
      "bing": 5046,
      "fres": 5047,
      "rm": 5048,
      "rian": 5049,
      "prising": 5050,
      "symp": 5051,
      "store": 5052,
      "constructed": 5053,
      "dedic": 5054,
      "fs": 5055,
      "hd": 5056,
      "publication": 5057,
      "village": 5058,
      "hugh": 5059,
      "mund": 5060,
      "inth": 5061,
      "quad": 5062,
      "130": 5063,
      "philosopher": 5064,
      "editor": 5065,
      "iting": 5066,
      "stress": 5067,
      "shad": 5068,
      "doc": 5069,
      "awards": 5070,
      "ye": 5071,
      "jection": 5072,
      "translated": 5073,
      "eco": 5074,
      "poll": 5075,
      "worldwide": 5076,
      "organic": 5077,
      "towns": 5078,
      "fifth": 5079,
      "enemy": 5080,
      "rivers": 5081,
      "replac": 5082,
      "arbit": 5083,
      "emot": 5084,
      "capable": 5085,
      "1933": 5086,
      "provinces": 5087,
      "hub": 5088,
      "considerable": 5089,
      "leadership": 5090,
      "iat": 5091,
      "rates": 5092,
      "construct": 5093,
      "ceived": 5094,
      "medium": 5095,
      "layer": 5096,
      "efficient": 5097,
      "google": 5098,
      "ette": 5099,
      "obl": 5100,
      "reli": 5101,
      "absor": 5102,
      "1954": 5103,
      "greatly": 5104,
      "drawn": 5105,
      "administrative": 5106,
      "abraham": 5107,
      "4th": 5108,
      "cen": 5109,
      "vac": 5110,
      "contest": 5111,
      "russell": 5112,
      "purposes": 5113,
      "soldiers": 5114,
      "gamma": 5115,
      "indonesia": 5116,
      "bure": 5117,
      "yn": 5118,
      "answer": 5119,
      "dialect": 5120,
      "armen": 5121,
      "gil": 5122,
      "seas": 5123,
      "spent": 5124,
      "elector": 5125,
      "listed": 5126,
      "resistance": 5127,
      "elve": 5128,
      "neither": 5129,
      "hole": 5130,
      "suppor": 5131,
      "movements": 5132,
      "uck": 5133,
      "orbit": 5134,
      "touch": 5135,
      "dragon": 5136,
      "politician": 5137,
      "receive": 5138,
      "arus": 5139,
      "manif": 5140,
      "classification": 5141,
      "dialects": 5142,
      "rav": 5143,
      "beck": 5144,
      "trust": 5145,
      "sche": 5146,
      "sciences": 5147,
      "1943": 5148,
      "easy": 5149,
      "cule": 5150,
      "michigan": 5151,
      "racing": 5152,
      "principal": 5153,
      "missile": 5154,
      "1918": 5155,
      "patent": 5156,
      "ruth": 5157,
      "olar": 5158,
      "strike": 5159,
      "columbus": 5160,
      "fy": 5161,
      "grant": 5162,
      "grew": 5163,
      "pology": 5164,
      "ultim": 5165,
      "restrictions": 5166,
      "fine": 5167,
      "anglic": 5168,
      "ansas": 5169,
      "similarly": 5170,
      "geometry": 5171,
      "gulf": 5172,
      "dia": 5173,
      "scand": 5174,
      "push": 5175,
      "sector": 5176,
      "fruit": 5177,
      "opera": 5178,
      "faces": 5179,
      "yes": 5180,
      "ivia": 5181,
      "spo": 5182,
      "clip": 5183,
      "founder": 5184,
      "udes": 5185,
      "defend": 5186,
      "ethics": 5187,
      "bind": 5188,
      "idae": 5189,
      "pron": 5190,
      "revol": 5191,
      "liquid": 5192,
      "fashion": 5193,
      "ilton": 5194,
      "survey": 5195,
      "mile": 5196,
      "cler": 5197,
      "pruss": 5198,
      "supposed": 5199,
      "veland": 5200,
      "whereas": 5201,
      "resolution": 5202,
      "minim": 5203,
      "explan": 5204,
      "agu": 5205,
      "neo": 5206,
      "valid": 5207,
      "defence": 5208,
      "wides": 5209,
      "launched": 5210,
      "fusion": 5211,
      "hart": 5212,
      "sle": 5213,
      "alber": 5214,
      "exam": 5215,
      "demographics": 5216,
      "('''": 5217,
      "dot": 5218,
      "hond": 5219,
      "mk": 5220,
      "categories": 5221,
      "persons": 5222,
      "shortly": 5223,
      "false": 5224,
      "hiv": 5225,
      "tall": 5226,
      "cot": 5227,
      "chamber": 5228,
      "boeing": 5229,
      "haz": 5230,
      "iments": 5231,
      "degre": 5232,
      "determ": 5233,
      "apy": 5234,
      "uston": 5235,
      "describes": 5236,
      "strategy": 5237,
      "jackson": 5238,
      "hid": 5239,
      "recomm": 5240,
      "job": 5241,
      "iling": 5242,
      "tried": 5243,
      "fection": 5244,
      "pub": 5245,
      "youth": 5246,
      "stephen": 5247,
      "emperors": 5248,
      "kenned": 5249,
      "publishing": 5250,
      "selected": 5251,
      "dispute": 5252,
      "alexandria": 5253,
      "narr": 5254,
      "fee": 5255,
      "christo": 5256,
      "provision": 5257,
      "twelve": 5258,
      "repeated": 5259,
      "aids": 5260,
      "sund": 5261,
      "aling": 5262,
      "maximum": 5263,
      "defeat": 5264,
      "1942": 5265,
      "apping": 5266,
      "narrow": 5267,
      "alleged": 5268,
      "wolf": 5269,
      "reput": 5270,
      "duck": 5271,
      "williams": 5272,
      "arbitr": 5273,
      "degrees": 5274,
      "oid": 5275,
      "negot": 5276,
      "newspaper": 5277,
      "oct": 5278,
      "trip": 5279,
      "harry": 5280,
      "determine": 5281,
      "cleveland": 5282,
      "1936": 5283,
      "1937": 5284,
      "satis": 5285,
      "bart": 5286,
      "1929": 5287,
      "shared": 5288,
      "constell": 5289,
      "particle": 5290,
      "descend": 5291,
      "rus": 5292,
      "inity": 5293,
      "ariz": 5294,
      "sect": 5295,
      "dublin": 5296,
      "genus": 5297,
      "producing": 5298,
      "score": 5299,
      "measures": 5300,
      "isaac": 5301,
      "virtual": 5302,
      "rt": 5303,
      "vul": 5304,
      "anything": 5305,
      "particles": 5306,
      "scen": 5307,
      "distinction": 5308,
      "shop": 5309,
      "tood": 5310,
      "confeder": 5311,
      "detro": 5312,
      "1900": 5313,
      "gibr": 5314,
      "budget": 5315,
      "teaching": 5316,
      "opposite": 5317,
      "consonant": 5318,
      "artificial": 5319,
      "chad": 5320,
      "180": 5321,
      "doing": 5322,
      "occasionally": 5323,
      "crisis": 5324,
      "zilla": 5325,
      "hour": 5326,
      "1950s": 5327,
      "01t": 5328,
      "dated": 5329,
      "theme": 5330,
      "pra": 5331,
      "1934": 5332,
      "douglas": 5333,
      "nab": 5334,
      "roots": 5335,
      "representatives": 5336,
      "samuel": 5337,
      "ota": 5338,
      "admir": 5339,
      "ares": 5340,
      "250": 5341,
      "practices": 5342,
      "colonies": 5343,
      "ratio": 5344,
      "understood": 5345,
      "hans": 5346,
      "lith": 5347,
      "finnish": 5348,
      "prem": 5349,
      "breed": 5350,
      "molecular": 5351,
      "modo": 5352,
      "verb": 5353,
      "ople": 5354,
      "door": 5355,
      "mormon": 5356,
      "walk": 5357,
      "throne": 5358,
      "gibraltar": 5359,
      "1922": 5360,
      "granted": 5361,
      "dos": 5362,
      "rent": 5363,
      "uct": 5364,
      "recip": 5365,
      "imdb": 5366,
      "facts": 5367,
      "hamilton": 5368,
      "banks": 5369,
      "revolutionary": 5370,
      "intelligent": 5371,
      "??": 5372,
      "gender": 5373,
      "uded": 5374,
      "expensive": 5375,
      "bull": 5376,
      "manager": 5377,
      "detroit": 5378,
      "setting": 5379,
      "killing": 5380,
      "awarded": 5381,
      "pool": 5382,
      "finite": 5383,
      "byzantine": 5384,
      "fen": 5385,
      "saints": 5386,
      "yer": 5387,
      "pread": 5388,
      "recording": 5389,
      "issued": 5390,
      "detailed": 5391,
      "agricultural": 5392,
      "tox": 5393,
      "emon": 5394,
      "matrix": 5395,
      "aneous": 5396,
      "opinion": 5397,
      "dick": 5398,
      "kom": 5399,
      "plans": 5400,
      "lins": 5401,
      "studied": 5402,
      "1938": 5403,
      "oted": 5404,
      "mathbf": 5405,
      "buff": 5406,
      "install": 5407,
      "massive": 5408,
      "vak": 5409,
      "portr": 5410,
      "everything": 5411,
      "influential": 5412,
      "educational": 5413,
      "victim": 5414,
      "prohib": 5415,
      "hitler": 5416,
      "widespread": 5417,
      "cof": 5418,
      "eur": 5419,
      "error": 5420,
      "dylan": 5421,
      "directory": 5422,
      "inhabitants": 5423,
      "aar": 5424,
      "bug": 5425,
      "vit": 5426,
      "iled": 5427,
      "oph": 5428,
      "resol": 5429,
      "borough": 5430,
      "surrounding": 5431,
      "itarian": 5432,
      "sph": 5433,
      "hein": 5434,
      "velt": 5435,
      "1951": 5436,
      "courts": 5437,
      "clearly": 5438,
      "exception": 5439,
      "caribbean": 5440,
      "gust": 5441,
      "pione": 5442,
      "uv": 5443,
      "thes": 5444,
      "agent": 5445,
      "oldest": 5446,
      "120": 5447,
      "planned": 5448,
      "eat": 5449,
      "flying": 5450,
      "slav": 5451,
      "anglo": 5452,
      "socialist": 5453,
      "weeks": 5454,
      "wed": 5455,
      "agree": 5456,
      "foss": 5457,
      "transition": 5458,
      "kent": 5459,
      "restr": 5460,
      "ologists": 5461,
      "cricket": 5462,
      "atmosphere": 5463,
      "inflation": 5464,
      "esperanto": 5465,
      "beng": 5466,
      "represents": 5467,
      "15z": 5468,
      "brothers": 5469,
      "complexity": 5470,
      "rub": 5471,
      "ori": 5472,
      "commodo": 5473,
      "heard": 5474,
      "physic": 5475,
      "infinite": 5476,
      "arizona": 5477,
      "hang": 5478,
      "route": 5479,
      "128": 5480,
      "achieved": 5481,
      "kid": 5482,
      "ett": 5483,
      "angle": 5484,
      "eva": 5485,
      "jour": 5486,
      "viewed": 5487,
      "magnetic": 5488,
      "04t": 5489,
      "interesting": 5490,
      "investig": 5491,
      "molecules": 5492,
      "ultimately": 5493,
      "''(''": 5494,
      "strugg": 5495,
      "formally": 5496,
      "devil": 5497,
      "reduce": 5498,
      "iceland": 5499,
      "orches": 5500,
      "iders": 5501,
      "1914": 5502,
      "colony": 5503,
      "johann": 5504,
      "trees": 5505,
      "showing": 5506,
      "institution": 5507,
      "wheel": 5508,
      "indicate": 5509,
      "printed": 5510,
      "urally": 5511,
      "ups": 5512,
      "houston": 5513,
      "victoria": 5514,
      "suffered": 5515,
      "accounts": 5516,
      "bureau": 5517,
      "pel": 5518,
      "roose": 5519,
      "attle": 5520,
      "colomb": 5521,
      "safe": 5522,
      "sylvan": 5523,
      "ored": 5524,
      "anne": 5525,
      "andre": 5526,
      "unciation": 5527,
      "ishing": 5528,
      "awa": 5529,
      "drag": 5530,
      "cyber": 5531,
      "societies": 5532,
      "hope": 5533,
      "fellow": 5534,
      "girl": 5535,
      "gment": 5536,
      "apost": 5537,
      "favour": 5538,
      "bruce": 5539,
      "modified": 5540,
      "wikis": 5541,
      "absolute": 5542,
      "kennedy": 5543,
      "ched": 5544,
      "ogg": 5545,
      "gather": 5546,
      "processor": 5547,
      "changing": 5548,
      "korea": 5549,
      "zer": 5550,
      "deg": 5551,
      "superi": 5552,
      "contained": 5553,
      "calls": 5554,
      "1931": 5555,
      "frederick": 5556,
      "ees": 5557,
      "rum": 5558,
      "arctic": 5559,
      "dem": 5560,
      "canal": 5561,
      "goddess": 5562,
      "involves": 5563,
      "apparently": 5564,
      "episodes": 5565,
      "wright": 5566,
      "unts": 5567,
      "impossible": 5568,
      "1917": 5569,
      "abc": 5570,
      "etz": 5571,
      "ologist": 5572,
      "valu": 5573,
      "ottoman": 5574,
      "innov": 5575,
      "clin": 5576,
      "carrier": 5577,
      "treated": 5578,
      "nevertheless": 5579,
      "5th": 5580,
      "sla": 5581,
      "aga": 5582,
      "omorph": 5583,
      "paid": 5584,
      "hollywood": 5585,
      "showed": 5586,
      "birds": 5587,
      "bands": 5588,
      "papers": 5589,
      "saying": 5590,
      "poetry": 5591,
      "roosevelt": 5592,
      "1em": 5593,
      "icide": 5594,
      "iring": 5595,
      "nickn": 5596,
      "jazz": 5597,
      "orange": 5598,
      "employed": 5599,
      "inqu": 5600,
      "opport": 5601,
      "components": 5602,
      "overall": 5603,
      "ministry": 5604,
      "mike": 5605,
      "wrong": 5606,
      "iowa": 5607,
      "1932": 5608,
      "historically": 5609,
      "substance": 5610,
      "expanded": 5611,
      "cart": 5612,
      "accel": 5613,
      "looking": 5614,
      "ideal": 5615,
      "engines": 5616,
      "warfare": 5617,
      "protect": 5618,
      "vertical": 5619,
      "huge": 5620,
      "really": 5621,
      "orn": 5622,
      "quo": 5623,
      "spelling": 5624,
      "crus": 5625,
      "elev": 5626,
      "severe": 5627,
      "selection": 5628,
      "rarely": 5629,
      "athens": 5630,
      "destruction": 5631,
      "acle": 5632,
      "beach": 5633,
      "1919": 5634,
      "polog": 5635,
      "providing": 5636,
      "eyes": 5637,
      "keeping": 5638,
      "reverted": 5639,
      "felt": 5640,
      "instruction": 5641,
      "candidate": 5642,
      "evangel": 5643,
      "howard": 5644,
      "squad": 5645,
      "hospital": 5646,
      "extr": 5647,
      "158": 5648,
      "hers": 5649,
      "rice": 5650,
      "sburg": 5651,
      "rein": 5652,
      "gran": 5653,
      "febru": 5654,
      "divisions": 5655,
      "vehicle": 5656,
      "dies": 5657,
      "ghost": 5658,
      "guten": 5659,
      "tank": 5660,
      "isle": 5661,
      "horiz": 5662,
      "witness": 5663,
      "nap": 5664,
      "unable": 5665,
      "broken": 5666,
      "1935": 5667,
      "choose": 5668,
      "strongly": 5669,
      "licens": 5670,
      "norway": 5671,
      "define": 5672,
      "entertainment": 5673,
      "commodore": 5674,
      "sox": 5675,
      "partners": 5676,
      "invented": 5677,
      "biblical": 5678,
      "cad": 5679,
      "cau": 5680,
      "drew": 5681,
      "gb": 5682,
      "chen": 5683,
      "graf": 5684,
      "giant": 5685,
      "succeeded": 5686,
      "appropriate": 5687,
      "secut": 5688,
      "neuro": 5689,
      "jeff": 5690,
      "captured": 5691,
      "nick": 5692,
      "finished": 5693,
      "holding": 5694,
      "roads": 5695,
      "broadcasting": 5696,
      "affected": 5697,
      "kat": 5698,
      "sell": 5699,
      "sections": 5700,
      "essentially": 5701,
      "802": 5702,
      "alf": 5703,
      "improved": 5704,
      "numer": 5705,
      "transmission": 5706,
      "ception": 5707,
      "vious": 5708,
      "glac": 5709,
      "explicit": 5710,
      "tropical": 5711,
      "constantin": 5712,
      "114": 5713,
      "erit": 5714,
      "rebell": 5715,
      "select": 5716,
      "notation": 5717,
      "linked": 5718,
      "gres": 5719,
      "pm": 5720,
      "fortun": 5721,
      "lords": 5722,
      "distributed": 5723,
      "neighbor": 5724,
      "rejected": 5725,
      "iac": 5726,
      "romag": 5727,
      "sales": 5728,
      "learn": 5729,
      "wick": 5730,
      "reh": 5731,
      "chord": 5732,
      "plain": 5733,
      "boat": 5734,
      "statist": 5735,
      "sounds": 5736,
      "sylvania": 5737,
      "inary": 5738,
      "remove": 5739,
      "andr": 5740,
      "conspir": 5741,
      "bright": 5742,
      "weather": 5743,
      "networks": 5744,
      "pleas": 5745,
      "apply": 5746,
      "benj": 5747,
      "voting": 5748,
      "alternate": 5749,
      "necessarily": 5750,
      "exactly": 5751,
      "genesis": 5752,
      "declaration": 5753,
      "tut": 5754,
      "basque": 5755,
      "parliamentary": 5756,
      "significantly": 5757,
      "lunar": 5758,
      "gutenberg": 5759,
      "ying": 5760,
      "armo": 5761,
      "tourism": 5762,
      "sic": 5763,
      "xide": 5764,
      "1921": 5765,
      "merely": 5766,
      "developing": 5767,
      "settled": 5768,
      "superior": 5769,
      "dys": 5770,
      "arrest": 5771,
      "coat": 5772,
      "chy": 5773,
      "balance": 5774,
      "membership": 5775,
      "establishment": 5776,
      "quarters": 5777,
      "pig": 5778,
      "wp": 5779,
      "constitu": 5780,
      "constantine": 5781,
      "bacteria": 5782,
      "dm": 5783,
      "medit": 5784,
      "matthe": 5785,
      "collect": 5786,
      "spectrum": 5787,
      "bj": 5788,
      "hack": 5789,
      "acking": 5790,
      "sought": 5791,
      "mouse": 5792,
      "iful": 5793,
      "foc": 5794,
      "refused": 5795,
      "steve": 5796,
      "suggests": 5797,
      "obtained": 5798,
      "supporters": 5799,
      "dir": 5800,
      "save": 5801,
      "brig": 5802,
      "charged": 5803,
      "minority": 5804,
      "amiga": 5805,
      "perspect": 5806,
      "officer": 5807,
      "axis": 5808,
      "augustus": 5809,
      "tionary": 5810,
      "managed": 5811,
      "molecule": 5812,
      "assumed": 5813,
      "igenous": 5814,
      "iency": 5815,
      "sf": 5816,
      "eless": 5817,
      "cypr": 5818,
      "mechanical": 5819,
      "investment": 5820,
      "adams": 5821,
      "variant": 5822,
      "700": 5823,
      "bone": 5824,
      "jord": 5825,
      "atively": 5826,
      "enco": 5827,
      "plural": 5828,
      "telephone": 5829,
      "consciousness": 5830,
      "theology": 5831,
      "1928": 5832,
      "spin": 5833,
      "crash": 5834,
      "highway": 5835,
      "abbrev": 5836,
      "propos": 5837,
      "resto": 5838,
      "11z": 5839,
      "edits": 5840,
      "component": 5841,
      "asser": 5842,
      "indigenous": 5843,
      "literally": 5844,
      "occupation": 5845,
      "uted": 5846,
      "allen": 5847,
      "basket": 5848,
      "lady": 5849,
      "117": 5850,
      "jon": 5851,
      "switzer": 5852,
      "visible": 5853,
      "voy": 5854,
      "atlanta": 5855,
      "nc": 5856,
      "pav": 5857,
      "inher": 5858,
      "shift": 5859,
      "compact": 5860,
      "scul": 5861,
      "ila": 5862,
      "obvious": 5863,
      "employment": 5864,
      "bub": 5865,
      "owner": 5866,
      "helm": 5867,
      "magn": 5868,
      "luther": 5869,
      "vietnam": 5870,
      "interests": 5871,
      "wilson": 5872,
      "nik": 5873,
      "thy": 5874,
      "unger": 5875,
      "cancer": 5876,
      "classified": 5877,
      "existed": 5878,
      "salv": 5879,
      "accurate": 5880,
      "rapidly": 5881,
      "benjamin": 5882,
      "borg": 5883,
      "lers": 5884,
      "dual": 5885,
      "variable": 5886,
      "punish": 5887,
      "kers": 5888,
      "antly": 5889,
      "gren": 5890,
      "wiktionary": 5891,
      "pilot": 5892,
      "compounds": 5893,
      "inser": 5894,
      "chip": 5895,
      "allies": 5896,
      "resign": 5897,
      "cla": 5898,
      "calling": 5899,
      "fluid": 5900,
      "moder": 5901,
      "iate": 5902,
      "kim": 5903,
      "abort": 5904,
      "gray": 5905,
      "disorder": 5906,
      "identical": 5907,
      "authorities": 5908,
      "olympic": 5909,
      "dedicated": 5910,
      "gon": 5911,
      "wy": 5912,
      "tai": 5913,
      "mayor": 5914,
      "romans": 5915,
      "glu": 5916,
      "synthesis": 5917,
      "napoleon": 5918,
      "uous": 5919,
      "vii": 5920,
      "lyr": 5921,
      "abul": 5922,
      "disney": 5923,
      "taught": 5924,
      "osto": 5925,
      "pursu": 5926,
      "evolved": 5927,
      "pseud": 5928,
      "sight": 5929,
      "arn": 5930,
      "servers": 5931,
      "legit": 5932,
      "heads": 5933,
      "subjects": 5934,
      "ffffff": 5935,
      "lag": 5936,
      "infan": 5937,
      "pear": 5938,
      "forming": 5939,
      "simon": 5940,
      "studio": 5941,
      "hammad": 5942,
      "concerning": 5943,
      "coalition": 5944,
      "assigned": 5945,
      "dod": 5946,
      "mainstream": 5947,
      "concentration": 5948,
      "incorporated": 5949,
      "switzerland": 5950,
      "cort": 5951,
      "fis": 5952,
      "gord": 5953,
      "tren": 5954,
      "sugar": 5955,
      "fert": 5956,
      "rival": 5957,
      "itude": 5958,
      "complic": 5959,
      "harr": 5960,
      "designs": 5961,
      "apped": 5962,
      "salt": 5963,
      "dominant": 5964,
      "aspect": 5965,
      "dangerous": 5966,
      "hs": 5967,
      "task": 5968,
      "inch": 5969,
      "agave": 5970,
      "1923": 5971,
      "eval": 5972,
      "drink": 5973,
      "linux": 5974,
      "brow": 5975,
      "twice": 5976,
      "functional": 5977,
      "anyone": 5978,
      "belarus": 5979,
      "votes": 5980,
      "112": 5981,
      "gregor": 5982,
      "merch": 5983,
      "colour": 5984,
      "pronunciation": 5985,
      "vant": 5986,
      "bec": 5987,
      "confir": 5988,
      "drin": 5989,
      "jaco": 5990,
      "cripts": 5991,
      "periods": 5992,
      "nova": 5993,
      "axiom": 5994,
      "heritage": 5995,
      "bears": 5996,
      "fought": 5997,
      "collabor": 5998,
      "herbert": 5999,
      "males": 6000,
      "linguistics": 6001,
      "gravity": 6002,
      "cartoon": 6003,
      "paint": 6004,
      "adi": 6005,
      "illes": 6006,
      "religions": 6007,
      "philosophers": 6008,
      "decline": 6009,
      "crystal": 6010,
      "accident": 6011,
      "bulgaria": 6012,
      "113": 6013,
      "faster": 6014,
      "vess": 6015,
      "wine": 6016,
      "stay": 6017,
      "entre": 6018,
      "whit": 6019,
      "stands": 6020,
      "holoc": 6021,
      "uniform": 6022,
      "filled": 6023,
      "gart": 6024,
      "jum": 6025,
      "nut": 6026,
      "aded": 6027,
      "conquest": 6028,
      "det": 6029,
      "shut": 6030,
      "cii": 6031,
      "recognition": 6032,
      "integrated": 6033,
      "garden": 6034,
      "bast": 6035,
      "vement": 6036,
      "compreh": 6037,
      "28t": 6038,
      "drawing": 6039,
      "walls": 6040,
      "compatible": 6041,
      "gib": 6042,
      "equator": 6043,
      "dominated": 6044,
      "capture": 6045,
      "acquired": 6046,
      "distinguished": 6047,
      "consult": 6048,
      "ope": 6049,
      "pole": 6050,
      "memorial": 6051,
      "reflect": 6052,
      "magnit": 6053,
      "judge": 6054,
      "trait": 6055,
      "featuring": 6056,
      "guns": 6057,
      "electronics": 6058,
      "sculpt": 6059,
      "etr": 6060,
      "items": 6061,
      "util": 6062,
      "1926": 6063,
      "broke": 6064,
      "variations": 6065,
      "scientist": 6066,
      "corporate": 6067,
      "cabinet": 6068,
      "iet": 6069,
      "tl": 6070,
      "tus": 6071,
      "chart": 6072,
      "causing": 6073,
      "interview": 6074,
      "incident": 6075,
      "adesh": 6076,
      "biblio": 6077,
      "galaxy": 6078,
      "cyprus": 6079,
      "hors": 6080,
      "pson": 6081,
      "entro": 6082,
      "congo": 6083,
      "tri": 6084,
      "1927": 6085,
      "ugos": 6086,
      "doom": 6087,
      "campus": 6088,
      "circumst": 6089,
      "graduate": 6090,
      "diseas": 6091,
      "ache": 6092,
      "younger": 6093,
      "metic": 6094,
      "volcan": 6095,
      "relationships": 6096,
      "cers": 6097,
      "yah": 6098,
      "unless": 6099,
      "hob": 6100,
      "17th": 6101,
      "famili": 6102,
      "characteristic": 6103,
      "svg": 6104,
      "peninsu": 6105,
      "conventional": 6106,
      "karl": 6107,
      "patterns": 6108,
      "template": 6109,
      "cited": 6110,
      "hms": 6111,
      "manus": 6112,
      "anean": 6113,
      "effectively": 6114,
      "walter": 6115,
      "substit": 6116,
      "lv": 6117,
      "entit": 6118,
      "adap": 6119,
      "hoo": 6120,
      "archives": 6121,
      "reich": 6122,
      "isen": 6123,
      "1910": 6124,
      "presid": 6125,
      "colors": 6126,
      "interior": 6127,
      "temperatures": 6128,
      "converted": 6129,
      "honey": 6130,
      "kee": 6131,
      "gency": 6132,
      "barbar": 6133,
      "virus": 6134,
      "falls": 6135,
      "successfully": 6136,
      "bernard": 6137,
      "gan": 6138,
      "hann": 6139,
      "rural": 6140,
      "fric": 6141,
      "rowspan": 6142,
      "amounts": 6143,
      "phenomenon": 6144,
      "gothic": 6145,
      "sip": 6146,
      "commod": 6147,
      "athlet": 6148,
      "treas": 6149,
      "ource": 6150,
      "analog": 6151,
      "legislation": 6152,
      "selling": 6153,
      "excess": 6154,
      "default": 6155,
      "franch": 6156,
      "attributed": 6157,
      "116": 6158,
      "cf": 6159,
      "vas": 6160,
      "wart": 6161,
      "allied": 6162,
      "afr": 6163,
      "generated": 6164,
      "passing": 6165,
      "expect": 6166,
      "tone": 6167,
      "viii": 6168,
      "1912": 6169,
      "abuse": 6170,
      "node": 6171,
      "comparison": 6172,
      "anglican": 6173,
      "gur": 6174,
      "phe": 6175,
      "tis": 6176,
      "stim": 6177,
      "coin": 6178,
      "chance": 6179,
      "acles": 6180,
      "hash": 6181,
      "leads": 6182,
      "franco": 6183,
      "eb": 6184,
      "fab": 6185,
      "poem": 6186,
      "davis": 6187,
      "gence": 6188,
      "kit": 6189,
      "tomb": 6190,
      "amend": 6191,
      "unusual": 6192,
      "exports": 6193,
      "meters": 6194,
      "ameter": 6195,
      "attend": 6196,
      "operator": 6197,
      "trading": 6198,
      "capitalism": 6199,
      "frequent": 6200,
      "maintained": 6201,
      "revealed": 6202,
      "pennsylvania": 6203,
      "enzy": 6204,
      "chro": 6205,
      "ianism": 6206,
      "nich": 6207,
      "sab": 6208,
      "idel": 6209,
      "aya": 6210,
      "shak": 6211,
      "monster": 6212,
      "transp": 6213,
      "floor": 6214,
      "alien": 6215,
      "audience": 6216,
      "hierarch": 6217,
      "bard": 6218,
      "heter": 6219,
      "offensive": 6220,
      "matters": 6221,
      "anchor": 6222,
      "baptism": 6223,
      "417": 6224,
      "hamp": 6225,
      "edited": 6226,
      "partly": 6227,
      "anni": 6228,
      "organisms": 6229,
      "equations": 6230,
      "measured": 6231,
      "fresh": 6232,
      "ora": 6233,
      "cole": 6234,
      "bishops": 6235,
      "christopher": 6236,
      "jet": 6237,
      "chrom": 6238,
      "column": 6239,
      "prepar": 6240,
      "moves": 6241,
      "corresponding": 6242,
      "lap": 6243,
      "ture": 6244,
      "ule": 6245,
      "embr": 6246,
      "velo": 6247,
      "16th": 6248,
      "hyp": 6249,
      "ministers": 6250,
      "concerned": 6251,
      "vehicles": 6252,
      "eus": 6253,
      "sz": 6254,
      "ivan": 6255,
      "boom": 6256,
      "ieee": 6257,
      "profit": 6258,
      "maced": 6259,
      "115": 6260,
      "stall": 6261,
      "probability": 6262,
      "possibility": 6263,
      "blog": 6264,
      "successor": 6265,
      "stored": 6266,
      "profile": 6267,
      "leaves": 6268,
      "una": 6269,
      "1925": 6270,
      "contributed": 6271,
      "osive": 6272,
      "metap": 6273,
      "arguments": 6274,
      "bsd": 6275,
      "collected": 6276,
      "costs": 6277,
      "extinct": 6278,
      "reputation": 6279,
      "rarr": 6280,
      "politan": 6281,
      "350": 6282,
      "aes": 6283,
      "thal": 6284,
      "inus": 6285,
      "itors": 6286,
      "onder": 6287,
      "decade": 6288,
      "horror": 6289,
      "predomin": 6290,
      "triang": 6291,
      "ontario": 6292,
      "arrived": 6293,
      "supporting": 6294,
      "separated": 6295,
      "ancest": 6296,
      "rip": 6297,
      "theod": 6298,
      "1924": 6299,
      "aceae": 6300,
      "airlines": 6301,
      "scope": 6302,
      "santa": 6303,
      "soil": 6304,
      "aviation": 6305,
      "peak": 6306,
      "patients": 6307,
      "bowl": 6308,
      "premier": 6309,
      "mediterr": 6310,
      "dent": 6311,
      "dip": 6312,
      "hypothesis": 6313,
      "wikisource": 6314,
      "manual": 6315,
      "listen": 6316,
      "horn": 6317,
      "costa": 6318,
      "omega": 6319,
      "welsh": 6320,
      "lion": 6321,
      "pir": 6322,
      "rn": 6323,
      "edin": 6324,
      "dee": 6325,
      "etime": 6326,
      "prices": 6327,
      "serving": 6328,
      "committed": 6329,
      "achieve": 6330,
      "pierre": 6331,
      "thinking": 6332,
      "judicial": 6333,
      "eras": 6334,
      "fraction": 6335,
      "joe": 6336,
      "obsole": 6337,
      "ukrain": 6338,
      "bicy": 6339,
      "colombia": 6340,
      "1908": 6341,
      "cathe": 6342,
      "medal": 6343,
      "baron": 6344,
      "magic": 6345,
      "experienced": 6346,
      "cornell": 6347,
      "arith": 6348,
      "ascii": 6349,
      "renamed": 6350,
      "cker": 6351,
      "trying": 6352,
      "styles": 6353,
      "signs": 6354,
      "officials": 6355,
      "config": 6356,
      "constantinople": 6357,
      "obsolete": 6358,
      "ani": 6359,
      "ami": 6360,
      "brad": 6361,
      "keys": 6362,
      "maria": 6363,
      "grey": 6364,
      "relativity": 6365,
      "waters": 6366,
      "reserve": 6367,
      "diagno": 6368,
      "bh": 6369,
      "uz": 6370,
      "wers": 6371,
      "anatom": 6372,
      "starr": 6373,
      "unix": 6374,
      "operated": 6375,
      "involving": 6376,
      "hundreds": 6377,
      "familiar": 6378,
      "mediterranean": 6379,
      "ilit": 6380,
      "excell": 6381,
      "residents": 6382,
      "tales": 6383,
      "steps": 6384,
      "croatia": 6385,
      "branches": 6386,
      "cz": 6387,
      "cfm": 6388,
      "kick": 6389,
      "replace": 6390,
      "orb": 6391,
      "1916": 6392,
      "titude": 6393,
      "eleph": 6394,
      "regime": 6395,
      "issance": 6396,
      "executed": 6397,
      "propag": 6398,
      "astronomy": 6399,
      "bund": 6400,
      "dil": 6401,
      "java": 6402,
      "lakes": 6403,
      "remember": 6404,
      "ista": 6405,
      "boot": 6406,
      "notion": 6407,
      "grade": 6408,
      "summary": 6409,
      "nearby": 6410,
      "consisting": 6411,
      "stanford": 6412,
      "rud": 6413,
      "onaut": 6414,
      "conv": 6415,
      "gerald": 6416,
      "solo": 6417,
      "decimal": 6418,
      "explained": 6419,
      "hits": 6420,
      "tons": 6421,
      "turing": 6422,
      "escape": 6423,
      "cruis": 6424,
      "blow": 6425,
      "diff": 6426,
      "integer": 6427,
      "gordon": 6428,
      "dave": 6429,
      "wich": 6430,
      "1905": 6431,
      "angels": 6432,
      "goals": 6433,
      "charter": 6434,
      "britann": 6435,
      "appeal": 6436,
      "philipp": 6437,
      "kant": 6438,
      "grave": 6439,
      "intent": 6440,
      "occas": 6441,
      "jordan": 6442,
      "6th": 6443,
      "divers": 6444,
      "compression": 6445,
      "export": 6446,
      "flop": 6447,
      "flash": 6448,
      "miller": 6449,
      "drome": 6450,
      "mathematician": 6451,
      "gradually": 6452,
      "clubs": 6453,
      "consistent": 6454,
      "anthony": 6455,
      "eag": 6456,
      "gone": 6457,
      "illegal": 6458,
      "uration": 6459,
      "optim": 6460,
      "claud": 6461,
      "oxide": 6462,
      "democrats": 6463,
      "furthermore": 6464,
      "oriented": 6465,
      "palestinian": 6466,
      "peninsula": 6467,
      "kas": 6468,
      "mul": 6469,
      "tab": 6470,
      "resource": 6471,
      "immigr": 6472,
      "mechanism": 6473,
      "photograph": 6474,
      "dinos": 6475,
      "ethiopia": 6476,
      "dating": 6477,
      "accompl": 6478,
      "exerc": 6479,
      "150px": 6480,
      "intosh": 6481,
      "dependent": 6482,
      "guardian": 6483,
      "monarchy": 6484,
      "amazon": 6485,
      "cinc": 6486,
      "dl": 6487,
      "iast": 6488,
      "nie": 6489,
      "berry": 6490,
      "array": 6491,
      "galileo": 6492,
      "sunday": 6493,
      "sud": 6494,
      "aven": 6495,
      "strings": 6496,
      "baltic": 6497,
      "historian": 6498,
      "channels": 6499,
      "manufacturing": 6500,
      "muslims": 6501,
      "husband": 6502,
      "entitled": 6503,
      "eph": 6504,
      "stm": 6505,
      "perceived": 6506,
      "interaction": 6507,
      "lowest": 6508,
      "themes": 6509,
      "definitions": 6510,
      "plication": 6511,
      "constellation": 6512,
      "diseases": 6513,
      "gaz": 6514,
      "amer": 6515,
      "essay": 6516,
      "inners": 6517,
      "flood": 6518,
      "nitro": 6519,
      "opponents": 6520,
      "consumption": 6521,
      "1px": 6522,
      "ois": 6523,
      "sters": 6524,
      "stick": 6525,
      "roger": 6526,
      "omet": 6527,
      "tony": 6528,
      "humor": 6529,
      "solutions": 6530,
      "sleep": 6531,
      "chromo": 6532,
      "iations": 6533,
      "meter": 6534,
      "akh": 6535,
      "norwe": 6536,
      "skin": 6537,
      "singular": 6538,
      "lux": 6539,
      "matthew": 6540,
      "418": 6541,
      "aquar": 6542,
      "dish": 6543,
      "dule": 6544,
      "overview": 6545,
      "guest": 6546,
      "operate": 6547,
      "godzilla": 6548,
      "counties": 6549,
      "painting": 6550,
      "sacr": 6551,
      "statistical": 6552,
      "iology": 6553,
      "reforms": 6554,
      "beings": 6555,
      "sher": 6556,
      "ferr": 6557,
      "mono": 6558,
      "arsen": 6559,
      "gm": 6560,
      "ensure": 6561,
      "cous": 6562,
      "plas": 6563,
      "inson": 6564,
      "spaces": 6565,
      "neutral": 6566,
      "caesar": 6567,
      "velocity": 6568,
      "cincinn": 6569,
      "cay": 6570,
      "revel": 6571,
      "fled": 6572,
      "warm": 6573,
      "buck": 6574,
      "depth": 6575,
      "greeks": 6576,
      "hills": 6577,
      "challeng": 6578,
      "babylon": 6579,
      "holocaust": 6580,
      "lia": 6581,
      "1901": 6582,
      "abd": 6583,
      "testing": 6584,
      "explain": 6585,
      "punk": 6586,
      "consumer": 6587,
      "benefit": 6588,
      "variants": 6589,
      "rugged": 6590,
      "symptoms": 6591,
      "utc": 6592,
      "tribe": 6593,
      "shi": 6594,
      "phal": 6595,
      "syndrome": 6596,
      "crypt": 6597,
      "finding": 6598,
      "substances": 6599,
      "implementation": 6600,
      "platform": 6601,
      "insurance": 6602,
      "dart": 6603,
      "wig": 6604,
      "acre": 6605,
      "module": 6606,
      "approv": 6607,
      "ples": 6608,
      "volt": 6609,
      "macintosh": 6610,
      "resembl": 6611,
      "explanation": 6612,
      "kor": 6613,
      "alab": 6614,
      "prayer": 6615,
      "101": 6616,
      "markets": 6617,
      "limits": 6618,
      "accessdate": 6619,
      "execution": 6620,
      "416": 6621,
      "liver": 6622,
      "pus": 6623,
      "ske": 6624,
      "therapy": 6625,
      "meat": 6626,
      "presidents": 6627,
      "wound": 6628,
      "ultimate": 6629,
      "technologies": 6630,
      "jersey": 6631,
      "evolutionary": 6632,
      "storm": 6633,
      "bosnia": 6634,
      "bav": 6635,
      "recur": 6636,
      "ammon": 6637,
      "aca": 6638,
      "1913": 6639,
      "bles": 6640,
      "polar": 6641,
      "grown": 6642,
      "onym": 6643,
      "onomy": 6644,
      "dimensional": 6645,
      "trigger": 6646,
      "gression": 6647,
      "salvador": 6648,
      "jup": 6649,
      "alger": 6650,
      "shel": 6651,
      "grass": 6652,
      "ellip": 6653,
      "105": 6654,
      "sched": 6655,
      "corps": 6656,
      "merged": 6657,
      "industries": 6658,
      "coastal": 6659,
      "experimental": 6660,
      "tig": 6661,
      "chat": 6662,
      "organisation": 6663,
      "animation": 6664,
      "tunnel": 6665,
      "abandoned": 6666,
      "faro": 6667,
      "ivo": 6668,
      "moz": 6669,
      "mood": 6670,
      "mars": 6671,
      "officers": 6672,
      "millenn": 6673,
      "download": 6674,
      "approved": 6675,
      "infantry": 6676,
      "magnitude": 6677,
      "borders": 6678,
      "hug": 6679,
      "khan": 6680,
      "rs": 6681,
      "umes": 6682,
      "desk": 6683,
      "descent": 6684,
      "signals": 6685,
      "oxid": 6686,
      "albums": 6687,
      "infect": 6688,
      "oral": 6689,
      "query": 6690,
      "abel": 6691,
      "cloth": 6692,
      "desire": 6693,
      "solved": 6694,
      "expert": 6695,
      "planning": 6696,
      "preferred": 6697,
      "bronze": 6698,
      "metropolitan": 6699,
      "harrison": 6700,
      "winner": 6701,
      "alumin": 6702,
      "shah": 6703,
      "earn": 6704,
      "posit": 6705,
      "hawa": 6706,
      "requirements": 6707,
      "procedure": 6708,
      "prepared": 6709,
      "cpu": 6710,
      "voc": 6711,
      "headed": 6712,
      "wol": 6713,
      "atem": 6714,
      "entr": 6715,
      "convers": 6716,
      "sper": 6717,
      "osis": 6718,
      "produces": 6719,
      "tests": 6720,
      "fairly": 6721,
      "concerns": 6722,
      "hotel": 6723,
      "documentary": 6724,
      "nelson": 6725,
      "adelph": 6726,
      "daw": 6727,
      "oration": 6728,
      "emin": 6729,
      "appa": 6730,
      "downtown": 6731,
      "distinguish": 6732,
      "diagram": 6733,
      "chairman": 6734,
      "lyrics": 6735,
      "horses": 6736,
      "cincinnati": 6737,
      "cv": 6738,
      "fet": 6739,
      "esp": 6740,
      "chick": 6741,
      "decor": 6742,
      "hism": 6743,
      "cology": 6744,
      "baby": 6745,
      "ruption": 6746,
      "circumc": 6747,
      "118": 6748,
      "anime": 6749,
      "improve": 6750,
      "newly": 6751,
      "portal": 6752,
      "identify": 6753,
      "diet": 6754,
      "wikitable": 6755,
      "researchers": 6756,
      "sacred": 6757,
      "jam": 6758,
      "lets": 6759,
      "concert": 6760,
      "aret": 6761,
      "scheme": 6762,
      "anna": 6763,
      "barry": 6764,
      "covering": 6765,
      "eeeeee": 6766,
      "prophet": 6767,
      "norwegian": 6768,
      "yield": 6769,
      "cht": 6770,
      "chal": 6771,
      "timeline": 6772,
      "heres": 6773,
      "tension": 6774,
      "ifications": 6775,
      "ecu": 6776,
      "closer": 6777,
      "violent": 6778,
      "physicist": 6779,
      "cathedr": 6780,
      "jupiter": 6781,
      "aj": 6782,
      "founding": 6783,
      "household": 6784,
      "protected": 6785,
      "faced": 6786,
      "bd": 6787,
      "aman": 6788,
      "amate": 6789,
      "pover": 6790,
      "grace": 6791,
      "assault": 6792,
      "gross": 6793,
      "laid": 6794,
      "membr": 6795,
      "rolling": 6796,
      "locations": 6797,
      "districts": 6798,
      "eritre": 6799,
      "nichol": 6800,
      "bath": 6801,
      "cave": 6802,
      "hz": 6803,
      "northwest": 6804,
      "motiv": 6805,
      "eenth": 6806,
      "lud": 6807,
      "playoff": 6808,
      "adder": 6809,
      "factbook": 6810,
      "depends": 6811,
      "defensive": 6812,
      "behavio": 6813,
      "conducted": 6814,
      "ranked": 6815,
      "dioxide": 6816,
      "entropy": 6817,
      "bian": 6818,
      "amplif": 6819,
      "norman": 6820,
      "chris": 6821,
      "breaking": 6822,
      "statements": 6823,
      "custo": 6824,
      "flex": 6825,
      "integral": 6826,
      "register": 6827,
      "elsewhere": 6828,
      "municipal": 6829,
      "basketball": 6830,
      "iq": 6831,
      "kol": 6832,
      "marit": 6833,
      "increases": 6834,
      "beautiful": 6835,
      "edinburgh": 6836,
      "doubl": 6837,
      "partner": 6838,
      "underground": 6839,
      "decay": 6840,
      "getting": 6841,
      "variation": 6842,
      "circumstances": 6843,
      "oak": 6844,
      "conven": 6845,
      "peg": 6846,
      "izz": 6847,
      "musicians": 6848,
      "austin": 6849,
      "percentage": 6850,
      "piano": 6851,
      "jug": 6852,
      "oe": 6853,
      "eria": 6854,
      "agents": 6855,
      "1915": 6856,
      "1903": 6857,
      "gore": 6858,
      "commentary": 6859,
      "mainland": 6860,
      "haus": 6861,
      "emerged": 6862,
      "attached": 6863,
      "itan": 6864,
      "item": 6865,
      "bever": 6866,
      "tracks": 6867,
      "lod": 6868,
      "serial": 6869,
      "minster": 6870,
      "willing": 6871,
      "transform": 6872,
      "structural": 6873,
      "engineer": 6874,
      "isotop": 6875,
      "calculus": 6876,
      "alberta": 6877,
      "gia": 6878,
      "pix": 6879,
      "leibn": 6880,
      "suicide": 6881,
      "outer": 6882,
      "jos": 6883,
      "107": 6884,
      "differential": 6885,
      "stead": 6886,
      "voiced": 6887,
      "experiments": 6888,
      "hawaii": 6889,
      "geographic": 6890,
      "reduction": 6891,
      "laboratory": 6892,
      "retrieved": 6893,
      "presidency": 6894,
      "starring": 6895,
      "schedul": 6896,
      "asim": 6897,
      "exile": 6898,
      "resident": 6899,
      "acted": 6900,
      "ieth": 6901,
      "capita": 6902,
      "powder": 6903,
      "electromag": 6904,
      "princess": 6905,
      "aristotle": 6906,
      "zene": 6907,
      "ested": 6908,
      "directors": 6909,
      "shore": 6910,
      "missions": 6911,
      "caval": 6912,
      "shaped": 6913,
      "electoral": 6914,
      "mik": 6915,
      "waves": 6916,
      "amine": 6917,
      "ploy": 6918,
      "shield": 6919,
      "notice": 6920,
      "partially": 6921,
      "relevant": 6922,
      "argon": 6923,
      "empty": 6924,
      "junction": 6925,
      "conduct": 6926,
      "credited": 6927,
      "carolina": 6928,
      "sovereignty": 6929,
      "perspective": 6930,
      "scor": 6931,
      "elic": 6932,
      "ritual": 6933,
      "preserved": 6934,
      "elder": 6935,
      "etym": 6936,
      "representing": 6937,
      "rulers": 6938,
      "copper": 6939,
      "retired": 6940,
      "holiday": 6941,
      "lithuan": 6942,
      "iod": 6943,
      "tay": 6944,
      "arama": 6945,
      "104": 6946,
      "eucl": 6947,
      "automat": 6948,
      "learned": 6949,
      "painter": 6950,
      "secure": 6951,
      "credit": 6952,
      "buffalo": 6953,
      "nac": 6954,
      "aki": 6955,
      "108": 6956,
      "covers": 6957,
      "facilities": 6958,
      "rising": 6959,
      "confirmed": 6960,
      "leibniz": 6961,
      "hate": 6962,
      "kl": 6963,
      "otes": 6964,
      "minute": 6965,
      "soldier": 6966,
      "dropped": 6967,
      "ether": 6968,
      "seal": 6969,
      "dub": 6970,
      "ansk": 6971,
      "160": 6972,
      "athl": 6973,
      "bases": 6974,
      "annex": 6975,
      "swiss": 6976,
      "naturally": 6977,
      "doesn": 6978,
      "doubt": 6979,
      "princip": 6980,
      "hawai": 6981,
      "assistance": 6982,
      "cking": 6983,
      "oz": 6984,
      "raw": 6985,
      "theater": 6986,
      "varies": 6987,
      "iranian": 6988,
      "skills": 6989,
      "toxic": 6990,
      "isotopes": 6991,
      "fold": 6992,
      "urg": 6993,
      "driver": 6994,
      "amongst": 6995,
      "animated": 6996,
      "penalty": 6997,
      "engineers": 6998,
      "navigation": 6999,
      "hitch": 7000,
      "emphasis": 7001,
      "diplomatic": 7002,
      "cass": 7003,
      "comet": 7004,
      "hound": 7005,
      "populations": 7006,
      "athers": 7007,
      "ruler": 7008,
      "additionally": 7009,
      "restaur": 7010,
      "commerce": 7011,
      "kilome": 7012,
      "f9": 7013,
      "tat": 7014,
      "asc": 7015,
      "chel": 7016,
      "accent": 7017,
      "crib": 7018,
      "20t": 7019,
      "guatem": 7020,
      "annivers": 7021,
      "stret": 7022,
      "siles": 7023,
      "suspe": 7024,
      "advertising": 7025,
      "coffee": 7026,
      "900": 7027,
      "ptic": 7028,
      "warri": 7029,
      "milan": 7030,
      "franz": 7031,
      "meanings": 7032,
      "cardinal": 7033,
      "opponent": 7034,
      "220": 7035,
      "dian": 7036,
      "ivals": 7037,
      "sod": 7038,
      "sust": 7039,
      "indians": 7040,
      "overseas": 7041,
      "denver": 7042,
      "assembl": 7043,
      "falk": 7044,
      "cticut": 7045,
      "1930s": 7046,
      "remark": 7047,
      "esco": 7048,
      "maur": 7049,
      "rena": 7050,
      "106": 7051,
      "135": 7052,
      "caption": 7053,
      "longest": 7054,
      "boundaries": 7055,
      "conspiracy": 7056,
      "comprehensive": 7057,
      "plato": 7058,
      "client": 7059,
      "sha": 7060,
      "descript": 7061,
      "driven": 7062,
      "finance": 7063,
      "buried": 7064,
      "interpreted": 7065,
      "liberty": 7066,
      "ijing": 7067,
      "patriarch": 7068,
      "confederate": 7069,
      "fighter": 7070,
      "anderson": 7071,
      "tourn": 7072,
      "chet": 7073,
      "som": 7074,
      "loop": 7075,
      "iocc": 7076,
      "germans": 7077,
      "grounds": 7078,
      "influences": 7079,
      "representative": 7080,
      "connecticut": 7081,
      "virtually": 7082,
      "mend": 7083,
      "rv": 7084,
      "ister": 7085,
      "titled": 7086,
      "corner": 7087,
      "slave": 7088,
      "shock": 7089,
      "immigration": 7090,
      "wilhelm": 7091,
      "struggle": 7092,
      "mbox": 7093,
      "pagan": 7094,
      "deen": 7095,
      "estonia": 7096,
      "essays": 7097,
      "landing": 7098,
      "epic": 7099,
      "proteins": 7100,
      "finger": 7101,
      "tong": 7102,
      "antip": 7103,
      "feud": 7104,
      "aude": 7105,
      "flav": 7106,
      "cartr": 7107,
      "attended": 7108,
      "simult": 7109,
      "visited": 7110,
      "responsibility": 7111,
      "lamb": 7112,
      "reverse": 7113,
      "bangl": 7114,
      "arithmetic": 7115,
      "eve": 7116,
      "mong": 7117,
      "sword": 7118,
      "elo": 7119,
      "deploy": 7120,
      "neur": 7121,
      "characterized": 7122,
      "releases": 7123,
      "buddhism": 7124,
      "caf": 7125,
      "dag": 7126,
      "coc": 7127,
      "elvis": 7128,
      "estimate": 7129,
      "genetics": 7130,
      "norse": 7131,
      "patient": 7132,
      "thirty": 7133,
      "antiqu": 7134,
      "funds": 7135,
      "bonds": 7136,
      "enemies": 7137,
      "gnostic": 7138,
      "absence": 7139,
      "cathedral": 7140,
      "mine": 7141,
      "aph": 7142,
      "residence": 7143,
      "manuel": 7144,
      "ferdin": 7145,
      "seek": 7146,
      "senior": 7147,
      "southeast": 7148,
      "algorithms": 7149,
      "albania": 7150,
      "taiwan": 7151,
      "wish": 7152,
      "yard": 7153,
      "enge": 7154,
      "tot": 7155,
      "toler": 7156,
      "buy": 7157,
      "electrons": 7158,
      "certainly": 7159,
      "ferdinand": 7160,
      "cue": 7161,
      "ninet": 7162,
      "send": 7163,
      "implic": 7164,
      "shor": 7165,
      "kness": 7166,
      "uble": 7167,
      "harm": 7168,
      "headquarters": 7169,
      "psychological": 7170,
      "races": 7171,
      "kinds": 7172,
      "linguistic": 7173,
      "decisions": 7174,
      "palestine": 7175,
      "tale": 7176,
      "reactions": 7177,
      "atus": 7178,
      "seasons": 7179,
      "beijing": 7180,
      "automatic": 7181,
      "compiler": 7182,
      "journey": 7183,
      "tap": 7184,
      "recept": 7185,
      "ende": 7186,
      "stamp": 7187,
      "peters": 7188,
      "begun": 7189,
      "steam": 7190,
      "battery": 7191,
      "nm": 7192,
      "acids": 7193,
      "pled": 7194,
      "antic": 7195,
      "syria": 7196,
      "teacher": 7197,
      "buddhist": 7198,
      "battleship": 7199,
      "minimum": 7200,
      "iary": 7201,
      "pale": 7202,
      "sah": 7203,
      "ancy": 7204,
      "enforce": 7205,
      "editions": 7206,
      "relief": 7207,
      "rica": 7208,
      "judges": 7209,
      "theoretical": 7210,
      "aramaic": 7211,
      "mia": 7212,
      "eli": 7213,
      "uta": 7214,
      "contrad": 7215,
      "exceed": 7216,
      "poison": 7217,
      "shir": 7218,
      "americas": 7219,
      "claiming": 7220,
      "honour": 7221,
      "attacked": 7222,
      "indicates": 7223,
      "integration": 7224,
      "boundary": 7225,
      "ownership": 7226,
      "ethan": 7227,
      "pad": 7228,
      "parent": 7229,
      "tha": 7230,
      "stages": 7231,
      "option": 7232,
      "gry": 7233,
      "assess": 7234,
      "camera": 7235,
      "initi": 7236,
      "agreements": 7237,
      "descendants": 7238,
      "rebellion": 7239,
      "dress": 7240,
      "lip": 7241,
      "conan": 7242,
      "congreg": 7243,
      "1904": 7244,
      "resur": 7245,
      "filter": 7246,
      "lah": 7247,
      "humanity": 7248,
      "window": 7249,
      "phoen": 7250,
      "restricted": 7251,
      "epistle": 7252,
      "747": 7253,
      "bip": 7254,
      "gates": 7255,
      "kern": 7256,
      "amino": 7257,
      "noble": 7258,
      "compass": 7259,
      "123": 7260,
      "offers": 7261,
      "wayne": 7262,
      "athy": 7263,
      "morning": 7264,
      "nih": 7265,
      "nietz": 7266,
      "thompson": 7267,
      "bourne": 7268,
      "approval": 7269,
      "cio": 7270,
      "encounter": 7271,
      "otro": 7272,
      "uncertain": 7273,
      "phill": 7274,
      "timore": 7275,
      "acknow": 7276,
      "legacy": 7277,
      "grammat": 7278,
      "yahoo": 7279,
      "shadow": 7280,
      "fossil": 7281,
      "unk": 7282,
      "trail": 7283,
      "withdraw": 7284,
      "plastic": 7285,
      "124": 7286,
      "sail": 7287,
      "27t": 7288,
      "riers": 7289,
      "easier": 7290,
      "instructions": 7291,
      "challenge": 7292,
      "session": 7293,
      ";:": 7294,
      "kno": 7295,
      "liv": 7296,
      "zi": 7297,
      "theolog": 7298,
      "andro": 7299,
      "leban": 7300,
      "tooth": 7301,
      "jective": 7302,
      "muhammad": 7303,
      "gets": 7304,
      "passenger": 7305,
      "camero": 7306,
      "roleum": 7307,
      "copies": 7308,
      "stanley": 7309,
      "performing": 7310,
      "nietzsche": 7311,
      "cash": 7312,
      "lig": 7313,
      "tok": 7314,
      "roles": 7315,
      "brah": 7316,
      "azer": 7317,
      "lesser": 7318,
      "homepage": 7319,
      "difficulty": 7320,
      "dictator": 7321,
      "pill": 7322,
      "esa": 7323,
      "asi": 7324,
      "1906": 7325,
      "ibal": 7326,
      "haiti": 7327,
      "earthqu": 7328,
      "terminal": 7329,
      "petroleum": 7330,
      "hunter": 7331,
      "scar": 7332,
      "eda": 7333,
      "irc": 7334,
      "ulu": 7335,
      "peer": 7336,
      "geology": 7337,
      "mineral": 7338,
      "nail": 7339,
      "malays": 7340,
      "baptist": 7341,
      "phenomena": 7342,
      "discussed": 7343,
      "cn": 7344,
      "kw": 7345,
      "iny": 7346,
      "atically": 7347,
      "oty": 7348,
      "socc": 7349,
      "suitable": 7350,
      "guar": 7351,
      "helium": 7352,
      "eccles": 7353,
      "properly": 7354,
      "confused": 7355,
      "pascal": 7356,
      "billy": 7357,
      "bmw": 7358,
      "hughes": 7359,
      "abortion": 7360,
      "gluco": 7361,
      "migration": 7362,
      "rep": 7363,
      "losing": 7364,
      "portrait": 7365,
      "profession": 7366,
      "regularly": 7367,
      "hellen": 7368,
      "possession": 7369,
      "dynamic": 7370,
      "aberdeen": 7371,
      "bare": 7372,
      "dall": 7373,
      "anthem": 7374,
      "ensu": 7375,
      "semin": 7376,
      "shr": 7377,
      "referring": 7378,
      "factory": 7379,
      "ethical": 7380,
      "sentence": 7381,
      "reaching": 7382,
      "tube": 7383,
      "cluster": 7384,
      "aaron": 7385,
      "golf": 7386,
      "mig": 7387,
      "lem": 7388,
      "agram": 7389,
      "abil": 7390,
      "revised": 7391,
      "frig": 7392,
      "communism": 7393,
      "specified": 7394,
      "magne": 7395,
      "wait": 7396,
      "armies": 7397,
      "pairs": 7398,
      "chaos": 7399,
      "slavery": 7400,
      "reco": 7401,
      "ische": 7402,
      "coven": 7403,
      "1902": 7404,
      "spell": 7405,
      "shif": 7406,
      "afc": 7407,
      "curve": 7408,
      "powered": 7409,
      "empir": 7410,
      "continuing": 7411,
      "arkansas": 7412,
      "separation": 7413,
      "catholicism": 7414,
      "kilomet": 7415,
      "twentieth": 7416,
      "bibliography": 7417,
      "orbital": 7418,
      "pup": 7419,
      "enor": 7420,
      "edmund": 7421,
      "tol": 7422,
      "crimes": 7423,
      "draft": 7424,
      "borrow": 7425,
      "involve": 7426,
      "ghana": 7427,
      "vowels": 7428,
      "promote": 7429,
      "jurisdiction": 7430,
      "rhyth": 7431,
      "sudden": 7432,
      "millennium": 7433,
      "behaviour": 7434,
      "))": 7435,
      "fn": 7436,
      "inals": 7437,
      "cooper": 7438,
      "adjust": 7439,
      "1907": 7440,
      "abbot": 7441,
      "affil": 7442,
      "fract": 7443,
      "creator": 7444,
      "solve": 7445,
      "scots": 7446,
      "southwest": 7447,
      "lights": 7448,
      "territorial": 7449,
      "diego": 7450,
      "reviews": 7451,
      "explorer": 7452,
      "knights": 7453,
      "precise": 7454,
      "punishment": 7455,
      "cavalry": 7456,
      "hof": 7457,
      "oro": 7458,
      "edict": 7459,
      "poems": 7460,
      "marsh": 7461,
      "interactive": 7462,
      "166": 7463,
      "charges": 7464,
      "legate": 7465,
      "aneously": 7466,
      "emergency": 7467,
      "progressive": 7468,
      "promise": 7469,
      "conquered": 7470,
      "tub": 7471,
      "inhib": 7472,
      "infection": 7473,
      "deck": 7474,
      "proportion": 7475,
      "claude": 7476,
      "refuge": 7477,
      "liberation": 7478,
      "racial": 7479,
      "algebraic": 7480,
      "carrying": 7481,
      "ugoslav": 7482,
      "poverty": 7483,
      "soccer": 7484,
      "remo": 7485,
      "andy": 7486,
      "rog": 7487,
      "convert": 7488,
      "ibo": 7489,
      "iant": 7490,
      "makers": 7491,
      "canter": 7492,
      "archbishop": 7493,
      "philadelph": 7494,
      "campbell": 7495,
      "float": 7496,
      "secution": 7497,
      "c0": 7498,
      "prom": 7499,
      "izer": 7500,
      "originated": 7501,
      "translations": 7502,
      "accused": 7503,
      "paradox": 7504,
      "ores": 7505,
      "wet": 7506,
      "remot": 7507,
      "rober": 7508,
      "clark": 7509,
      "starts": 7510,
      "chancell": 7511,
      "confusion": 7512,
      "debt": 7513,
      "happened": 7514,
      "forests": 7515,
      "manufacturers": 7516,
      "pink": 7517,
      "tape": 7518,
      "recon": 7519,
      "impression": 7520,
      "lose": 7521,
      "grah": 7522,
      "fern": 7523,
      "afterwards": 7524,
      "statue": 7525,
      "regardless": 7526,
      "reducing": 7527,
      "disputed": 7528,
      "adventure": 7529,
      "diverse": 7530,
      "hondur": 7531,
      "dab": 7532,
      "jav": 7533,
      "mish": 7534,
      "sale": 7535,
      "theor": 7536,
      "irs": 7537,
      "neck": 7538,
      "dru": 7539,
      "monitor": 7540,
      "baro": 7541,
      "psi": 7542,
      "insulin": 7543,
      "?''": 7544,
      "aq": 7545,
      "bun": 7546,
      "dune": 7547,
      "tip": 7548,
      "1909": 7549,
      "static": 7550,
      "furt": 7551,
      "cognitive": 7552,
      "fishing": 7553,
      "scenes": 7554,
      "fib": 7555,
      "yugoslav": 7556,
      "rocks": 7557,
      "calgary": 7558,
      "didn": 7559,
      "cloud": 7560,
      "astruct": 7561,
      "speaker": 7562,
      "strategic": 7563,
      "candidates": 7564,
      "composers": 7565,
      "bangladesh": 7566,
      "np": 7567,
      "yam": 7568,
      "ela": 7569,
      "manip": 7570,
      "monop": 7571,
      "throw": 7572,
      "everyone": 7573,
      "sharp": 7574,
      "gom": 7575,
      "migr": 7576,
      "rfc": 7577,
      "yale": 7578,
      "apers": 7579,
      "shrugged": 7580,
      "monaster": 7581,
      "rocket": 7582,
      "distinctive": 7583,
      "harmonic": 7584,
      "arrangement": 7585,
      "philadelphia": 7586,
      "wins": 7587,
      "entity": 7588,
      "anger": 7589,
      "dock": 7590,
      "coron": 7591,
      "proven": 7592,
      "automobile": 7593,
      "niger": 7594,
      "insubstantial": 7595,
      "anes": 7596,
      "alter": 7597,
      "clay": 7598,
      "milk": 7599,
      "imports": 7600,
      "deliber": 7601,
      "cheese": 7602,
      "encouraged": 7603,
      "victims": 7604,
      "dh": 7605,
      "tight": 7606,
      "arct": 7607,
      "unte": 7608,
      "flam": 7609,
      "1500": 7610,
      "cylind": 7611,
      "grapher": 7612,
      "facult": 7613,
      "implemented": 7614,
      "vakia": 7615,
      "ecuador": 7616,
      "knew": 7617,
      "iva": 7618,
      "estate": 7619,
      "tea": 7620,
      "wikiquote": 7621,
      "prussia": 7622,
      "cill": 7623,
      "gps": 7624,
      "sta": 7625,
      "sects": 7626,
      "looks": 7627,
      "fris": 7628,
      "disaster": 7629,
      "monetary": 7630,
      "hys": 7631,
      "developments": 7632,
      "gaul": 7633,
      "survived": 7634,
      "cid": 7635,
      "culation": 7636,
      "rill": 7637,
      "uin": 7638,
      "gery": 7639,
      "surrender": 7640,
      "cats": 7641,
      "specialized": 7642,
      "duty": 7643,
      "briefly": 7644,
      "nucleus": 7645,
      "franchise": 7646,
      "210": 7647,
      "bent": 7648,
      "ento": 7649,
      "edgar": 7650,
      "itis": 7651,
      "ager": 7652,
      "abor": 7653,
      "proport": 7654,
      "140": 7655,
      "vienna": 7656,
      "followers": 7657,
      "organism": 7658,
      "offices": 7659,
      "planets": 7660,
      "survive": 7661,
      "saxon": 7662,
      "focused": 7663,
      "renaissance": 7664,
      "ea": 7665,
      "eries": 7666,
      "lore": 7667,
      "fiji": 7668,
      "advis": 7669,
      "contrary": 7670,
      "mystery": 7671,
      "415": 7672,
      "gis": 7673,
      "winners": 7674,
      "accompan": 7675,
      "olo": 7676,
      "antib": 7677,
      "omon": 7678,
      "collins": 7679,
      "customs": 7680,
      "females": 7681,
      "conservation": 7682,
      "hindi": 7683,
      "prisoners": 7684,
      "orchestra": 7685,
      "asimov": 7686,
      "213": 7687,
      "eclip": 7688,
      "alve": 7689,
      "pock": 7690,
      "phony": 7691,
      "modul": 7692,
      "barrel": 7693,
      "sheet": 7694,
      "baltimore": 7695,
      "bai": 7696,
      "observations": 7697,
      "accuracy": 7698,
      "infrastruct": 7699,
      "assassination": 7700,
      "concer": 7701,
      "drives": 7702,
      "spacecraft": 7703,
      "fuller": 7704,
      "rolls": 7705,
      "romantic": 7706,
      "revelation": 7707,
      "backs": 7708,
      "surn": 7709,
      "entries": 7710,
      "emission": 7711,
      "auer": 7712,
      "volunte": 7713,
      "navig": 7714,
      "celebrated": 7715,
      "homosexuality": 7716,
      "alabama": 7717,
      "graham": 7718,
      "accompanied": 7719,
      "rebel": 7720,
      "enig": 7721,
      "elle": 7722,
      "debut": 7723,
      "tram": 7724,
      "149": 7725,
      "holes": 7726,
      "luke": 7727,
      "broadway": 7728,
      "conception": 7729,
      "investigation": 7730,
      "tells": 7731,
      "isolated": 7732,
      "stack": 7733,
      "adic": 7734,
      "uter": 7735,
      "tration": 7736,
      "extract": 7737,
      "antio": 7738,
      "marg": 7739,
      "guerr": 7740,
      "turning": 7741,
      "satur": 7742,
      "mixture": 7743,
      "adventures": 7744,
      "gregory": 7745,
      "nickname": 7746,
      "glucose": 7747,
      "matt": 7748,
      "inspir": 7749,
      "sts": 7750,
      "byte": 7751,
      "bruss": 7752,
      "ifies": 7753,
      "angola": 7754,
      "1899": 7755,
      "mining": 7756,
      "romania": 7757,
      "seconds": 7758,
      "sixth": 7759,
      "admiral": 7760,
      "removal": 7761,
      "canterbury": 7762,
      "scan": 7763,
      "oria": 7764,
      "ello": 7765,
      "accus": 7766,
      "imon": 7767,
      "administer": 7768,
      "udi": 7769,
      "carn": 7770,
      "seeing": 7771,
      "serves": 7772,
      "missiles": 7773,
      "bread": 7774,
      "designer": 7775,
      "ruling": 7776,
      "estimates": 7777,
      "situations": 7778,
      "semitic": 7779,
      "cies": 7780,
      "e3": 7781,
      "jar": 7782,
      "lamp": 7783,
      "enburg": 7784,
      "unfortun": 7785,
      "abu": 7786,
      "shaw": 7787,
      "persia": 7788,
      "turns": 7789,
      "easter": 7790,
      "interested": 7791,
      "observation": 7792,
      "transferred": 7793,
      "slowly": 7794,
      "anthropology": 7795,
      "replacement": 7796,
      "membrane": 7797,
      "cocaine": 7798,
      "sap": 7799,
      "atol": 7800,
      "stere": 7801,
      "amd": 7802,
      "cott": 7803,
      "plague": 7804,
      "bohem": 7805,
      "1800": 7806,
      "1890": 7807,
      "cdot": 7808,
      "cuban": 7809,
      "happy": 7810,
      "ranges": 7811,
      "episco": 7812,
      "siege": 7813,
      "opportunity": 7814,
      "aluminium": 7815,
      "baroque": 7816,
      "jane": 7817,
      "kam": 7818,
      "artistic": 7819,
      "invention": 7820,
      "personality": 7821,
      "silon": 7822,
      "ingly": 7823,
      "grain": 7824,
      "marc": 7825,
      "15th": 7826,
      "heral": 7827,
      "transformation": 7828,
      "biggest": 7829,
      "digit": 7830,
      "hp": 7831,
      "nint": 7832,
      "preg": 7833,
      "enhan": 7834,
      "routes": 7835,
      "brass": 7836,
      "hegel": 7837,
      "hou": 7838,
      "moreover": 7839,
      "lawrence": 7840,
      "deput": 7841,
      "twin": 7842,
      "chose": 7843,
      "ova": 7844,
      "railroad": 7845,
      "strictly": 7846,
      "catalan": 7847,
      "sweet": 7848,
      "atheism": 7849,
      "cantor": 7850,
      "mongol": 7851,
      "7th": 7852,
      "fon": 7853,
      "expo": 7854,
      "iko": 7855,
      "brook": 7856,
      "latest": 7857,
      "varieties": 7858,
      "bullet": 7859,
      "jacques": 7860,
      "clinical": 7861,
      "zan": 7862,
      "inate": 7863,
      "leaf": 7864,
      "disorders": 7865,
      "tense": 7866,
      "intervent": 7867,
      "airports": 7868,
      "malay": 7869,
      "bene": 7870,
      "versus": 7871,
      "footballer": 7872,
      "camps": 7873,
      "macro": 7874,
      "connections": 7875,
      "secular": 7876,
      "iveness": 7877,
      "eugen": 7878,
      "vacu": 7879,
      "amendment": 7880,
      "skept": 7881,
      "revers": 7882,
      "enlight": 7883,
      "109": 7884,
      "generate": 7885,
      "schwar": 7886,
      "26t": 7887,
      "supports": 7888,
      "seemed": 7889,
      "photos": 7890,
      "hunting": 7891,
      "exclusive": 7892,
      "circumcision": 7893,
      "ked": 7894,
      "wings": 7895,
      "atch": 7896,
      "ilo": 7897,
      "etor": 7898,
      "lou": 7899,
      "256": 7900,
      "nationality": 7901,
      "ocities": 7902,
      "hammer": 7903,
      "handed": 7904,
      "settlements": 7905,
      "slavic": 7906,
      ".'": 7907,
      "cattle": 7908,
      "tang": 7909,
      "atra": 7910,
      "idad": 7911,
      "sees": 7912,
      "creative": 7913,
      "smooth": 7914,
      "benefits": 7915,
      "demonstrated": 7916,
      "restrial": 7917,
      "legitimate": 7918,
      "guatemala": 7919,
      "chancellor": 7920,
      "infrastructure": 7921,
      "das": 7922,
      "fug": 7923,
      "rush": 7924,
      "xy": 7925,
      "enab": 7926,
      "cooperation": 7927,
      "concrete": 7928,
      "phan": 7929,
      "eller": 7930,
      "1861": 7931,
      "listing": 7932,
      "eff": 7933,
      "patrick": 7934,
      "morris": 7935,
      "ranks": 7936,
      "retained": 7937,
      "amateur": 7938,
      "taylor": 7939,
      "kah": 7940,
      "infant": 7941,
      "renew": 7942,
      "alice": 7943,
      "console": 7944,
      "trained": 7945,
      "maker": 7946,
      "1897": 7947,
      "103": 7948,
      "prede": 7949,
      "passes": 7950,
      "connect": 7951,
      "burning": 7952,
      "rotation": 7953,
      "gravit": 7954,
      "korean": 7955,
      "citizenship": 7956,
      "exclusively": 7957,
      "1865": 7958,
      "engaged": 7959,
      "enses": 7960,
      "singles": 7961,
      "programme": 7962,
      "denomin": 7963,
      "delaware": 7964,
      "senator": 7965,
      "establishing": 7966,
      "optical": 7967,
      "cccccc": 7968,
      "extinction": 7969,
      "ei": 7970,
      "gger": 7971,
      "atal": 7972,
      "amar": 7973,
      "condem": 7974,
      "abund": 7975,
      "thermal": 7976,
      "transmit": 7977,
      "collections": 7978,
      "hardt": 7979,
      "falling": 7980,
      "weekly": 7981,
      "assisted": 7982,
      "ferrari": 7983,
      "cameroon": 7984,
      "hail": 7985,
      "kis": 7986,
      "rio": 7987,
      "inav": 7988,
      "leap": 7989,
      "atever": 7990,
      "warming": 7991,
      "ceremon": 7992,
      "radar": 7993,
      "considerably": 7994,
      "designated": 7995,
      "educated": 7996,
      "cathol": 7997,
      "describing": 7998,
      "beauty": 7999
    },
    "merges": [
      [
        "t",
        "h"
      ],
      [
        "i",
        "n"
      ],
      [
        "e",
        "r"
      ],
      [
        "a",
        "n"
      ],
      [
        "o",
        "n"
      ],
      [
        "th",
        "e"
      ],
      [
        "r",
        "e"
      ],
      [
        "o",
        "r"
      ],
      [
        "a",
        "t"
      ],
      [
        "e",
        "n"
      ],
      [
        "a",
        "l"
      ],
      [
        "i",
        "s"
      ],
      [
        "e",
        "s"
      ],
      [
        "a",
        "r"
      ],
      [
        "e",
        "d"
      ],
      [
        "o",
        "f"
      ],
      [
        "i",
        "t"
      ],
      [
        "a",
        "s"
      ],
      [
        "'",
        "'"
      ],
      [
        "i",
        "c"
      ],
      [
        "an",
        "d"
      ],
      [
        "i",
        "on"
      ],
      [
        "l",
        "e"
      ],
      [
        "t",
        "o"
      ],
      [
        "s",
        "t"
      ],
      [
        "r",
        "o"
      ],
      [
        "in",
        "g"
      ],
      [
        "a",
        "m"
      ],
      [
        "c",
        "o"
      ],
      [
        "o",
        "t"
      ],
      [
        "c",
        "h"
      ],
      [
        "en",
        "t"
      ],
      [
        "q",
        "u"
      ],
      [
        "u",
        "s"
      ],
      [
        "u",
        "n"
      ],
      [
        "e",
        "l"
      ],
      [
        "i",
        "d"
      ],
      [
        "a",
        "c"
      ],
      [
        "i",
        "l"
      ],
      [
        "i",
        "m"
      ],
      [
        "qu",
        "ot"
      ],
      [
        "u",
        "r"
      ],
      [
        "s",
        "e"
      ],
      [
        "a",
        "d"
      ],
      [
        "u",
        "t"
      ],
      [
        "a",
        "g"
      ],
      [
        "o",
        "l"
      ],
      [
        "b",
        "e"
      ],
      [
        "c",
        "on"
      ],
      [
        "f",
        "or"
      ],
      [
        "i",
        "g"
      ],
      [
        "d",
        "e"
      ],
      [
        "l",
        "y"
      ],
      [
        "at",
        "ion"
      ],
      [
        "t",
        "er"
      ],
      [
        "co",
        "m"
      ],
      [
        "i",
        "v"
      ],
      [
        "t",
        "r"
      ],
      [
        "l",
        "t"
      ],
      [
        "s",
        "o"
      ],
      [
        "c",
        "t"
      ],
      [
        "c",
        "e"
      ],
      [
        "h",
        "t"
      ],
      [
        "1",
        "9"
      ],
      [
        "i",
        "r"
      ],
      [
        "w",
        "h"
      ],
      [
        "s",
        "u"
      ],
      [
        "e",
        "x"
      ],
      [
        "m",
        "o"
      ],
      [
        "o",
        "w"
      ],
      [
        "e",
        "m"
      ],
      [
        "v",
        "er"
      ],
      [
        "g",
        "t"
      ],
      [
        "a",
        "p"
      ],
      [
        "a",
        "b"
      ],
      [
        "am",
        "p"
      ],
      [
        "s",
        "p"
      ],
      [
        "u",
        "l"
      ],
      [
        "is",
        "t"
      ],
      [
        "0",
        "0"
      ],
      [
        "e",
        "t"
      ],
      [
        "a",
        "re"
      ],
      [
        "a",
        "y"
      ],
      [
        "i",
        "th"
      ],
      [
        "p",
        "ro"
      ],
      [
        "er",
        "s"
      ],
      [
        "b",
        "y"
      ],
      [
        "es",
        "t"
      ],
      [
        "u",
        "m"
      ],
      [
        "at",
        "e"
      ],
      [
        "o",
        "p"
      ],
      [
        "a",
        "v"
      ],
      [
        "al",
        "l"
      ],
      [
        "''",
        "'"
      ],
      [
        "th",
        "er"
      ],
      [
        "w",
        "as"
      ],
      [
        "ag",
        "e"
      ],
      [
        "th",
        "at"
      ],
      [
        "w",
        "ith"
      ],
      [
        "re",
        "s"
      ],
      [
        "p",
        "l"
      ],
      [
        "b",
        "r"
      ],
      [
        "h",
        "e"
      ],
      [
        "w",
        "w"
      ],
      [
        "a",
        "in"
      ],
      [
        "i",
        "f"
      ],
      [
        "n",
        "e"
      ],
      [
        "m",
        "e"
      ],
      [
        "m",
        "an"
      ],
      [
        "c",
        "l"
      ],
      [
        "i",
        "b"
      ],
      [
        "m",
        "ent"
      ],
      [
        "ar",
        "t"
      ],
      [
        "i",
        "es"
      ],
      [
        "i",
        "an"
      ],
      [
        "i",
        "a"
      ],
      [
        "it",
        "y"
      ],
      [
        "b",
        "o"
      ],
      [
        "i",
        "p"
      ],
      [
        "l",
        "o"
      ],
      [
        "p",
        "o"
      ],
      [
        "am",
        "e"
      ],
      [
        "s",
        "h"
      ],
      [
        "ro",
        "m"
      ],
      [
        "an",
        "t"
      ],
      [
        "is",
        "h"
      ],
      [
        "or",
        "y"
      ],
      [
        "u",
        "g"
      ],
      [
        "un",
        "d"
      ],
      [
        "p",
        "e"
      ],
      [
        "o",
        "m"
      ],
      [
        "g",
        "e"
      ],
      [
        "es",
        "s"
      ],
      [
        "f",
        "rom"
      ],
      [
        "p",
        "h"
      ],
      [
        "p",
        "er"
      ],
      [
        "ic",
        "h"
      ],
      [
        "m",
        "a"
      ],
      [
        "ic",
        "al"
      ],
      [
        "i",
        "al"
      ],
      [
        "2",
        "00"
      ],
      [
        "il",
        "l"
      ],
      [
        "ac",
        "t"
      ],
      [
        "n",
        "ot"
      ],
      [
        "f",
        "o"
      ],
      [
        "t",
        "im"
      ],
      [
        "w",
        "or"
      ],
      [
        "t",
        "p"
      ],
      [
        "iv",
        "e"
      ],
      [
        "t",
        "e"
      ],
      [
        "ht",
        "tp"
      ],
      [
        "p",
        "r"
      ],
      [
        "ar",
        "d"
      ],
      [
        "er",
        "e"
      ],
      [
        "on",
        "e"
      ],
      [
        "i",
        "e"
      ],
      [
        "o",
        "d"
      ],
      [
        "b",
        "er"
      ],
      [
        "a",
        "f"
      ],
      [
        "g",
        "r"
      ],
      [
        "th",
        "is"
      ],
      [
        "st",
        "r"
      ],
      [
        "el",
        "l"
      ],
      [
        "h",
        "is"
      ],
      [
        "p",
        "res"
      ],
      [
        "k",
        "e"
      ],
      [
        "or",
        "t"
      ],
      [
        "c",
        "r"
      ],
      [
        "an",
        "g"
      ],
      [
        "ig",
        "ht"
      ],
      [
        "in",
        "e"
      ],
      [
        "d",
        "u"
      ],
      [
        "ex",
        "t"
      ],
      [
        "en",
        "d"
      ],
      [
        "ar",
        "y"
      ],
      [
        "ig",
        "n"
      ],
      [
        "wh",
        "ich"
      ],
      [
        "u",
        "d"
      ],
      [
        "e",
        "ar"
      ],
      [
        "i",
        "re"
      ],
      [
        "b",
        "l"
      ],
      [
        "i",
        "o"
      ],
      [
        "c",
        "ent"
      ],
      [
        "u",
        "re"
      ],
      [
        "n",
        "o"
      ],
      [
        "re",
        "v"
      ],
      [
        "w",
        "e"
      ],
      [
        "u",
        "p"
      ],
      [
        "f",
        "r"
      ],
      [
        "av",
        "e"
      ],
      [
        "at",
        "ed"
      ],
      [
        "as",
        "t"
      ],
      [
        "v",
        "e"
      ],
      [
        "ww",
        "w"
      ],
      [
        "g",
        "o"
      ],
      [
        "i",
        "z"
      ],
      [
        "for",
        "m"
      ],
      [
        "com",
        "p"
      ],
      [
        "w",
        "o"
      ],
      [
        "c",
        "an"
      ],
      [
        "co",
        "l"
      ],
      [
        "as",
        "s"
      ],
      [
        "o",
        "ut"
      ],
      [
        "ac",
        "e"
      ],
      [
        "is",
        "ion"
      ],
      [
        "l",
        "and"
      ],
      [
        "it",
        "s"
      ],
      [
        "d",
        "is"
      ],
      [
        "1",
        "8"
      ],
      [
        "d",
        "o"
      ],
      [
        "s",
        "y"
      ],
      [
        "us",
        "e"
      ],
      [
        "f",
        "e"
      ],
      [
        "al",
        "so"
      ],
      [
        "ct",
        "ion"
      ],
      [
        "k",
        "s"
      ],
      [
        "f",
        "er"
      ],
      [
        "a",
        "u"
      ],
      [
        "en",
        "ce"
      ],
      [
        "p",
        "art"
      ],
      [
        "in",
        "d"
      ],
      [
        "t",
        "it"
      ],
      [
        "h",
        "o"
      ],
      [
        "o",
        "ther"
      ],
      [
        "or",
        "d"
      ],
      [
        "tr",
        "ib"
      ],
      [
        "t",
        "ext"
      ],
      [
        "com",
        "m"
      ],
      [
        "p",
        "t"
      ],
      [
        "on",
        "g"
      ],
      [
        "ter",
        "n"
      ],
      [
        "it",
        "ion"
      ],
      [
        "er",
        "n"
      ],
      [
        "h",
        "ave"
      ],
      [
        "h",
        "as"
      ],
      [
        "s",
        "er"
      ],
      [
        "trib",
        "ut"
      ],
      [
        "c",
        "i"
      ],
      [
        "g",
        "en"
      ],
      [
        "m",
        "ar"
      ],
      [
        "in",
        "t"
      ],
      [
        "al",
        "ly"
      ],
      [
        "tit",
        "le"
      ],
      [
        "ug",
        "h"
      ],
      [
        "ne",
        "w"
      ],
      [
        "id",
        "e"
      ],
      [
        "a",
        "w"
      ],
      [
        "b",
        "ut"
      ],
      [
        "an",
        "s"
      ],
      [
        "w",
        "ere"
      ],
      [
        "c",
        "a"
      ],
      [
        "k",
        "ing"
      ],
      [
        "m",
        "in"
      ],
      [
        "ate",
        "g"
      ],
      [
        "o",
        "g"
      ],
      [
        "en",
        "g"
      ],
      [
        ")",
        "."
      ],
      [
        "re",
        "d"
      ],
      [
        "p",
        "age"
      ],
      [
        "ow",
        "n"
      ],
      [
        "p",
        "ort"
      ],
      [
        "ation",
        "s"
      ],
      [
        "f",
        "l"
      ],
      [
        "g",
        "re"
      ],
      [
        "con",
        "t"
      ],
      [
        "19",
        "9"
      ],
      [
        ")",
        ","
      ],
      [
        "c",
        "ateg"
      ],
      [
        "m",
        "l"
      ],
      [
        "it",
        "e"
      ],
      [
        "a",
        "ch"
      ],
      [
        "ac",
        "k"
      ],
      [
        "con",
        "tribut"
      ],
      [
        "re",
        "n"
      ],
      [
        "ab",
        "le"
      ],
      [
        "at",
        "es"
      ],
      [
        "su",
        "b"
      ],
      [
        "l",
        "i"
      ],
      [
        "categ",
        "ory"
      ],
      [
        "is",
        "m"
      ],
      [
        "e",
        "v"
      ],
      [
        "po",
        "s"
      ],
      [
        "so",
        "me"
      ],
      [
        "ic",
        "s"
      ],
      [
        "sp",
        "e"
      ],
      [
        "j",
        "o"
      ],
      [
        "1",
        "5"
      ],
      [
        "co",
        "un"
      ],
      [
        "f",
        "ir"
      ],
      [
        "or",
        "g"
      ],
      [
        "a",
        "k"
      ],
      [
        "e",
        "le"
      ],
      [
        "th",
        "o"
      ],
      [
        "c",
        "re"
      ],
      [
        "mo",
        "st"
      ],
      [
        "rev",
        "ision"
      ],
      [
        "ul",
        "d"
      ],
      [
        "p",
        "ol"
      ],
      [
        "contribut",
        "or"
      ],
      [
        "est",
        "amp"
      ],
      [
        "tim",
        "estamp"
      ],
      [
        "the",
        "ir"
      ],
      [
        "d",
        "es"
      ],
      [
        "1",
        "0"
      ],
      [
        "s",
        "ion"
      ],
      [
        "g",
        "ro"
      ],
      [
        "su",
        "p"
      ],
      [
        "er",
        "ic"
      ],
      [
        "j",
        "e"
      ],
      [
        "el",
        "y"
      ],
      [
        "man",
        "y"
      ],
      [
        "p",
        "u"
      ],
      [
        "ic",
        "e"
      ],
      [
        "fir",
        "st"
      ],
      [
        "''",
        ","
      ],
      [
        "d",
        "r"
      ],
      [
        "c",
        "es"
      ],
      [
        "wh",
        "o"
      ],
      [
        "it",
        "ed"
      ],
      [
        "an",
        "ce"
      ],
      [
        "mo",
        "re"
      ],
      [
        "h",
        "er"
      ],
      [
        "the",
        "y"
      ],
      [
        "h",
        "ad"
      ],
      [
        "us",
        "ed"
      ],
      [
        "i",
        "le"
      ],
      [
        "l",
        "ang"
      ],
      [
        "y",
        "ear"
      ],
      [
        "-",
        "-"
      ],
      [
        "re",
        "l"
      ],
      [
        "g",
        "er"
      ],
      [
        "c",
        "k"
      ],
      [
        "com",
        "ment"
      ],
      [
        "ic",
        "t"
      ],
      [
        "at",
        "er"
      ],
      [
        "t",
        "y"
      ],
      [
        "c",
        "ar"
      ],
      [
        "l",
        "in"
      ],
      [
        "ation",
        "al"
      ],
      [
        "v",
        "el"
      ],
      [
        "l",
        "es"
      ],
      [
        "at",
        "t"
      ],
      [
        "m",
        "on"
      ],
      [
        "c",
        "c"
      ],
      [
        "u",
        "st"
      ],
      [
        "ther",
        "e"
      ],
      [
        "ol",
        "og"
      ],
      [
        "ol",
        "d"
      ],
      [
        "t",
        "en"
      ],
      [
        "lang",
        "u"
      ],
      [
        "o",
        "k"
      ],
      [
        "f",
        "in"
      ],
      [
        "as",
        "e"
      ],
      [
        "as",
        "h"
      ],
      [
        "h",
        "ist"
      ],
      [
        "1",
        "2"
      ],
      [
        "p",
        "ar"
      ],
      [
        "e",
        "ver"
      ],
      [
        "n",
        "or"
      ],
      [
        "i",
        "ed"
      ],
      [
        "am",
        "eric"
      ],
      [
        "pu",
        "bl"
      ],
      [
        "u",
        "lt"
      ],
      [
        "1",
        "7"
      ],
      [
        "t",
        "a"
      ],
      [
        "r",
        "a"
      ],
      [
        "t",
        "d"
      ],
      [
        "l",
        "d"
      ],
      [
        "r",
        "ight"
      ],
      [
        "be",
        "en"
      ],
      [
        "c",
        "al"
      ],
      [
        "su",
        "ch"
      ],
      [
        "k",
        "n"
      ],
      [
        "u",
        "e"
      ],
      [
        "o",
        "ver"
      ],
      [
        "w",
        "ar"
      ],
      [
        "in",
        "ter"
      ],
      [
        "en",
        "s"
      ],
      [
        "a",
        "ir"
      ],
      [
        "ar",
        "ch"
      ],
      [
        "1",
        "6"
      ],
      [
        "c",
        "y"
      ],
      [
        "pl",
        "ay"
      ],
      [
        "us",
        "ern"
      ],
      [
        "m",
        "ain"
      ],
      [
        "usern",
        "ame"
      ],
      [
        "o",
        "s"
      ],
      [
        "se",
        "e"
      ],
      [
        "2",
        "0"
      ],
      [
        "l",
        "ow"
      ],
      [
        "h",
        "ow"
      ],
      [
        "ch",
        "ar"
      ],
      [
        "af",
        "ter"
      ],
      [
        "19",
        "8"
      ],
      [
        "of",
        "f"
      ],
      [
        "i",
        "k"
      ],
      [
        "wor",
        "ld"
      ],
      [
        "st",
        "em"
      ],
      [
        "in",
        "cl"
      ],
      [
        "re",
        "g"
      ],
      [
        "sp",
        "ace"
      ],
      [
        "s",
        "m"
      ],
      [
        "be",
        "t"
      ],
      [
        "ion",
        "s"
      ],
      [
        "ent",
        "s"
      ],
      [
        "on",
        "ly"
      ],
      [
        "ul",
        "ar"
      ],
      [
        "m",
        "s"
      ],
      [
        "t",
        "wo"
      ],
      [
        "re",
        "e"
      ],
      [
        "im",
        "age"
      ],
      [
        "tim",
        "e"
      ],
      [
        "th",
        "an"
      ],
      [
        "m",
        "ed"
      ],
      [
        "p",
        "re"
      ],
      [
        "or",
        "s"
      ],
      [
        "m",
        "ay"
      ],
      [
        "t",
        "s"
      ],
      [
        "sy",
        "stem"
      ],
      [
        "1",
        "4"
      ],
      [
        "n",
        "um"
      ],
      [
        "c",
        "ed"
      ],
      [
        "c",
        "ial"
      ],
      [
        "g",
        "u"
      ],
      [
        "ad",
        "e"
      ],
      [
        "u",
        "al"
      ],
      [
        "in",
        "to"
      ],
      [
        "r",
        "it"
      ],
      [
        "an",
        "y"
      ],
      [
        "al",
        "ign"
      ],
      [
        "b",
        "el"
      ],
      [
        "p",
        "op"
      ],
      [
        "wh",
        "en"
      ],
      [
        "w",
        "ay"
      ],
      [
        "h",
        "y"
      ],
      [
        "un",
        "ited"
      ],
      [
        "con",
        "s"
      ],
      [
        "e",
        "u"
      ],
      [
        "gen",
        "er"
      ],
      [
        "s",
        "ch"
      ],
      [
        "io",
        "us"
      ],
      [
        "und",
        "er"
      ],
      [
        "mo",
        "d"
      ],
      [
        "the",
        "se"
      ],
      [
        "ig",
        "h"
      ],
      [
        "c",
        "or"
      ],
      [
        "l",
        "ar"
      ],
      [
        "langu",
        "age"
      ],
      [
        "fo",
        "re"
      ],
      [
        "w",
        "ill"
      ],
      [
        "d",
        "ay"
      ],
      [
        "iv",
        "ers"
      ],
      [
        "1",
        "3"
      ],
      [
        "l",
        "ish"
      ],
      [
        "f",
        "il"
      ],
      [
        "st",
        "ates"
      ],
      [
        "c",
        "ur"
      ],
      [
        "ma",
        "th"
      ],
      [
        "i",
        "i"
      ],
      [
        "v",
        "ed"
      ],
      [
        "19",
        "7"
      ],
      [
        "a",
        "th"
      ],
      [
        "b",
        "as"
      ],
      [
        "c",
        "ap"
      ],
      [
        "f",
        "i"
      ],
      [
        "b",
        "ro"
      ],
      [
        "m",
        "us"
      ],
      [
        "ur",
        "n"
      ],
      [
        "c",
        "all"
      ],
      [
        "if",
        "ic"
      ],
      [
        "americ",
        "an"
      ],
      [
        "at",
        "ive"
      ],
      [
        "pro",
        "du"
      ],
      [
        "ad",
        "d"
      ],
      [
        "c",
        "ess"
      ],
      [
        "m",
        "at"
      ],
      [
        "y",
        "s"
      ],
      [
        "l",
        "a"
      ],
      [
        "ch",
        "r"
      ],
      [
        "on",
        "s"
      ],
      [
        "y",
        "o"
      ],
      [
        "ur",
        "ing"
      ],
      [
        "d",
        "ash"
      ],
      [
        "wor",
        "k"
      ],
      [
        "s",
        "im"
      ],
      [
        "ht",
        "ml"
      ],
      [
        "2",
        "5"
      ],
      [
        "je",
        "ct"
      ],
      [
        "e",
        "p"
      ],
      [
        "o",
        "us"
      ],
      [
        "u",
        "b"
      ],
      [
        "ire",
        "ct"
      ],
      [
        "d",
        "if"
      ],
      [
        "pe",
        "op"
      ],
      [
        "ing",
        "s"
      ],
      [
        "l",
        "ist"
      ],
      [
        "um",
        "b"
      ],
      [
        "o",
        "b"
      ],
      [
        "r",
        "y"
      ],
      [
        "d",
        "om"
      ],
      [
        "pres",
        "er"
      ],
      [
        "f",
        "ul"
      ],
      [
        "un",
        "t"
      ],
      [
        "el",
        "d"
      ],
      [
        "it",
        "al"
      ],
      [
        "th",
        "ro"
      ],
      [
        "wo",
        "uld"
      ],
      [
        "m",
        "et"
      ],
      [
        "tr",
        "y"
      ],
      [
        "publ",
        "ic"
      ],
      [
        "hist",
        "ory"
      ],
      [
        "a",
        "z"
      ],
      [
        "it",
        "ies"
      ],
      [
        "un",
        "ivers"
      ],
      [
        "t",
        "on"
      ],
      [
        "f",
        "t"
      ],
      [
        "an",
        "n"
      ],
      [
        "on",
        "d"
      ],
      [
        "le",
        "g"
      ],
      [
        "id",
        "ent"
      ],
      [
        "go",
        "ver"
      ],
      [
        "gr",
        "ap"
      ],
      [
        "m",
        "y"
      ],
      [
        "peop",
        "le"
      ],
      [
        "ab",
        "out"
      ],
      [
        "x",
        "ml"
      ],
      [
        "f",
        "a"
      ],
      [
        "19",
        "6"
      ],
      [
        "ut",
        "ion"
      ],
      [
        "preser",
        "ve"
      ],
      [
        "s",
        "s"
      ],
      [
        "br",
        "it"
      ],
      [
        "we",
        "en"
      ],
      [
        "se",
        "t"
      ],
      [
        "olog",
        "y"
      ],
      [
        "r",
        "ic"
      ],
      [
        "bet",
        "ween"
      ],
      [
        "il",
        "d"
      ],
      [
        "ag",
        "es"
      ],
      [
        "m",
        "em"
      ],
      [
        "cent",
        "er"
      ],
      [
        "how",
        "ever"
      ],
      [
        "eu",
        "ro"
      ],
      [
        "ter",
        "s"
      ],
      [
        "in",
        "ce"
      ],
      [
        "in",
        "tern"
      ],
      [
        "a",
        "h"
      ],
      [
        "kn",
        "own"
      ],
      [
        "wh",
        "ere"
      ],
      [
        "u",
        "th"
      ],
      [
        "tho",
        "ugh"
      ],
      [
        "e",
        "f"
      ],
      [
        "u",
        "ally"
      ],
      [
        "le",
        "t"
      ],
      [
        "1",
        "1"
      ],
      [
        "c",
        "ord"
      ],
      [
        "sm",
        "all"
      ],
      [
        "year",
        "s"
      ],
      [
        "incl",
        "ud"
      ],
      [
        "''",
        "."
      ],
      [
        "c",
        "le"
      ],
      [
        "n",
        "b"
      ],
      [
        "pro",
        "v"
      ],
      [
        "st",
        "ate"
      ],
      [
        "n",
        "ame"
      ],
      [
        "il",
        "y"
      ],
      [
        "the",
        "n"
      ],
      [
        "v",
        "ar"
      ],
      [
        "h",
        "igh"
      ],
      [
        "l",
        "ed"
      ],
      [
        "b",
        "u"
      ],
      [
        "w",
        "ell"
      ],
      [
        "0",
        "2"
      ],
      [
        "tr",
        "ans"
      ],
      [
        "b",
        "all"
      ],
      [
        "in",
        "s"
      ],
      [
        "n",
        "et"
      ],
      [
        "at",
        "ing"
      ],
      [
        "gro",
        "up"
      ],
      [
        "ur",
        "y"
      ],
      [
        "f",
        "ol"
      ],
      [
        "ist",
        "s"
      ],
      [
        "am",
        "es"
      ],
      [
        "ser",
        "v"
      ],
      [
        "h",
        "im"
      ],
      [
        "con",
        "d"
      ],
      [
        "u",
        "k"
      ],
      [
        "ce",
        "pt"
      ],
      [
        "0",
        "3"
      ],
      [
        "al",
        "s"
      ],
      [
        "ib",
        "le"
      ],
      [
        "in",
        "v"
      ],
      [
        "v",
        "i"
      ],
      [
        "p",
        "x"
      ],
      [
        "p",
        "g"
      ],
      [
        "w",
        "rit"
      ],
      [
        "gover",
        "n"
      ],
      [
        "call",
        "ed"
      ],
      [
        "200",
        "5"
      ],
      [
        "200",
        "6"
      ],
      [
        "ord",
        "er"
      ],
      [
        "num",
        "ber"
      ],
      [
        "c",
        "ity"
      ],
      [
        "t",
        "ain"
      ],
      [
        "ic",
        "k"
      ],
      [
        "s",
        "k"
      ],
      [
        "d",
        "uring"
      ],
      [
        "gr",
        "am"
      ],
      [
        "eng",
        "lish"
      ],
      [
        "p",
        "le"
      ],
      [
        "cl",
        "ass"
      ],
      [
        "nb",
        "sp"
      ],
      [
        "f",
        "am"
      ],
      [
        "i",
        "x"
      ],
      [
        "p",
        "ow"
      ],
      [
        "le",
        "ft"
      ],
      [
        "m",
        "is"
      ],
      [
        "s",
        "on"
      ],
      [
        "to",
        "p"
      ],
      [
        "v",
        "al"
      ],
      [
        "p",
        "ers"
      ],
      [
        "l",
        "if"
      ],
      [
        "l",
        "ine"
      ],
      [
        "in",
        "st"
      ],
      [
        "i",
        "er"
      ],
      [
        "s",
        "ci"
      ],
      [
        "m",
        "er"
      ],
      [
        "re",
        "fer"
      ],
      [
        "b",
        "ar"
      ],
      [
        "comp",
        "ut"
      ],
      [
        "thro",
        "ugh"
      ],
      [
        "re",
        "f"
      ],
      [
        "st",
        "and"
      ],
      [
        "sh",
        "ip"
      ],
      [
        "i",
        "um"
      ],
      [
        "v",
        "ie"
      ],
      [
        "po",
        "int"
      ],
      [
        "euro",
        "pe"
      ],
      [
        "h",
        "ar"
      ],
      [
        "00",
        "0"
      ],
      [
        "vel",
        "op"
      ],
      [
        "h",
        "um"
      ],
      [
        "dif",
        "fer"
      ],
      [
        "t",
        "ed"
      ],
      [
        "of",
        "ten"
      ],
      [
        "c",
        "er"
      ],
      [
        "th",
        "umb"
      ],
      [
        "or",
        "ig"
      ],
      [
        "s",
        "ing"
      ],
      [
        "j",
        "pg"
      ],
      [
        "chr",
        "ist"
      ],
      [
        "l",
        "aw"
      ],
      [
        "al",
        "e"
      ],
      [
        "el",
        "f"
      ],
      [
        "de",
        "velop"
      ],
      [
        "n",
        "ational"
      ],
      [
        "u",
        "res"
      ],
      [
        "at",
        "ure"
      ],
      [
        "pol",
        "it"
      ],
      [
        "c",
        "ame"
      ],
      [
        "an",
        "k"
      ],
      [
        "ca",
        "use"
      ],
      [
        "jo",
        "h"
      ],
      [
        "em",
        "ent"
      ],
      [
        "l",
        "it"
      ],
      [
        "str",
        "u"
      ],
      [
        "fe",
        "ct"
      ],
      [
        "comm",
        "un"
      ],
      [
        "the",
        "m"
      ],
      [
        "wh",
        "ile"
      ],
      [
        "b",
        "ack"
      ],
      [
        "f",
        "act"
      ],
      [
        "fo",
        "und"
      ],
      [
        "govern",
        "ment"
      ],
      [
        "ex",
        "amp"
      ],
      [
        "so",
        "ci"
      ],
      [
        "s",
        "a"
      ],
      [
        "g",
        "y"
      ],
      [
        "ical",
        "ly"
      ],
      [
        "f",
        "f"
      ],
      [
        "iz",
        "e"
      ],
      [
        ";",
        ","
      ],
      [
        "n",
        "ow"
      ],
[...]
