{
  "version": "1.0",
  "truncation": null,
  "padding": null,
  "added_tokens": [
    {
      "id": 0,
      "content": "<PAD>",
      "single_word": false,
      "lstrip": false,
      "rstrip": false,
      "normalized": false,
      "special": true
    },
    {
      "id": 1,
      "content": "<UNK>",
      "single_word": false,
      "lstrip": false,
      "rstrip": false,
      "normalized": false,
      "special": true
    },
    {
      "id": 2,
      "content": "<BOS>",
      "single_word": false,
      "lstrip": false,
      "rstrip": false,
      "normalized": false,
      "special": true
    },
    {
      "id": 3,
      "content": "<EOS>",
      "single_word": false,
      "lstrip": false,
      "rstrip": false,
      "normalized": false,
      "special": true
    }
  ],
  "normalizer": null,
  "pre_tokenizer": {
    "type": "Whitespace"
  },
  "post_processor": null,
  "decoder": null,
  "model": {
    "type": "BPE",
    "dropout": null,
    "unk_token": "<UNK>",
    "continuing_subword_prefix": null,
    "end_of_word_suffix": null,
    "fuse_unk": false,
    "byte_fallback": false,
    "ignore_merges": false,
    "vocab": {
      "<PAD>": 0,
      "<UNK>": 1,
      "<BOS>": 2,
      "<EOS>": 3,
      "!": 4,
      "\"": 5,
      "'": 6,
      "(": 7,
      ")": 8,
      ",": 9,
      "-": 10,
      ".": 11,
      "0": 12,
      "1": 13,
      "2": 14,
      "3": 15,
      "4": 16,
      "5": 17,
      "6": 18,
      "7": 19,
      "8": 20,
      "9": 21,
      ":": 22,
      ";": 23,
      "?": 24,
      "a": 25,
      "b": 26,
      "c": 27,
      "d": 28,
      "e": 29,
      "f": 30,
      "g": 31,
      "h": 32,
      "i": 33,
      "j": 34,
      "k": 35,
      "l": 36,
      "m": 37,
      "n": 38,
      "o": 39,
      "p": 40,
      "q": 41,
      "r": 42,
      "s": 43,
      "t": 44,
      "u": 45,
      "v": 46,
      "w": 47,
      "x": 48,
      "y": 49,
      "z": 50,
      "th": 51,
      "in": 52,
      "the": 53,
      "an": 54,
      "er": 55,
      "on": 56,
      "ed": 57,
      "re": 58,
      "at": 59,
      "or": 60,
      "st": 61,
      "en": 62,
      "al": 63,
      "ar": 64,
      "and": 65,
      "as": 66,
      "of": 67,
      "ing": 68,
      "it": 69,
      "is": 70,
      "to": 71,
      "es": 72,
      "ro": 73,
      "ic": 74,
      "ou": 75,
      "le": 76,
      "ion": 77,
      "ch": 78,
      "un": 79,
      "se": 80,
      "il": 81,
      "ad": 82,
      "am": 83,
      "ent": 84,
      "el": 85,
      "ac": 86,
      "for": 87,
      "be": 88,
      "om": 89,
      "was": 90,
      "de": 91,
      "ur": 92,
      "ol": 93,
      "ly": 94,
      "ir": 95,
      "wh": 96,
      "im": 97,
      "iv": 98,
      "he": 99,
      "ig": 100,
      "wi": 101,
      "ter": 102,
      "ay": 103,
      "ow": 104,
      "con": 105,
      "with": 106,
      "ce": 107,
      "ag": 108,
      "that": 109,
      "ation": 110,
      "ver": 111,
      "us": 112,
      "by": 113,
      "ct": 114,
      "id": 115,
      "te": 116,
      "ot": 117,
      "su": 118,
      "com": 119,
      "ap": 120,
      "pl": 121,
      "19": 122,
      "op": 123,
      "rom": 124,
      "all": 125,
      "tr": 126,
      "ain": 127,
      "sh": 128,
      "av": 129,
      "ab": 130,
      "ul": 131,
      "ist": 132,
      "00": 133,
      "mo": 134,
      "ne": 135,
      "ers": 136,
      "ut": 137,
      "pe": 138,
      "unk": 139,
      "um": 140,
      "res": 141,
      "ere": 142,
      "pro": 143,
      "em": 144,
      "cl": 145,
      "his": 146,
      "from": 147,
      "are": 148,
      "ther": 149,
      "oun": 150,
      "et": 151,
      "art": 152,
      "ies": 153,
      "po": 154,
      "lo": 155,
      "est": 156,
      "if": 157,
      "ill": 158,
      "af": 159,
      "man": 160,
      "igh": 161,
      "ex": 162,
      "so": 163,
      "ard": 164,
      "ber": 165,
      "ich": 166,
      "ish": 167,
      "ast": 168,
      "ri": 169,
      "were": 170,
      "ak": 171,
      "ong": 172,
      "ate": 173,
      "qu": 174,
      "per": 175,
      "ant": 176,
      "od": 177,
      "tw": 178,
      "gh": 179,
      "ame": 180,
      "au": 181,
      "ated": 182,
      "ity": 183,
      "one": 184,
      "ear": 185,
      "ess": 186,
      "ort": 187,
      "ack": 188,
      "br": 189,
      "out": 190,
      "ive": 191,
      "her": 192,
      "end": 193,
      "ord": 194,
      "had": 195,
      "ie": 196,
      "ld": 197,
      "co": 198,
      "ip": 199,
      "bo": 200,
      "ment": 201,
      "up": 202,
      "our": 203,
      "fe": 204,
      "which": 205,
      "ud": 206,
      "but": 207,
      "act": 208,
      "ge": 209,
      "not": 210,
      "ial": 211,
      "str": 212,
      "ian": 213,
      "fir": 214,
      "bl": 215,
      "cr": 216,
      "ight": 217,
      "wor": 218,
      "ell": 219,
      "ine": 220,
      "200": 221,
      "sp": 222,
      "ia": 223,
      "du": 224,
      "20": 225,
      "its": 226,
      "ass": 227,
      "ary": 228,
      "und": 229,
      "aw": 230,
      "ave": 231,
      "ical": 232,
      "ach": 233,
      "pr": 234,
      "no": 235,
      "first": 236,
      "over": 237,
      "sc": 238,
      "this": 239,
      "tim": 240,
      "ser": 241,
      "ire": 242,
      "play": 243,
      "mar": 244,
      "gu": 245,
      "after": 246,
      "land": 247,
      "gr": 248,
      "ous": 249,
      "fo": 250,
      "age": 251,
      "own": 252,
      "port": 253,
      "si": 254,
      "their": 255,
      "other": 256,
      "ve": 257,
      "also": 258,
      "me": 259,
      "pt": 260,
      "ould": 261,
      "ind": 262,
      "int": 263,
      "ition": 264,
      "oc": 265,
      "two": 266,
      "new": 267,
      "has": 268,
      "comm": 269,
      "ound": 270,
      "part": 271,
      "she": 272,
      "form": 273,
      "ke": 274,
      "comp": 275,
      "ign": 276,
      "cent": 277,
      "who": 278,
      "off": 279,
      "des": 280,
      "we": 281,
      "ction": 282,
      "pre": 283,
      "ree": 284,
      "ev": 285,
      "ok": 286,
      "ure": 287,
      "they": 288,
      "201": 289,
      "old": 290,
      "pres": 291,
      "ater": 292,
      "have": 293,
      "pos": 294,
      "att": 295,
      "li": 296,
      "year": 297,
      "low": 298,
      "ough": 299,
      "uring": 300,
      "ome": 301,
      "jo": 302,
      "ence": 303,
      "rou": 304,
      "cord": 305,
      "ite": 306,
      "fin": 307,
      "been": 308,
      "18": 309,
      "ade": 310,
      "ile": 311,
      "ran": 312,
      "ally": 313,
      "cre": 314,
      "ice": 315,
      "ory": 316,
      "ship": 317,
      "air": 318,
      "nor": 319,
      "can": 320,
      "ren": 321,
      "ph": 322,
      "ck": 323,
      "cont": 324,
      "dr": 325,
      "dis": 326,
      "inter": 327,
      "incl": 328,
      "ted": 329,
      "fl": 330,
      "vi": 331,
      "mon": 332,
      "during": 333,
      "time": 334,
      "able": 335,
      "col": 336,
      "fer": 337,
      "gro": 338,
      "ty": 339,
      "ely": 340,
      "urn": 341,
      "go": 342,
      "coun": 343,
      "song": 344,
      "work": 345,
      "ace": 346,
      "ue": 347,
      "ts": 348,
      "ved": 349,
      "ations": 350,
      "most": 351,
      "spe": 352,
      "par": 353,
      "ced": 354,
      "when": 355,
      "ail": 356,
      "eng": 357,
      "way": 358,
      "ick": 359,
      "tem": 360,
      "ied": 361,
      "fore": 362,
      "more": 363,
      "iz": 364,
      "ces": 365,
      "rit": 366,
      "ans": 367,
      "char": 368,
      "ason": 369,
      "min": 370,
      "ited": 371,
      "ten": 372,
      "ger": 373,
      "main": 374,
      "rough": 375,
      "ions": 376,
      "bec": 377,
      "vel": 378,
      "sing": 379,
      "into": 380,
      "reg": 381,
      "though": 382,
      "car": 383,
      "son": 384,
      "ath": 385,
      "ep": 386,
      "record": 387,
      "ever": 388,
      "gen": 389,
      "game": 390,
      "ased": 391,
      "would": 392,
      "ann": 393,
      "mi": 394,
      "includ": 395,
      "ance": 396,
      "bu": 397,
      "ild": 398,
      "cted": 399,
      "red": 400,
      "ates": 401,
      "while": 402,
      "gan": 403,
      "him": 404,
      "used": 405,
      "amp": 406,
      "day": 407,
      "cond": 408,
      "under": 409,
      "med": 410,
      "pu": 411,
      "fil": 412,
      "war": 413,
      "ents": 414,
      "een": 415,
      "cess": 416,
      "some": 417,
      "sou": 418,
      "alb": 419,
      "mus": 420,
      "ings": 421,
      "tow": 422,
      "ake": 423,
      "les": 424,
      "any": 425,
      "may": 426,
      "fol": 427,
      "sy": 428,
      "ju": 429,
      "als": 430,
      "three": 431,
      "ble": 432,
      "ma": 433,
      "199": 434,
      "ra": 435,
      "season": 436,
      "ric": 437,
      "rel": 438,
      "je": 439,
      "only": 440,
      "ase": 441,
      "how": 442,
      "io": 443,
      "there": 444,
      "ret": 445,
      "album": 446,
      "my": 447,
      "ors": 448,
      "pol": 449,
      "high": 450,
      "produ": 451,
      "about": 452,
      "publ": 453,
      "ss": 454,
      "sel": 455,
      "do": 456,
      "again": 457,
      "sion": 458,
      "kn": 459,
      "writ": 460,
      "ful": 461,
      "ered": 462,
      "sch": 463,
      "vie": 464,
      "eld": 465,
      "king": 466,
      "num": 467,
      "them": 468,
      "lar": 469,
      "second": 470,
      "later": 471,
      "ern": 472,
      "rele": 473,
      "stru": 474,
      "bro": 475,
      "through": 476,
      "cap": 477,
      "follow": 478,
      "four": 479,
      "ational": 480,
      "ang": 481,
      "film": 482,
      "ste": 483,
      "ular": 484,
      "than": 485,
      "then": 486,
      "ton": 487,
      "vis": 488,
      "arch": 489,
      "call": 490,
      "ict": 491,
      "made": 492,
      "tween": 493,
      "between": 494,
      "10": 495,
      "og": 496,
      "where": 497,
      "ult": 498,
      "ens": 499,
      "view": 500,
      "back": 501,
      "city": 502,
      "gre": 503,
      "well": 504,
      "sub": 505,
      "ames": 506,
      "ele": 507,
      "ating": 508,
      "set": 509,
      "led": 510,
      "west": 511,
      "000": 512,
      "world": 513,
      "ury": 514,
      "tain": 515,
      "fr": 516,
      "ished": 517,
      "spec": 518,
      "cur": 519,
      "sur": 520,
      "aid": 521,
      "amer": 522,
      "bar": 523,
      "ily": 524,
      "ards": 525,
      "pop": 526,
      "appe": 527,
      "add": 528,
      "ose": 529,
      "os": 530,
      "ry": 531,
      "az": 532,
      "ci": 533,
      "line": 534,
      "national": 535,
      "before": 536,
      "music": 537,
      "many": 538,
      "hist": 539,
      "cons": 540,
      "ho": 541,
      "brit": 542,
      "..": 543,
      "lan": 544,
      "ca": 545,
      "number": 546,
      "sup": 547,
      "such": 548,
      "mu": 549,
      "stud": 550,
      "ics": 551,
      "ived": 552,
      "loc": 553,
      "being": 554,
      "ities": 555,
      "both": 556,
      "north": 557,
      "bel": 558,
      "dire": 559,
      "series": 560,
      "16": 561,
      "17": 562,
      "sim": 563,
      "12": 564,
      "will": 565,
      "serv": 566,
      "div": 567,
      "oper": 568,
      "hn": 569,
      "ning": 570,
      "years": 571,
      "sever": 572,
      "cer": 573,
      "state": 574,
      "care": 575,
      "americ": 576,
      "ious": 577,
      "cor": 578,
      "ven": 579,
      "ii": 580,
      "ball": 581,
      "rece": 582,
      "point": 583,
      "198": 584,
      "found": 585,
      "ub": 586,
      "urch": 587,
      "ters": 588,
      "down": 589,
      "ale": 590,
      "ef": 591,
      "mem": 592,
      "side": 593,
      "ond": 594,
      "appear": 595,
      "john": 596,
      "uary": 597,
      "long": 598,
      "south": 599,
      "ince": 600,
      "ual": 601,
      "united": 602,
      "15": 603,
      "however": 604,
      "ins": 605,
      "cri": 606,
      "crit": 607,
      "ause": 608,
      "stor": 609,
      "ise": 610,
      "gener": 611,
      "ks": 612,
      "these": 613,
      "show": 614,
      "mill": 615,
      "fi": 616,
      "sul": 617,
      "unt": 618,
      "orig": 619,
      "open": 620,
      "mat": 621,
      "ped": 622,
      "team": 623,
      "including": 624,
      "ific": 625,
      "cro": 626,
      "although": 627,
      "charac": 628,
      "suc": 629,
      "east": 630,
      "against": 631,
      "sm": 632,
      "try": 633,
      "feat": 634,
      "ob": 635,
      "town": 636,
      "fam": 637,
      "ft": 638,
      "inv": 639,
      "lead": 640,
      "origin": 641,
      "early": 642,
      "dam": 643,
      "olog": 644,
      "became": 645,
      "jan": 646,
      "ines": 647,
      "prote": 648,
      "several": 649,
      "hy": 650,
      "ised": 651,
      "leg": 652,
      "bed": 653,
      "cover": 654,
      "descri": 655,
      "194": 656,
      "mer": 657,
      "devel": 658,
      "ident": 659,
      "por": 660,
      "ting": 661,
      "church": 662,
      "public": 663,
      "like": 664,
      "ative": 665,
      "known": 666,
      "roy": 667,
      "chr": 668,
      "light": 669,
      "sign": 670,
      "following": 671,
      "gover": 672,
      "met": 673,
      "century": 674,
      "develop": 675,
      "dif": 676,
      "hou": 677,
      "ham": 678,
      "vem": 679,
      "lif": 680,
      "peri": 681,
      "epis": 682,
      "mil": 683,
      "british": 684,
      "rol": 685,
      "13": 686,
      "pers": 687,
      "ool": 688,
      "remain": 689,
      "head": 690,
      "dy": 691,
      "pass": 692,
      "gust": 693,
      "contin": 694,
      "dom": 695,
      "ress": 696,
      "aking": 697,
      "six": 698,
      "comple": 699,
      "der": 700,
      "dist": 701,
      "ode": 702,
      "success": 703,
      "tit": 704,
      "school": 705,
      "began": 706,
      "because": 707,
      "vide": 708,
      "cial": 709,
      "fa": 710,
      "dec": 711,
      "ople": 712,
      "present": 713,
      "cy": 714,
      "mis": 715,
      "tro": 716,
      "ures": 717,
      "ision": 718,
      "you": 719,
      "ject": 720,
      "offic": 721,
      "batt": 722,
      "ked": 723,
      "said": 724,
      "wee": 725,
      "position": 726,
      "called": 727,
      "pow": 728,
      "14": 729,
      "def": 730,
      "cast": 731,
      "nam": 732,
      "ley": 733,
      "book": 734,
      "ha": 735,
      "197": 736,
      "did": 737,
      "people": 738,
      "self": 739,
      "jun": 740,
      "30": 741,
      "ms": 742,
      "states": 743,
      "ended": 744,
      "along": 745,
      "196": 746,
      "near": 747,
      "could": 748,
      "run": 749,
      "august": 750,
      "iver": 751,
      "return": 752,
      "ments": 753,
      "ib": 754,
      "win": 755,
      "released": 756,
      "bor": 757,
      "five": 758,
      "dep": 759,
      "list": 760,
      "cour": 761,
      "direct": 762,
      "tal": 763,
      "val": 764,
      "ide": 765,
      "gun": 766,
      "ually": 767,
      "var": 768,
      "ital": 769,
      "group": 770,
      "bre": 771,
      "cle": 772,
      "since": 773,
      "lit": 774,
      "company": 775,
      "ized": 776,
      "ird": 777,
      "design": 778,
      "until": 779,
      "gest": 780,
      "gy": 781,
      "plac": 782,
      "black": 783,
      "start": 784,
      "best": 785,
      "tre": 786,
      "final": 787,
      "million": 788,
      "di": 789,
      "har": 790,
      "ys": 791,
      "men": 792,
      "games": 793,
      "hel": 794,
      "just": 795,
      "govern": 796,
      "life": 797,
      "episode": 798,
      "fran": 799,
      "ork": 800,
      "band": 801,
      "star": 802,
      "american": 803,
      "use": 804,
      "50": 805,
      "cept": 806,
      "come": 807,
      "ash": 808,
      "maj": 809,
      "same": 810,
      "attack": 811,
      "field": 812,
      "moun": 813,
      "command": 814,
      "xt": 815,
      "del": 816,
      "top": 817,
      "aged": 818,
      "support": 819,
      "get": 820,
      "soci": 821,
      "played": 822,
      "less": 823,
      "mag": 824,
      "ground": 825,
      "eu": 826,
      "ane": 827,
      "sep": 828,
      "ided": 829,
      "aim": 830,
      "fle": 831,
      "build": 832,
      "read": 833,
      "class": 834,
      "hal": 835,
      "hav": 836,
      "trans": 837,
      "hor": 838,
      "another": 839,
      "thern": 840,
      "small": 841,
      "ali": 842,
      "leag": 843,
      "child": 844,
      "each": 845,
      "grap": 846,
      "home": 847,
      "ivers": 848,
      "formed": 849,
      "fur": 850,
      "ier": 851,
      "around": 852,
      "club": 853,
      "great": 854,
      "camp": 855,
      "character": 856,
      "ore": 857,
      "ists": 858,
      "tember": 859,
      "september": 860,
      "german": 861,
      "fed": 862,
      "what": 863,
      "major": 864,
      "vo": 865,
      "now": 866,
      "adv": 867,
      "prom": 868,
      "ron": 869,
      "report": 870,
      "review": 871,
      "dest": 872,
      "consid": 873,
      "km": 874,
      "hum": 875,
      "cut": 876,
      "last": 877,
      "ner": 878,
      "power": 879,
      "history": 880,
      "stand": 881,
      "requ": 882,
      "road": 883,
      "took": 884,
      "even": 885,
      "mor": 886,
      "ody": 887,
      "aft": 888,
      "sl": 889,
      "som": 890,
      "ina": 891,
      "government": 892,
      "pat": 893,
      "family": 894,
      "pen": 895,
      "short": 896,
      "name": 897,
      "ured": 898,
      "11": 899,
      "stem": 900,
      "ves": 901,
      "area": 902,
      "feder": 903,
      "den": 904,
      "ward": 905,
      "ired": 906,
      "tech": 907,
      "video": 908,
      "league": 909,
      "law": 910,
      "ural": 911,
      "allow": 912,
      "accord": 913,
      "contr": 914,
      "ional": 915,
      "foot": 916,
      "octo": 917,
      "house": 918,
      "october": 919,
      "ru": 920,
      "sk": 921,
      "god": 922,
      "na": 923,
      "won": 924,
      "fect": 925,
      "stral": 926,
      "resul": 927,
      "received": 928,
      "ined": 929,
      "person": 930,
      "row": 931,
      "ships": 932,
      "continu": 933,
      "gin": 934,
      "pical": 935,
      "ood": 936,
      "ages": 937,
      "0s": 938,
      "bers": 939,
      "cup": 940,
      "giv": 941,
      "water": 942,
      "reach": 943,
      "mark": 944,
      "lish": 945,
      "25": 946,
      "york": 947,
      "due": 948,
      "march": 949,
      "la": 950,
      "according": 951,
      "austral": 952,
      "songs": 953,
      "death": 954,
      "january": 955,
      "june": 956,
      "ze": 957,
      "ained": 958,
      "sci": 959,
      "rock": 960,
      "times": 961,
      "christ": 962,
      "ae": 963,
      "partic": 964,
      "tle": 965,
      "ony": 966,
      "story": 967,
      "constru": 968,
      "ement": 969,
      "vious": 970,
      "rote": 971,
      "single": 972,
      "fic": 973,
      "white": 974,
      "wrote": 975,
      "third": 976,
      "place": 977,
      "right": 978,
      "ling": 979,
      "ism": 980,
      "tour": 981,
      "euro": 982,
      "system": 983,
      "mid": 984,
      "ilt": 985,
      "ple": 986,
      "ats": 987,
      "storm": 988,
      "dylan": 989,
      "named": 990,
      "issu": 991,
      "resp": 992,
      "novem": 993,
      "november": 994,
      "ons": 995,
      "itar": 996,
      "sw": 997,
      "fri": 998,
      "organ": 999,
      "turn": 1000,
      "within": 1001,
      "193": 1002,
      "described": 1003,
      "gar": 1004,
      "pri": 1005,
      "ril": 1006,
      "sequ": 1007,
      "prov": 1008,
      "sent": 1009,
      "included": 1010,
      "ility": 1011,
      "claim": 1012,
      "much": 1013,
      "rench": 1014,
      "sol": 1015,
      "sty": 1016,
      "july": 1017,
      "...": 1018,
      "ba": 1019,
      "vill": 1020,
      "april": 1021,
      "order": 1022,
      "appro": 1023,
      "track": 1024,
      "large": 1025,
      "addition": 1026,
      "let": 1027,
      "fort": 1028,
      "force": 1029,
      "division": 1030,
      "ately": 1031,
      "previous": 1032,
      "production": 1033,
      "rest": 1034,
      "original": 1035,
      "chan": 1036,
      "ians": 1037,
      "ively": 1038,
      "based": 1039,
      "left": 1040,
      "dece": 1041,
      "late": 1042,
      "stre": 1043,
      "career": 1044,
      "england": 1045,
      "squ": 1046,
      "jack": 1047,
      "195": 1048,
      "far": 1049,
      "hand": 1050,
      "vol": 1051,
      "avy": 1052,
      "bas": 1053,
      "thing": 1054,
      "fall": 1055,
      "incre": 1056,
      "moved": 1057,
      "2009": 1058,
      "built": 1059,
      "2008": 1060,
      "player": 1061,
      "thor": 1062,
      "site": 1063,
      "ences": 1064,
      "tempt": 1065,
      "bill": 1066,
      "init": 1067,
      "ank": 1068,
      "2010": 1069,
      "wn": 1070,
      "wood": 1071,
      "press": 1072,
      "forman": 1073,
      "posed": 1074,
      "species": 1075,
      "hur": 1076,
      "ude": 1077,
      "pect": 1078,
      "expl": 1079,
      "chart": 1080,
      "ross": 1081,
      "ains": 1082,
      "ified": 1083,
      "akes": 1084,
      "colle": 1085,
      "univers": 1086,
      "performan": 1087,
      "week": 1088,
      "make": 1089,
      "very": 1090,
      "mber": 1091,
      "french": 1092,
      "ute": 1093,
      "ery": 1094,
      "love": 1095,
      "guitar": 1096,
      "december": 1097,
      "ime": 1098,
      "cas": 1099,
      "period": 1100,
      "those": 1101,
      "gl": 1102,
      "hol": 1103,
      "ium": 1104,
      "attempt": 1105,
      "differ": 1106,
      "wind": 1107,
      "ially": 1108,
      "sen": 1109,
      "say": 1110,
      "ament": 1111,
      "whe": 1112,
      "ives": 1113,
      "ets": 1114,
      "general": 1115,
      "fire": 1116,
      "real": 1117,
      "wal": 1118,
      "ont": 1119,
      "ored": 1120,
      "itch": 1121,
      "ops": 1122,
      "bert": 1123,
      "tor": 1124,
      "ants": 1125,
      "using": 1126,
      "tele": 1127,
      "roman": 1128,
      "local": 1129,
      "island": 1130,
      "hero": 1131,
      "bur": 1132,
      "ged": 1133,
      "role": 1134,
      "estab": 1135,
      "ness": 1136,
      "see": 1137,
      "match": 1138,
      "night": 1139,
      "event": 1140,
      "europe": 1141,
      "24": 1142,
      "ah": 1143,
      "commun": 1144,
      "kill": 1145,
      "stit": 1146,
      "arr": 1147,
      "canad": 1148,
      "belie": 1149,
      "battle": 1150,
      "friend": 1151,
      "recorded": 1152,
      "former": 1153,
      "centr": 1154,
      "control": 1155,
      "month": 1156,
      "sal": 1157,
      "ety": 1158,
      "ulation": 1159,
      "vision": 1160,
      "lab": 1161,
      "vir": 1162,
      "ico": 1163,
      "draw": 1164,
      "half": 1165,
      "mod": 1166,
      "action": 1167,
      "flu": 1168,
      "polit": 1169,
      "fac": 1170,
      "rad": 1171,
      "among": 1172,
      "21": 1173,
      "route": 1174,
      "ark": 1175,
      "strong": 1176,
      "further": 1177,
      "gal": 1178,
      "vict": 1179,
      "ilar": 1180,
      "post": 1181,
      "nat": 1182,
      "release": 1183,
      "ically": 1184,
      "put": 1185,
      "wom": 1186,
      "seven": 1187,
      "sport": 1188,
      "bus": 1189,
      "ently": 1190,
      "award": 1191,
      "ides": 1192,
      "ga": 1193,
      "lin": 1194,
      "prof": 1195,
      "ned": 1196,
      "craft": 1197,
      "atter": 1198,
      "came": 1199,
      "still": 1200,
      "ford": 1201,
      "cus": 1202,
      "milit": 1203,
      "indu": 1204,
      "similar": 1205,
      "flo": 1206,
      "sum": 1207,
      "ireland": 1208,
      "stat": 1209,
      "round": 1210,
      "next": 1211,
      "quar": 1212,
      "board": 1213,
      "2011": 1214,
      "youn": 1215,
      "author": 1216,
      "county": 1217,
      "associ": 1218,
      "ival": 1219,
      "title": 1220,
      "cou": 1221,
      "lim": 1222,
      "pal": 1223,
      "import": 1224,
      "never": 1225,
      "2007": 1226,
      "histor": 1227,
      "lock": 1228,
      "100": 1229,
      "sit": 1230,
      "grand": 1231,
      "cult": 1232,
      "pa": 1233,
      "ison": 1234,
      "away": 1235,
      "23": 1236,
      "gold": 1237,
      "project": 1238,
      "ring": 1239,
      "army": 1240,
      "ption": 1241,
      "fact": 1242,
      "mc": 1243,
      "super": 1244,
      "trad": 1245,
      "international": 1246,
      "don": 1247,
      "ston": 1248,
      "possi": 1249,
      "minist": 1250,
      "28": 1251,
      "mal": 1252,
      "popular": 1253,
      "considered": 1254,
      "refer": 1255,
      "manag": 1256,
      "rich": 1257,
      "vent": 1258,
      "2006": 1259,
      "written": 1260,
      "champ": 1261,
      "service": 1262,
      "que": 1263,
      "placed": 1264,
      "children": 1265,
      "bal": 1266,
      "2013": 1267,
      "held": 1268,
      "26": 1269,
      "stri": 1270,
      "augh": 1271,
      "often": 1272,
      "desp": 1273,
      "park": 1274,
      "having": 1275,
      "hold": 1276,
      "version": 1277,
      "cru": 1278,
      "chang": 1279,
      "aining": 1280,
      "country": 1281,
      "university": 1282,
      "river": 1283,
      "without": 1284,
      "football": 1285,
      "hurric": 1286,
      "destroy": 1287,
      "activ": 1288,
      "struct": 1289,
      "despite": 1290,
      "brig": 1291,
      "gram": 1292,
      "body": 1293,
      "sold": 1294,
      "vic": 1295,
      "look": 1296,
      "published": 1297,
      "continued": 1298,
      "sug": 1299,
      "plan": 1300,
      "mix": 1301,
      "military": 1302,
      "aken": 1303,
      "highway": 1304,
      "iving": 1305,
      "good": 1306,
      "every": 1307,
      "critic": 1308,
      "fan": 1309,
      "ving": 1310,
      "ending": 1311,
      "successful": 1312,
      "effect": 1313,
      "father": 1314,
      "live": 1315,
      "members": 1316,
      "style": 1317,
      "mich": 1318,
      "ny": 1319,
      "ster": 1320,
      "test": 1321,
      "2012": 1322,
      "ared": 1323,
      "sea": 1324,
      "days": 1325,
      "suggest": 1326,
      "elt": 1327,
      "dou": 1328,
      "uk": 1329,
      "vers": 1330,
      "english": 1331,
      "27": 1332,
      "ta": 1333,
      "want": 1334,
      "building": 1335,
      "nes": 1336,
      "uc": 1337,
      "oy": 1338,
      "rus": 1339,
      "iment": 1340,
      "stead": 1341,
      "bit": 1342,
      "atch": 1343,
      "level": 1344,
      "ock": 1345,
      "tropical": 1346,
      "construction": 1347,
      "idge": 1348,
      "ben": 1349,
      "eight": 1350,
      "free": 1351,
      "bruary": 1352,
      "february": 1353,
      "inc": 1354,
      "produced": 1355,
      "find": 1356,
      "take": 1357,
      "writing": 1358,
      "22": 1359,
      "burn": 1360,
      "forces": 1361,
      "little": 1362,
      "different": 1363,
      "ps": 1364,
      "wall": 1365,
      "few": 1366,
      "equ": 1367,
      "represent": 1368,
      "search": 1369,
      "ried": 1370,
      "reported": 1371,
      "sound": 1372,
      "total": 1373,
      "throughout": 1374,
      "ator": 1375,
      "comb": 1376,
      "scen": 1377,
      "making": 1378,
      "stated": 1379,
      "become": 1380,
      "key": 1381,
      "central": 1382,
      "dan": 1383,
      "tom": 1384,
      "mother": 1385,
      "aster": 1386,
      "ours": 1387,
      "ailed": 1388,
      "ense": 1389,
      "seen": 1390,
      "lost": 1391,
      "rap": 1392,
      "tar": 1393,
      "include": 1394,
      "royal": 1395,
      "teen": 1396,
      "president": 1397,
      "federer": 1398,
      "29": 1399,
      "fre": 1400,
      "fif": 1401,
      "influ": 1402,
      "particular": 1403,
      "ising": 1404,
      "close": 1405,
      "kingdom": 1406,
      "fleet": 1407,
      "chap": 1408,
      "ull": 1409,
      "players": 1410,
      "human": 1411,
      "face": 1412,
      "decl": 1413,
      "ution": 1414,
      "given": 1415,
      "mad": 1416,
      "pur": 1417,
      "rang": 1418,
      "studio": 1419,
      "performance": 1420,
      "fun": 1421,
      "gave": 1422,
      "afric": 1423,
      "returned": 1424,
      "gn": 1425,
      "iam": 1426,
      "app": 1427,
      "ology": 1428,
      "cu": 1429,
      "els": 1430,
      "common": 1431,
      "ior": 1432,
      "ices": 1433,
      "enter": 1434,
      "ief": 1435,
      "invol": 1436,
      "development": 1437,
      "respon": 1438,
      "hurricane": 1439,
      "ination": 1440,
      "agre": 1441,
      "ument": 1442,
      "capt": 1443,
      "young": 1444,
      "lond": 1445,
      "court": 1446,
      "bri": 1447,
      "jord": 1448,
      "performed": 1449,
      "wil": 1450,
      "sure": 1451,
      "tru": 1452,
      "director": 1453,
      "bow": 1454,
      "served": 1455,
      "northern": 1456,
      "london": 1457,
      "pan": 1458,
      "sar": 1459,
      "television": 1460,
      "coast": 1461,
      "reached": 1462,
      "trav": 1463,
      "poem": 1464,
      "western": 1465,
      "front": 1466,
      "graph": 1467,
      "scot": 1468,
      "jordan": 1469,
      "tra": 1470,
      "ei": 1471,
      "fig": 1472,
      "ler": 1473,
      "hind": 1474,
      "suf": 1475,
      "ably": 1476,
      "guns": 1477,
      "unch": 1478,
      "southern": 1479,
      "born": 1480,
      "dav": 1481,
      "coming": 1482,
      "modern": 1483,
      "fem": 1484,
      "non": 1485,
      "ission": 1486,
      "oliv": 1487,
      "range": 1488,
      "miss": 1489,
      "official": 1490,
      "40": 1491,
      "nia": 1492,
      "went": 1493,
      "ref": 1494,
      "station": 1495,
      "noted": 1496,
      "developed": 1497,
      "ino": 1498,
      "ctions": 1499,
      "announ": 1500,
      "elect": 1501,
      "too": 1502,
      "hot": 1503,
      "occur": 1504,
      "population": 1505,
      "various": 1506,
      "clear": 1507,
      "tradition": 1508,
      "van": 1509,
      "bey": 1510,
      "william": 1511,
      "cell": 1512,
      "compe": 1513,
      "playing": 1514,
      "ways": 1515,
      "damage": 1516,
      "ban": 1517,
      "stone": 1518,
      "sem": 1519,
      "intro": 1520,
      "once": 1521,
      "archae": 1522,
      "civ": 1523,
      "cop": 1524,
      "died": 1525,
      "hon": 1526,
      "idence": 1527,
      "aint": 1528,
      "should": 1529,
      "covered": 1530,
      "appoint": 1531,
      "prim": 1532,
      "debut": 1533,
      "mean": 1534,
      "brown": 1535,
      "james": 1536,
      "aren": 1537,
      "cert": 1538,
      "cil": 1539,
      "hom": 1540,
      "hill": 1541,
      "stant": 1542,
      "earli": 1543,
      "hop": 1544,
      "ibut": 1545,
      "goal": 1546,
      "ext": 1547,
      "wheel": 1548,
      "ken": 1549,
      "interest": 1550,
      "recording": 1551,
      "full": 1552,
      "ink": 1553,
      "2004": 1554,
      "miles": 1555,
      "techn": 1556,
      "profess": 1557,
      "cing": 1558,
      "nal": 1559,
      "broad": 1560,
      "important": 1561,
      "champion": 1562,
      "ns": 1563,
      "tran": 1564,
      "created": 1565,
      "himself": 1566,
      "result": 1567,
      "squad": 1568,
      "mm": 1569,
      "rain": 1570,
      "saf": 1571,
      "instead": 1572,
      "signific": 1573,
      "rew": 1574,
      "ago": 1575,
      "need": 1576,
      "felt": 1577,
      "voc": 1578,
      "member": 1579,
      "ama": 1580,
      "aves": 1581,
      "commission": 1582,
      "bir": 1583,
      "mass": 1584,
      "ploy": 1585,
      "thought": 1586,
      "lished": 1587,
      "across": 1588,
      "190": 1589,
      "2005": 1590,
      "phil": 1591,
      "critics": 1592,
      "established": 1593,
      "introdu": 1594,
      "ances": 1595,
      "earth": 1596,
      "forest": 1597,
      "surv": 1598,
      "bs": 1599,
      "dro": 1600,
      "mit": 1601,
      "san": 1602,
      "word": 1603,
      "emp": 1604,
      "feet": 1605,
      "ensive": 1606,
      "aver": 1607,
      "ues": 1608,
      "ese": 1609,
      "ots": 1610,
      "pra": 1611,
      "civil": 1612,
      "aur": 1613,
      "cho": 1614,
      "others": 1615,
      "carey": 1616,
      "cross": 1617,
      "ith": 1618,
      "xim": 1619,
      "relation": 1620,
      "special": 1621,
      "diffic": 1622,
      "started": 1623,
      "alth": 1624,
      "exp": 1625,
      "2015": 1626,
      "caused": 1627,
      "lines": 1628,
      "count": 1629,
      "rid": 1630,
      "yard": 1631,
      "toge": 1632,
      "novel": 1633,
      "commer": 1634,
      "appeared": 1635,
      "olivier": 1636,
      "together": 1637,
      "bi": 1638,
      "scored": 1639,
      "rent": 1640,
      "flight": 1641,
      "depend": 1642,
      "stage": 1643,
      "magaz": 1644,
      "room": 1645,
      "experi": 1646,
      "upon": 1647,
      "horse": 1648,
      "cir": 1649,
      "geor": 1650,
      "60": 1651,
      "ey": 1652,
      "mas": 1653,
      "ym": 1654,
      "ung": 1655,
      "begin": 1656,
      "depart": 1657,
      "aircraft": 1658,
      "mac": 1659,
      "abo": 1660,
      "awards": 1661,
      "completed": 1662,
      "rail": 1663,
      "vest": 1664,
      "entire": 1665,
      "ization": 1666,
      "fav": 1667,
      "loss": 1668,
      "case": 1669,
      "mot": 1670,
      "oldham": 1671,
      "mountain": 1672,
      "australia": 1673,
      "nom": 1674,
      "sele": 1675,
      "bet": 1676,
      "bra": 1677,
      "located": 1678,
      "ological": 1679,
      "remained": 1680,
      "break": 1681,
      "street": 1682,
      "base": 1683,
      "got": 1684,
      "nis": 1685,
      "taken": 1686,
      "does": 1687,
      "characters": 1688,
      "change": 1689,
      "ges": 1690,
      "enced": 1691,
      "apan": 1692,
      "aff": 1693,
      "blue": 1694,
      "189": 1695,
      "mary": 1696,
      "iting": 1697,
      "conne": 1698,
      "estim": 1699,
      "scri": 1700,
      "ature": 1701,
      "least": 1702,
      "center": 1703,
      "fourth": 1704,
      "ael": 1705,
      "ming": 1706,
      "iness": 1707,
      "utes": 1708,
      "peak": 1709,
      "finished": 1710,
      "regular": 1711,
      "relig": 1712,
      "sil": 1713,
      "wide": 1714,
      "know": 1715,
      "eastern": 1716,
      "labor": 1717,
      "saw": 1718,
      "atic": 1719,
      "chest": 1720,
      "ctor": 1721,
      "anti": 1722,
      "formation": 1723,
      "jew": 1724,
      "subsequ": 1725,
      "aign": 1726,
      "ik": 1727,
      "japan": 1728,
      "arm": 1729,
      "grad": 1730,
      "added": 1731,
      "cal": 1732,
      "fly": 1733,
      "fight": 1734,
      "hall": 1735,
      "kel": 1736,
      "atl": 1737,
      "enon": 1738,
      "dev": 1739,
      "ney": 1740,
      "campaign": 1741,
      "significant": 1742,
      "cad": 1743,
      "rul": 1744,
      "commit": 1745,
      "reek": 1746,
      "anna": 1747,
      "political": 1748,
      "announced": 1749,
      "wheeler": 1750,
      "card": 1751,
      "type": 1752,
      "america": 1753,
      "originally": 1754,
      "pair": 1755,
      "sour": 1756,
      "ality": 1757,
      "termin": 1758,
      "move": 1759,
      "core": 1760,
      "syn": 1761,
      "leading": 1762,
      "weeks": 1763,
      "manager": 1764,
      "hen": 1765,
      "mur": 1766,
      "pie": 1767,
      "heavy": 1768,
      "2003": 1769,
      "pred": 1770,
      "crew": 1771,
      "cathe": 1772,
      "ai": 1773,
      "hit": 1774,
      "antic": 1775,
      "works": 1776,
      "cathedr": 1777,
      "hab": 1778,
      "ars": 1779,
      "areas": 1780,
      "study": 1781,
      "possible": 1782,
      "che": 1783,
      "accept": 1784,
      "comment": 1785,
      "writer": 1786,
      "followed": 1787,
      "help": 1788,
      "promot": 1789,
      "gir": 1790,
      "stay": 1791,
      "stop": 1792,
      "sex": 1793,
      "acy": 1794,
      "bridge": 1795,
      "itions": 1796,
      "sess": 1797,
      "reco": 1798,
      "ica": 1799,
      "isted": 1800,
      "ifa": 1801,
      "ability": 1802,
      "stein": 1803,
      "points": 1804,
      "david": 1805,
      "bish": 1806,
      "jour": 1807,
      "anim": 1808,
      "opened": 1809,
      "quarter": 1810,
      "commercial": 1811,
      "lu": 1812,
      "tur": 1813,
      "yards": 1814,
      "inated": 1815,
      "behind": 1816,
      "party": 1817,
      "hard": 1818,
      "navy": 1819,
      "sat": 1820,
      "program": 1821,
      "emy": 1822,
      "los": 1823,
      "council": 1824,
      "tempor": 1825,
      "ample": 1826,
      "girl": 1827,
      "nine": 1828,
      "attr": 1829,
      "robert": 1830,
      "sho": 1831,
      "ister": 1832,
      "net": 1833,
      "2014": 1834,
      "carol": 1835,
      "vari": 1836,
      "launch": 1837,
      "australian": 1838,
      "issue": 1839,
      "egy": 1840,
      "inch": 1841,
      "acad": 1842,
      "respect": 1843,
      "outside": 1844,
      "pho": 1845,
      "france": 1846,
      "claimed": 1847,
      "recogn": 1848,
      "gress": 1849,
      "hi": 1850,
      "space": 1851,
      "rought": 1852,
      "angel": 1853,
      "features": 1854,
      "eventually": 1855,
      "flood": 1856,
      "bon": 1857,
      "rif": 1858,
      "yer": 1859,
      "months": 1860,
      "cathedral": 1861,
      "31": 1862,
      "achel": 1863,
      "working": 1864,
      "teach": 1865,
      "graphy": 1866,
      "here": 1867,
      "dem": 1868,
      "irish": 1869,
      "records": 1870,
      "radio": 1871,
      "either": 1872,
      "nav": 1873,
      "pot": 1874,
      "towns": 1875,
      "women": 1876,
      "squadron": 1877,
      "magazine": 1878,
      "egypt": 1879,
      "35": 1880,
      "ker": 1881,
      "nu": 1882,
      "tolo": 1883,
      "lear": 1884,
      "ille": 1885,
      "cret": 1886,
      "minor": 1887,
      "jud": 1888,
      "arab": 1889,
      "mounted": 1890,
      "fund": 1891,
      "mater": 1892,
      "ray": 1893,
      "xas": 1894,
      "employ": 1895,
      "compan": 1896,
      "host": 1897,
      "decided": 1898,
      "haifa": 1899,
      "killed": 1900,
      "sus": 1901,
      "asing": 1902,
      "wife": 1903,
      "meet": 1904,
      "worked": 1905,
      "police": 1906,
      "iii": 1907,
      "big": 1908,
      "xenon": 1909,
      "era": 1910,
      "educ": 1911,
      "office": 1912,
      "premi": 1913,
      "bell": 1914,
      "ox": 1915,
      "thom": 1916,
      "arts": 1917,
      "odes": 1918,
      "grow": 1919,
      "lack": 1920,
      "mel": 1921,
      "theat": 1922,
      "union": 1923,
      "forced": 1924,
      "hest": 1925,
      "soon": 1926,
      "ishing": 1927,
      "spir": 1928,
      "current": 1929,
      "wanted": 1930,
      "rachel": 1931,
      "research": 1932,
      "ought": 1933,
      "opening": 1934,
      "contract": 1935,
      "brigade": 1936,
      "michael": 1937,
      "bes": 1938,
      "jer": 1939,
      "past": 1940,
      "icated": 1941,
      "deal": 1942,
      "evidence": 1943,
      "term": 1944,
      "goals": 1945,
      "certain": 1946,
      "jam": 1947,
      "rhy": 1948,
      "alter": 1949,
      "ades": 1950,
      "clo": 1951,
      "cred": 1952,
      "hosp": 1953,
      "operation": 1954,
      "initially": 1955,
      "canada": 1956,
      "summer": 1957,
      "association": 1958,
      "bc": 1959,
      "econ": 1960,
      "hig": 1961,
      "ris": 1962,
      "pract": 1963,
      "region": 1964,
      "medi": 1965,
      "gods": 1966,
      "winds": 1967,
      "european": 1968,
      "econom": 1969,
      "spo": 1970,
      "ceed": 1971,
      "exe": 1972,
      "airport": 1973,
      "viol": 1974,
      "damaged": 1975,
      "veston": 1976,
      "ping": 1977,
      "taking": 1978,
      "instit": 1979,
      "isra": 1980,
      "ids": 1981,
      "brother": 1982,
      "christian": 1983,
      "galveston": 1984,
      "industr": 1985,
      "israel": 1986,
      "bass": 1987,
      "tv": 1988,
      "ering": 1989,
      "compl": 1990,
      "colum": 1991,
      "regard": 1992,
      "brought": 1993,
      "inj": 1994,
      "ivid": 1995,
      "aper": 1996,
      "plann": 1997,
      "example": 1998,
      "scre": 1999,
      "langu": 2000,
      "muse": 2001,
      "critical": 2002,
      "approach": 2003,
      "saying": 2004,
      "friends": 2005,
      "difficult": 2006,
      "george": 2007,
      "blo": 2008,
      "mex": 2009,
      "entolo": 2010,
      "det": 2011,
      "box": 2012,
      "towards": 2013,
      "protest": 2014,
      "signed": 2015,
      "scientolo": 2016,
      "business": 2017,
      "fell": 2018,
      "gs": 2019,
      "ible": 2020,
      "lat": 2021,
      "tell": 2022,
      "watch": 2023,
      "thre": 2024,
      "reve": 2025,
      "ald": 2026,
      "joined": 2027,
      "interview": 2028,
      "victory": 2029,
      "hous": 2030,
      "hours": 2031,
      "lie": 2032,
      "pain": 2033,
      "independ": 2034,
      "acc": 2035,
      "counter": 2036,
      "standing": 2037,
      "female": 2038,
      "500": 2039,
      "date": 2040,
      "concl": 2041,
      "exc": 2042,
      "occup": 2043,
      "70": 2044,
      "theast": 2045,
      "imes": 2046,
      "condu": 2047,
      "boy": 2048,
      "feel": 2049,
      "188": 2050,
      "captain": 2051,
      "britain": 2052,
      "prior": 2053,
      "above": 2054,
      "highest": 2055,
      "museum": 2056,
      "lad": 2057,
      "heav": 2058,
      "ples": 2059,
      "invest": 2060,
      "ready": 2061,
      "cutive": 2062,
      "transport": 2063,
      "lord": 2064,
      "ata": 2065,
      "peter": 2066,
      "individ": 2067,
      "largest": 2068,
      "iction": 2069,
      "hu": 2070,
      "pitch": 2071,
      "inal": 2072,
      "ends": 2073,
      "cost": 2074,
      "appearance": 2075,
      "reviews": 2076,
      "provided": 2077,
      "earlier": 2078,
      "mph": 2079,
      "pes": 2080,
      "sun": 2081,
      "infan": 2082,
      "ential": 2083,
      "uses": 2084,
      "perform": 2085,
      "prepar": 2086,
      "engine": 2087,
      "winning": 2088,
      "liter": 2089,
      "gi": 2090,
      "kil": 2091,
      "mir": 2092,
      "nd": 2093,
      "ana": 2094,
      "almost": 2095,
      "whom": 2096,
      "impro": 2097,
      "tee": 2098,
      "shot": 2099,
      "avail": 2100,
      "posit": 2101,
      "allowed": 2102,
      "canadian": 2103,
      "36": 2104,
      "ather": 2105,
      "hing": 2106,
      "mun": 2107,
      "ones": 2108,
      "ories": 2109,
      "quest": 2110,
      "parli": 2111,
      "operations": 2112,
      "previously": 2113,
      "particularly": 2114,
      "appointed": 2115,
      "republic": 2116,
      "lower": 2117,
      "generally": 2118,
      "midd": 2119,
      "paul": 2120,
      "scientology": 2121,
      "bio": 2122,
      "prob": 2123,
      "express": 2124,
      "parts": 2125,
      "featured": 2126,
      "vement": 2127,
      "castle": 2128,
      "richard": 2129,
      "suffer": 2130,
      "estimated": 2131,
      "infantry": 2132,
      "ky": 2133,
      "argu": 2134,
      "actor": 2135,
      "events": 2136,
      "elements": 2137,
      "society": 2138,
      "villa": 2139,
      "material": 2140,
      "parliament": 2141,
      "ff": 2142,
      "oring": 2143,
      "iter": 2144,
      "ention": 2145,
      "social": 2146,
      "colon": 2147,
      "passed": 2148,
      "community": 2149,
      "nel": 2150,
      "ram": 2151,
      "sor": 2152,
      "forward": 2153,
      "comed": 2154,
      "2002": 2155,
      "priv": 2156,
      "virgin": 2157,
      "doc": 2158,
      "process": 2159,
      "oda": 2160,
      "coach": 2161,
      "actions": 2162,
      "meas": 2163,
      "shows": 2164,
      "listed": 2165,
      "designed": 2166,
      "ient": 2167,
      "dead": 2168,
      "proble": 2169,
      "achie": 2170,
      "woman": 2171,
      "hib": 2172,
      "anal": 2173,
      "tou": 2174,
      "secret": 2175,
      "training": 2176,
      "indian": 2177,
      "polish": 2178,
      "somet": 2179,
      "bay": 2180,
      "ded": 2181,
      "mart": 2182,
      "anch": 2183,
      "itz": 2184,
      "section": 2185,
      "beer": 2186,
      "lands": 2187,
      "igned": 2188,
      "rather": 2189,
      "relationship": 2190,
      "45": 2191,
      "ax": 2192,
      "dot": 2193,
      "separ": 2194,
      "iva": 2195,
      "exist": 2196,
      "lik": 2197,
      "going": 2198,
      "media": 2199,
      "schol": 2200,
      "background": 2201,
      "green": 2202,
      "simp": 2203,
      "additional": 2204,
      "believed": 2205,
      "praised": 2206,
      "ymp": 2207,
      "lot": 2208,
      "pay": 2209,
      "ators": 2210,
      "secur": 2211,
      "positions": 2212,
      "commander": 2213,
      "village": 2214,
      "scene": 2215,
      "race": 2216,
      "uments": 2217,
      "quick": 2218,
      "directed": 2219,
      "mission": 2220,
      "troops": 2221,
      "treat": 2222,
      "limited": 2223,
      "bishop": 2224,
      "cul": 2225,
      "mult": 2226,
      "assist": 2227,
      "capital": 2228,
      "increased": 2229,
      "championship": 2230,
      "bad": 2231,
      "daugh": 2232,
      "wr": 2233,
      "omb": 2234,
      "reception": 2235,
      "stories": 2236,
      "creek": 2237,
      "gas": 2238,
      "iers": 2239,
      "mach": 2240,
      "inst": 2241,
      "ander": 2242,
      "told": 2243,
      "defe": 2244,
      "imp": 2245,
      "appl": 2246,
      "audi": 2247,
      "oney": 2248,
      "pression": 2249,
      "joy": 2250,
      "regiment": 2251,
      "remains": 2252,
      "transfer": 2253,
      "particip": 2254,
      "structure": 2255,
      "involved": 2256,
      "available": 2257,
      "90": 2258,
      "block": 2259,
      "hair": 2260,
      "master": 2261,
      "native": 2262,
      "istic": 2263,
      "except": 2264,
      "nearly": 2265,
      "voice": 2266,
      "thomas": 2267,
      "bud": 2268,
      "territ": 2269,
      "otto": 2270,
      "poor": 2271,
      "travel": 2272,
      "temporary": 2273,
      "athen": 2274,
      "ties": 2275,
      "thus": 2276,
      "active": 2277,
      "notes": 2278,
      "overall": 2279,
      "inese": 2280,
      "average": 2281,
      "industry": 2282,
      "middle": 2283,
      "cate": 2284,
      "onic": 2285,
      "arg": 2286,
      "chinese": 2287,
      "conf": 2288,
      "aving": 2289,
      "clos": 2290,
      "queen": 2291,
      "forms": 2292,
      "musical": 2293,
      "college": 2294,
      "dol": 2295,
      "fut": 2296,
      "sed": 2297,
      "19th": 2298,
      "ems": 2299,
      "twent": 2300,
      "must": 2301,
      "natural": 2302,
      "cougar": 2303,
      "compet": 2304,
      "bound": 2305,
      "ique": 2306,
      "reason": 2307,
      "ape": 2308,
      "essa": 2309,
      "india": 2310,
      "web": 2311,
      "mium": 2312,
      "tower": 2313,
      "cruis": 2314,
      "mixed": 2315,
      "burns": 2316,
      "religious": 2317,
      "cadmium": 2318,
      "pag": 2319,
      "sam": 2320,
      "constant": 2321,
      "ify": 2322,
      "science": 2323,
      "billboard": 2324,
      "bowl": 2325,
      "deep": 2326,
      "conc": 2327,
      "exam": 2328,
      "bled": 2329,
      "albums": 2330,
      "corpor": 2331,
      "replaced": 2332,
      "aled": 2333,
      "ara": 2334,
      "usually": 2335,
      "2001": 2336,
      "breed": 2337,
      "somer": 2338,
      "drop": 2339,
      "department": 2340,
      "ottoman": 2341,
      "cali": 2342,
      "gg": 2343,
      "nation": 2344,
      "iss": 2345,
      "ilities": 2346,
      "icket": 2347,
      "maintain": 2348,
      "sym": 2349,
      "writers": 2350,
      "fru": 2351,
      "cycl": 2352,
      "responsi": 2353,
      "safe": 2354,
      "beginning": 2355,
      "screen": 2356,
      "ius": 2357,
      "recent": 2358,
      "imony": 2359,
      "spac": 2360,
      "guard": 2361,
      "grant": 2362,
      "remaining": 2363,
      "cially": 2364,
      "language": 2365,
      "arily": 2366,
      "ami": 2367,
      "pool": 2368,
      "market": 2369,
      "braathen": 2370,
      "threat": 2371,
      "probably": 2372,
      "somerset": 2373,
      "batter": 2374,
      "saint": 2375,
      "pected": 2376,
      "redu": 2377,
      "complete": 2378,
      "fifth": 2379,
      "jewish": 2380,
      "bol": 2381,
      "nico": 2382,
      "itself": 2383,
      "whose": 2384,
      "typical": 2385,
      "ize": 2386,
      "domin": 2387,
      "establish": 2388,
      "culture": 2389,
      "professional": 2390,
      "sometimes": 2391,
      "ds": 2392,
      "hip": 2393,
      "tourn": 2394,
      "mention": 2395,
      "meyer": 2396,
      "ference": 2397,
      "services": 2398,
      "favor": 2399,
      "townsend": 2400,
      "closed": 2401,
      "stren": 2402,
      "icted": 2403,
      "tries": 2404,
      "trip": 2405,
      "marked": 2406,
      "distric": 2407,
      "books": 2408,
      "smaller": 2409,
      "contribut": 2410,
      "turned": 2411,
      "introduced": 2412,
      "subsequently": 2413,
      "76": 2414,
      "hanna": 2415,
      "zhou": 2416,
      "beat": 2417,
      "health": 2418,
      "news": 2419,
      "suggested": 2420,
      "scott": 2421,
      "journal": 2422,
      "touch": 2423,
      "2nd": 2424,
      "bot": 2425,
      "dre": 2426,
      "han": 2427,
      "hus": 2428,
      "ll": 2429,
      "onc": 2430,
      "atory": 2431,
      "defin": 2432,
      "lyric": 2433,
      "plot": 2434,
      "rome": 2435,
      "spent": 2436,
      "finkel": 2437,
      "186": 2438,
      "phys": 2439,
      "related": 2440,
      "election": 2441,
      "beyonc": 2442,
      "finkelstein": 2443,
      "hap": 2444,
      "kr": 2445,
      "lay": 2446,
      "latter": 2447,
      "score": 2448,
      "orial": 2449,
      "iding": 2450,
      "2016": 2451,
      "discus": 2452,
      "athus": 2453,
      "zeal": 2454,
      "mexico": 2455,
      "bul": 2456,
      "tessa": 2457,
      "staff": 2458,
      "chem": 2459,
      "acqu": 2460,
      "immedi": 2461,
      "ctive": 2462,
      "ump": 2463,
      "keep": 2464,
      "supported": 2465,
      "christmas": 2466,
      "education": 2467,
      "meyerbeer": 2468,
      "streng": 2469,
      "80": 2470,
      "paren": 2471,
      "wild": 2472,
      "today": 2473,
      "ication": 2474,
      "text": 2475,
      "aust": 2476,
      "singles": 2477,
      "object": 2478,
      "proteins": 2479,
      "nicole": 2480,
      "give": 2481,
      "money": 2482,
      "rup": 2483,
      "always": 2484,
      "already": 2485,
      "aring": 2486,
      "trial": 2487,
      "proper": 2488,
      "vey": 2489,
      "minutes": 2490,
      "personal": 2491,
      "changes": 2492,
      "birth": 2493,
      "concern": 2494,
      "braathens": 2495,
      "cm": 2496,
      "dut": 2497,
      "ka": 2498,
      "might": 2499,
      "uel": 2500,
      "uation": 2501,
      "amoun": 2502,
      "comes": 2503,
      "ordered": 2504,
      "intens": 2505,
      "color": 2506,
      "includes": 2507,
      "1995": 2508,
      "schools": 2509,
      "greatest": 2510,
      "tax": 2511,
      "likely": 2512,
      "cath": 2513,
      "dark": 2514,
      "leng": 2515,
      "nations": 2516,
      "pil": 2517,
      "enough": 2518,
      "emer": 2519,
      "antimony": 2520,
      "plays": 2521,
      "fully": 2522,
      "battal": 2523,
      "hait": 2524,
      "double": 2525,
      "aut": 2526,
      "failed": 2527,
      "tic": 2528,
      "tion": 2529,
      "ville": 2530,
      "wol": 2531,
      "administ": 2532,
      "cts": 2533,
      "mont": 2534,
      "groups": 2535,
      "shortly": 2536,
      "agreed": 2537,
      "ding": 2538,
      "lb": 2539,
      "lis": 2540,
      "ita": 2541,
      "adap": 2542,
      "demo": 2543,
      "moving": 2544,
      "acted": 2545,
      "centre": 2546,
      "films": 2547,
      "surround": 2548,
      "observ": 2549,
      "respond": 2550,
      "better": 2551,
      "iation": 2552,
      "living": 2553,
      "sn": 2554,
      "slow": 2555,
      "zz": 2556,
      "units": 2557,
      "olic": 2558,
      "concert": 2559,
      "married": 2560,
      "visit": 2561,
      "students": 2562,
      "frank": 2563,
      "required": 2564,
      "response": 2565,
      "habit": 2566,
      "greg": 2567,
      "tint": 2568,
      "asked": 2569,
      "access": 2570,
      "demon": 2571,
      "constit": 2572,
      "vert": 2573,
      "trade": 2574,
      "indic": 2575,
      "eva": 2576,
      "onym": 2577,
      "changed": 2578,
      "destroyed": 2579,
      "length": 2580,
      "1st": 2581,
      "cat": 2582,
      "gely": 2583,
      "kick": 2584,
      "mort": 2585,
      "atops": 2586,
      "escap": 2587,
      "chief": 2588,
      "wid": 2589,
      "cele": 2590,
      "prevent": 2591,
      "finals": 2592,
      "athan": 2593,
      "feature": 2594,
      "buildings": 2595,
      "equip": 2596,
      "dollar": 2597,
      "tintin": 2598,
      "37": 2599,
      "fit": 2600,
      "sand": 2601,
      "espe": 2602,
      "iron": 2603,
      "ida": 2604,
      "nest": 2605,
      "artill": 2606,
      "percent": 2607,
      "prison": 2608,
      "size": 2609,
      "possib": 2610,
      "minister": 2611,
      "nesbit": 2612,
      "africa": 2613,
      "traditional": 2614,
      "empire": 2615,
      "committee": 2616,
      "especially": 2617,
      "artillery": 2618,
      "gad": 2619,
      "makes": 2620,
      "ration": 2621,
      "your": 2622,
      "ency": 2623,
      "becoming": 2624,
      "artist": 2625,
      "fey": 2626,
      "protein": 2627,
      "defense": 2628,
      "approxim": 2629,
      "increasing": 2630,
      "piece": 2631,
      "daughter": 2632,
      "zealand": 2633,
      "nesbitt": 2634,
      "gam": 2635,
      "mast": 2636,
      "wel": 2637,
      "thod": 2638,
      "enathus": 2639,
      "olymp": 2640,
      "pose": 2641,
      "exper": 2642,
      "acting": 2643,
      "2000": 2644,
      "nov": 2645,
      "marri": 2646,
      "ously": 2647,
      "food": 2648,
      "ification": 2649,
      "horn": 2650,
      "baby": 2651,
      "arrived": 2652,
      "henry": 2653,
      "odaenathus": 2654,
      "dress": 2655,
      "mou": 2656,
      "pac": 2657,
      "revol": 2658,
      "defeat": 2659,
      "mith": 2660,
      "1998": 2661,
      "consist": 2662,
      "sarnia": 2663,
      "launched": 2664,
      "future": 2665,
      "33": 2666,
      "cam": 2667,
      "fest": 2668,
      "fail": 2669,
      "pul": 2670,
      "wing": 2671,
      "aries": 2672,
      "isl": 2673,
      "adop": 2674,
      "plans": 2675,
      "contains": 2676,
      "archite": 2677,
      "distri": 2678,
      "awarded": 2679,
      "broadcast": 2680,
      "script": 2681,
      "hospital": 2682,
      "positive": 2683,
      "virginia": 2684,
      "lyrics": 2685,
      "ovic": 2686,
      "tu": 2687,
      "zo": 2688,
      "usion": 2689,
      "ultim": 2690,
      "print": 2691,
      "prince": 2692,
      "occas": 2693,
      "187": 2694,
      "minute": 2695,
      "largely": 2696,
      "location": 2697,
      "croat": 2698,
      "metal": 2699,
      "federal": 2700,
      "flow": 2701,
      "fred": 2702,
      "frequ": 2703,
      "rd": 2704,
      "uals": 2705,
      "ush": 2706,
      "model": 2707,
      "erson": 2708,
      "ume": 2709,
      "finan": 2710,
      "mostly": 2711,
      "sons": 2712,
      "sched": 2713,
      "teams": 2714,
      "penn": 2715,
      "brief": 2716,
      "private": 2717,
      "dail": 2718,
      "fast": 2719,
      "hun": 2720,
      "lou": 2721,
      "names": 2722,
      "things": 2723,
      "ites": 2724,
      "itation": 2725,
      "contemporary": 2726,
      "plat": 2727,
      "shiva": 2728,
      "mogad": 2729,
      "load": 2730,
      "rend": 2731,
      "hood": 2732,
      "borough": 2733,
      "voy": 2734,
      "performances": 2735,
      "victor": 2736,
      "occurred": 2737,
      "atlantic": 2738,
      "twenty": 2739,
      "daily": 2740,
      "bond": 2741,
      "kind": 2742,
      "nar": 2743,
      "pon": 2744,
      "chic": 2745,
      "resid": 2746,
      "span": 2747,
      "ranked": 2748,
      "1996": 2749,
      "larger": 2750,
      "subject": 2751,
      "carolina": 2752,
      "district": 2753,
      "39": 2754,
      "hl": 2755,
      "male": 2756,
      "vin": 2757,
      "ened": 2758,
      "amed": 2759,
      "aud": 2760,
      "bring": 2761,
      "gue": 2762,
      "carried": 2763,
      "syl": 2764,
      "opera": 2765,
      "leader": 2766,
      "request": 2767,
      "morning": 2768,
      "vocal": 2769,
      "academy": 2770,
      "pick": 2771,
      "rac": 2772,
      "sis": 2773,
      "shown": 2774,
      "ria": 2775,
      "finally": 2776,
      "whether": 2777,
      "entertain": 2778,
      "califor": 2779,
      "bank": 2780,
      "gard": 2781,
      "ko": 2782,
      "ni": 2783,
      "thick": 2784,
      "think": 2785,
      "innis": 2786,
      "unit": 2787,
      "agon": 2788,
      "bob": 2789,
      "serious": 2790,
      "1999": 2791,
      "legal": 2792,
      "decision": 2793,
      "attacks": 2794,
      "advant": 2795,
      "jackson": 2796,
      "experience": 2797,
      "theatre": 2798,
      "independent": 2799,
      "distribut": 2800,
      "bid": 2801,
      "done": 2802,
      "glo": 2803,
      "mig": 2804,
      "via": 2805,
      "yue": 2806,
      "insp": 2807,
      "theme": 2808,
      "ishu": 2809,
      "aker": 2810,
      "spring": 2811,
      "intended": 2812,
      "miami": 2813,
      "1993": 2814,
      "relief": 2815,
      "selves": 2816,
      "studies": 2817,
      "officer": 2818,
      "defence": 2819,
      "running": 2820,
      "constructed": 2821,
      "square": 2822,
      "mitted": 2823,
      "mogadishu": 2824,
      "jim": 2825,
      "mic": 2826,
      "anth": 2827,
      "refle": 2828,
      "altar": 2829,
      "deg": 2830,
      "texas": 2831,
      "traf": 2832,
      "exten": 2833,
      "pressure": 2834,
      "speed": 2835,
      "famil": 2836,
      "referred": 2837,
      "excav": 2838,
      "defeated": 2839,
      "dream": 2840,
      "approximately": 2841,
      "wound": 2842,
      "wards": 2843,
      "yet": 2844,
      "information": 2845,
      "ado": 2846,
      "entered": 2847,
      "image": 2848,
      "conference": 2849,
      "1930": 2850,
      "true": 2851,
      "uded": 2852,
      "worth": 2853,
      "20th": 2854,
      "compared": 2855,
      "create": 2856,
      "advance": 2857,
      "standard": 2858,
      "primary": 2859,
      "comedy": 2860,
      "bour": 2861,
      "cold": 2862,
      "lake": 2863,
      "sister": 2864,
      "anz": 2865,
      "rob": 2866,
      "sey": 2867,
      "ada": 2868,
      "tray": 2869,
      "neu": 2870,
      "reser": 2871,
      "provide": 2872,
      "assigned": 2873,
      "specific": 2874,
      "sixth": 2875,
      "giving": 2876,
      "source": 2877,
      "commented": 2878,
      "latin": 2879,
      "architect": 2880,
      "49": 2881,
      "bury": 2882,
      "cand": 2883,
      "fill": 2884,
      "wa": 2885,
      "leaving": 2886,
      "heart": 2887,
      "1950": 2888,
      "istics": 2889,
      "affe": 2890,
      "rihanna": 2891,
      "meant": 2892,
      "contro": 2893,
      "jected": 2894,
      "themselves": 2895,
      "officers": 2896,
      "window": 2897,
      "associated": 2898,
      "mccall": 2899,
      "commissioned": 2900,
      "photo": 2901,
      "husband": 2902,
      "32": 2903,
      "38": 2904,
      "eas": 2905,
      "lor": 2906,
      "rat": 2907,
      "scr": 2908,
      "oted": 2909,
      "shire": 2910,
      "branch": 2911,
      "ipal": 2912,
      "charles": 2913,
      "pedo": 2914,
      "directly": 2915,
      "helped": 2916,
      "issues": 2917,
      "initial": 2918,
      "torpedo": 2919,
      "nature": 2920,
      "aught": 2921,
      "looking": 2922,
      "captured": 2923,
      "300": 2924,
      "fant": 2925,
      "gall": 2926,
      "takes": 2927,
      "netw": 2928,
      "proposed": 2929,
      "elled": 2930,
      "assa": 2931,
      "scoring": 2932,
      "idea": 2933,
      "consider": 2934,
      "tracks": 2935,
      "status": 2936,
      "effects": 2937,
      "chester": 2938,
      "houses": 2939,
      "conducted": 2940,
      "marriage": 2941,
      "dig": 2942,
      "rum": 2943,
      "sets": 2944,
      "aging": 2945,
      "boat": 2946,
      "185": 2947,
      "temper": 2948,
      "something": 2949,
      "folk": 2950,
      "producer": 2951,
      "governor": 2952,
      "metres": 2953,
      "continue": 2954,
      "course": 2955,
      "starting": 2956,
      "trees": 2957,
      "circ": 2958,
      "murder": 2959,
      "competition": 2960,
      "california": 2961,
      "44": 2962,
      "bod": 2963,
      "fair": 2964,
      "raf": 2965,
      "determin": 2966,
      "conse": 2967,
      "ulated": 2968,
      "craz": 2969,
      "struck": 2970,
      "greater": 2971,
      "appearances": 2972,
      "mount": 2973,
      "majority": 2974,
      "issued": 2975,
      "torres": 2976,
      "target": 2977,
      "investig": 2978,
      "celebr": 2979,
      "inspired": 2980,
      "75": 2981,
      "fans": 2982,
      "ket": 2983,
      "rare": 2984,
      "slight": 2985,
      "wear": 2986,
      "ero": 2987,
      "step": 2988,
      "ican": 2989,
      "chair": 2990,
      "adel": 2991,
      "verse": 2992,
      "artists": 2993,
      "whole": 2994,
      "join": 2995,
      "workers": 2996,
      "tons": 2997,
      "sett": 2998,
      "patter": 2999,
      "organization": 3000,
      "wales": 3001,
      "copies": 3002,
      "security": 3003,
      "quickly": 3004,
      "chicago": 3005,
      "ners": 3006,
      "pi": 3007,
      "sac": 3008,
      "anger": 3009,
      "erous": 3010,
      "uries": 3011,
      "confl": 3012,
      "expected": 3013,
      "1986": 3014,
      "featuring": 3015,
      "stars": 3016,
      "increase": 3017,
      "cultural": 3018,
      "meaning": 3019,
      "fighting": 3020,
      "problems": 3021,
      "kin": 3022,
      "mile": 3023,
      "rick": 3024,
      "rear": 3025,
      "ener": 3026,
      "unable": 3027,
      "confir": 3028,
      "concept": 3029,
      "cting": 3030,
      "necess": 3031,
      "ements": 3032,
      "grass": 3033,
      "drum": 3034,
      "singer": 3035,
      "surface": 3036,
      "titles": 3037,
      "advan": 3038,
      "peaked": 3039,
      "planned": 3040,
      "catholic": 3041,
      "traffic": 3042,
      "bird": 3043,
      "cause": 3044,
      "din": 3045,
      "pound": 3046,
      "ti": 3047,
      "tan": 3048,
      "wed": 3049,
      "instr": 3050,
      "ands": 3051,
      "leave": 3052,
      "shr": 3053,
      "method": 3054,
      "weap": 3055,
      "foreign": 3056,
      "crown": 3057,
      "defend": 3058,
      "helm": 3059,
      "attempted": 3060,
      "matches": 3061,
      "sites": 3062,
      "chapel": 3063,
      "vocals": 3064,
      "companies": 3065,
      "candid": 3066,
      "5th": 3067,
      "bing": 3068,
      "cab": 3069,
      "hors": 3070,
      "lap": 3071,
      "purch": 3072,
      "inside": 3073,
      "alice": 3074,
      "deities": 3075,
      "abu": 3076,
      "earned": 3077,
      "brad": 3078,
      "acts": 3079,
      "scient": 3080,
      "historic": 3081,
      "influence": 3082,
      "lady": 3083,
      "document": 3084,
      "tournament": 3085,
      "crazy": 3086,
      "cin": 3087,
      "cis": 3088,
      "cel": 3089,
      "haw": 3090,
      "sr": 3091,
      "wit": 3092,
      "chall": 3093,
      "movie": 3094,
      "strate": 3095,
      "note": 3096,
      "offered": 3097,
      "jose": 3098,
      "rance": 3099,
      "1992": 3100,
      "haven": 3101,
      "rapid": 3102,
      "parents": 3103,
      "battalion": 3104,
      "48": 3105,
      "ost": 3106,
      "pun": 3107,
      "paper": 3108,
      "atively": 3109,
      "stock": 3110,
      "armed": 3111,
      "forts": 3112,
      "aven": 3113,
      "aret": 3114,
      "anta": 3115,
      "numbers": 3116,
      "alongside": 3117,
      "powerful": 3118,
      "vania": 3119,
      "detail": 3120,
      "cot": 3121,
      "liver": 3122,
      "rate": 3123,
      "winter": 3124,
      "andy": 3125,
      "admir": 3126,
      "deb": 3127,
      "loy": 3128,
      "seasons": 3129,
      "calling": 3130,
      "azz": 3131,
      "complex": 3132,
      "initi": 3133,
      "activities": 3134,
      "russ": 3135,
      "freeway": 3136,
      "figure": 3137,
      "blood": 3138,
      "suffered": 3139,
      "6th": 3140,
      "cake": 3141,
      "fear": 3142,
      "hour": 3143,
      "kore": 3144,
      "rh": 3145,
      "wis": 3146,
      "anci": 3147,
      "alex": 3148,
      "andrew": 3149,
      "ros": 3150,
      "chains": 3151,
      "composed": 3152,
      "shell": 3153,
      "illino": 3154,
      "managed": 3155,
      "paris": 3156,
      "1994": 3157,
      "elected": 3158,
      "foundation": 3159,
      "chris": 3160,
      "chronic": 3161,
      "stream": 3162,
      "palest": 3163,
      "african": 3164,
      "audience": 3165,
      "pennsyl": 3166,
      "neutr": 3167,
      "cers": 3168,
      "dun": 3169,
      "dated": 3170,
      "gins": 3171,
      "mr": 3172,
      "conserv": 3173,
      "withdraw": 3174,
      "neg": 3175,
      "actors": 3176,
      "bles": 3177,
      "discover": 3178,
      "germany": 3179,
      "annual": 3180,
      "bari": 3181,
      "longer": 3182,
      "episodes": 3183,
      "presented": 3184,
      "allowing": 3185,
      "casual": 3186,
      "scenes": 3187,
      "selected": 3188,
      "japanese": 3189,
      "flooding": 3190,
      "cere": 3191,
      "stad": 3192,
      "sec": 3193,
      "tric": 3194,
      "sha": 3195,
      "sovi": 3196,
      "upper": 3197,
      "scul": 3198,
      "collabor": 3199,
      "types": 3200,
      "raid": 3201,
      "highly": 3202,
      "osaur": 3203,
      "below": 3204,
      "crow": 3205,
      "soldiers": 3206,
      "shoot": 3207,
      "respectively": 3208,
      "naval": 3209,
      "argent": 3210,
      "mouth": 3211,
      "aj": 3212,
      "dock": 3213,
      "fish": 3214,
      "fiction": 3215,
      "hms": 3216,
      "mom": 3217,
      "nathan": 3218,
      "oce": 3219,
      "oid": 3220,
      "smith": 3221,
      "iny": 3222,
      "edit": 3223,
      "envir": 3224,
      "alty": 3225,
      "andon": 3226,
      "cher": 3227,
      "suit": 3228,
      "crus": 3229,
      "phen": 3230,
      "flor": 3231,
      "mond": 3232,
      "spect": 3233,
      "runs": 3234,
      "places": 3235,
      "rights": 3236,
      "hands": 3237,
      "hotel": 3238,
      "honor": 3239,
      "revealed": 3240,
      "advantage": 3241,
      "3rd": 3242,
      "jup": 3243,
      "kar": 3244,
      "ov": 3245,
      "chel": 3246,
      "account": 3247,
      "igan": 3248,
      "extra": 3249,
      "actress": 3250,
      "weather": 3251,
      "discovered": 3252,
      "portray": 3253,
      "italian": 3254,
      "promin": 3255,
      "combined": 3256,
      "responsible": 3257,
      "horses": 3258,
      "sculpt": 3259,
      "400": 3260,
      "eigh": 3261,
      "ield": 3262,
      "rev": 3263,
      "anded": 3264,
      "depression": 3265,
      "terms": 3266,
      "peace": 3267,
      "losing": 3268,
      "iple": 3269,
      "pret": 3270,
      "juan": 3271,
      "1990": 3272,
      "1997": 3273,
      "raised": 3274,
      "corn": 3275,
      "legisl": 3276,
      "distin": 3277,
      "rule": 3278,
      "sky": 3279,
      "priest": 3280,
      "charts": 3281,
      "archaeological": 3282,
      "onymous": 3283,
      "revolution": 3284,
      "ez": 3285,
      "mind": 3286,
      "oil": 3287,
      "rison": 3288,
      "sin": 3289,
      "roles": 3290,
      "neigh": 3291,
      "extre": 3292,
      "drive": 3293,
      "singing": 3294,
      "conditions": 3295,
      "maxim": 3296,
      "advent": 3297,
      "restaur": 3298,
      "attempts": 3299,
      "sales": 3300,
      "wilhelm": 3301,
      "silver": 3302,
      "session": 3303,
      "immediately": 3304,
      "spanish": 3305,
      "pennsylvania": 3306,
      "hund": 3307,
      "mes": 3308,
      "isation": 3309,
      "trib": 3310,
      "mob": 3311,
      "poet": 3312,
      "boise": 3313,
      "1991": 3314,
      "polic": 3315,
      "domest": 3316,
      "resulted": 3317,
      "sports": 3318,
      "quarters": 3319,
      "variety": 3320,
      "territory": 3321,
      "environ": 3322,
      "jupiter": 3323,
      "hundred": 3324,
      "34": 3325,
      "hell": 3326,
      "nie": 3327,
      "paid": 3328,
      "swe": 3329,
      "wat": 3330,
      "ye": 3331,
      "onto": 3332,
      "plant": 3333,
      "opport": 3334,
      "twice": 3335,
      "owned": 3336,
      "creation": 3337,
      "northeast": 3338,
      "management": 3339,
      "levels": 3340,
      "scotland": 3341,
      "extended": 3342,
      "flying": 3343,
      "egyptian": 3344,
      "dota": 3345,
      "mentioned": 3346,
      "amount": 3347,
      "wolf": 3348,
      "affected": 3349,
      "opportun": 3350,
      "drew": 3351,
      "gul": 3352,
      "tun": 3353,
      "chor": 3354,
      "china": 3355,
      "ura": 3356,
      "opin": 3357,
      "sole": 3358,
      "quake": 3359,
      "offer": 3360,
      "evita": 3361,
      "countries": 3362,
      "numerous": 3363,
      "appears": 3364,
      "vessel": 3365,
      "says": 3366,
      "historical": 3367,
      "angeles": 3368,
      "write": 3369,
      "categ": 3370,
      "battery": 3371,
      "liverpool": 3372,
      "94": 3373,
      "sir": 3374,
      "smo": 3375,
      "uter": 3376,
      "thir": 3377,
      "incorpor": 3378,
      "rect": 3379,
      "removed": 3380,
      "stan": 3381,
      "oft": 3382,
      "ils": 3383,
      "illo": 3384,
      "pet": 3385,
      "progress": 3386,
      "quality": 3387,
      "perman": 3388,
      "spain": 3389,
      "presence": 3390,
      "phy": 3391,
      "izing": 3392,
      "carry": 3393,
      "settle": 3394,
      "survey": 3395,
      "contrast": 3396,
      "refused": 3397,
      "typically": 3398,
      "illinois": 3399,
      "aer": 3400,
      "ging": 3401,
      "kir": 3402,
      "nur": 3403,
      "nick": 3404,
      "pict": 3405,
      "thr": 3406,
      "sust": 3407,
      "guest": 3408,
      "sses": 3409,
      "broken": 3410,
      "frag": 3411,
      "corps": 3412,
      "complet": 3413,
      "collection": 3414,
      "studios": 3415,
      "hope": 3416,
      "inches": 3417,
      "premier": 3418,
      "practice": 3419,
      "pacific": 3420,
      "festival": 3421,
      "entertainment": 3422,
      "assault": 3423,
      "bart": 3424,
      "dar": 3425,
      "mess": 3426,
      "nic": 3427,
      "nich": 3428,
      "tree": 3429,
      "thous": 3430,
      "aspect": 3431,
      "assem": 3432,
      "isions": 3433,
      "dete": 3434,
      "uled": 3435,
      "mario": 3436,
      "portion": 3437,
      "strugg": 3438,
      "roll": 3439,
      "chapter": 3440,
      "cust": 3441,
      "needed": 3442,
      "words": 3443,
      "emphas": 3444,
      "macle": 3445,
      "accepted": 3446,
      "institute": 3447,
      "heavily": 3448,
      "fruit": 3449,
      "hic": 3450,
      "naz": 3451,
      "rical": 3452,
      "ws": 3453,
      "atives": 3454,
      "enjoy": 3455,
      "aml": 3456,
      "movement": 3457,
      "cricket": 3458,
      "newsp": 3459,
      "wealth": 3460,
      "higher": 3461,
      "simone": 3462,
      "effort": 3463,
      "memorial": 3464,
      "150": 3465,
      "officially": 3466,
      "weekly": 3467,
      "missed": 3468,
      "jamal": 3469,
      "executive": 3470,
      "question": 3471,
      "analys": 3472,
      "scholar": 3473,
      "slightly": 3474,
      "domestic": 3475,
      "96": 3476,
      "bull": 3477,
      "bomb": 3478,
      "dance": 3479,
      "gw": 3480,
      "jul": 3481,
      "path": 3482,
      "sav": 3483,
      "uated": 3484,
      "wick": 3485,
      "ert": 3486,
      "rein": 3487,
      "really": 3488,
      "cham": 3489,
      "chann": 3490,
      "elle": 3491,
      "abandon": 3492,
      "istan": 3493,
      "clark": 3494,
      "poe": 3495,
      "iff": 3496,
      "bru": 3497,
      "job": 3498,
      "monument": 3499,
      "charge": 3500,
      "efforts": 3501,
      "delay": 3502,
      "rug": 3503,
      "golden": 3504,
      "rush": 3505,
      "combat": 3506,
      "figures": 3507,
      "rainfall": 3508,
      "railway": 3509,
      "potential": 3510,
      "concluded": 3511,
      "literature": 3512,
      "olympic": 3513,
      "ultimately": 3514,
      "residents": 3515,
      "ocean": 3516,
      "42": 3517,
      "56": 3518,
      "lived": 3519,
      "ores": 3520,
      "ply": 3521,
      "sap": 3522,
      "sund": 3523,
      "thin": 3524,
      "entrance": 3525,
      "sumed": 3526,
      "emot": 3527,
      "excl": 3528,
      "stra": 3529,
      "focus": 3530,
      "compound": 3531,
      "preser": 3532,
      "attention": 3533,
      "draft": 3534,
      "fles": 3535,
      "themes": 3536,
      "slam": 3537,
      "basis": 3538,
      "glass": 3539,
      "authority": 3540,
      "strength": 3541,
      "widely": 3542,
      "ceremon": 3543,
      "stadium": 3544,
      "environment": 3545,
      "47": 3546,
      "die": 3547,
      "phas": 3548,
      "shap": 3549,
      "mole": 3550,
      "clim": 3551,
      "ift": 3552,
      "vehic": 3553,
      "rence": 3554,
      "temple": 3555,
      "underground": 3556,
      "ledge": 3557,
      "ceratops": 3558,
      "passing": 3559,
      "solo": 3560,
      "activity": 3561,
      "influenced": 3562,
      "declared": 3563,
      "electron": 3564,
      "primarily": 3565,
      "debuted": 3566,
      "eye": 3567,
      "ceeded": 3568,
      "individual": 3569,
      "impact": 3570,
      "gian": 3571,
      "jes": 3572,
      "oh": 3573,
      "ror": 3574,
      "trou": 3575,
      "uly": 3576,
      "ying": 3577,
      "edge": 3578,
      "stating": 3579,
      "ases": 3580,
      "rose": 3581,
      "lee": 3582,
      "begins": 3583,
      "plum": 3584,
      "manchester": 3585,
      "aston": 3586,
      "rio": 3587,
      "qual": 3588,
      "bron": 3589,
      "crim": 3590,
      "means": 3591,
      "visited": 3592,
      "divided": 3593,
      "claims": 3594,
      "authorities": 3595,
      "holds": 3596,
      "officials": 3597,
      "cardinal": 3598,
      "sexual": 3599,
      "granted": 3600,
      "scottish": 3601,
      "touchdown": 3602,
      "consecutive": 3603,
      "ancient": 3604,
      "casualties": 3605,
      "macleod": 3606,
      "ulysses": 3607,
      "600": 3608,
      "bat": 3609,
      "eat": 3610,
      "ires": 3611,
      "lic": 3612,
      "narr": 3613,
      "ications": 3614,
      "orders": 3615,
      "drama": 3616,
      "doing": 3617,
      "brook": 3618,
      "1984": 3619,
      "showed": 3620,
      "battles": 3621,
      "defensive": 3622,
      "valley": 3623,
      "stones": 3624,
      "reference": 3625,
      "represented": 3626,
      "dedicated": 3627,
      "machine": 3628,
      "financial": 3629,
      "extens": 3630,
      "completely": 3631,
      "bia": 3632,
      "fame": 3633,
      "fash": 3634,
      "mut": 3635,
      "repair": 3636,
      "arms": 3637,
      "ches": 3638,
      "boats": 3639,
      "lide": 3640,
      "vised": 3641,
      "reports": 3642,
      "farm": 3643,
      "sense": 3644,
      "couple": 3645,
      "achieved": 3646,
      "cyclone": 3647,
      "chemical": 3648,
      "lisa": 3649,
      "hornung": 3650,
      "adopted": 3651,
      "network": 3652,
      "46": 3653,
      "jac": 3654,
      "qed": 3655,
      "rab": 3656,
      "ses": 3657,
      "sides": 3658,
      "restor": 3659,
      "ening": 3660,
      "enemy": 3661,
      "else": 3662,
      "shore": 3663,
      "emper": 3664,
      "fired": 3665,
      "serve": 3666,
      "door": 3667,
      "founded": 3668,
      "identified": 3669,
      "attacked": 3670,
      "believe": 3671,
      "criticized": 3672,
      "walls": 3673,
      "hibari": 3674,
      "nuclear": 3675,
      "meeting": 3676,
      "economic": 3677,
      "transferred": 3678,
      "website": 3679,
      "reduced": 3680,
      "equipment": 3681,
      "families": 3682,
      "nichol": 3683,
      "ix": 3684,
      "jen": 3685,
      "jay": 3686,
      "kings": 3687,
      "nc": 3688,
      "nba": 3689,
      "sle": 3690,
      "va": 3691,
      "xe": 3692,
      "throw": 3693,
      "remix": 3694,
      "anderson": 3695,
      "lev": 3696,
      "leon": 3697,
      "urban": 3698,
      "imper": 3699,
      "concentr": 3700,
      "train": 3701,
      "notable": 3702,
      "offensive": 3703,
      "normal": 3704,
      "phia": 3705,
      "content": 3706,
      "medical": 3707,
      "southeast": 3708,
      "toward": 3709,
      "pope": 3710,
      "1988": 3711,
      "ologist": 3712,
      "supporting": 3713,
      "sentence": 3714,
      "romani": 3715,
      "capture": 3716,
      "promotion": 3717,
      "spacing": 3718,
      "escape": 3719,
      "adelphia": 3720,
      "qedar": 3721,
      "53": 3722,
      "cities": 3723,
      "happ": 3724,
      "jazz": 3725,
      "reaction": 3726,
      "arsen": 3727,
      "agu": 3728,
      "oppon": 3729,
      "illa": 3730,
      "coal": 3731,
      "scar": 3732,
      "sell": 3733,
      "describes": 3734,
      "1940": 3735,
      "reaching": 3736,
      "planet": 3737,
      "sources": 3738,
      "attribut": 3739,
      "wounded": 3740,
      "joseph": 3741,
      "54": 3742,
      "data": 3743,
      "eag": 3744,
      "ki": 3745,
      "map": 3746,
      "pack": 3747,
      "sid": 3748,
      "sail": 3749,
      "washing": 3750,
      "shar": 3751,
      "paral": 3752,
      "producers": 3753,
      "1980s": 3754,
      "description": 3755,
      "nearby": 3756,
      "returning": 3757,
      "transit": 3758,
      "sequence": 3759,
      "fresh": 3760,
      "meanwhile": 3761,
      "munic": 3762,
      "cruiser": 3763,
      "haiti": 3764,
      "64": 3765,
      "95": 3766,
      "eth": 3767,
      "fat": 3768,
      "wic": 3769,
      "wise": 3770,
      "inations": 3771,
      "anonymous": 3772,
      "repe": 3773,
      "beach": 3774,
      "behav": 3775,
      "dean": 3776,
      "conver": 3777,
      "ordin": 3778,
      "prime": 3779,
      "scop": 3780,
      "older": 3781,
      "cks": 3782,
      "charter": 3783,
      "poly": 3784,
      "1989": 3785,
      "famous": 3786,
      "1947": 3787,
      "rolling": 3788,
      "headquarters": 3789,
      "roads": 3790,
      "1939": 3791,
      "successfully": 3792,
      "girls": 3793,
      "risk": 3794,
      "prepared": 3795,
      "expressed": 3796,
      "secretary": 3797,
      "separate": 3798,
      "constantine": 3799,
      "confirmed": 3800,
      "insul": 3801,
      "reign": 3802,
      "chess": 3803,
      "composition": 3804,
      "astic": 3805,
      "ieval": 3806,
      "elli": 3807,
      "grade": 3808,
      "medieval": 3809,
      "appeal": 3810,
      "address": 3811,
      "osen": 3812,
      "1944": 3813,
      "francis": 3814,
      "require": 3815,
      "explained": 3816,
      "situation": 3817,
      "michigan": 3818,
      "teenth": 3819,
      "graphic": 3820,
      "earliest": 3821,
      "choice": 3822,
      "pieces": 3823,
      "conflict": 3824,
      "analysis": 3825,
      "poetry": 3826,
      "65": 3827,
      "jon": 3828,
      "jillo": 3829,
      "mand": 3830,
      "wins": 3831,
      "witch": 3832,
      "zed": 3833,
      "ales": 3834,
      "arth": 3835,
      "ises": 3836,
      "ionally": 3837,
      "adam": 3838,
      "usal": 3839,
      "iday": 3840,
      "istol": 3841,
      "princ": 3842,
      "mainly": 3843,
      "therefore": 3844,
      "oslo": 3845,
      "consisted": 3846,
      "observed": 3847,
      "swed": 3848,
      "trujillo": 3849,
      "philadelphia": 3850,
      "flights": 3851,
      "budget": 3852,
      "narrow": 3853,
      "energy": 3854,
      "soviet": 3855,
      "rugby": 3856,
      "gain": 3857,
      "rise": 3858,
      "restr": 3859,
      "alone": 3860,
      "roxas": 3861,
      "unique": 3862,
      "awa": 3863,
      "aware": 3864,
      "prise": 3865,
      "attended": 3866,
      "produce": 3867,
      "seconds": 3868,
      "suppl": 3869,
      "venus": 3870,
      "obtain": 3871,
      "1960s": 3872,
      "depth": 3873,
      "controlled": 3874,
      "facilities": 3875,
      "seventh": 3876,
      "agreement": 3877,
      "archaeology": 3878,
      "academ": 3879,
      "install": 3880,
      "determined": 3881,
      "washington": 3882,
      "ahead": 3883,
      "da": 3884,
      "gate": 3885,
      "gord": 3886,
      "jok": 3887,
      "lives": 3888,
      "pup": 3889,
      "spl": 3890,
      "ug": 3891,
      "uck": 3892,
      "yst": 3893,
      "edition": 3894,
      "atmo": 3895,
      "alleg": 3896,
      "arrang": 3897,
      "roof": 3898,
      "seem": 3899,
      "convent": 3900,
      "usa": 3901,
      "apart": 3902,
      "plunk": 3903,
      "artic": 3904,
      "cole": 3905,
      "nothing": 3906,
      "maria": 3907,
      "owner": 3908,
      "mechan": 3909,
      "kept": 3910,
      "mike": 3911,
      "publish": 3912,
      "selling": 3913,
      "secondary": 3914,
      "direction": 3915,
      "1985": 3916,
      "johnson": 3917,
      "personnel": 3918,
      "gives": 3919,
      "plement": 3920,
      "activision": 3921,
      "benef": 3922,
      "electric": 3923,
      "subsequent": 3924,
      "promoted": 3925,
      "spirit": 3926,
      "scheduled": 3927,
      "atmosp": 3928,
      "plunket": 3929,
      "78": 3930,
      "cited": 3931,
      "yank": 3932,
      "recomm": 3933,
      "atom": 3934,
      "encour": 3935,
      "semi": 3936,
      "ads": 3937,
      "1918": 3938,
      "moon": 3939,
      "ills": 3940,
      "ellig": 3941,
      "fox": 3942,
      "pty": 3943,
      "liber": 3944,
      "180": 3945,
      "cannot": 3946,
      "engaged": 3947,
      "writes": 3948,
      "broke": 3949,
      "1941": 3950,
      "portra": 3951,
      "publication": 3952,
      "1970s": 3953,
      "somal": 3954,
      "volume": 3955,
      "label": 3956,
      "faced": 3957,
      "importance": 3958,
      "structures": 3959,
      "symbol": 3960,
      "advanced": 3961,
      "cit": 3962,
      "kat": 3963,
      "oth": 3964,
      "pit": 3965,
      "seas": 3966,
      "iven": 3967,
      "agric": 3968,
      "1920": 3969,
      "iston": 3970,
      "rie": 3971,
      "intellig": 3972,
      "attend": 3973,
      "dram": 3974,
      "flag": 3975,
      "1990s": 3976,
      "retired": 3977,
      "stefan": 3978,
      "submar": 3979,
      "element": 3980,
      "powers": 3981,
      "holy": 3982,
      "buried": 3983,
      "versions": 3984,
      "danger": 3985,
      "arent": 3986,
      "homes": 3987,
      "nominated": 3988,
      "economy": 3989,
      "individuals": 3990,
      "argued": 3991,
      "demonstr": 3992,
      "custom": 3993,
      "fashion": 3994,
      "fict": 3995,
      "erog": 3996,
      "aser": 3997,
      "accoun": 3998,
      "plain": 3999,
      "tri": 4000,
      "ulty": 4001,
      "perfect": 4002,
      "actually": 4003,
      "contain": 4004,
      "monarch": 4005,
      "speak": 4006,
      "viewers": 4007,
      "metro": 4008,
      "justice": 4009,
      "magic": 4010,
      "reading": 4011,
      "industri": 4012,
      "floor": 4013,
      "beyond": 4014,
      "losses": 4015,
      "intensity": 4016,
      "necessary": 4017,
      "florida": 4018,
      "chelsea": 4019,
      "prominent": 4020,
      "sustained": 4021,
      "yankovic": 4022,
      "bb": 4023,
      "dates": 4024,
      "ech": 4025,
      "mine": 4026,
      "paint": 4027,
      "save": 4028,
      "wim": 4029,
      "ona": 4030,
      "chosen": 4031,
      "advert": 4032,
      "blin": 4033,
      "crime": 4034,
      "keats": 4035,
      "weight": 4036,
      "joint": 4037,
      "charlie": 4038,
      "highlight": 4039,
      "filming": 4040,
      "belong": 4041,
      "faith": 4042,
      "fields": 4043,
      "somali": 4044,
      "resulting": 4045,
      "organized": 4046,
      "apping": 4047,
      "experienced": 4048,
      "currently": 4049,
      "injury": 4050,
      "lords": 4051,
      "measure": 4052,
      "surrounding": 4053,
      "wedding": 4054,
      "maximum": 4055,
      "gordon": 4056,
      "agricult": 4057,
      "border": 4058,
      "dv": 4059,
      "jif": 4060,
      "kg": 4061,
      "nings": 4062,
      "py": 4063,
      "ya": 4064,
      "ancy": 4065,
      "replac": 4066,
      "armor": 4067,
      "decor": 4068,
      "lywood": 4069,
      "images": 4070,
      "trail": 4071,
      "tried": 4072,
      "shel": 4073,
      "cler": 4074,
      "exhib": 4075,
      "iano": 4076,
      "firm": 4077,
      "ellow": 4078,
      "landfall": 4079,
      "weak": 4080,
      "libr": 4081,
      "athlet": 4082,
      "follows": 4083,
      "operated": 4084,
      "1987": 4085,
      "churches": 4086,
      "vements": 4087,
      "deliver": 4088,
      "storyline": 4089,
      "islands": 4090,
      "homer": 4091,
      "philip": 4092,
      "earthquake": 4093,
      "synthe": 4094,
      "rhyth": 4095,
      "occupied": 4096,
      "pilot": 4097,
      "democr": 4098,
      "welsh": 4099,
      "avenue": 4100,
      "clarkson": 4101,
      "straight": 4102,
      "emperor": 4103,
      "jifna": 4104,
      "120": 4105,
      "fal": 4106,
      "iet": 4107,
      "rating": 4108,
      "ridge": 4109,
      "rejected": 4110,
      "items": 4111,
      "iced": 4112,
      "iled": 4113,
      "hearts": 4114,
      "wie": 4115,
      "comic": 4116,
      "proved": 4117,
      "manu": 4118,
      "exped": 4119,
      "berg": 4120,
      "herself": 4121,
      "marl": 4122,
      "newly": 4123,
      "weaken": 4124,
      "filmed": 4125,
      "relatively": 4126,
      "causing": 4127,
      "1981": 4128,
      "1946": 4129,
      "titled": 4130,
      "italy": 4131,
      "results": 4132,
      "projects": 4133,
      "victim": 4134,
      "apparent": 4135,
      "connected": 4136,
      "regarded": 4137,
      "multiple": 4138,
      "physical": 4139,
      "property": 4140,
      "croatia": 4141,
      "degree": 4142,
      "industrial": 4143,
      "ls": 4144,
      "liv": 4145,
      "nin": 4146,
      "ography": 4147,
      "patt": 4148,
      "ral": 4149,
      "sip": 4150,
      "vice": 4151,
      "anes": 4152,
      "leuk": 4153,
      "chi": 4154,
      "unlike": 4155,
      "seems": 4156,
      "ador": 4157,
      "uten": 4158,
      "auto": 4159,
      "foc": 4160,
      "ranged": 4161,
      "bute": 4162,
      "grew": 4163,
      "elev": 4164,
      "worldwide": 4165,
      "humans": 4166,
      "deaths": 4167,
      "historian": 4168,
      "function": 4169,
      "wilde": 4170,
      "missions": 4171,
      "employed": 4172,
      "multi": 4173,
      "happen": 4174,
      "bodies": 4175,
      "weapons": 4176,
      "permanent": 4177,
      "channel": 4178,
      "fictional": 4179,
      "manufact": 4180,
      "kent": 4181,
      "nown": 4182,
      "rated": 4183,
      "recon": 4184,
      "tot": 4185,
      "icts": 4186,
      "chose": 4187,
      "beth": 4188,
      "opposed": 4189,
      "utc": 4190,
      "unknown": 4191,
      "etres": 4192,
      "rian": 4193,
      "brid": 4194,
      "worship": 4195,
      "scale": 4196,
      "compar": 4197,
      "crete": 4198,
      "adding": 4199,
      "jane": 4200,
      "value": 4201,
      "letter": 4202,
      "cases": 4203,
      "nighting": 4204,
      "banks": 4205,
      "certified": 4206,
      "jerusal": 4207,
      "masters": 4208,
      "micro": 4209,
      "cinem": 4210,
      "witness": 4211,
      "crusad": 4212,
      "chorus": 4213,
      "jerusalem": 4214,
      "camer": 4215,
      "tend": 4216,
      "inals": 4217,
      "inner": 4218,
      "store": 4219,
      "itude": 4220,
      "outer": 4221,
      "becomes": 4222,
      "usual": 4223,
      "shop": 4224,
      "share": 4225,
      "abor": 4226,
      "uma": 4227,
      "extr": 4228,
      "herg": 4229,
      "crash": 4230,
      "centuries": 4231,
      "canal": 4232,
      "containing": 4233,
      "divine": 4234,
      "1942": 4235,
      "1970": 4236,
      "1960": 4237,
      "designated": 4238,
      "classic": 4239,
      "camps": 4240,
      "burg": 4241,
      "soundtrack": 4242,
      "suffic": 4243,
      "technology": 4244,
      "knowledge": 4245,
      "animal": 4246,
      "growth": 4247,
      "execut": 4248,
      "lieuten": 4249,
      "performing": 4250,
      "kilmer": 4251,
      "applied": 4252,
      "participated": 4253,
      "dropped": 4254,
      "restaurant": 4255,
      "saprang": 4256,
      "arsenal": 4257,
      "55": 4258,
      "dal": 4259,
      "recover": 4260,
      "asy": 4261,
      "ingu": 4262,
      "begun": 4263,
      "beaut": 4264,
      "height": 4265,
      "aine": 4266,
      "utions": 4267,
      "illu": 4268,
      "spot": 4269,
      "marks": 4270,
      "graf": 4271,
      "pton": 4272,
      "evo": 4273,
      "presents": 4274,
      "creating": 4275,
      "dry": 4276,
      "gerard": 4277,
      "eleven": 4278,
      "matter": 4279,
      "passes": 4280,
      "decade": 4281,
      "1972": 4282,
      "didn": 4283,
      "lawton": 4284,
      "allows": 4285,
      "basket": 4286,
      "senior": 4287,
      "williams": 4288,
      "rifles": 4289,
      "violence": 4290,
      "adapt": 4291,
      "sunday": 4292,
      "imperial": 4293,
      "leukem": 4294,
      "nightingale": 4295,
      "bone": 4296,
      "kes": 4297,
      "tel": 4298,
      "xed": 4299,
      "arrest": 4300,
      "routes": 4301,
      "ched": 4302,
      "1919": 4303,
      "oppos": 4304,
      "propos": 4305,
      "etic": 4306,
      "prerog": 4307,
      "ockey": 4308,
      "commonly": 4309,
      "icks": 4310,
      "genus": 4311,
      "struction": 4312,
      "lane": 4313,
      "northwest": 4314,
      "12th": 4315,
      "janei": 4316,
      "passeng": 4317,
      "distance": 4318,
      "franch": 4319,
      "alien": 4320,
      "km2": 4321,
      "ski": 4322,
      "pursu": 4323,
      "religion": 4324,
      "ruler": 4325,
      "learned": 4326,
      "bledon": 4327,
      "increasingly": 4328,
      "newspaper": 4329,
      "phase": 4330,
      "extensive": 4331,
      "wimbledon": 4332,
      "dvd": 4333,
      "janeiro": 4334,
      "43": 4335,
      "69": 4336,
      "fought": 4337,
      "gie": 4338,
      "hart": 4339,
      "hunt": 4340,
      "hired": 4341,
      "laid": 4342,
      "nand": 4343,
      "none": 4344,
      "rival": 4345,
      "yle": 4346,
      "yellow": 4347,
      "inspir": 4348,
      "stable": 4349,
      "albert": 4350,
      "unte": 4351,
      "adult": 4352,
      "accompan": 4353,
      "consul": 4354,
      "congress": 4355,
      "1914": 4356,
      "ulations": 4357,
      "resc": 4358,
      "embar": 4359,
      "twel": 4360,
      "aug": 4361,
      "dublin": 4362,
      "timore": 4363,
      "minim": 4364,
      "condition": 4365,
      "student": 4366,
      "headed": 4367,
      "youth": 4368,
      "depict": 4369,
      "clubs": 4370,
      "prompt": 4371,
      "continues": 4372,
      "volunte": 4373,
      "billion": 4374,
      "killing": 4375,
      "arrival": 4376,
      "champions": 4377,
      "baltimore": 4378,
      "holding": 4379,
      "sessions": 4380,
      "oxford": 4381,
      "regarding": 4382,
      "cruisers": 4383,
      "admiral": 4384,
      "41": 4385,
      "dial": 4386,
      "ease": 4387,
      "gab": 4388,
      "gained": 4389,
      "kur": 4390,
      "mtv": 4391,
      "pap": 4392,
      "inity": 4393,
      "ati": 4394,
      "icon": 4395,
      "lewis": 4396,
      "cool": 4397,
      "oured": 4398,
      "fee": 4399,
      "guide": 4400,
      "mega": 4401,
      "computer": 4402,
      "offense": 4403,
      "airline": 4404,
      "regime": 4405,
      "warm": 4406,
      "leaders": 4407,
      "protection": 4408,
      "harmon": 4409,
      "glas": 4410,
      "virt": 4411,
      "males": 4412,
      "popularity": 4413,
      "saraj": 4414,
      "cells": 4415,
      "motor": 4416,
      "brothers": 4417,
      "fellow": 4418,
      "improved": 4419,
      "scholars": 4420,
      "contributed": 4421,
      "louis": 4422,
      "rapidly": 4423,
      "conservation": 4424,
      "aspects": 4425,
      "abandoned": 4426,
      "plunketts": 4427,
      "sarajevo": 4428,
      "61": 4429,
      "8th": 4430,
      "bbc": 4431,
      "cens": 4432,
      "fel": 4433,
      "kit": 4434,
      "sie": 4435,
      "ssing": 4436,
      "wy": 4437,
      "edward": 4438,
      "ask": 4439,
      "isol": 4440,
      "avoid": 4441,
      "herit": 4442,
      "prefer": 4443,
      "rane": 4444,
      "speaking": 4445,
      "steve": 4446,
      "1967": 4447,
      "furt": 4448,
      "lasted": 4449,
      "patron": 4450,
      "penalty": 4451,
      "1936": 4452,
      "holiday": 4453,
      "palmy": 4454,
      "destroyers": 4455,
      "doub": 4456,
      "finds": 4457,
      "finding": 4458,
      "tomb": 4459,
      "trust": 4460,
      "safety": 4461,
      "planning": 4462,
      "digital": 4463,
      "russian": 4464,
      "gulf": 4465,
      "marlborough": 4466,
      "basketball": 4467,
      "98": 4468,
      "aire": 4469,
      "cd": 4470,
      "dd": 4471,
      "fare": 4472,
      "hockey": 4473,
      "knot": 4474,
      "page": 4475,
      "table": 4476,
      "zer": 4477,
      "infr": 4478,
      "theless": 4479,
      "err": 4480,
      "orchest": 4481,
      "stic": 4482,
      "aly": 4483,
      "anda": 4484,
      "imag": 4485,
      "heard": 4486,
      "shared": 4487,
      "ults": 4488,
      "perhap": 4489,
      "austri": 4490,
      "ached": 4491,
      "prin": 4492,
      "nock": 4493,
      "offs": 4494,
      "contained": 4495,
      "flank": 4496,
      "specim": 4497,
      "serving": 4498,
      "1982": 4499,
      "distingu": 4500,
      "province": 4501,
      "incident": 4502,
      "declined": 4503,
      "choir": 4504,
      "eyes": 4505,
      "motion": 4506,
      "affair": 4507,
      "recognized": 4508,
      "credited": 4509,
      "biography": 4510,
      "recently": 4511,
      "responded": 4512,
      "frequently": 4513,
      "briefly": 4514,
      "instrument": 4515,
      "osaurus": 4516,
      "category": 4517,
      "lieutenant": 4518,
      "prerogative": 4519,
      "perhaps": 4520,
      "bann": 4521,
      "dum": 4522,
      "ote": 4523,
      "push": 4524,
      "rising": 4525,
      "slide": 4526,
      "tay": 4527,
      "aniston": 4528,
      "reli": 4529,
      "acre": 4530,
      "lying": 4531,
      "hear": 4532,
      "allied": 4533,
      "worst": 4534,
      "prec": 4535,
      "evac": 4536,
      "izes": 4537,
      "genre": 4538,
      "stephen": 4539,
      "suppor": 4540,
      "dyn": 4541,
      "decades": 4542,
      "missing": 4543,
      "ideas": 4544,
      "clean": 4545,
      "grapher": 4546,
      "skin": 4547,
      "prize": 4548,
      "combination": 4549,
      "purpose": 4550,
      "stopped": 4551,
      "animals": 4552,
      "rifle": 4553,
      "teacher": 4554,
      "maintained": 4555,
      "korean": 4556,
      "eighth": 4557,
      "somalia": 4558,
      "stefani": 4559,
      "taylor": 4560,
      "110": 4561,
      "57": 4562,
      "dim": 4563,
      "wart": 4564,
      "atus": 4565,
      "ington": 4566,
      "elim": 4567,
      "irt": 4568,
      "iring": 4569,
      "concrete": 4570,
      "plane": 4571,
      "shape": 4572,
      "moder": 4573,
      "loose": 4574,
      "colony": 4575,
      "goes": 4576,
      "charges": 4577,
      "gameplay": 4578,
      "poland": 4579,
      "dog": 4580,
      "steam": 4581,
      "invited": 4582,
      "dynam": 4583,
      "continent": 4584,
      "evening": 4585,
      "turner": 4586,
      "hollywood": 4587,
      "strike": 4588,
      "criticism": 4589,
      "tests": 4590,
      "dani": 4591,
      "coastal": 4592,
      "surviv": 4593,
      "growing": 4594,
      "existing": 4595,
      "treatment": 4596,
      "possibly": 4597,
      "purchased": 4598,
      "ceremony": 4599,
      "battleship": 4600,
      "converted": 4601,
      "52": 4602,
      "79": 4603,
      "dor": 4604,
      "gil": 4605,
      "hits": 4606,
      "len": 4607,
      "pus": 4608,
      "rig": 4609,
      "tail": 4610,
      "stev": 4611,
      "enz": 4612,
      "aling": 4613,
      "asc": 4614,
      "olay": 4615,
      "wides": 4616,
      "supre": 4617,
      "umes": 4618,
      "umber": 4619,
      "resol": 4620,
      "log": 4621,
      "exit": 4622,
      "asty": 4623,
      "quite": 4624,
      "boys": 4625,
      "firing": 4626,
      "elling": 4627,
      "marsh": 4628,
      "carri": 4629,
      "supply": 4630,
      "divisions": 4631,
      "1943": 4632,
      "developing": 4633,
      "13th": 4634,
      "denied": 4635,
      "markgraf": 4636,
      "additionally": 4637,
      "jackrab": 4638,
      "walk": 4639,
      "drawn": 4640,
      "protests": 4641,
      "watched": 4642,
      "simpsons": 4643,
      "treaty": 4644,
      "assistant": 4645,
      "examples": 4646,
      "krak": 4647,
      "administration": 4648,
      "lbw": 4649,
      "failure": 4650,
      "1930s": 4651,
      "circum": 4652,
      "raffles": 4653,
      "rhodes": 4654,
      "eagle": 4655,
      "municipal": 4656,
      "ninth": 4657,
      "furtado": 4658,
      "51": 4659,
      "bats": 4660,
      "cave": 4661,
      "dur": 4662,
      "fro": 4663,
      "greek": 4664,
      "hes": 4665,
      "ibar": 4666,
      "nio": 4667,
      "nhl": 4668,
      "ries": 4669,
      "sought": 4670,
      "tailed": 4671,
      "inde": 4672,
      "ato": 4673,
      "stret": 4674,
      "asia": 4675,
      "chance": 4676,
      "why": 4677,
      "iments": 4678,
      "uss": 4679,
      "otes": 4680,
      "commod": 4681,
      "sholay": 4682,
      "assass": 4683,
      "gray": 4684,
      "18th": 4685,
      "cki": 4686,
      "collap": 4687,
      "roughly": 4688,
      "max": 4689,
      "rell": 4690,
      "myth": 4691,
      "calls": 4692,
      "studied": 4693,
      "17th": 4694,
      "generation": 4695,
      "protected": 4696,
      "fortun": 4697,
      "females": 4698,
      "entirely": 4699,
      "teaching": 4700,
      "feelings": 4701,
      "simply": 4702,
      "rupt": 4703,
      "possibility": 4704,
      "palestine": 4705,
      "moment": 4706,
      "thousands": 4707,
      "shaped": 4708,
      "franchise": 4709,
      "85": 4710,
      "bility": 4711,
      "gone": 4712,
      "hok": 4713,
      "iqu": 4714,
      "oon": 4715,
      "rar": 4716,
      "yu": 4717,
      "thews": 4718,
      "erted": 4719,
      "online": 4720,
      "reven": 4721,
      "encounter": 4722,
      "ario": 4723,
      "isis": 4724,
      "seat": 4725,
      "entry": 4726,
      "accur": 4727,
      "heim": 4728,
      "convoy": 4729,
      "versy": 4730,
      "1916": 4731,
      "1917": 4732,
      "aviation": 4733,
      "moves": 4734,
      "geoff": 4735,
      "intend": 4736,
      "phone": 4737,
      "disc": 4738,
      "monuments": 4739,
      "mayor": 4740,
      "receive": 4741,
      "southwest": 4742,
      "trying": 4743,
      "township": 4744,
      "invas": 4745,
      "defences": 4746,
      "1978": 4747,
      "diam": 4748,
      "1951": 4749,
      "collected": 4750,
      "gather": 4751,
      "hills": 4752,
      "technical": 4753,
      "baseball": 4754,
      "journey": 4755,
      "alternative": 4756,
      "bottom": 4757,
      "habitat": 4758,
      "picked": 4759,
      "distribution": 4760,
      "controvers": 4761,
      "controversy": 4762,
      "chairman": 4763,
      "pattern": 4764,
      "alexander": 4765,
      "argentina": 4766,
      "mobile": 4767,
      "stevens": 4768,
      "59": 4769,
      "62": 4770,
      "66": 4771,
      "800": 4772,
      "bom": 4773,
      "dict": 4774,
      "gor": 4775,
      "lam": 4776,
      "mate": 4777,
      "oct": 4778,
      "oys": 4779,
      "pse": 4780,
      "rural": 4781,
      "sb": 4782,
      "sak": 4783,
      "snow": 4784,
      "anne": 4785,
      "onom": 4786,
      "inger": 4787,
      "esc": 4788,
      "adow": 4789,
      "amino": 4790,
      "acid": 4791,
      "cos": 4792,
      "coin": 4793,
      "boston": 4794,
      "bling": 4795,
      "crake": 4796,
      "spons": 4797,
      "playstation": 4798,
      "finish": 4799,
      "aired": 4800,
      "norman": 4801,
      "tenny": 4802,
      "amps": 4803,
      "soul": 4804,
      "receiving": 4805,
      "appearing": 4806,
      "succeeded": 4807,
      "describing": 4808,
      "1948": 4809,
      "remainder": 4810,
      "1966": 4811,
      "breaking": 4812,
      "maggie": 4813,
      "classes": 4814,
      "germans": 4815,
      "systems": 4816,
      "1937": 4817,
      "1952": 4818,
      "brigades": 4819,
      "gradually": 4820,
      "tells": 4821,
      "transportation": 4822,
      "confess": 4823,
      "breeding": 4824,
      "guardian": 4825,
      "experiment": 4826,
      "considerable": 4827,
      "challeng": 4828,
      "details": 4829,
      "negative": 4830,
      "compounds": 4831,
      "arthur": 4832,
      "intelligence": 4833,
      "illustr": 4834,
      "tennyson": 4835,
      "72": 4836,
      "89": 4837,
      "las": 4838,
      "mn": 4839,
      "mol": 4840,
      "oak": 4841,
      "pine": 4842,
      "sight": 4843,
      "tact": 4844,
      "tied": 4845,
      "ugu": 4846,
      "ange": 4847,
      "onna": 4848,
      "reconstruction": 4849,
      "stood": 4850,
      "ented": 4851,
      "ivered": 4852,
      "plate": 4853,
      "1913": 4854,
      "aints": 4855,
      "shakes": 4856,
      "abs": 4857,
      "neck": 4858,
      "utz": 4859,
      "prot": 4860,
      "expect": 4861,
      "pread": 4862,
      "pregn": 4863,
      "joe": 4864,
      "fernand": 4865,
      "retire": 4866,
      "knight": 4867,
      "simple": 4868,
      "willing": 4869,
      "1980": 4870,
      "1945": 4871,
      "heads": 4872,
      "1975": 4873,
      "delivered": 4874,
      "transl": 4875,
      "patrol": 4876,
      "peninsul": 4877,
      "organiz": 4878,
      "palace": 4879,
      "references": 4880,
      "destroyer": 4881,
      "closely": 4882,
      "interested": 4883,
      "difficulty": 4884,
      "satis": 4885,
      "trials": 4886,
      "reserve": 4887,
      "initiative": 4888,
      "policy": 4889,
      "settlement": 4890,
      "gwen": 4891,
      "exclus": 4892,
      "eaton": 4893,
      "supplies": 4894,
      "pupils": 4895,
      "patty": 4896,
      "knots": 4897,
      "widespread": 4898,
      "peninsula": 4899,
      "cash": 4900,
      "catch": 4901,
      "caught": 4902,
      "ji": 4903,
      "kann": 4904,
      "kins": 4905,
      "rates": 4906,
      "sop": 4907,
      "uate": 4908,
      "ano": 4909,
      "ania": 4910,
      "stages": 4911,
      "enc": 4912,
      "ala": 4913,
      "sections": 4914,
      "agent": 4915,
      "resist": 4916,
      "bright": 4917,
      "ips": 4918,
      "feed": 4919,
      "serial": 4920,
      "formal": 4921,
      "desc": 4922,
      "preced": 4923,
      "gene": 4924,
      "towers": 4925,
      "howard": 4926,
      "frig": 4927,
      "fraser": 4928,
      "legacy": 4929,
      "characteristics": 4930,
      "standards": 4931,
      "laws": 4932,
      "pressed": 4933,
      "facing": 4934,
      "everything": 4935,
      "freed": 4936,
      "fifa": 4937,
      "expanded": 4938,
      "mountains": 4939,
      "hospit": 4940,
      "israeli": 4941,
      "columbia": 4942,
      "painting": 4943,
      "pitched": 4944,
      "kilom": 4945,
      "martin": 4946,
      "dominican": 4947,
      "favorite": 4948,
      "slowly": 4949,
      "global": 4950,
      "1950s": 4951,
      "secure": 4952,
      "opinion": 4953,
      "stanley": 4954,
      "chamber": 4955,
      "jesus": 4956,
      "happy": 4957,
      "wicca": 4958,
      "atmosphere": 4959,
      "library": 4960,
      "accompanied": 4961,
      "250": 4962,
      "7th": 4963,
      "bce": 4964,
      "cart": 4965,
      "hang": 4966,
      "knew": 4967,
      "lau": 4968,
      "mud": 4969,
      "nad": 4970,
      "nell": 4971,
      "oz": 4972,
      "pir": 4973,
      "phe": 4974,
      "piano": 4975,
      "von": 4976,
      "vati": 4977,
      "erick": 4978,
      "stances": 4979,
      "itled": 4980,
      "sector": 4981,
      "bean": 4982,
      "wasp": 4983,
      "contest": 4984,
      "1915": 4985,
      "nether": 4986,
      "peare": 4987,
      "exer": 4988,
      "ateur": 4989,
      "iance": 4990,
      "blaz": 4991,
      "evol": 4992,
      "monit": 4993,
      "regional": 4994,
      "recordings": 4995,
      "howe": 4996,
      "capable": 4997,
      "grey": 4998,
      "setting": 4999,
      "azil": 5000,
      "divor": 5001,
      "severe": 5002,
      "download": 5003,
      "johnston": 5004,
      "leads": 5005,
      "protect": 5006,
      "metall": 5007,
      "dominated": 5008,
      "1974": 5009,
      "depicted": 5010,
      "courts": 5011,
      "starts": 5012,
      "getting": 5013,
      "aliers": 5014,
      "greatly": 5015,
      "turning": 5016,
      "solid": 5017,
      "belief": 5018,
      "politics": 5019,
      "statistics": 5020,
      "looked": 5021,
      "rangers": 5022,
      "entering": 5023,
      "survived": 5024,
      "expans": 5025,
      "significantly": 5026,
      "ruled": 5027,
      "literary": 5028,
      "adapted": 5029,
      "indicate": 5030,
      "zoo": 5031,
      "excavation": 5032,
      "crowd": 5033,
      "neighbor": 5034,
      "enjoyed": 5035,
      "bulls": 5036,
      "reinforce": 5037,
      "attributed": 5038,
      "academic": 5039,
      "portrait": 5040,
      "paintings": 5041,
      "supreme": 5042,
      "shakespeare": 5043,
      "kannada": 5044,
      "88": 5045,
      "bought": 5046,
      "cull": 5047,
      "dating": 5048,
      "fold": 5049,
      "fuel": 5050,
      "mint": 5051,
      "ogue": 5052,
      "sort": 5053,
      "tig": 5054,
      "wich": 5055,
      "theory": 5056,
      "resem": 5057,
      "orer": 5058,
      "aded": 5059,
      "amateur": 5060,
      "acres": 5061,
      "agency": 5062,
      "nei": 5063,
      "peach": 5064,
      "mann": 5065,
      "blues": 5066,
      "spread": 5067,
      "assess": 5068,
      "scout": 5069,
      "prey": 5070,
      "parvati": 5071,
      "retre": 5072,
      "substit": 5073,
      "hob": 5074,
      "locations": 5075,
      "ifications": 5076,
      "signing": 5077,
      "1976": 5078,
      "junior": 5079,
      "1965": 5080,
      "valky": 5081,
      "classical": 5082,
      "classified": 5083,
      "communities": 5084,
      "changing": 5085,
      "panel": 5086,
      "painted": 5087,
      "cambridge": 5088,
      "anthony": 5089,
      "fantasy": 5090,
      "opportunity": 5091,
      "electronic": 5092,
      "criminal": 5093,
      "citiz": 5094,
      "wiecki": 5095,
      "siege": 5096,
      "ranean": 5097,
      "batsman": 5098,
      "niowiecki": 5099,
      "bath": 5100,
      "caves": 5101,
      "dden": 5102,
      "mist": 5103,
      "ras": 5104,
      "rub": 5105,
      "sa": 5106,
      "yon": 5107,
      "yce": 5108,
      "zone": 5109,
      "thetic": 5110,
      "stab": 5111,
      "alan": 5112,
      "arranged": 5113,
      "leigh": 5114,
      "sevent": 5115,
      "accompl": 5116,
      "accommod": 5117,
      "hem": 5118,
      "igo": 5119,
      "tex": 5120,
      "apy": 5121,
      "romantic": 5122,
      "shark": 5123,
      "eman": 5124,
      "ette": 5125,
      "iful": 5126,
      "ardo": 5127,
      "anton": 5128,
      "jos": 5129,
      "flan": 5130,
      "carib": 5131,
      "releg": 5132,
      "substant": 5133,
      "correct": 5134,
      "longest": 5135,
      "1964": 5136,
      "1969": 5137,
      "patri": 5138,
      "patrick": 5139,
      "pleas": 5140,
      "streak": 5141,
      "bush": 5142,
      "demand": 5143,
      "susp": 5144,
      "credits": 5145,
      "reasons": 5146,
      "threatened": 5147,
      "acquired": 5148,
      "dutch": 5149,
      "dollars": 5150,
      "cabin": 5151,
      "legislation": 5152,
      "incorporated": 5153,
      "coleman": 5154,
      "hokies": 5155,
      "bly": 5156,
      "fu": 5157,
      "gle": 5158,
      "iot": 5159,
      "lers": 5160,
      "ole": 5161,
      "pistol": 5162,
      "sas": 5163,
      "tap": 5164,
      "recru": 5165,
      "oral": 5166,
      "ena": 5167,
      "arc": 5168,
      "decre": 5169,
      "consequ": 5170,
      "agents": 5171,
      "cture": 5172,
      "isters": 5173,
      "mode": 5174,
      "resour": 5175,
      "proto": 5176,
      "loan": 5177,
      "exh": 5178,
      "acks": 5179,
      "boot": 5180,
      "ella": 5181,
      "grace": 5182,
      "intention": 5183,
      "parties": 5184,
      "finishing": 5185,
      "contact": 5186,
      "disaster": 5187,
      "interior": 5188,
      "ritual": 5189,
      "mathews": 5190,
      "capac": 5191,
      "whereas": 5192,
      "serves": 5193,
      "1971": 5194,
      "1973": 5195,
      "1968": 5196,
      "commandment": 5197,
      "destiny": 5198,
      "walter": 5199,
      "similarly": 5200,
      "ministry": 5201,
      "effective": 5202,
      "suggests": 5203,
      "brian": 5204,
      "counties": 5205,
      "favour": 5206,
      "maryland": 5207,
      "scription": 5208,
      "learning": 5209,
      "funding": 5210,
      "institutions": 5211,
      "suffering": 5212,
      "wrong": 5213,
      "establishment": 5214,
      "strengthen": 5215,
      "emerged": 5216,
      "victoria": 5217,
      "bringing": 5218,
      "temperature": 5219,
      "shooting": 5220,
      "neither": 5221,
      "valkyria": 5222,
      "cub": 5223,
      "gol": 5224,
      "gates": 5225,
      "hay": 5226,
      "iar": 5227,
      "pp": 5228,
      "soft": 5229,
      "wag": 5230,
      "wave": 5231,
      "chev": 5232,
      "ayer": 5233,
      "ctors": 5234,
      "clock": 5235,
      "bern": 5236,
      "cook": 5237,
      "coins": 5238,
      "poses": 5239,
      "attle": 5240,
      "cancer": 5241,
      "gency": 5242,
      "medal": 5243,
      "someone": 5244,
      "publishing": 5245,
      "writings": 5246,
      "barrow": 5247,
      "barker": 5248,
      "musicians": 5249,
      "consists": 5250,
      "belt": 5251,
      "operate": 5252,
      "ologists": 5253,
      "covers": 5254,
      "successor": 5255,
      "winner": 5256,
      "lawrence": 5257,
      "garian": 5258,
      "styles": 5259,
      "1955": 5260,
      "bertin": 5261,
      "seeing": 5262,
      "drawing": 5263,
      "statement": 5264,
      "truth": 5265,
      "hoped": 5266,
      "recognition": 5267,
      "approached": 5268,
      "boxing": 5269,
      "existence": 5270,
      "secured": 5271,
      "catech": 5272,
      "pagan": 5273,
      "issance": 5274,
      "filled": 5275,
      "wearing": 5276,
      "candidate": 5277,
      "editor": 5278,
      "waters": 5279,
      "vehicles": 5280,
      "opponents": 5281,
      "heritage": 5282,
      "caribbean": 5283,
      "citing": 5284,
      "djok": 5285,
      "gill": 5286,
      "iber": 5287,
      "knock": 5288,
      "pas": 5289,
      "pel": 5290,
      "rivers": 5291,
      "sunk": 5292,
      "sens": 5293,
      "tale": 5294,
      "wer": 5295,
      "wish": 5296,
      "yl": 5297,
      "thors": 5298,
      "repl": 5299,
      "asa": 5300,
      "seg": 5301,
      "entially": 5302,
      "elabor": 5303,
      "superi": 5304,
      "opposition": 5305,
      "shif": 5306,
      "exact": 5307,
      "exchange": 5308,
      "authors": 5309,
      "brick": 5310,
      "outstanding": 5311,
      "landing": 5312,
      "meg": 5313,
      "desire": 5314,
      "norway": 5315,
      "render": 5316,
      "interpret": 5317,
      "muslim": 5318,
      "steel": 5319,
      "visible": 5320,
      "archbishop": 5321,
      "viewed": 5322,
      "distur": 5323,
      "1979": 5324,
      "magn": 5325,
      "reviewer": 5326,
      "provides": 5327,
      "productions": 5328,
      "communications": 5329,
      "equal": 5330,
      "influences": 5331,
      "commonwealth": 5332,
      "competit": 5333,
      "relationships": 5334,
      "nomination": 5335,
      "laboratory": 5336,
      "jersey": 5337,
      "accused": 5338,
      "heaven": 5339,
      "colonel": 5340,
      "problem": 5341,
      "ifying": 5342,
      "observations": 5343,
      "constitution": 5344,
      "croatian": 5345,
      "methods": 5346,
      "documentary": 5347,
      "discovery": 5348,
      "vessels": 5349,
      "arrangement": 5350,
      "rhythm": 5351,
      "expedition": 5352,
      "twelve": 5353,
      "doubt": 5354,
      "protagon": 5355,
      "kilometres": 5356,
      "djokovic": 5357,
      "celt": 5358,
      "ja": 5359,
      "math": 5360,
      "pin": 5361,
      "pale": 5362,
      "saves": 5363,
      "tall": 5364,
      "tone": 5365,
      "inaug": 5366,
      "reput": 5367,
      "atro": 5368,
      "ene": 5369,
      "enge": 5370,
      "rot": 5371,
      "immig": 5372,
      "opt": 5373,
      "trap": 5374,
      "clu": 5375,
      "expo": 5376,
      "aka": 5377,
      "spin": 5378,
      "dub": 5379,
      "pryce": 5380,
      "forming": 5381,
      "creator": 5382,
      "carbon": 5383,
      "anything": 5384,
      "ultane": 5385,
      "osop": 5386,
      "caes": 5387,
      "16th": 5388,
      "simultane": 5389,
      "fixed": 5390,
      "1977": 5391,
      "1961": 5392,
      "1963": 5393,
      "tales": 5394,
      "reviewers": 5395,
      "1931": 5396,
      "sequel": 5397,
      "ivalent": 5398,
      "factory": 5399,
      "malley": 5400,
      "representatives": 5401,
      "decline": 5402,
      "madrid": 5403,
      "philosop": 5404,
      "rooms": 5405,
      "regularly": 5406,
      "atlanta": 5407,
      "employe": 5408,
      "accident": 5409,
      "feeling": 5410,
      "montana": 5411,
      "ratings": 5412,
      "chronicles": 5413,
      "collaboration": 5414,
      "sculpture": 5415,
      "distinct": 5416,
      "extrem": 5417,
      "sweet": 5418,
      "thirty": 5419,
      "recommended": 5420,
      "submarine": 5421,
      "sufficient": 5422,
      "rescue": 5423,
      "dynasty": 5424,
      "invasion": 5425,
      "catechism": 5426,
      "63": 5427,
      "dish": 5428,
      "dess": 5429,
      "iant": 5430,
      "sic": 5431,
      "tie": 5432,
      "wan": 5433,
      "yn": 5434,
      "inte": 5435,
      "orbit": 5436,
      "arte": 5437,
      "aments": 5438,
      "ola": 5439,
      "lyn": 5440,
      "terior": 5441,
      "agno": 5442,
      "compr": 5443,
      "absor": 5444,
      "ulate": 5445,
      "ameter": 5446,
      "marc": 5447,
      "inton": 5448,
      "partner": 5449,
      "liked": 5450,
      "norm": 5451,
      "dissip": 5452,
      "flash": 5453,
      "coll": 5454,
      "parish": 5455,
      "carmel": 5456,
      "genetic": 5457,
      "medium": 5458,
      "visual": 5459,
      "supposed": 5460,
      "160": 5461,
      "simon": 5462,
      "1983": 5463,
      "directors": 5464,
      "valve": 5465,
      "designation": 5466,
      "bands": 5467,
      "leagues": 5468,
      "footage": 5469,
      "1935": 5470,
      "jackets": 5471,
      "1954": 5472,
      "romanian": 5473,
      "hurricanes": 5474,
      "grammy": 5475,
      "freak": 5476,
      "brien": 5477,
      "surviving": 5478,
      "quarterback": 5479,
      "occupation": 5480,
      "sorra": 5481,
      "duties": 5482,
      "constitut": 5483,
      "occasionally": 5484,
      "frederick": 5485,
      "birds": 5486,
      "challenge": 5487,
      "message": 5488,
      "principal": 5489,
      "article": 5490,
      "accounts": 5491,
      "satisf": 5492,
      "chevaliers": 5493,
      "82": 5494,
      "cav": 5495,
      "cular": 5496,
      "dc": 5497,
      "fine": 5498,
      "flower": 5499,
      "gus": 5500,
      "hag": 5501,
      "jar": 5502,
      "jere": 5503,
      "oto": 5504,
      "obl": 5505,
      "oscar": 5506,
      "psy": 5507,
      "tz": 5508,
      "tis": 5509,
      "income": 5510,
      "recalled": 5511,
      "stro": 5512,
      "stations": 5513,
      "ione": 5514,
      "secut": 5515,
      "admitted": 5516,
      "forcing": 5517,
      "deploy": 5518,
      "destruction": 5519,
      "olith": 5520,
      "confeder": 5521,
      "apt": 5522,
      "abled": 5523,
      "negot": 5524,
      "prog": 5525,
      "proceed": 5526,
      "propag": 5527,
      "ester": 5528,
      "astron": 5529,
      "astru": 5530,
      "brace": 5531,
      "spur": 5532,
      "grav": 5533,
      "ports": 5534,
      "partly": 5535,
      "disease": 5536,
      "regions": 5537,
      "carre": 5538,
      "carved": 5539,
      "producing": 5540,
      "consol": 5541,
      "derived": 5542,
      "ibility": 5543,
      "diet": 5544,
      "commanded": 5545,
      "xture": 5546,
      "slop": 5547,
      "turns": 5548,
      "falling": 5549,
      "communication": 5550,
      "faces": 5551,
      "strongly": 5552,
      "criticised": 5553,
      "poems": 5554,
      "professor": 5555,
      "championships": 5556,
      "introduction": 5557,
      "terminus": 5558,
      "prede": 5559,
      "practices": 5560,
      "telling": 5561,
      "independence": 5562,
      "engineering": 5563,
      "separated": 5564,
      "cougars": 5565,
      "emergency": 5566,
      "consisting": 5567,
      "excavations": 5568,
      "windows": 5569,
      "cotton": 5570,
      "hundreds": 5571,
      "brooks": 5572,
      "athletic": 5573,
      "weakened": 5574,
      "escort": 5575,
      "capacity": 5576,
      "extremely": 5577,
      "700": 5578,
      "cow": 5579,
      "cress": 5580,
      "eper": 5581,
      "gent": 5582,
      "ias": 5583,
      "lud": 5584,
      "lind": 5585,
      "mum": 5586,
      "rag": 5587,
      "tong": 5588,
      "zomb": 5589,
      "replace": 5590,
      "stal": 5591,
      "itive": 5592,
      "tool": 5593,
      "lets": 5594,
      "unsuccessful": 5595,
      "accompany": 5596,
      "ira": 5597,
      "whel": 5598,
      "heat": 5599,
      "wik": 5600,
      "tery": 5601,
      "concess": 5602,
      "agree": 5603,
      "ctic": 5604,
      "compo": 5605,
      "pled": 5606,
      "resident": 5607,
      "etime": 5608,
      "affect": 5609,
      "aste": 5610,
      "ride": 5611,
      "fei": 5612,
      "cryst": 5613,
      "aws": 5614,
      "achu": 5615,
      "disci": 5616,
      "dismissed": 5617,
      "intercept": 5618,
      "register": 5619,
      "mediter": 5620,
      "elections": 5621,
      "specif": 5622,
      "generated": 5623,
      "130": 5624,
      "offices": 5625,
      "starred": 5626,
      "grounds": 5627,
      "transition": 5628,
      "vote": 5629,
      "moral": 5630,
      "periods": 5631,
      "nevertheless": 5632,
      "equivalent": 5633,
      "representative": 5634,
      "africaine": 5635,
      "involving": 5636,
      "refers": 5637,
      "semif": 5638,
      "archaeologist": 5639,
      "copy": 5640,
      "technique": 5641,
      "civilian": 5642,
      "select": 5643,
      "nett": 5644,
      "judge": 5645,
      "column": 5646,
      "difficulties": 5647,
      "engineers": 5648,
      "martial": 5649,
      "simpson": 5650,
      "defined": 5651,
      "architecture": 5652,
      "photograph": 5653,
      "instruments": 5654,
      "obtained": 5655,
      "dramatic": 5656,
      "focused": 5657,
      "inspiration": 5658,
      "infrastru": 5659,
      "daniel": 5660,
      "controversial": 5661,
      "sorraia": 5662,
      "negoti": 5663,
      "predecess": 5664,
      "mediterranean": 5665,
      "67": 5666,
      "71": 5667,
      "93": 5668,
      "bil": 5669,
      "bure": 5670,
      "dud": 5671,
      "hud": 5672,
      "matt": 5673,
      "nbc": 5674,
      "nintend": 5675,
      "pier": 5676,
      "tam": 5677,
      "taught": 5678,
      "wants": 5679,
      "wrap": 5680,
      "infl": 5681,
      "renew": 5682,
      "recovered": 5683,
      "stu": 5684,
      "enn": 5685,
      "aria": 5686,
      "ingly": 5687,
      "ingres": 5688,
      "iser": 5689,
      "icia": 5690,
      "unes": 5691,
      "acru": 5692,
      "oldest": 5693,
      "congo": 5694,
      "veracru": 5695,
      "compos": 5696,
      "abol": 5697,
      "istry": 5698,
      "prohib": 5699,
      "cock": 5700,
      "iped": 5701,
      "noting": 5702,
      "awn": 5703,
      "overwhel": 5704,
      "sized": 5705,
      "offers": 5706,
      "weir": 5707,
      "colour": 5708,
      "ansas": 5709,
      "charm": 5710,
      "somewhat": 5711,
      "raise": 5712,
      "doctor": 5713,
      "passion": 5714,
      "videos": 5715,
      "lists": 5716,
      "halo": 5717,
      "1938": 5718,
      "1959": 5719,
      "basement": 5720,
      "woodhouse": 5721,
      "explo": 5722,
      "bald": 5723,
      "douglas": 5724,
      "involvement": 5725,
      "appointment": 5726,
      "novels": 5727,
      "selection": 5728,
      "armament": 5729,
      "rules": 5730,
      "stayed": 5731,
      "learn": 5732,
      "hosted": 5733,
      "rhys": 5734,
      "assistance": 5735,
      "766th": 5736,
      "garden": 5737,
      "degrom": 5738,
      "robin": 5739,
      "rarely": 5740,
      "strateg": 5741,
      "shells": 5742,
      "trouble": 5743,
      "split": 5744,
      "passengers": 5745,
      "supporters": 5746,
      "indeed": 5747,
      "netherlands": 5748,
      "cullen": 5749,
      "cresswell": 5750,
      "bureau": 5751,
      "nintendo": 5752,
      "veracruz": 5753,
      "77": 5754,
      "bind": 5755,
      "cant": 5756,
      "fus": 5757,
      "hat": 5758,
      "hull": 5759,
      "jump": 5760,
      "ligh": 5761,
      "pig": 5762,
      "tack": 5763,
      "zanz": 5764,
      "inland": 5765,
      "eric": 5766,
      "eratops": 5767,
      "rets": 5768,
      "atp": 5769,
      "ora": 5770,
      "stav": 5771,
      "assumed": 5772,
      "entitled": 5773,
      "eless": 5774,
      "acle": 5775,
      "forth": 5776,
      "omar": 5777,
      "deck": 5778,
      "ivals": 5779,
      "aggress": 5780,
      "ota": 5781,
      "appre": 5782,
      "shed": 5783,
      "shots": 5784,
      "ressing": 5785,
      "rescu": 5786,
      "clinton": 5787,
      "manner": 5788,
      "udes": 5789,
      "duke": 5790,
      "scatter": 5791,
      "indicated": 5792,
      "renamed": 5793,
      "intersection": 5794,
      "visions": 5795,
      "ogy": 5796,
      "setts": 5797,
      "frame": 5798,
      "operating": 5799,
      "showitz": 5800,
      "dershowitz": 5801,
      "listing": 5802,
      "talk": 5803,
      "magdal": 5804,
      "providing": 5805,
      "solar": 5806,
      "appropri": 5807,
      "1953": 5808,
      "fallen": 5809,
      "attempting": 5810,
      "burial": 5811,
      "younger": 5812,
      "historians": 5813,
      "strip": 5814,
      "cruise": 5815,
      "briggs": 5816,
      "massachu": 5817,
      "crosses": 5818,
      "expensive": 5819,
      "murray": 5820,
      "crews": 5821,
      "satur": 5822,
      "attracted": 5823,
      "injured": 5824,
      "hugh": 5825,
      "colonial": 5826,
      "itzer": 5827,
      "discuss": 5828,
      "concerned": 5829,
      "palestin": 5830,
      "picture": 5831,
      "paralle": 5832,
      "installed": 5833,
      "agricultural": 5834,
      "beautiful": 5835,
      "pattycake": 5836,
      "wagner": 5837,
      "superior": 5838,
      "celtic": 5839,
      "reputation": 5840,
      "integr": 5841,
      "olithic": 5842,
      "composer": 5843,
      "massachusetts": 5844,
      "58": 5845,
      "74": 5846,
      "bou": 5847,
      "bits": 5848,
      "bang": 5849,
      "dna": 5850,
      "pom": 5851,
      "pare": 5852,
      "vary": 5853,
      "wet": 5854,
      "wives": 5855,
      "za": 5856,
      "zen": 5857,
      "theater": 5858,
      "unusual": 5859,
      "ilton": 5860,
      "omin": 5861,
      "wasn": 5862,
      "detro": 5863,
      "olen": 5864,
      "implement": 5865,
      "usher": 5866,
      "sudden": 5867,
      "1900": 5868,
      "1911": 5869,
      "shadow": 5870,
      "abd": 5871,
      "ula": 5872,
      "clay": 5873,
      "pohl": 5874,
      "existed": 5875,
      "acknow": 5876,
      "brazil": 5877,
      "ender": 5878,
      "veer": 5879,
      "veget": 5880,
      "evil": 5881,
      "attached": 5882,
      "lowest": 5883,
      "canyon": 5884,
      "display": 5885,
      "internet": 5886,
      "speech": 5887,
      "engage": 5888,
      "charlot": 5889,
      "annivers": 5890,
      "retained": 5891,
      "fron": 5892,
      "belg": 5893,
      "corner": 5894,
      "memory": 5895,
      "1949": 5896,
      "junction": 5897,
      "1962": 5898,
      "sword": 5899,
      "approved": 5900,
      "letters": 5901,
      "wooden": 5902,
      "richmond": 5903,
      "looks": 5904,
      "extent": 5905,
      "massive": 5906,
      "kelly": 5907,
      "check": 5908,
      "premiere": 5909,
      "traveled": 5910,
      "printed": 5911,
      "loud": 5912,
      "voyage": 5913,
      "distributed": 5914,
      "gallery": 5915,
      "bradford": 5916,
      "portrayed": 5917,
      "aerod": 5918,
      "sleep": 5919,
      "replacement": 5920,
      "survivors": 5921,
      "circumstances": 5922,
      "detroit": 5923,
      "91": 5924,
      "dover": 5925,
      "fab": 5926,
      "ml": 5927,
      "sang": 5928,
      "thic": 5929,
      "inum": 5930,
      "represents": 5931,
      "isms": 5932,
      "toll": 5933,
      "iles": 5934,
      "acids": 5935,
      "plus": 5936,
      "plants": 5937,
      "1910": 5938,
      "trick": 5939,
      "trained": 5940,
      "sher": 5941,
      "avia": 5942,
      "aked": 5943,
      "twin": 5944,
      "brack": 5945,
      "desert": 5946,
      "possession": 5947,
      "draf": 5948,
      "interchange": 5949,
      "flat": 5950,
      "engag": 5951,
      "tonin": 5952,
      "venues": 5953,
      "sultan": 5954,
      "matic": 5955,
      "crossing": 5956,
      "hydro": 5957,
      "legs": 5958,
      "legend": 5959,
      "covering": 5960,
      "persian": 5961,
      "valu": 5962,
      "treated": 5963,
      "diameter": 5964,
      "commandos": 5965,
      "voiced": 5966,
      "advoc": 5967,
      "goddess": 5968,
      "rocky": 5969,
      "provin": 5970,
      "explos": 5971,
      "heroes": 5972,
      "believes": 5973,
      "politic": 5974,
      "limit": 5975,
      "madison": 5976,
      "madero": 5977,
      "stationed": 5978,
      "rhyme": 5979,
      "giant": 5980,
      "biographer": 5981,
      "analy": 5982,
      "territories": 5983,
      "favorable": 5984,
      "immediate": 5985,
      "surrounded": 5986,
      "equipped": 5987,
      "gardner": 5988,
      "extreme": 5989,
      "carrying": 5990,
      "nurse": 5991,
      "emotional": 5992,
      "encouraged": 5993,
      "opposite": 5994,
      "nadal": 5995,
      "seventeen": 5996,
      "texts": 5997,
      "exhaust": 5998,
      "exposure": 5999,
      "caesar": 6000,
      "dudley": 6001,
      "wrapped": 6002,
      "charlotte": 6003,
      "anniversary": 6004,
      "68": 6005,
      "ffl": 6006,
      "ffield": 6007,
      "hg": 6008,
      "ioc": 6009,
      "mail": 6010,
      "mbar": 6011,
      "nave": 6012,
      "sisters": 6013,
      "vig": 6014,
      "zes": 6015,
      "ining": 6016,
      "ernest": 6017,
      "eds": 6018,
      "stall": 6019,
      "itated": 6020,
      "chen": 6021,
      "ilst": 6022,
      "ilation": 6023,
      "advis": 6024,
      "whilst": 6025,
      "concer": 6026,
      "ider": 6027,
      "1921": 6028,
      "1929": 6029,
      "option": 6030,
      "allosaurus": 6031,
      "trig": 6032,
      "shut": 6033,
      "emmy": 6034,
      "boom": 6035,
      "owners": 6036,
      "pressing": 6037,
      "phr": 6038,
      "gross": 6039,
      "charity": 6040,
      "10th": 6041,
      "hore": 6042,
      "operas": 6043,
      "severely": 6044,
      "showing": 6045,
      "matters": 6046,
      "lights": 6047,
      "houston": 6048,
      "passage": 6049,
      "defended": 6050,
      "listen": 6051,
      "harrison": 6052,
      "australians": 6053,
      "sentences": 6054,
      "streets": 6055,
      "1957": 6056,
      "1958": 6057,
      "reality": 6058,
      "radiation": 6059,
      "posted": 6060,
      "effectively": 6061,
      "graphics": 6062,
      "1909": 6063,
      "arabic": 6064,
      "altern": 6065,
      "reveals": 6066,
      "measures": 6067,
      "beaten": 6068,
      "keeping": 6069,
      "concerns": 6070,
      "occasions": 6071,
      "easily": 6072,
      "settled": 6073,
      "debate": 6074,
      "environmental": 6075,
      "ordinary": 6076,
      "benefit": 6077,
      "victims": 6078,
      "crusaders": 6079,
      "leukemia": 6080,
      "preferred": 6081,
      "princess": 6082,
      "distinguished": 6083,
      "pushed": 6084,
      "iques": 6085,
      "resources": 6086,
      "astronom": 6087,
      "infrastructure": 6088,
      "stavanger": 6089,
      "97": 6090,
      "bapt": 6091,
      "dat": 6092,
      "ec": 6093,
      "figh": 6094,
      "feld": 6095,
      "gers": 6096,
      "lig": 6097,
      "mason": 6098,
      "mitch": 6099,
      "pure": 6100,
      "punt": 6101,
      "tip": 6102,
      "tub": 6103,
      "vac": 6104,
      "vul": 6105,
      "voted": 6106,
      "xiii": 6107,
      "zinc": 6108,
      "inno": 6109,
      "rey": 6110,
      "remn": 6111,
      "orient": 6112,
      "stale": 6113,
      "ensure": 6114,
      "arro": 6115,
      "leaves": 6116,
      "ela": 6117,
      "immort": 6118,
      "ivity": 6119,
      "conce": 6120,
      "aggreg": 6121,
      "iders": 6122,
      "ott": 6123,
      "oting": 6124,
      "1927": 6125,
      "shield": 6126,
      "berlin": 6127,
      "rip": 6128,
      "ongo": 6129,
      "essential": 6130,
      "blow": 6131,
      "crisis": 6132,
      "guy": 6133,
      "guin": 6134,
      "aftermath": 6135,
      "grave": 6136,
      "sheffield": 6137,
      "evans": 6138,
      "shipping": 6139,
      "airlines": 6140,
      "internal": 6141,
      "uefa": 6142,
      "speaker": 6143,
      "carter": 6144,
      "annah": 6145,
      "daydream": 6146,
      "warri": 6147,
      "jean": 6148,
      "product": 6149,
      "barr": 6150,
      "populations": 6151,
      "ryan": 6152,
      "pointed": 6153,
      "merch": 6154,
      "derffl": 6155,
      "deput": 6156,
      "talent": 6157,
      "talking": 6158,
      "treas": 6159,
      "dioc": 6160,
      "diagno": 6161,
      "humor": 6162,
      "tours": 6163,
      "switch": 6164,
      "swiss": 6165,
      "basic": 6166,
      "collect": 6167,
      "ontario": 6168,
      "profit": 6169,
      "coup": 6170,
      "suggesting": 6171,
      "purposes": 6172,
      "ranges": 6173,
      "techniques": 6174,
      "needs": 6175,
      "doesn": 6176,
      "connection": 6177,
      "funds": 6178,
      "employment": 6179,
      "premiered": 6180,
      "injuries": 6181,
      "detailed": 6182,
      "conduct": 6183,
      "preparation": 6184,
      "responsibility": 6185,
      "spaces": 6186,
      "journalist": 6187,
      "idaho": 6188,
      "rendered": 6189,
      "audio": 6190,
      "niel": 6191,
      "struggle": 6192,
      "bombard": 6193,
      "behavior": 6194,
      "absence": 6195,
      "fernandez": 6196,
      "retirement": 6197,
      "encies": 6198,
      "blazer": 6199,
      "expansion": 6200,
      "normally": 6201,
      "derfflinger": 6202,
      "4th": 6203,
      "86": 6204,
      "abeth": 6205,
      "hid": 6206,
      "kody": 6207,
      "rant": 6208,
      "sung": 6209,
      "tut": 6210,
      "ule": 6211,
      "wre": 6212,
      "inhabit": 6213,
      "inhg": 6214,
      "thes": 6215,
      "onia": 6216,
      "rever": 6217,
      "remo": 6218,
      "recur": 6219,
      "renov": 6220,
      "atures": 6221,
      "stap": 6222,
      "rout": 6223,
      "cha": 6224,
      "adier": 6225,
      "adjac": 6226,
      "adults": 6227,
      "bearing": 6228,
      "olia": 6229,
      "context": 6230,
      "cement": 6231,
      "trium": 6232,
      "resign": 6233,
      "prove": 6234,
      "earnest": 6235,
      "brill": 6236,
      "noble": 6237,
      "margin": 6238,
      "weigh": 6239,
      "possess": 6240,
      "attor": 6241,
      "engines": 6242,
      "charged": 6243,
      "views": 6244,
      "belgian": 6245,
      "iously": 6246,
      "storms": 6247,
      "bedell": 6248,
      "completion": 6249,
      "faul": 6250,
      "depicts": 6251,
      "naissance": 6252,
      "1933": 6253,
      "burgh": 6254,
      "linked": 6255,
      "donald": 6256,
      "madonna": 6257,
      "survive": 6258,
      "praise": 6259,
      "crossed": 6260,
      "railroad": 6261,
      "turrets": 6262,
      "angelou": 6263,
      "theatrical": 6264,
      "closer": 6265,
      "airports": 6266,
      "columbus": 6267,
      "mexican": 6268,
      "watching": 6269,
      "improve": 6270,
      "richardson": 6271,
      "badly": 6272,
      "instance": 6273,
      "audiences": 6274,
      "exception": 6275,
      "nationally": 6276,
      "objective": 6277,
      "administr": 6278,
      "hungarian": 6279,
      "platinum": 6280,
      "anzac": 6281,
      "drums": 6282,
      "bradstreet": 6283,
      "scientific": 6284,
      "adventure": 6285,
      "adventures": 6286,
      "opportunities": 6287,
      "francisco": 6288,
      "witchcraft": 6289,
      "swedish": 6290,
      "happened": 6291,
      "reconnaissance": 6292,
      "moderate": 6293,
      "diamond": 6294,
      "specifically": 6295,
      "mitchell": 6296,
      "adjacent": 6297,
      "09": 6298,
      "cards": 6299,
      "dave": 6300,
      "eg": 6301,
      "fits": 6302,
      "hans": 6303,
      "kne": 6304,
      "mack": 6305,
      "nap": 6306,
      "pak": 6307,
      "pink": 6308,
      "sax": 6309,
      "tight": 6310,
      "taw": 6311,
      "ua": 6312,
      "vit": 6313,
      "vander": 6314,
      "wander": 6315,
      "zy": 6316,
      "ini": 6317,
      "insur": 6318,
      "rene": 6319,
      "remember": 6320,
      "stick": 6321,
      "asks": 6322,
      "rook": 6323,
      "ouse": 6324,
      "amid": 6325,
      "ammun": 6326,
      "elg": 6327,
      "forty": 6328,
      "bear": 6329,
      "impossible": 6330,
      "ager": 6331,
      "tristan": 6332,
      "umps": 6333,
      "exposed": 6334,
      "quine": 6335,
      "acked": 6336,
      "outbreak": 6337,
      "herd": 6338,
      "cosm": 6339,
      "bore": 6340,
      "actual": 6341,
      "crab": 6342,
      "price": 6343,
      "noon": 6344,
      "afterwards": 6345,
      "meets": 6346,
      "keys": 6347,
      "compon": 6348,
      "creative": 6349,
      "tennes": 6350,
      "mixture": 6351,
      "gang": 6352,
      "wars": 6353,
      "schem": 6354,
      "elder": 6355,
      "stewart": 6356,
      "surpr": 6357,
      "barry": 6358,
      "numbered": 6359,
      "corbet": 6360,
      "correspond": 6361,
      "miller": 6362,
      "cyrus": 6363,
      "trophy": 6364,
      "gets": 6365,
      "stands": 6366,
      "switzer": 6367,
      "claiming": 6368,
      "1956": 6369,
      "basin": 6370,
      "fifteen": 6371,
      "ranging": 6372,
      "honour": 6373,
      "nominations": 6374,
      "1890": 6375,
      "committed": 6376,
      "synago": 6377,
      "hostile": 6378,
      "pitcher": 6379,
      "parliamentary": 6380,
      "culated": 6381,
      "defeating": 6382,
      "colorado": 6383,
      "frequent": 6384,
      "leadership": 6385,
      "races": 6386,
      "coldrum": 6387,
      "joining": 6388,
      "weapon": 6389,
      "defenders": 6390,
      "preserved": 6391,
      "climate": 6392,
      "ethnic": 6393,
      "fatal": 6394,
      "repeated": 6395,
      "delivery": 6396,
      "democratic": 6397,
      "cinema": 6398,
      "orchestra": 6399,
      "affairs": 6400,
      "freedom": 6401,
      "exerc": 6402,
      "zanzibar": 6403,
      "palestinian": 6404,
      "ammunition": 6405,
      "tennessee": 6406,
      "05": 6407,
      "84": 6408,
      "9th": 6409,
      "fate": 6410,
      "ients": 6411,
      "jain": 6412,
      "jury": 6413,
      "jones": 6414,
      "kau": 6415,
      "nels": 6416,
      "pc": 6417,
      "puma": 6418,
      "santa": 6419,
      "tank": 6420,
      "task": 6421,
      "wo": 6422,
      "inscription": 6423,
      "isle": 6424,
      "amic": 6425,
      "ambass": 6426,
      "eliz": 6427,
      "acou": 6428,
      "irs": 6429,
      "whit": 6430,
      "aga": 6431,
      "idol": 6432,
      "trac": 6433,
      "trond": 6434,
      "shim": 6435,
      "neth": 6436,
      "peters": 6437,
      "emed": 6438,
      "artwork": 6439,
      "estate": 6440,
      "manus": 6441,
      "persu": 6442,
      "brand": 6443,
      "brut": 6444,
      "ipel": 6445,
      "scorer": 6446,
      "intense": 6447,
      "oked": 6448,
      "liqu": 6449,
      "creutz": 6450,
      "driving": 6451,
      "grown": 6452,
      "cargo": 6453,
      "everton": 6454,
      "annually": 6455,
      "understanding": 6456,
      "anglo": 6457,
      "musician": 6458,
      "hoover": 6459,
      "15th": 6460,
      "cript": 6461,
      "mature": 6462,
      "1940s": 6463,
      "porter": 6464,
      "decides": 6465,
      "ibi": 6466,
      "dipl": 6467,
      "harbour": 6468,
      "campbell": 6469,
      "promote": 6470,
      "skills": 6471,
      "christop": 6472,
      "explains": 6473,
      "universal": 6474,
      "weekend": 6475,
      "amongst": 6476,
      "grammar": 6477,
      "presidential": 6478,
      "enterprise": 6479,
      "occurs": 6480,
      "interesting": 6481,
      "demol": 6482,
      "bloom": 6483,
      "documents": 6484,
      "application": 6485,
      "batteries": 6486,
      "tournaments": 6487,
      "rupted": 6488,
      "duty": 6489,
      "taxonom": 6490,
      "haitian": 6491,
      "globe": 6492,
      "shrine": 6493,
      "neutral": 6494,
      "argentine": 6495,
      "hellblazer": 6496,
      "thrill": 6497,
      "throne": 6498,
      "wickets": 6499,
      "restored": 6500,
      "restoration": 6501,
      "alleged": 6502,
      "seemed": 6503,
      "bridges": 6504,
      "recovery": 6505,
      "hunting": 6506,
      "dialogue": 6507,
      "isolated": 6508,
      "palmyrene": 6509,
      "organizations": 6510,
      "neighborhood": 6511,
      "simultaneously": 6512,
      "staley": 6513,
      "switzerland": 6514,
      "trondheim": 6515,
      "900": 6516,
      "dney": 6517,
      "fon": 6518,
      "gap": 6519,
      "gift": 6520,
      "hindu": 6521,
      "iour": 6522,
      "jr": 6523,
      "jag": 6524,
      "jason": 6525,
      "ku": 6526,
      "kid": 6527,
      "lies": 6528,
      "mates": 6529,
      "rand": 6530,
      "tico": 6531,
      "uous": 6532,
      "remarked": 6533,
      "stores": 6534,
      "alfred": 6535,
      "isab": 6536,
      "isles": 6537,
      "roger": 6538,
      "icit": 6539,
      "uncertain": 6540,
      "amph": 6541,
      "beam": 6542,
      "igation": 6543,
      "withdrew": 6544,
      "absol": 6545,
      "modif": 6546,
      "moore": 6547,
      "neil": 6548,
      "permission": 6549,
      "coord": 6550,
      "marg": 6551,
      "marry": 6552,
      "guild": 6553,
      "landed": 6554,
      "otherwise": 6555,
      "indigo": 6556,
      "canon": 6557,
      "dissol": 6558,
      "interpre": 6559,
      "fert": 6560,
      "parody": 6561,
      "tenure": 6562,
      "tennis": 6563,
      "regist": 6564,
      "raaf": 6565,
      "surge": 6566,
      "divers": 6567,
      "signal": 6568,
      "metre": 6569,
      "perspect": 6570,
      "decay": 6571,
      "casting": 6572,
      "attacking": 6573,
      "considers": 6574,
      "continuing": 6575,
      "tourist": 6576,
      "organised": 6577,
      "bah": 6578,
      "link": 6579,
      "profile": 6580,
      "balance": 6581,
      "planes": 6582,
      "everyone": 6583,
      "representing": 6584,
      "archaeologists": 6585,
      "riding": 6586,
      "magazines": 6587,
      "jews": 6588,
      "recognised": 6589,
      "spacecraft": 6590,
      "fundament": 6591,
      "triple": 6592,
      "layer": 6593,
      "pilots": 6594,
      "flowers": 6595,
      "architectural": 6596,
      "easy": 6597,
      "purchase": 6598,
      "scientists": 6599,
      "watson": 6600,
      "emphasis": 6601,
      "vehicle": 6602,
      "metropolit": 6603,
      "minimum": 6604,
      "resistance": 6605,
      "elaborate": 6606,
      "protagonist": 6607,
      "freakum": 6608,
      "concession": 6609,
      "discipl": 6610,
      "acknowled": 6611,
      "belgium": 6612,
      "wanderers": 6613,
      "quiney": 6614,
      "synagogue": 6615,
      "07": 6616,
      "bag": 6617,
      "cod": 6618,
      "kh": 6619,
      "kim": 6620,
      "lion": 6621,
      "mak": 6622,
      "nash": 6623,
      "oreg": 6624,
      "pto": 6625,
      "sale": 6626,
      "innings": 6627,
      "eral": 6628,
      "reines": 6629,
      "orn": 6630,
      "sters": 6631,
      "andre": 6632,
      "asian": 6633,
      "isb": 6634,
      "toured": 6635,
      "icate": 6636,
      "chain": 6637,
      "amaz": 6638,
      "beats": 6639,
      "urania": 6640,
      "imprison": 6641,
      "owen": 6642,
      "usd": 6643,
      "sures": 6644,
      "1912": 6645,
      "1926": 6646,
      "abilities": 6647,
      "cles": 6648,
      "excess": 6649,
      "soc": 6650,
      "ishment": 6651,
      "twins": 6652,
      "earning": 6653,
      "code": 6654,
      "string": 6655,
      "spr": 6656,
      "scape": 6657,
      "guid": 6658,
      "intent": 6659,
      "partial": 6660,
      "prev": 6661,
      "okes": 6662,
      "ranking": 6663,
      "canter": 6664,
      "cancell": 6665,
      "drug": 6666,
      "driven": 6667,
      "temples": 6668,
      "gery": 6669,
      "singers": 6670,
      "genes": 6671,
      "puzz": 6672,
      "warning": 6673,
      "kner": 6674,
      "wells": 6675,
      "northward": 6676,
      "170": 6677,
      "americans": 6678,
      "hamilton": 6679,
      "designs": 6680,
      "reader": 6681,
      "childhood": 6682,
      "swim": 6683,
      "sentiment": 6684,
      "volumes": 6685,
      "romania": 6686,
      "controller": 6687,
      "nyi": 6688,
      "wilson": 6689,
      "panzer": 6690,
      "honours": 6691,
      "forests": 6692,
      "drove": 6693,
      "variation": 6694,
      "respective": 6695,
      "rays": 6696,
      "biggest": 6697,
      "spoke": 6698,
      "housing": 6699,
      "pagoda": 6700,
      "physics": 6701,
      "discussed": 6702,
      "bulk": 6703,
      "visitors": 6704,
      "fitted": 6705,
      "scrap": 6706,
      "investigation": 6707,
      "pounder": 6708,
      "korea": 6709,
      "shares": 6710,
      "honorary": 6711,
      "delayed": 6712,
      "qualified": 6713,
      "narrative": 6714,
      "behaviour": 6715,
      "convention": 6716,
      "decorated": 6717,
      "camera": 6718,
      "arrested": 6719,
      "battleships": 6720,
      "rhodesian": 6721,
      "hobbs": 6722,
      "citizens": 6723,
      "saturday": 6724,
      "manuscript": 6725,
      "oregon": 6726,
      "114": 6727,
      "81": 6728,
      "99": 6729,
      "bent": 6730,
      "dad": 6731,
      "dod": 6732,
      "eve": 6733,
      "kan": 6734,
      "mv": 6735,
      "pav": 6736,
      "pione": 6737,
      "uy": 6738,
      "vast": 6739,
      "wright": 6740,
      "thak": 6741,
      "inate": 6742,
      "informed": 6743,
      "reform": 6744,
      "remark": 6745,
      "encing": 6746,
      "rober": 6747,
      "icial": 6748,
      "seats": 6749,
      "convin": 6750,
      "comics": 6751,
      "allen": 6752,
      "shaw": 6753,
      "shirt": 6754,
      "avo": 6755,
      "residence": 6756,
      "prosecut": 6757,
      "clou": 6758,
      "pole": 6759,
      "poets": 6760,
      "lose": 6761,
      "ifer": 6762,
      "manual": 6763,
      "manuel": 6764,
      "soil": 6765,
      "bergen": 6766,
      "antly": 6767,
      "herald": 6768,
      "cobra": 6769,
      "feels": 6770,
      "notably": 6771,
      "iana": 6772,
      "assisted": 6773,
      "noot": 6774,
      "marge": 6775,
      "ocaust": 6776,
      "preston": 6777,
      "jobs": 6778,
      "parade": 6779,
      "buck": 6780,
      "mush": 6781,
      "relative": 6782,
      "wellington": 6783,
      "subspecies": 6784,
      "eleph": 6785,
      "surrender": 6786,
      "supplement": 6787,
      "founder": 6788,
      "onder": 6789,
      "fires": 6790,
      "crops": 6791,
      "smen": 6792,
      "depending": 6793,
      "hara": 6794,
      "reviewed": 6795,
      "personality": 6796,
      "rows": 6797,
      "organisation": 6798,
      "bai": 6799,
      "villaret": 6800,
      "holocaust": 6801,
      "victories": 6802,
      "bennett": 6803,
      "influential": 6804,
      "fungus": 6805,
      "pani": 6806,
      "refu": 6807,
      "ruling": 6808,
      "cardiff": 6809,
      "satell": 6810,
      "navarro": 6811,
      "nucle": 6812,
      "arabs": 6813,
      "altered": 6814,
      "credit": 6815,
      "republican": 6816,
      "sora": 6817,
      "culmin": 6818,
      "poorly": 6819,
      "queens": 6820,
      "contribution": 6821,
      "austro": 6822,
      "prevented": 6823,
      "altarpiece": 6824,
      "russia": 6825,
      "kirk": 6826,
      "assembly": 6827,
      "elsewhere": 6828,
      "publisher": 6829,
      "demonstrated": 6830,
      "apparently": 6831,
      "consult": 6832,
      "continental": 6833,
      "collapsed": 6834,
      "divorce": 6835,
      "pleasure": 6836,
      "constitutional": 6837,
      "propaganda": 6838,
      "bracelet": 6839,
      "charmbracelet": 6840,
      "cantrell": 6841,
      "concerts": 6842,
      "attorney": 6843,
      "pakistan": 6844,
      "vandernoot": 6845,
      "modified": 6846,
      "metropolitan": 6847,
      "02": 6848,
      "1000": 6849,
      "92": 6850,
      "htw": 6851,
      "hub": 6852,
      "mers": 6853,
      "nf": 6854,
      "nant": 6855,
      "och": 6856,
      "sans": 6857,
      "tape": 6858,
      "wno": 6859,
      "yan": 6860,
      "zagre": 6861,
      "thy": 6862,
      "inking": 6863,
      "oration": 6864,
      "touring": 6865,
      "sees": 6866,
      "seattle": 6867,
      "iling": 6868,
      "elgin": 6869,
      "deity": 6870,
      "oli": 6871,
      "het": 6872,
      "condem": 6873,
      "agan": 6874,
      "teor": 6875,
      "1924": 6876,
      "1922": 6877,
      "opol": 6878,
      "nev": 6879,
      "neolithic": 6880,
      "peaking": 6881,
      "resigned": 6882,
      "ifies": 6883,
      "berhtw": 6884,
      "mental": 6885,
      "iang": 6886,
      "worn": 6887,
      "spend": 6888,
      "timber": 6889,
      "marking": 6890,
      "format": 6891,
      "comprom": 6892,
      "fled": 6893,
      "epic": 6894,
      "buoys": 6895,
      "raising": 6896,
      "poll": 6897,
      "products": 6898,
      "dore": 6899,
      "fourteen": 6900,
      "backing": 6901,
      "lanes": 6902,
      "caa": 6903,
      "publications": 6904,
      "powered": 6905,
      "designer": 6906,
      "starring": 6907,
      "topped": 6908,
      "characterized": 6909,
      "slayer": 6910,
      "sket": 6911,
      "watershed": 6912,
      "europa": 6913,
      "1932": 6914,
      "charted": 6915,
      "seeking": 6916,
      "kills": 6917,
      "labour": 6918,
      "stronger": 6919,
      "supervis": 6920,
      "departure": 6921,
      "devot": 6922,
      "predomin": 6923,
      "bishops": 6924,
      "teachers": 6925,
      "oxy": 6926,
      "closure": 6927,
      "columns": 6928,
      "protesters": 6929,
      "gielg": 6930,
      "corporation": 6931,
      "establishing": 6932,
      "objects": 6933,
      "percentage": 6934,
      "olympics": 6935,
      "platform": 6936,
      "victorian": 6937,
      "circulation": 6938,
      "advancing": 6939,
      "conservative": 6940,
      "sculptures": 6941,
      "revival": 6942,
      "distinctive": 6943,
      "thousand": 6944,
      "nazi": 6945,
      "saved": 6946,
      "thinking": 6947,
      "bronze": 6948,
      "qedarites": 6949,
      "paralymp": 6950,
      "sweden": 6951,
      "synthesis": 6952,
      "banksia": 6953,
      "adaptation": 6954,
      "proposal": 6955,
      "pursue": 6956,
      "alberta": 6957,
      "jackrabbit": 6958,
      "assassination": 6959,
      "accurate": 6960,
      "saku": 6961,
      "stabil": 6962,
      "triumph": 6963,
      "elizabeth": 6964,
      "canterbury": 6965,
      "zagreb": 6966,
      "berhtwald": 6967,
      "gielgud": 6968,
      "aa": 6969,
      "bun": 6970,
      "cps": 6971,
      "dah": 6972,
      "fis": 6973,
      "gren": 6974,
      "iary": 6975,
      "nut": 6976,
      "ook": 6977,
      "pm": 6978,
      "send": 6979,
      "sailed": 6980,
      "yout": 6981,
      "ths": 6982,
      "anime": 6983,
      "enem": 6984,
      "ari": 6985,
      "iso": 6986,
      "rod": 6987,
      "roots": 6988,
      "icop": 6989,
      "uncle": 6990,
      "acute": 6991,
      "omura": 6992,
      "deemed": 6993,
      "util": 6994,
      "erected": 6995,
      "rier": 6996,
      "permitted": 6997,
      "coat": 6998,
      "assy": 6999,
      "scand": 7000,
      "guides": 7001,
      "vegas": 7002,
      "meteor": 7003,
      "ignment": 7004,
      "liz": 7005,
      "rank": 7006,
      "ranks": 7007,
      "parks": 7008,
      "veland": 7009,
      "regiments": 7010,
      "jeff": 7011,
      "thereafter": 7012,
      "myst": 7013,
      "releases": 7014,
      "enses": 7015,
      "submitted": 7016,
      "cide": 7017,
      "memor": 7018,
      "origins": 7019,
      "signs": 7020,
      "decisions": 7021,
      "presentation": 7022,
      "cycle": 7023,
      "14th": 7024,
      "cleveland": 7025,
      "trek": 7026,
      "harold": 7027,
      "helicop": 7028,
      "deliber": 7029,
      "horiz": 7030,
      "campus": 7031,
      "promised": 7032,
      "considering": 7033,
      "skill": 7034,
      "rowed": 7035,
      "rocks": 7036,
      "itarian": 7037,
      "approval": 7038,
      "differences": 7039,
      "realized": 7040,
      "telegraph": 7041,
      "draws": 7042,
      "rounds": 7043,
      "youngest": 7044,
      "sitting": 7045,
      "factors": 7046,
      "superman": 7047,
      "verses": 7048,
      "sounds": 7049,
      "davis": 7050,
      "birming": 7051,
      "experiences": 7052,
      "georg": 7053,
      "mask": 7054,
      "acceptable": 7055,
      "egyptians": 7056,
      "meetings": 7057,
      "institution": 7058,
      "compliment": 7059,
      "intensified": 7060,
      "prisoners": 7061,
      "requested": 7062,
      "extension": 7063,
      "waiting": 7064,
      "sacred": 7065,
      "moments": 7066,
      "phenom": 7067,
      "smooth": 7068,
      "opponent": 7069,
      "restrict": 7070,
      "iveness": 7071,
      "tribute": 7072,
      "executed": 7073,
      "embarked": 7074,
      "depicting": 7075,
      "specimens": 7076,
      "lamb": 7077,
      "reinforcements": 7078,
      "megali": 7079,
      "employees": 7080,
      "predecessor": 7081,
      "engagement": 7082,
      "tubes": 7083,
      "brilliant": 7084,
      "faulkner": 7085,
      "shimomura": 7086,
      "refuge": 7087,
      "enemies": 7088,
      "birmingham": 7089,
      "08": 7090,
      "ares": 7091,
      "ecu": 7092,
      "glan": 7093,
      "gib": 7094,
      "grome": 7095,
      "haz": 7096,
      "jin": 7097,
      "kong": 7098,
      "laugh": 7099,
      "mg": 7100,
      "mam": 7101,
      "oke": 7102,
      "rants": 7103,
      "u2": 7104,
      "ube": 7105,
      "ware": 7106,
      "xook": 7107,
      "yd": 7108,
      "inct": 7109,
      "themed": 7110,
      "thesis": 7111,
      "reper": 7112,
      "oribi": 7113,
      "steven": 7114,
      "univer": 7115,
      "adm": 7116,
      "adys": 7117,
      "adjust": 7118,
      "elop": 7119,
      "bee": 7120,
      "bears": 7121,
      "determ": 7122,
      "urally": 7123,
      "impl": 7124,
      "imbud": 7125,
      "consc": 7126,
      "conve": 7127,
      "convict": 7128,
      "comments": 7129,
      "ulster": 7130,
      "moor": 7131,
      "clar": 7132,
      "ett": 7133,
      "exists": 7134,
      "odies": 7135,
      "ghur": 7136,
      "earl": 7137,
      "uding": 7138,
      "spar": 7139,
      "kevin": 7140,
      "compilation": 7141,
      "offering": 7142,
      "eval": 7143,
      "josh": 7144,
      "cancel": 7145,
      "dispat": 7146,
      "displaced": 7147,
      "tempo": 7148,
      "gangan": 7149,
      "anyone": 7150,
      "tony": 7151,
      "backed": 7152,
      "subsid": 7153,
      "causes": 7154,
      "diver": 7155,
      "ologies": 7156,
      "hygrome": 7157,
      "merged": 7158,
      "caster": 7159,
      "commandments": 7160,
      "lesser": 7161,
      "morgan": 7162,
      "11th": 7163,
      "federation": 7164,
      "garrison": 7165,
      "sequences": 7166,
      "universities": 7167,
      "walker": 7168,
      "toronto": 7169,
      "seek": 7170,
      "salv": 7171,
      "structural": 7172,
      "rushing": 7173,
      "ensem": 7174,
      "capturing": 7175,
      "compete": 7176,
      "devin": 7177,
      "temporarily": 7178,
      "phoen": 7179,
      "spores": 7180,
      "languages": 7181,
      "materials": 7182,
      "dominant": 7183,
      "chemistry": 7184,
      "indicating": 7185,
      "pulled": 7186,
      "ultimate": 7187,
      "models": 7188,
      "schedule": 7189,
      "sacr": 7190,
      "tanks": 7191,
      "tricus": 7192,
      "suitable": 7193,
      "assembled": 7194,
      "molecular": 7195,
      "jacob": 7196,
      "jonathan": 7197,
      "mechanical": 7198,
      "spiritual": 7199,
      "flagship": 7200,
      "precip": 7201,
      "substitute": 7202,
      "substantial": 7203,
      "cabinet": 7204,
      "consequently": 7205,
      "accompanying": 7206,
      "parallel": 7207,
      "valuable": 7208,
      "phrase": 7209,
      "inhabitants": 7210,
      "acoustic": 7211,
      "christopher": 7212,
      "fundamental": 7213,
      "determine": 7214,
      "imbudo": 7215,
      "360": 7216,
      "87": 7217,
      "aqu": 7218,
      "bac": 7219,
      "bard": 7220,
      "dies": 7221,
      "fishing": 7222,
      "hast": 7223,
      "hong": 7224,
      "ien": 7225,
      "iest": 7226,
      "iated": 7227,
      "jet": 7228,
      "kaz": 7229,
      "mall": 7230,
      "nen": 7231,
      "nig": 7232,
      "pad": 7233,
      "sad": 7234,
      "sina": 7235,
      "tab": 7236,
      "wine": 7237,
      "onica": 7238,
      "refin": 7239,
      "orph": 7240,
      "ensu": 7241,
      "alger": 7242,
      "ariz": 7243,
      "adi": 7244,
      "beating": 7245,
      "wash": 7246,
      "terri": 7247,
      "allmusic": 7248,
      "abund": 7249,
      "movements": 7250,
      "utah": 7251,
      "umn": 7252,
      "eties": 7253,
      "geography": 7254,
      "strapping": 7255,
      "portugu": 7256,
      "intelle": 7257,
      "partially": 7258,
      "formally": 7259,
      "wegian": 7260,
      "adequ": 7261,
      "flot": 7262,
      "coln": 7263,
      "gosp": 7264,
      "parach": 7265,
      "icken": 7266,
      "understand": 7267,
      "highland": 7268,
      "doyle": 7269,
      "angles": 7270,
      "steep": 7271,
      "archipel": 7272,
      "osex": 7273,
      "consent": 7274,
      "succession": 7275,
      "returns": 7276,
      "blackie": 7277,
      "aiman": 7278,
      "humpty": 7279,
      "moro": 7280,
      "1934": 7281,
      "bills": 7282,
      "arkansas": 7283,
      "liner": 7284,
      "lincoln": 7285,
      "grandfather": 7286,
      "goods": 7287,
      "interests": 7288,
      "significance": 7289,
      "departed": 7290,
      "aboard": 7291,
      "graded": 7292,
      "demands": 7293,
      "potentially": 7294,
      "violent": 7295,
      "housed": 7296,
      "accum": 7297,
      "conclusion": 7298,
      "costs": 7299,
      "biograph": 7300,
      "expressway": 7301,
      "argues": 7302,
      "marketing": 7303,
      "objectives": 7304,
      "battalions": 7305,
      "zzi": 7306,
      "catal": 7307,
      "expert": 7308,
      "hunter": 7309,
      "audition": 7310,
      "reflected": 7311,
      "familiar": 7312,
      "wait": 7313,
      "steps": 7314,
      "settlers": 7315,
      "hawai": 7316,
      "petition": 7317,
      "detected": 7318,
      "nazaire": 7319,
      "liberal": 7320,
      "katia": 7321,
      "armored": 7322,
      "false": 7323,
      "volunteers": 7324,
      "gabbar": 7325,
      "austrian": 7326,
      "specimen": 7327,
      "pseud": 7328,
      "suspended": 7329,
      "consolid": 7330,
      "wikiped": 7331,
      "semifinals": 7332,
      "appropriate": 7333,
      "bracknell": 7334,
      "ongoing": 7335,
      "guinness": 7336,
      "deputy": 7337,
      "tawny": 7338,
      "diplom": 7339,
      "uyghur": 7340,
      "convinced": 7341,
      "universe": 7342,
      "ganganelli": 7343,
      "hygrometricus": 7344,
      "sinai": 7345,
      "portuguese": 7346,
      "intellect": 7347,
      "737": 7348,
      "dent": 7349,
      "dens": 7350,
      "gans": 7351,
      "hamp": 7352,
      "hung": 7353,
      "jur": 7354,
      "kate": 7355,
      "lon": 7356,
      "lined": 7357,
      "llos": 7358,
      "ogu": 7359,
      "sq": 7360,
      "saints": 7361,
      "tissue": 7362,
      "vs": 7363,
      "wicket": 7364,
      "xi": 7365,
      "innov": 7366,
      "rec": 7367,
      "sted": 7368,
      "ension": 7369,
      "toky": 7370,
      "uni": 7371,
      "unnamed": 7372,
      "oman": 7373,
      "impressed": 7374,
      "wider": 7375,
      "terror": 7376,
      "ague": 7377,
      "veronica": 7378,
      "usage": 7379,
      "idents": 7380,
      "compositions": 7381,
      "1928": 7382,
      "tracy": 7383,
      "shor": 7384,
      "ulu": 7385,
      "resco": 7386,
      "clip": 7387,
      "estyle": 7388,
      "afts": 7389,
      "manor": 7390,
      "exem": 7391,
      "astro": 7392,
      "perce": 7393,
      "cooperation": 7394,
      "butter": 7395,
      "overseas": 7396,
      "marily": 7397,
      "commem": 7398,
      "keeper": 7399,
      "prepare": 7400,
      "posing": 7401,
      "norwegian": 7402,
      "colleagues": 7403,
      "minnes": 7404,
      "tenance": 7405,
      "carl": 7406,
      "pute": 7407,
      "maur": 7408,
      "mahes": 7409,
      "relations": 7410,
      "myc": 7411,
      "myself": 7412,
      "visiting": 7413,
      "westward": 7414,
      "aza": 7415,
      "operational": 7416,
      "corrid": 7417,
      "balls": 7418,
      "sms": 7419,
      "obvious": 7420,
      "hypo": 7421,
      "identity": 7422,
      "hamlet": 7423,
      "sixteen": 7424,
      "directing": 7425,
      "valid": 7426,
      "vargas": 7427,
      "classification": 7428,
      "transits": 7429,
      "cutting": 7430,
      "believing": 7431,
      "battlecruisers": 7432,
      "formerly": 7433,
      "salary": 7434,
      "putting": 7435,
      "sumption": 7436,
      "historically": 7437,
      "situated": 7438,
      "factor": 7439,
      "highways": 7440,
      "tested": 7441,
      "occurring": 7442,
      "clearly": 7443,
      "cope": 7444,
      "broadway": 7445,
      "1902": 7446,
      "melody": 7447,
      "spore": 7448,
      "industries": 7449,
      "questions": 7450,
      "blocked": 7451,
      "samuel": 7452,
      "discussion": 7453,
      "snl": 7454,
      "kickoff": 7455,
      "scriptions": 7456,
      "fastra": 7457,
      "patterns": 7458,
      "grasses": 7459,
      "pounds": 7460,
      "candidates": 7461,
      "punct": 7462,
      "initiated": 7463,
      "chronicle": 7464,
      "ovil": 7465,
      "yeovil": 7466,
      "tunnels": 7467,
      "rushed": 7468,
      "southeastern": 7469,
      "scope": 7470,
      "1920s": 7471,
      "dangerous": 7472,
      "revenue": 7473,
      "knights": 7474,
      "exclusively": 7475,
      "pirates": 7476,
      "scattered": 7477,
      "magdalen": 7478,
      "innocent": 7479,
      "diocese": 7480,
      "interpreted": 7481,
      "satellite": 7482,
      "nevada": 7483,
      "isotop": 7484,
      "algernon": 7485,
      "arizona": 7486,
      "archipelago": 7487,
      "llosa": 7488,
      "tokyo": 7489,
      "minnesota": 7490,
      "mahesh": 7491,
      "bould": 7492,
      "d4": 7493,
      "dw": 7494,
      "fing": 7495,
      "gig": 7496,
      "iate": 7497,
      "kon": 7498,
      "lt": 7499,
      "mend": 7500,
      "nik": 7501,
      "ove": 7502,
      "pud": 7503,
      "sab": 7504,
      "sco": 7505,
      "tent": 7506,
      "trend": 7507,
      "vist": 7508,
      "yield": 7509,
      "intim": 7510,
      "inspe": 7511,
      "thed": 7512,
      "anas": 7513,
      "eries": 7514,
      "reactor": 7515,
      "sta": 7516,
      "andr": 7517,
      "aside": 7518,
      "toler": 7519,
      "rok": 7520,
      "elig": 7521,
      "eline": 7522,
      "acles": 7523,
      "beau": 7524,
      "oming": 7525,
      "deleg": 7526,
      "decommissioned": 7527,
      "hearing": 7528,
      "congreg": 7529,
      "tees": 7530,
      "suic": 7531,
      "tribut": 7532,
      "neath": 7533,
      "prop": 7534,
      "artistic": 7535,
      "afford": 7536,
      "quoted": 7537,
      "peron": 7538,
      "brun": 7539,
      "brain": 7540,
      "ieth": 7541,
      "cob": 7542,
      "cooper": 7543,
      "boo": 7544,
      "cry": 7545,
      "duo": 7546,
      "duet": 7547,
      "playoffs": 7548,
      "afternoon": 7549,
      "grim": 7550,
      "veter": 7551,
      "indo": 7552,
      "prefect": 7553,
      "lowland": 7554,
      "driver": 7555,
      "drinking": 7556,
      "displayed": 7557,
      "dispute": 7558,
      "tenth": 7559,
      "sings": 7560,
      "carn": 7561,
      "underneath": 7562,
      "sydney": 7563,
      "mathem": 7564,
      "101": 7565,
      "surgery": 7566,
      "beltown": 7567,
      "ballad": 7568,
      "receives": 7569,
      "downtown": 7570,
      "originated": 7571,
      "likewise": 7572,
      "lifetime": 7573,
      "roller": 7574,
      "complement": 7575,
      "successive": 7576,
      "runners": 7577,
      "blacks": 7578,
      "useful": 7579,
      "campbeltown": 7580,
      "voices": 7581,
      "requires": 7582,
      "slip": 7583,
      "skull": 7584,
      "personally": 7585,
      "handled": 7586,
      "falls": 7587,
      "difference": 7588,
      "eventual": 7589,
      "friendly": 7590,
      "facility": 7591,
      "21st": 7592,
      "authorized": 7593,
      "facts": 7594,
      "burned": 7595,
      "dancing": 7596,
      "rape": 7597,
      "travelled": 7598,
      "commerce": 7599,
      "circu": 7600,
      "maryang": 7601,
      "antiqu": 7602,
      "promotional": 7603,
      "educational": 7604,
      "lacking": 7605,
      "clothing": 7606,
      "engineer": 7607,
      "giants": 7608,
      "achieve": 7609,
      "daughters": 7610,
      "joyful": 7611,
      "boundaries": 7612,
      "maintaining": 7613,
      "frustr": 7614,
      "reduce": 7615,
      "definition": 7616,
      "autumn": 7617,
      "indicates": 7618,
      "kicked": 7619,
      "nova": 7620,
      "seriously": 7621,
      "bourne": 7622,
      "networ": 7623,
      "defender": 7624,
      "pretty": 7625,
      "restaurants": 7626,
      "tribes": 7627,
      "wolfpack": 7628,
      "struggled": 7629,
      "scholarship": 7630,
      "bruins": 7631,
      "touchdowns": 7632,
      "repairs": 7633,
      "restricted": 7634,
      "bbie": 7635,
      "agriculture": 7636,
      "papal": 7637,
      "dynamic": 7638,
      "encountered": 7639,
      "hospitals": 7640,
      "relegated": 7641,
      "dissipated": 7642,
      "remnants": 7643,
      "hidden": 7644,
      "ambassador": 7645,
      "margaret": 7646,
      "registered": 7647,
      "isbn": 7648,
      "oxygen": 7649,
      "youtube": 7650,
      "glanville": 7651,
      "ensemble": 7652,
      "wikipedia": 7653,
      "bian": 7654,
      "bold": 7655,
      "bours": 7656,
      "fers": 7657,
      "gau": 7658,
      "gaining": 7659,
      "hod": 7660,
      "ibute": 7661,
      "kw": 7662,
      "lakes": 7663,
      "nl": 7664,
      "pace": 7665,
      "pages": 7666,
      "rav": 7667,
      "rud": 7668,
      "vas": 7669,
      "wig": 7670,
      "wings": 7671,
      "wake": 7672,
      "wang": 7673,
      "inqu": 7674,
      "inscriptions": 7675,
      "orship": 7676,
      "stakes": 7677,
      "aldean": 7678,
      "arian": 7679,
      "andra": 7680,
      "leaf": 7681,
      "unlikely": 7682,
      "illegal": 7683,
      "deer": 7684,
      "imer": 7685,
      "owed": 7686,
      "conversion": 7687,
      "confront": 7688,
      "users": 7689,
      "comfort": 7690,
      "1925": 7691,
      "1923": 7692,
      "allies": 7693,
      "alloc": 7694,
      "trinity": 7695,
      "shift": 7696,
      "isto": 7697,
      "moth": 7698,
      "arest": 7699,
      "therapy": 7700,
      "quiet": 7701,
      "oder": 7702,
      "odor": 7703,
      "bristol": 7704,
      "boards": 7705,
      "spending": 7706,
      "nok": 7707,
      "sery": 7708,
      "guar": 7709,
      "gras": 7710,
      "commons": 7711,
      "shear": 7712,
      "offshore": 7713,
      "attained": 7714,
      "disband": 7715,
      "inclusion": 7716,
      "songwriter": 7717,
      "mainstream": 7718,
      "maya": 7719,
      "retali": 7720,
      "produces": 7721,
      "larry": 7722,
      "appeals": 7723,
      "operates": 7724,
      "mills": 7725,
      "succeed": 7726,
      "invent": 7727,
      "protestant": 7728,
      "lightning": 7729,
      "140": 7730,
      "defending": 7731,
      "borne": 7732,
      "values": 7733,
      "ideal": 7734,
      "litter": 7735,
      "harbor": 7736,
      "flew": 7737,
      "readers": 7738,
      "lawyer": 7739,
      "rowley": 7740,
      "continuous": 7741,
      "sciences": 7742,
      "fried": 7743,
      "exploration": 7744,
      "240": 7745,
      "communist": 7746,
      "arriving": 7747,
      "furthermore": 7748,
      "sporting": 7749,
      "inducted": 7750,
      "mcnichol": 7751,
      "testing": 7752,
      "tommy": 7753,
      "tombs": 7754,
      "rapids": 7755,
      "closest": 7756,
      "chapters": 7757,
      "panther": 7758,
      "announcement": 7759,
      "1901": 7760,
      "1907": 7761,
      "choose": 7762,
      "circle": 7763,
      "1895": 7764,
      "graduate": 7765,
      "cadets": 7766,
      "luck": 7767,
      "turb": 7768,
      "programs": 7769,
      "programme": 7770,
      "1889": 7771,
      "kyle": 7772,
      "coaching": 7773,
      "cules": 7774,
      "hairan": 7775,
      "boundary": 7776,
      "caliber": 7777,
      "journalists": 7778,
      "observation": 7779,
      "failing": 7780,
      "anthro": 7781,
      "torpedoes": 7782,
      "pike": 7783,
      "angered": 7784,
      "documented": 7785,
      "strategy": 7786,
      "punishment": 7787,
      "neutrino": 7788,
      "revolutionary": 7789,
      "opinions": 7790,
      "nursery": 7791,
      "julian": 7792,
      "flesh": 7793,
      "batsmen": 7794,
      "sailors": 7795,
      "prompted": 7796,
      "dumpty": 7797,
      "eliminated": 7798,
      "descend": 7799,
      "retreat": 7800,
      "accomplish": 7801,
      "hemmem": 7802,
      "patriarch": 7803,
      "disturb": 7804,
      "tzow": 7805,
      "residential": 7806,
      "crystal": 7807,
      "stuart": 7808,
      "exhausted": 7809,
      "scheme": 7810,
      "mvp": 7811,
      "mystery": 7812,
      "convection": 7813,
      "gospel": 7814,
      "parachute": 7815,
      "vistara": 7816,
      "06": 7817,
      "1200": 7818,
      "112": 7819,
      "52nd": 7820,
      "73": 7821,
      "83": 7822,
      "bin": 7823,
      "bare": 7824,
      "bend": 7825,
      "bach": 7826,
      "cass": 7827,
      "dick": 7828,
      "diction": 7829,
      "eus": 7830,
      "fasc": 7831,
      "gio": 7832,
      "hkin": 7833,
      "iro": 7834,
      "lloy": 7835,
      "rains": 7836,
      "ske": 7837,
      "tick": 7838,
      "ugs": 7839,
      "votes": 7840,
      "wu": 7841,
      "zap": 7842,
      "thai": 7843,
      "inich": 7844,
      "inher": 7845,
      "infe": 7846,
      "reactions": 7847,
      "reporter": 7848,
      "rebbie": 7849,
      "stim": 7850,
      "stance": 7851,
      "stern": 7852,
      "stress": 7853,
      "enforce": 7854,
      "alfa": 7855,
      "asking": 7856,
      "aska": 7857,
      "ingrid": 7858,
      "isc": 7859,
      "icester": 7860,
      "leicester": 7861,
      "ilis": 7862,
      "ilty": 7863,
      "amy": 7864,
      "amend": 7865,
      "acon": 7866,
      "uration": 7867,
      "impression": 7868,
      "conqu": 7869,
      "conjunction": 7870,
      "byn": 7871,
      "oty": 7872,
      "trunk": 7873,
      "shallow": 7874,
      "abuse": 7875,
      "ulating": 7876,
      "mov": 7877,
      "proportion": 7878,
      "illness": 7879,
      "mano": 7880,
      "excell": 7881,
      "astra": 7882,
      "quit": 7883,
      "quant": 7884,
      "outs": 7885,
      "upset": 7886,
      "guilty": 7887,
      "gry": 7888,
      "grain": 7889,
      "portions": 7890,
      "attitude": 7891,
      "liam": 7892,
      "canons": 7893,
      "flies": 7894,
      "typho": 7895,
      "gothic": 7896,
      "templ": 7897,
      "maintenance": 7898,
      "ilda": 7899,
      "subur": 7900,
      "curved": 7901,
      "surprise": 7902,
      "locally": 7903,
      "corre": 7904,
      "crop": 7905,
      "describe": 7906,
      "couldn": 7907,
      "valent": 7908,
      "varied": 7909,
      "ception": 7910,
      "magnet": 7911,
      "horror": 7912,
      "characteristic": 7913,
      "dense": 7914,
      "tourism": 7915,
      "farming": 7916,
      "handed": 7917,
      "walking": 7918,
      "arrive": 7919,
      "strongest": 7920,
      "nedy": 7921,
      "donated": 7922,
      "representation": 7923,
      "functions": 7924,
      "electro": 7925,
      "browns": 7926,
      "homosex": 7927,
      "kennedy": 7928,
      "1908": 7929,
      "survival": 7930,
      "biological": 7931,
      "estimates": 7932,
      "devast": 7933,
      "cardinals": 7934,
      "anticip": 7935,
      "hiatus": 7936,
      "bono": 7937,
      "bones": 7938,
      "clothes": 7939,
      "christianity": 7940,
      "huge": 7941,
      "peshkin": 7942,
      "measured": 7943,
      "paying": 7944,
      "symme": 7945,
      "1861": 7946,
      "krist": 7947,
      "birthday": 7948,
      "amounts": 7949,
      "consistently": 7950,
      "celebrated": 7951,
      "dinosaur": 7952,
      "withdrawal": 7953,
      "kiri": 7954,
      "gwend": 7955,
      "leonard": 7956,
      "concentrated": 7957,
      "adams": 7958,
      "ownership": 7959,
      "submarines": 7960,
      "advertising": 7961,
      "highlighted": 7962,
      "comparison": 7963,
      "crusader": 7964,
      "banned": 7965,
      "gilbert": 7966,
      "jackrabbits": 7967,
      "frigates": 7968,
      "strengthened": 7969,
      "competitive": 7970,
      "philosophy": 7971,
      "hudson": 7972,
      "robinson": 7973,
      "aggressive": 7974,
      "vulner": 7975,
      "nielsen": 7976,
      "recurring": 7977,
      "cancelled": 7978,
      "roberts": 7979,
      "mushroom": 7980,
      "meteorological": 7981,
      "gibson": 7982,
      "marilyn": 7983,
      "mycena": 7984,
      "disturbance": 7985,
      "lloyd": 7986,
      "typhoon": 7987,
      "bret": 7988,
      "caf": 7989,
      "dj": 7990,
      "dign": 7991,
      "dads": 7992,
      "fum": 7993,
      "hut": 7994,
      "hatt": 7995,
      "hpa": 7996,
      "kun": 7997,
      "khan": 7998,
      "kaiman": 7999
    },
    "merges": [
      [
        "t",
        "h"
      ],
      [
        "i",
        "n"
      ],
      [
        "th",
        "e"
      ],
      [
        "a",
        "n"
      ],
      [
        "e",
        "r"
      ],
      [
        "o",
        "n"
      ],
      [
        "e",
        "d"
      ],
      [
        "r",
        "e"
      ],
      [
        "a",
        "t"
      ],
      [
        "o",
        "r"
      ],
      [
        "s",
        "t"
      ],
      [
        "e",
        "n"
      ],
      [
        "a",
        "l"
      ],
      [
        "a",
        "r"
      ],
      [
        "an",
        "d"
      ],
      [
        "a",
        "s"
      ],
      [
        "o",
        "f"
      ],
      [
        "in",
        "g"
      ],
      [
        "i",
        "t"
      ],
      [
        "i",
        "s"
      ],
      [
        "t",
        "o"
      ],
      [
        "e",
        "s"
      ],
      [
        "r",
        "o"
      ],
      [
        "i",
        "c"
      ],
      [
        "o",
        "u"
      ],
      [
        "l",
        "e"
      ],
      [
        "i",
        "on"
      ],
      [
        "c",
        "h"
      ],
      [
        "u",
        "n"
      ],
      [
        "s",
        "e"
      ],
      [
        "i",
        "l"
      ],
      [
        "a",
        "d"
      ],
      [
        "a",
        "m"
      ],
      [
        "en",
        "t"
      ],
      [
        "e",
        "l"
      ],
      [
        "a",
        "c"
      ],
      [
        "f",
        "or"
      ],
      [
        "b",
        "e"
      ],
      [
        "o",
        "m"
      ],
      [
        "w",
        "as"
      ],
      [
        "d",
        "e"
      ],
      [
        "u",
        "r"
      ],
      [
        "o",
        "l"
      ],
      [
        "l",
        "y"
      ],
      [
        "i",
        "r"
      ],
      [
        "w",
        "h"
      ],
      [
        "i",
        "m"
      ],
      [
        "i",
        "v"
      ],
      [
        "h",
        "e"
      ],
      [
        "i",
        "g"
      ],
      [
        "w",
        "i"
      ],
      [
        "t",
        "er"
      ],
      [
        "a",
        "y"
      ],
      [
        "o",
        "w"
      ],
      [
        "c",
        "on"
      ],
      [
        "wi",
        "th"
      ],
      [
        "c",
        "e"
      ],
      [
        "a",
        "g"
      ],
      [
        "th",
        "at"
      ],
      [
        "at",
        "ion"
      ],
      [
        "v",
        "er"
      ],
      [
        "u",
        "s"
      ],
      [
        "b",
        "y"
      ],
      [
        "c",
        "t"
      ],
      [
        "i",
        "d"
      ],
      [
        "t",
        "e"
      ],
      [
        "o",
        "t"
      ],
      [
        "s",
        "u"
      ],
      [
        "c",
        "om"
      ],
      [
        "a",
        "p"
      ],
      [
        "p",
        "l"
      ],
      [
        "1",
        "9"
      ],
      [
        "o",
        "p"
      ],
      [
        "ro",
        "m"
      ],
      [
        "al",
        "l"
      ],
      [
        "t",
        "r"
      ],
      [
        "a",
        "in"
      ],
      [
        "s",
        "h"
      ],
      [
        "a",
        "v"
      ],
      [
        "a",
        "b"
      ],
      [
        "u",
        "l"
      ],
      [
        "i",
        "st"
      ],
      [
        "0",
        "0"
      ],
      [
        "m",
        "o"
      ],
      [
        "n",
        "e"
      ],
      [
        "er",
        "s"
      ],
      [
        "u",
        "t"
      ],
      [
        "p",
        "e"
      ],
      [
        "un",
        "k"
      ],
      [
        "u",
        "m"
      ],
      [
        "re",
        "s"
      ],
      [
        "er",
        "e"
      ],
      [
        "p",
        "ro"
      ],
      [
        "e",
        "m"
      ],
      [
        "c",
        "l"
      ],
      [
        "h",
        "is"
      ],
      [
        "f",
        "rom"
      ],
      [
        "a",
        "re"
      ],
      [
        "the",
        "r"
      ],
      [
        "ou",
        "n"
      ],
      [
        "e",
        "t"
      ],
      [
        "ar",
        "t"
      ],
      [
        "i",
        "es"
      ],
      [
        "p",
        "o"
      ],
      [
        "l",
        "o"
      ],
      [
        "e",
        "st"
      ],
      [
        "i",
        "f"
      ],
      [
        "il",
        "l"
      ],
      [
        "a",
        "f"
      ],
      [
        "m",
        "an"
      ],
      [
        "ig",
        "h"
      ],
      [
        "e",
        "x"
      ],
      [
        "s",
        "o"
      ],
      [
        "ar",
        "d"
      ],
      [
        "b",
        "er"
      ],
      [
        "ic",
        "h"
      ],
      [
        "is",
        "h"
      ],
      [
        "a",
        "st"
      ],
      [
        "r",
        "i"
      ],
      [
        "w",
        "ere"
      ],
      [
        "a",
        "k"
      ],
      [
        "on",
        "g"
      ],
      [
        "at",
        "e"
      ],
      [
        "q",
        "u"
      ],
      [
        "p",
        "er"
      ],
      [
        "an",
        "t"
      ],
      [
        "o",
        "d"
      ],
      [
        "t",
        "w"
      ],
      [
        "g",
        "h"
      ],
      [
        "am",
        "e"
      ],
      [
        "a",
        "u"
      ],
      [
        "at",
        "ed"
      ],
      [
        "it",
        "y"
      ],
      [
        "on",
        "e"
      ],
      [
        "e",
        "ar"
      ],
      [
        "es",
        "s"
      ],
      [
        "or",
        "t"
      ],
      [
        "ac",
        "k"
      ],
      [
        "b",
        "r"
      ],
      [
        "ou",
        "t"
      ],
      [
        "iv",
        "e"
      ],
      [
        "h",
        "er"
      ],
      [
        "en",
        "d"
      ],
      [
        "or",
        "d"
      ],
      [
        "h",
        "ad"
      ],
      [
        "i",
        "e"
      ],
      [
        "l",
        "d"
      ],
      [
        "c",
        "o"
      ],
      [
        "i",
        "p"
      ],
      [
        "b",
        "o"
      ],
      [
        "m",
        "ent"
      ],
      [
        "u",
        "p"
      ],
      [
        "ou",
        "r"
      ],
      [
        "f",
        "e"
      ],
      [
        "wh",
        "ich"
      ],
      [
        "u",
        "d"
      ],
      [
        "b",
        "ut"
      ],
      [
        "ac",
        "t"
      ],
      [
        "g",
        "e"
      ],
      [
        "n",
        "ot"
      ],
      [
        "i",
        "al"
      ],
      [
        "st",
        "r"
      ],
      [
        "i",
        "an"
      ],
      [
        "f",
        "ir"
      ],
      [
        "b",
        "l"
      ],
      [
        "c",
        "r"
      ],
      [
        "igh",
        "t"
      ],
      [
        "w",
        "or"
      ],
      [
        "el",
        "l"
      ],
      [
        "in",
        "e"
      ],
      [
        "2",
        "00"
      ],
      [
        "s",
        "p"
      ],
      [
        "i",
        "a"
      ],
      [
        "d",
        "u"
      ],
      [
        "2",
        "0"
      ],
      [
        "it",
        "s"
      ],
      [
        "as",
        "s"
      ],
      [
        "ar",
        "y"
      ],
      [
        "un",
        "d"
      ],
      [
        "a",
        "w"
      ],
      [
        "av",
        "e"
      ],
      [
        "ic",
        "al"
      ],
      [
        "a",
        "ch"
      ],
      [
        "p",
        "r"
      ],
      [
        "n",
        "o"
      ],
      [
        "fir",
        "st"
      ],
      [
        "o",
        "ver"
      ],
      [
        "s",
        "c"
      ],
      [
        "th",
        "is"
      ],
      [
        "t",
        "im"
      ],
      [
        "s",
        "er"
      ],
      [
        "i",
        "re"
      ],
      [
        "pl",
        "ay"
      ],
      [
        "m",
        "ar"
      ],
      [
        "g",
        "u"
      ],
      [
        "af",
        "ter"
      ],
      [
        "l",
        "and"
      ],
      [
        "g",
        "r"
      ],
      [
        "ou",
        "s"
      ],
      [
        "f",
        "o"
      ],
      [
        "ag",
        "e"
      ],
      [
        "ow",
        "n"
      ],
      [
        "p",
        "ort"
      ],
      [
        "s",
        "i"
      ],
      [
        "the",
        "ir"
      ],
      [
        "o",
        "ther"
      ],
      [
        "v",
        "e"
      ],
      [
        "al",
        "so"
      ],
      [
        "m",
        "e"
      ],
      [
        "p",
        "t"
      ],
      [
        "ou",
        "ld"
      ],
      [
        "in",
        "d"
      ],
      [
        "in",
        "t"
      ],
      [
        "it",
        "ion"
      ],
      [
        "o",
        "c"
      ],
      [
        "tw",
        "o"
      ],
      [
        "ne",
        "w"
      ],
      [
        "h",
        "as"
      ],
      [
        "com",
        "m"
      ],
      [
        "oun",
        "d"
      ],
      [
        "p",
        "art"
      ],
      [
        "s",
        "he"
      ],
      [
        "for",
        "m"
      ],
      [
        "k",
        "e"
      ],
      [
        "com",
        "p"
      ],
      [
        "ig",
        "n"
      ],
      [
        "c",
        "ent"
      ],
      [
        "wh",
        "o"
      ],
      [
        "of",
        "f"
      ],
      [
        "d",
        "es"
      ],
      [
        "w",
        "e"
      ],
      [
        "ct",
        "ion"
      ],
      [
        "p",
        "re"
      ],
      [
        "re",
        "e"
      ],
      [
        "e",
        "v"
      ],
      [
        "o",
        "k"
      ],
      [
        "u",
        "re"
      ],
      [
        "the",
        "y"
      ],
      [
        "20",
        "1"
      ],
      [
        "ol",
        "d"
      ],
      [
        "p",
        "res"
      ],
      [
        "at",
        "er"
      ],
      [
        "h",
        "ave"
      ],
      [
        "po",
        "s"
      ],
      [
        "at",
        "t"
      ],
      [
        "l",
        "i"
      ],
      [
        "y",
        "ear"
      ],
      [
        "l",
        "ow"
      ],
      [
        "ou",
        "gh"
      ],
      [
        "ur",
        "ing"
      ],
      [
        "om",
        "e"
      ],
      [
        "j",
        "o"
      ],
      [
        "en",
        "ce"
      ],
      [
        "ro",
        "u"
      ],
      [
        "c",
        "ord"
      ],
      [
        "it",
        "e"
      ],
      [
        "f",
        "in"
      ],
      [
        "be",
        "en"
      ],
      [
        "1",
        "8"
      ],
      [
        "ad",
        "e"
      ],
      [
        "i",
        "le"
      ],
      [
        "r",
        "an"
      ],
      [
        "al",
        "ly"
      ],
      [
        "c",
        "re"
      ],
      [
        "ic",
        "e"
      ],
      [
        "or",
        "y"
      ],
      [
        "sh",
        "ip"
      ],
      [
        "a",
        "ir"
      ],
      [
        "n",
        "or"
      ],
      [
        "c",
        "an"
      ],
      [
        "re",
        "n"
      ],
      [
        "p",
        "h"
      ],
      [
        "c",
        "k"
      ],
      [
        "con",
        "t"
      ],
      [
        "d",
        "r"
      ],
      [
        "d",
        "is"
      ],
      [
        "in",
        "ter"
      ],
      [
        "in",
        "cl"
      ],
      [
        "t",
        "ed"
      ],
      [
        "f",
        "l"
      ],
      [
        "v",
        "i"
      ],
      [
        "m",
        "on"
      ],
      [
        "d",
        "uring"
      ],
      [
        "tim",
        "e"
      ],
      [
        "ab",
        "le"
      ],
      [
        "c",
        "ol"
      ],
      [
        "f",
        "er"
      ],
      [
        "g",
        "ro"
      ],
      [
        "t",
        "y"
      ],
      [
        "el",
        "y"
      ],
      [
        "ur",
        "n"
      ],
      [
        "g",
        "o"
      ],
      [
        "c",
        "oun"
      ],
      [
        "s",
        "ong"
      ],
      [
        "wor",
        "k"
      ],
      [
        "ac",
        "e"
      ],
      [
        "u",
        "e"
      ],
      [
        "t",
        "s"
      ],
      [
        "v",
        "ed"
      ],
      [
        "ation",
        "s"
      ],
      [
        "mo",
        "st"
      ],
      [
        "s",
        "pe"
      ],
      [
        "p",
        "ar"
      ],
      [
        "c",
        "ed"
      ],
      [
        "wh",
        "en"
      ],
      [
        "a",
        "il"
      ],
      [
        "en",
        "g"
      ],
      [
        "w",
        "ay"
      ],
      [
        "ic",
        "k"
      ],
      [
        "te",
        "m"
      ],
      [
        "i",
        "ed"
      ],
      [
        "fo",
        "re"
      ],
      [
        "mo",
        "re"
      ],
      [
        "i",
        "z"
      ],
      [
        "c",
        "es"
      ],
      [
        "r",
        "it"
      ],
      [
        "an",
        "s"
      ],
      [
        "ch",
        "ar"
      ],
      [
        "as",
        "on"
      ],
      [
        "m",
        "in"
      ],
      [
        "it",
        "ed"
      ],
      [
        "t",
        "en"
      ],
      [
        "g",
        "er"
      ],
      [
        "m",
        "ain"
      ],
      [
        "rou",
        "gh"
      ],
      [
        "ion",
        "s"
      ],
      [
        "be",
        "c"
      ],
      [
        "v",
        "el"
      ],
      [
        "s",
        "ing"
      ],
      [
        "in",
        "to"
      ],
      [
        "re",
        "g"
      ],
      [
        "th",
        "ough"
      ],
      [
        "c",
        "ar"
      ],
      [
        "s",
        "on"
      ],
      [
        "a",
        "th"
      ],
      [
        "e",
        "p"
      ],
      [
        "re",
        "cord"
      ],
      [
        "e",
        "ver"
      ],
      [
        "g",
        "en"
      ],
      [
        "g",
        "ame"
      ],
      [
        "as",
        "ed"
      ],
      [
        "w",
        "ould"
      ],
      [
        "an",
        "n"
      ],
      [
        "m",
        "i"
      ],
      [
        "incl",
        "ud"
      ],
      [
        "an",
        "ce"
      ],
      [
        "b",
        "u"
      ],
      [
        "il",
        "d"
      ],
      [
        "ct",
        "ed"
      ],
      [
        "r",
        "ed"
      ],
      [
        "at",
        "es"
      ],
      [
        "wh",
        "ile"
      ],
      [
        "g",
        "an"
      ],
      [
        "h",
        "im"
      ],
      [
        "us",
        "ed"
      ],
      [
        "am",
        "p"
      ],
      [
        "d",
        "ay"
      ],
      [
        "con",
        "d"
      ],
      [
        "und",
        "er"
      ],
      [
        "m",
        "ed"
      ],
      [
        "p",
        "u"
      ],
      [
        "f",
        "il"
      ],
      [
        "w",
        "ar"
      ],
      [
        "ent",
        "s"
      ],
      [
        "e",
        "en"
      ],
      [
        "c",
        "ess"
      ],
      [
        "s",
        "ome"
      ],
      [
        "s",
        "ou"
      ],
      [
        "al",
        "b"
      ],
      [
        "m",
        "us"
      ],
      [
        "ing",
        "s"
      ],
      [
        "to",
        "w"
      ],
      [
        "ak",
        "e"
      ],
      [
        "l",
        "es"
      ],
      [
        "an",
        "y"
      ],
      [
        "m",
        "ay"
      ],
      [
        "f",
        "ol"
      ],
      [
        "s",
        "y"
      ],
      [
        "j",
        "u"
      ],
      [
        "al",
        "s"
      ],
      [
        "th",
        "ree"
      ],
      [
        "b",
        "le"
      ],
      [
        "m",
        "a"
      ],
      [
        "19",
        "9"
      ],
      [
        "r",
        "a"
      ],
      [
        "se",
        "ason"
      ],
      [
        "r",
        "ic"
      ],
      [
        "re",
        "l"
      ],
      [
        "j",
        "e"
      ],
      [
        "on",
        "ly"
      ],
      [
        "as",
        "e"
      ],
      [
        "h",
        "ow"
      ],
      [
        "i",
        "o"
      ],
      [
        "the",
        "re"
      ],
      [
        "re",
        "t"
      ],
      [
        "alb",
        "um"
      ],
      [
        "m",
        "y"
      ],
      [
        "or",
        "s"
      ],
      [
        "p",
        "ol"
      ],
      [
        "h",
        "igh"
      ],
      [
        "pro",
        "du"
      ],
      [
        "ab",
        "out"
      ],
      [
        "pu",
        "bl"
      ],
      [
        "s",
        "s"
      ],
      [
        "se",
        "l"
      ],
      [
        "d",
        "o"
      ],
      [
        "ag",
        "ain"
      ],
      [
        "s",
        "ion"
      ],
      [
        "k",
        "n"
      ],
      [
        "w",
        "rit"
      ],
      [
        "f",
        "ul"
      ],
      [
        "er",
        "ed"
      ],
      [
        "s",
        "ch"
      ],
      [
        "v",
        "ie"
      ],
      [
        "el",
        "d"
      ],
      [
        "k",
        "ing"
      ],
      [
        "n",
        "um"
      ],
      [
        "the",
        "m"
      ],
      [
        "l",
        "ar"
      ],
      [
        "se",
        "cond"
      ],
      [
        "l",
        "ater"
      ],
      [
        "er",
        "n"
      ],
      [
        "re",
        "le"
      ],
      [
        "str",
        "u"
      ],
      [
        "b",
        "ro"
      ],
      [
        "th",
        "rough"
      ],
      [
        "c",
        "ap"
      ],
      [
        "fol",
        "low"
      ],
      [
        "f",
        "our"
      ],
      [
        "ation",
        "al"
      ],
      [
        "an",
        "g"
      ],
      [
        "fil",
        "m"
      ],
      [
        "st",
        "e"
      ],
      [
        "ul",
        "ar"
      ],
      [
        "th",
        "an"
      ],
      [
        "the",
        "n"
      ],
      [
        "t",
        "on"
      ],
      [
        "v",
        "is"
      ],
      [
        "ar",
        "ch"
      ],
      [
        "c",
        "all"
      ],
      [
        "ic",
        "t"
      ],
      [
        "m",
        "ade"
      ],
      [
        "tw",
        "een"
      ],
      [
        "be",
        "tween"
      ],
      [
        "1",
        "0"
      ],
      [
        "o",
        "g"
      ],
      [
        "wh",
        "ere"
      ],
      [
        "ul",
        "t"
      ],
      [
        "en",
        "s"
      ],
      [
        "vie",
        "w"
      ],
      [
        "b",
        "ack"
      ],
      [
        "c",
        "ity"
      ],
      [
        "g",
        "re"
      ],
      [
        "w",
        "ell"
      ],
      [
        "su",
        "b"
      ],
      [
        "am",
        "es"
      ],
      [
        "e",
        "le"
      ],
      [
        "at",
        "ing"
      ],
      [
        "se",
        "t"
      ],
      [
        "l",
        "ed"
      ],
      [
        "w",
        "est"
      ],
      [
        "00",
        "0"
      ],
      [
        "wor",
        "ld"
      ],
      [
        "ur",
        "y"
      ],
      [
        "t",
        "ain"
      ],
      [
        "f",
        "r"
      ],
      [
        "ish",
        "ed"
      ],
      [
        "spe",
        "c"
      ],
      [
        "c",
        "ur"
      ],
      [
        "s",
        "ur"
      ],
      [
        "a",
        "id"
      ],
      [
        "am",
        "er"
      ],
      [
        "b",
        "ar"
      ],
      [
        "il",
        "y"
      ],
      [
        "ard",
        "s"
      ],
      [
        "p",
        "op"
      ],
      [
        "ap",
        "pe"
      ],
      [
        "ad",
        "d"
      ],
      [
        "o",
        "se"
      ],
      [
        "o",
        "s"
      ],
      [
        "r",
        "y"
      ],
      [
        "a",
        "z"
      ],
      [
        "c",
        "i"
      ],
      [
        "l",
        "ine"
      ],
      [
        "n",
        "ational"
      ],
      [
        "be",
        "fore"
      ],
      [
        "mus",
        "ic"
      ],
      [
        "man",
        "y"
      ],
      [
        "h",
        "ist"
      ],
      [
        "con",
        "s"
      ],
      [
        "h",
        "o"
      ],
      [
        "br",
        "it"
      ],
      [
        ".",
        "."
      ],
      [
        "l",
        "an"
      ],
      [
        "c",
        "a"
      ],
      [
        "num",
        "ber"
      ],
      [
        "su",
        "p"
      ],
      [
        "su",
        "ch"
      ],
      [
        "m",
        "u"
      ],
      [
        "st",
        "ud"
      ],
      [
        "ic",
        "s"
      ],
      [
        "iv",
        "ed"
      ],
      [
        "lo",
        "c"
      ],
      [
        "be",
        "ing"
      ],
      [
        "it",
        "ies"
      ],
      [
        "bo",
        "th"
      ],
      [
        "nor",
        "th"
      ],
      [
        "b",
        "el"
      ],
      [
        "d",
        "ire"
      ],
      [
        "ser",
        "ies"
      ],
      [
        "1",
        "6"
      ],
      [
        "1",
        "7"
      ],
      [
        "s",
        "im"
      ],
      [
        "1",
        "2"
      ],
      [
        "w",
        "ill"
      ],
      [
        "ser",
        "v"
      ],
      [
        "d",
        "iv"
      ],
      [
        "op",
        "er"
      ],
      [
        "h",
        "n"
      ],
      [
        "n",
        "ing"
      ],
      [
        "year",
        "s"
      ],
      [
        "se",
        "ver"
      ],
      [
        "c",
        "er"
      ],
      [
        "st",
        "ate"
      ],
      [
        "c",
        "are"
      ],
      [
        "amer",
        "ic"
      ],
      [
        "i",
        "ous"
      ],
      [
        "c",
        "or"
      ],
      [
        "v",
        "en"
      ],
      [
        "i",
        "i"
      ],
      [
        "b",
        "all"
      ],
      [
        "re",
        "ce"
      ],
      [
        "po",
        "int"
      ],
      [
        "19",
        "8"
      ],
      [
        "f",
        "ound"
      ],
      [
        "u",
        "b"
      ],
      [
        "ur",
        "ch"
      ],
      [
        "ter",
        "s"
      ],
      [
        "d",
        "own"
      ],
      [
        "al",
        "e"
      ],
      [
        "e",
        "f"
      ],
      [
        "m",
        "em"
      ],
      [
        "si",
        "de"
      ],
      [
        "on",
        "d"
      ],
      [
        "appe",
        "ar"
      ],
      [
        "jo",
        "hn"
      ],
      [
        "u",
        "ary"
      ],
      [
        "l",
        "ong"
      ],
      [
        "sou",
        "th"
      ],
      [
        "in",
        "ce"
      ],
      [
        "u",
        "al"
      ],
      [
        "un",
        "ited"
      ],
      [
        "1",
        "5"
      ],
      [
        "how",
        "ever"
      ],
      [
        "in",
        "s"
      ],
      [
        "c",
        "ri"
      ],
      [
        "cr",
        "it"
      ],
      [
        "au",
        "se"
      ],
      [
        "st",
        "or"
      ],
      [
        "is",
        "e"
      ],
      [
        "gen",
        "er"
      ],
      [
        "k",
        "s"
      ],
      [
        "the",
        "se"
      ],
      [
        "sh",
        "ow"
      ],
      [
        "m",
        "ill"
      ],
      [
        "f",
        "i"
      ],
      [
        "su",
        "l"
      ],
      [
        "un",
        "t"
      ],
      [
        "or",
        "ig"
      ],
      [
        "op",
        "en"
      ],
      [
        "m",
        "at"
      ],
      [
        "p",
        "ed"
      ],
      [
        "te",
        "am"
      ],
      [
        "includ",
        "ing"
      ],
      [
        "if",
        "ic"
      ],
      [
        "c",
        "ro"
      ],
      [
        "al",
        "though"
      ],
      [
        "char",
        "ac"
      ],
      [
        "su",
        "c"
      ],
      [
        "e",
        "ast"
      ],
      [
        "again",
        "st"
      ],
      [
        "s",
        "m"
      ],
      [
        "tr",
        "y"
      ],
      [
        "fe",
        "at"
      ],
      [
        "o",
        "b"
      ],
      [
        "tow",
        "n"
      ],
      [
        "f",
        "am"
      ],
      [
        "f",
        "t"
      ],
      [
        "in",
        "v"
      ],
      [
        "le",
        "ad"
      ],
      [
        "orig",
        "in"
      ],
      [
        "ear",
        "ly"
      ],
      [
        "d",
        "am"
      ],
      [
        "ol",
        "og"
      ],
      [
        "bec",
        "ame"
      ],
      [
        "j",
        "an"
      ],
      [
        "in",
        "es"
      ],
      [
        "pro",
        "te"
      ],
      [
        "sever",
        "al"
      ],
      [
        "h",
        "y"
      ],
      [
        "is",
        "ed"
      ],
      [
        "le",
        "g"
      ],
      [
        "b",
        "ed"
      ],
      [
        "co",
        "ver"
      ],
      [
        "des",
        "cri"
      ],
      [
        "19",
        "4"
      ],
      [
        "m",
        "er"
      ],
      [
        "de",
        "vel"
      ],
      [
        "id",
        "ent"
      ],
      [
        "p",
        "or"
      ],
      [
        "t",
        "ing"
      ],
      [
        "ch",
        "urch"
      ],
      [
        "publ",
        "ic"
      ],
      [
        "li",
        "ke"
      ],
      [
        "at",
        "ive"
      ],
      [
        "kn",
        "own"
      ],
      [
        "ro",
        "y"
      ],
      [
        "ch",
        "r"
      ],
      [
        "l",
        "ight"
      ],
      [
        "s",
        "ign"
      ],
      [
        "follow",
        "ing"
      ],
      [
        "g",
        "over"
      ],
      [
        "m",
        "et"
      ],
      [
        "cent",
        "ury"
      ],
      [
        "devel",
        "op"
      ],
      [
        "d",
        "if"
      ],
      [
        "h",
        "ou"
      ],
      [
        "h",
        "am"
      ],
      [
        "v",
        "em"
      ],
      [
        "l",
        "if"
      ],
      [
        "per",
        "i"
      ],
      [
        "ep",
        "is"
      ],
      [
        "m",
        "il"
      ],
      [
        "brit",
        "ish"
      ],
      [
        "ro",
        "l"
      ],
      [
        "1",
        "3"
      ],
      [
        "p",
        "ers"
      ],
      [
        "o",
        "ol"
      ],
      [
        "re",
        "main"
      ],
      [
        "he",
        "ad"
      ],
      [
        "d",
        "y"
      ],
      [
        "p",
        "ass"
      ],
      [
        "gu",
        "st"
      ],
      [
        "cont",
        "in"
      ],
      [
        "d",
        "om"
      ],
      [
        "res",
        "s"
      ],
      [
        "ak",
        "ing"
      ],
      [
        "si",
        "x"
      ],
      [
        "comp",
        "le"
      ],
      [
        "d",
        "er"
      ],
      [
        "d",
        "ist"
      ],
      [
        "o",
        "de"
      ],
      [
        "suc",
        "cess"
      ],
      [
        "t",
        "it"
      ],
      [
[...]
