{
  "version": "1.0",
  "truncation": null,
  "padding": null,
  "added_tokens": [
    {
      "id": 0,
      "content": "<PAD>",
      "single_word": false,
      "lstrip": false,
      "rstrip": false,
      "normalized": false,
      "special": true
    },
    {
      "id": 1,
      "content": "<UNK>",
      "single_word": false,
      "lstrip": false,
      "rstrip": false,
      "normalized": false,
      "special": true
    },
    {
      "id": 2,
      "content": "<BOS>",
      "single_word": false,
      "lstrip": false,
      "rstrip": false,
      "normalized": false,
      "special": true
    },
    {
      "id": 3,
      "content": "<EOS>",
      "single_word": false,
      "lstrip": false,
      "rstrip": false,
      "normalized": false,
      "special": true
    }
  ],
  "normalizer": null,
  "pre_tokenizer": {
    "type": "Whitespace"
  },
  "post_processor": null,
  "decoder": null,
  "model": {
    "type": "BPE",
    "dropout": null,
    "unk_token": "<UNK>",
    "continuing_subword_prefix": null,
    "end_of_word_suffix": null,
    "fuse_unk": false,
    "byte_fallback": false,
    "ignore_merges": false,
    "vocab": {
      "<PAD>": 0,
      "<UNK>": 1,
      "<BOS>": 2,
      "<EOS>": 3,
      "!": 4,
      "\"": 5,
      "'": 6,
      "(": 7,
      ")": 8,
      ",": 9,
      "-": 10,
      ".": 11,
      "0": 12,
      "1": 13,
      "2": 14,
      "3": 15,
      "4": 16,
      "5": 17,
      "6": 18,
      "7": 19,
      "8": 20,
      "9": 21,
      ":": 22,
      ";": 23,
      "?": 24,
      "a": 25,
      "b": 26,
      "c": 27,
      "d": 28,
      "e": 29,
      "f": 30,
      "g": 31,
      "h": 32,
      "i": 33,
      "j": 34,
      "k": 35,
      "l": 36,
      "m": 37,
      "n": 38,
      "o": 39,
      "p": 40,
      "q": 41,
      "r": 42,
      "s": 43,
      "t": 44,
      "u": 45,
      "v": 46,
      "w": 47,
      "x": 48,
      "y": 49,
      "z": 50,
      "th": 51,
      "in": 52,
      "the": 53,
      "an": 54,
      "er": 55,
      "on": 56,
      "ed": 57,
      "re": 58,
      "at": 59,
      "or": 60,
      "st": 61,
      "en": 62,
      "al": 63,
      "ar": 64,
      "and": 65,
      "as": 66,
      "of": 67,
      "ing": 68,
      "it": 69,
      "is": 70,
      "to": 71,
      "es": 72,
      "ro": 73,
      "ic": 74,
      "ou": 75,
      "le": 76,
      "ion": 77,
      "ch": 78,
      "un": 79,
      "se": 80,
      "il": 81,
      "ad": 82,
      "am": 83,
      "ent": 84,
      "el": 85,
      "ac": 86,
      "for": 87,
      "be": 88,
      "om": 89,
      "was": 90,
      "de": 91,
      "ur": 92,
      "ol": 93,
      "ly": 94,
      "ir": 95,
      "wh": 96,
      "im": 97,
      "iv": 98,
      "he": 99,
      "ig": 100,
      "wi": 101,
      "ter": 102,
      "ay": 103,
      "ow": 104,
      "con": 105,
      "with": 106,
      "ce": 107,
      "ag": 108,
      "that": 109,
      "ation": 110,
      "ver": 111,
      "us": 112,
      "by": 113,
      "ct": 114,
      "id": 115,
      "te": 116,
      "ot": 117,
      "su": 118,
      "com": 119,
      "ap": 120,
      "pl": 121,
      "19": 122,
      "op": 123,
      "rom": 124,
      "all": 125,
      "tr": 126,
      "ain": 127,
      "sh": 128,
      "av": 129,
      "ab": 130,
      "ul": 131,
      "ist": 132,
      "00": 133,
      "mo": 134,
      "ne": 135,
      "ers": 136,
      "ut": 137,
      "pe": 138,
      "unk": 139,
      "um": 140,
      "res": 141,
      "ere": 142,
      "pro": 143,
      "em": 144,
      "cl": 145,
      "his": 146,
      "from": 147,
      "are": 148,
      "ther": 149,
      "oun": 150,
      "et": 151,
      "art": 152,
      "ies": 153,
      "po": 154,
      "lo": 155,
      "est": 156,
      "if": 157,
      "ill": 158,
      "af": 159,
      "man": 160,
      "igh": 161,
      "ex": 162,
      "so": 163,
      "ard": 164,
      "ber": 165,
      "ich": 166,
      "ish": 167,
      "ast": 168,
      "ri": 169,
      "were": 170,
      "ak": 171,
      "ong": 172,
      "ate": 173,
      "qu": 174,
      "per": 175,
      "ant": 176,
      "od": 177,
      "tw": 178,
      "gh": 179,
      "ame": 180,
      "au": 181,
      "ated": 182,
      "ity": 183,
      "one": 184,
      "ear": 185,
      "ess": 186,
      "ort": 187,
      "ack": 188,
      "br": 189,
      "out": 190,
      "ive": 191,
      "her": 192,
      "end": 193,
      "ord": 194,
      "had": 195,
      "ie": 196,
      "ld": 197,
      "co": 198,
      "ip": 199,
      "bo": 200,
      "ment": 201,
      "up": 202,
      "our": 203,
      "fe": 204,
      "which": 205,
      "ud": 206,
      "but": 207,
      "act": 208,
      "ge": 209,
      "not": 210,
      "ial": 211,
      "str": 212,
      "ian": 213,
      "fir": 214,
      "bl": 215,
      "cr": 216,
      "ight": 217,
      "wor": 218,
      "ell": 219,
      "ine": 220,
      "200": 221,
      "sp": 222,
      "ia": 223,
      "du": 224,
      "20": 225,
      "its": 226,
      "ass": 227,
      "ary": 228,
      "und": 229,
      "aw": 230,
      "ave": 231,
      "ical": 232,
      "ach": 233,
      "pr": 234,
      "no": 235,
      "first": 236,
      "over": 237,
      "sc": 238,
      "this": 239,
      "tim": 240,
      "ser": 241,
      "ire": 242,
      "play": 243,
      "mar": 244,
      "gu": 245,
      "after": 246,
      "land": 247,
      "gr": 248,
      "ous": 249,
      "fo": 250,
      "age": 251,
      "own": 252,
      "port": 253,
      "si": 254,
      "their": 255,
      "other": 256,
      "ve": 257,
      "also": 258,
      "me": 259,
      "pt": 260,
      "ould": 261,
      "ind": 262,
      "int": 263,
      "ition": 264,
      "oc": 265,
      "two": 266,
      "new": 267,
      "has": 268,
      "comm": 269,
      "ound": 270,
      "part": 271,
      "she": 272,
      "form": 273,
      "ke": 274,
      "comp": 275,
      "ign": 276,
      "cent": 277,
      "who": 278,
      "off": 279,
      "des": 280,
      "we": 281,
      "ction": 282,
      "pre": 283,
      "ree": 284,
      "ev": 285,
      "ok": 286,
      "ure": 287,
      "they": 288,
      "201": 289,
      "old": 290,
      "pres": 291,
      "ater": 292,
      "have": 293,
      "pos": 294,
      "att": 295,
      "li": 296,
      "year": 297,
      "low": 298,
      "ough": 299,
      "uring": 300,
      "ome": 301,
      "jo": 302,
      "ence": 303,
      "rou": 304,
      "cord": 305,
      "ite": 306,
      "fin": 307,
      "been": 308,
      "18": 309,
      "ade": 310,
      "ile": 311,
      "ran": 312,
      "ally": 313,
      "cre": 314,
      "ice": 315,
      "ory": 316,
      "ship": 317,
      "air": 318,
      "nor": 319,
      "can": 320,
      "ren": 321,
      "ph": 322,
      "ck": 323,
      "cont": 324,
      "dr": 325,
      "dis": 326,
      "inter": 327,
      "incl": 328,
      "ted": 329,
      "fl": 330,
      "vi": 331,
      "mon": 332,
      "during": 333,
      "time": 334,
      "able": 335,
      "col": 336,
      "fer": 337,
      "gro": 338,
      "ty": 339,
      "ely": 340,
      "urn": 341,
      "go": 342,
      "coun": 343,
      "song": 344,
      "work": 345,
      "ace": 346,
      "ue": 347,
      "ts": 348,
      "ved": 349,
      "ations": 350,
      "most": 351,
      "spe": 352,
      "par": 353,
      "ced": 354,
      "when": 355,
      "ail": 356,
      "eng": 357,
      "way": 358,
      "ick": 359,
      "tem": 360,
      "ied": 361,
      "fore": 362,
      "more": 363,
      "iz": 364,
      "ces": 365,
      "rit": 366,
      "ans": 367,
      "char": 368,
      "ason": 369,
      "min": 370,
      "ited": 371,
      "ten": 372,
      "ger": 373,
      "main": 374,
      "rough": 375,
      "ions": 376,
      "bec": 377,
      "vel": 378,
      "sing": 379,
      "into": 380,
      "reg": 381,
      "though": 382,
      "car": 383,
      "son": 384,
      "ath": 385,
      "ep": 386,
      "record": 387,
      "ever": 388,
      "gen": 389,
      "game": 390,
      "ased": 391,
      "would": 392,
      "ann": 393,
      "mi": 394,
      "includ": 395,
      "ance": 396,
      "bu": 397,
      "ild": 398,
      "cted": 399,
      "red": 400,
      "ates": 401,
      "while": 402,
      "gan": 403,
      "him": 404,
      "used": 405,
      "amp": 406,
      "day": 407,
      "cond": 408,
      "under": 409,
      "med": 410,
      "pu": 411,
      "fil": 412,
      "war": 413,
      "ents": 414,
      "een": 415,
      "cess": 416,
      "some": 417,
      "sou": 418,
      "alb": 419,
      "mus": 420,
      "ings": 421,
      "tow": 422,
      "ake": 423,
      "les": 424,
      "any": 425,
      "may": 426,
      "fol": 427,
      "sy": 428,
      "ju": 429,
      "als": 430,
      "three": 431,
      "ble": 432,
      "ma": 433,
      "199": 434,
      "ra": 435,
      "season": 436,
      "ric": 437,
      "rel": 438,
      "je": 439,
      "only": 440,
      "ase": 441,
      "how": 442,
      "io": 443,
      "there": 444,
      "ret": 445,
      "album": 446,
      "my": 447,
      "ors": 448,
      "pol": 449,
      "high": 450,
      "produ": 451,
      "about": 452,
      "publ": 453,
      "ss": 454,
      "sel": 455,
      "do": 456,
      "again": 457,
      "sion": 458,
      "kn": 459,
      "writ": 460,
      "ful": 461,
      "ered": 462,
      "sch": 463,
      "vie": 464,
      "eld": 465,
      "king": 466,
      "num": 467,
      "them": 468,
      "lar": 469,
      "second": 470,
      "later": 471,
      "ern": 472,
      "rele": 473,
      "stru": 474,
      "bro": 475,
      "through": 476,
      "cap": 477,
      "follow": 478,
      "four": 479,
      "ational": 480,
      "ang": 481,
      "film": 482,
      "ste": 483,
      "ular": 484,
      "than": 485,
      "then": 486,
      "ton": 487,
      "vis": 488,
      "arch": 489,
      "call": 490,
      "ict": 491,
      "made": 492,
      "tween": 493,
      "between": 494,
      "10": 495,
      "og": 496,
      "where": 497,
      "ult": 498,
      "ens": 499,
      "view": 500,
      "back": 501,
      "city": 502,
      "gre": 503,
      "well": 504,
      "sub": 505,
      "ames": 506,
      "ele": 507,
      "ating": 508,
      "set": 509,
      "led": 510,
      "west": 511,
      "000": 512,
      "world": 513,
      "ury": 514,
      "tain": 515,
      "fr": 516,
      "ished": 517,
      "spec": 518,
      "cur": 519,
      "sur": 520,
      "aid": 521,
      "amer": 522,
      "bar": 523,
      "ily": 524,
      "ards": 525,
      "pop": 526,
      "appe": 527,
      "add": 528,
      "ose": 529,
      "os": 530,
      "ry": 531,
      "az": 532,
      "ci": 533,
      "line": 534,
      "national": 535,
      "before": 536,
      "music": 537,
      "many": 538,
      "hist": 539,
      "cons": 540,
      "ho": 541,
      "brit": 542,
      "..": 543,
      "lan": 544,
      "ca": 545,
      "number": 546,
      "sup": 547,
      "such": 548,
      "mu": 549,
      "stud": 550,
      "ics": 551,
      "ived": 552,
      "loc": 553,
      "being": 554,
      "ities": 555,
      "both": 556,
      "north": 557,
      "bel": 558,
      "dire": 559,
      "series": 560,
      "16": 561,
      "17": 562,
      "sim": 563,
      "12": 564,
      "will": 565,
      "serv": 566,
      "div": 567,
      "oper": 568,
      "hn": 569,
      "ning": 570,
      "years": 571,
      "sever": 572,
      "cer": 573,
      "state": 574,
      "care": 575,
      "americ": 576,
      "ious": 577,
      "cor": 578,
      "ven": 579,
      "ii": 580,
      "ball": 581,
      "rece": 582,
      "point": 583,
      "198": 584,
      "found": 585,
      "ub": 586,
      "urch": 587,
      "ters": 588,
      "down": 589,
      "ale": 590,
      "ef": 591,
      "mem": 592,
      "side": 593,
      "ond": 594,
      "appear": 595,
      "john": 596,
      "uary": 597,
      "long": 598,
      "south": 599,
      "ince": 600,
      "ual": 601,
      "united": 602,
      "15": 603,
      "however": 604,
      "ins": 605,
      "cri": 606,
      "crit": 607,
      "ause": 608,
      "stor": 609,
      "ise": 610,
      "gener": 611,
      "ks": 612,
      "these": 613,
      "show": 614,
      "mill": 615,
      "fi": 616,
      "sul": 617,
      "unt": 618,
      "orig": 619,
      "open": 620,
      "mat": 621,
      "ped": 622,
      "team": 623,
      "including": 624,
      "ific": 625,
      "cro": 626,
      "although": 627,
      "charac": 628,
      "suc": 629,
      "east": 630,
      "against": 631,
      "sm": 632,
      "try": 633,
      "feat": 634,
      "ob": 635,
      "town": 636,
      "fam": 637,
      "ft": 638,
      "inv": 639,
      "lead": 640,
      "origin": 641,
      "early": 642,
      "dam": 643,
      "olog": 644,
      "became": 645,
      "jan": 646,
      "ines": 647,
      "prote": 648,
      "several": 649,
      "hy": 650,
      "ised": 651,
      "leg": 652,
      "bed": 653,
      "cover": 654,
      "descri": 655,
      "194": 656,
      "mer": 657,
      "devel": 658,
      "ident": 659,
      "por": 660,
      "ting": 661,
      "church": 662,
      "public": 663,
      "like": 664,
      "ative": 665,
      "known": 666,
      "roy": 667,
      "chr": 668,
      "light": 669,
      "sign": 670,
      "following": 671,
      "gover": 672,
      "met": 673,
      "century": 674,
      "develop": 675,
      "dif": 676,
      "hou": 677,
      "ham": 678,
      "vem": 679,
      "lif": 680,
      "peri": 681,
      "epis": 682,
      "mil": 683,
      "british": 684,
      "rol": 685,
      "13": 686,
      "pers": 687,
      "ool": 688,
      "remain": 689,
      "head": 690,
      "dy": 691,
      "pass": 692,
      "gust": 693,
      "contin": 694,
      "dom": 695,
      "ress": 696,
      "aking": 697,
      "six": 698,
      "comple": 699,
      "der": 700,
      "dist": 701,
      "ode": 702,
      "success": 703,
      "tit": 704,
      "school": 705,
      "began": 706,
      "because": 707,
      "vide": 708,
      "cial": 709,
      "fa": 710,
      "dec": 711,
      "ople": 712,
      "present": 713,
      "cy": 714,
      "mis": 715,
      "tro": 716,
      "ures": 717,
      "ision": 718,
      "you": 719,
      "ject": 720,
      "offic": 721,
      "batt": 722,
      "ked": 723,
      "said": 724,
      "wee": 725,
      "position": 726,
      "called": 727,
      "pow": 728,
      "14": 729,
      "def": 730,
      "cast": 731,
      "nam": 732,
      "ley": 733,
      "book": 734,
      "ha": 735,
      "197": 736,
      "did": 737,
      "people": 738,
      "self": 739,
      "jun": 740,
      "30": 741,
      "ms": 742,
      "states": 743,
      "ended": 744,
      "along": 745,
      "196": 746,
      "near": 747,
      "could": 748,
      "run": 749,
      "august": 750,
      "iver": 751,
      "return": 752,
      "ments": 753,
      "ib": 754,
      "win": 755,
      "released": 756,
      "bor": 757,
      "five": 758,
      "dep": 759,
      "list": 760,
      "cour": 761,
      "direct": 762,
      "tal": 763,
      "val": 764,
      "ide": 765,
      "gun": 766,
      "ually": 767,
      "var": 768,
      "ital": 769,
      "group": 770,
      "bre": 771,
      "cle": 772,
      "since": 773,
      "lit": 774,
      "company": 775,
      "ized": 776,
      "ird": 777,
      "design": 778,
      "until": 779,
      "gest": 780,
      "gy": 781,
      "plac": 782,
      "black": 783,
      "start": 784,
      "best": 785,
      "tre": 786,
      "final": 787,
      "million": 788,
      "di": 789,
      "har": 790,
      "ys": 791,
      "men": 792,
      "games": 793,
      "hel": 794,
      "just": 795,
      "govern": 796,
      "life": 797,
      "episode": 798,
      "fran": 799,
      "ork": 800,
      "band": 801,
      "star": 802,
      "american": 803,
      "use": 804,
      "50": 805,
      "cept": 806,
      "come": 807,
      "ash": 808,
      "maj": 809,
      "same": 810,
      "attack": 811,
      "field": 812,
      "moun": 813,
      "command": 814,
      "xt": 815,
      "del": 816,
      "top": 817,
      "aged": 818,
      "support": 819,
      "get": 820,
      "soci": 821,
      "played": 822,
      "less": 823,
      "mag": 824,
      "ground": 825,
      "eu": 826,
      "ane": 827,
      "sep": 828,
      "ided": 829,
      "aim": 830,
      "fle": 831,
      "build": 832,
      "read": 833,
      "class": 834,
      "hal": 835,
      "hav": 836,
      "trans": 837,
      "hor": 838,
      "another": 839,
      "thern": 840,
      "small": 841,
      "ali": 842,
      "leag": 843,
      "child": 844,
      "each": 845,
      "grap": 846,
      "home": 847,
      "ivers": 848,
      "formed": 849,
      "fur": 850,
      "ier": 851,
      "around": 852,
      "club": 853,
      "great": 854,
      "camp": 855,
      "character": 856,
      "ore": 857,
      "ists": 858,
      "tember": 859,
      "september": 860,
      "german": 861,
      "fed": 862,
      "what": 863,
      "major": 864,
      "vo": 865,
      "now": 866,
      "adv": 867,
      "prom": 868,
      "ron": 869,
      "report": 870,
      "review": 871,
      "dest": 872,
      "consid": 873,
      "km": 874,
      "hum": 875,
      "cut": 876,
      "last": 877,
      "ner": 878,
      "power": 879,
      "history": 880,
      "stand": 881,
      "requ": 882,
      "road": 883,
      "took": 884,
      "even": 885,
      "mor": 886,
      "ody": 887,
      "aft": 888,
      "sl": 889,
      "som": 890,
      "ina": 891,
      "government": 892,
      "pat": 893,
      "family": 894,
      "pen": 895,
      "short": 896,
      "name": 897,
      "ured": 898,
      "11": 899,
      "stem": 900,
      "ves": 901,
      "area": 902,
      "feder": 903,
      "den": 904,
      "ward": 905,
      "ired": 906,
      "tech": 907,
      "video": 908,
      "league": 909,
      "law": 910,
      "ural": 911,
      "allow": 912,
      "accord": 913,
      "contr": 914,
      "ional": 915,
      "foot": 916,
      "octo": 917,
      "house": 918,
      "october": 919,
      "ru": 920,
      "sk": 921,
      "god": 922,
      "na": 923,
      "won": 924,
      "fect": 925,
      "stral": 926,
      "resul": 927,
      "received": 928,
      "ined": 929,
      "person": 930,
      "row": 931,
      "ships": 932,
      "continu": 933,
      "gin": 934,
      "pical": 935,
      "ood": 936,
      "ages": 937,
      "0s": 938,
      "bers": 939,
      "cup": 940,
      "giv": 941,
      "water": 942,
      "reach": 943,
      "mark": 944,
      "lish": 945,
      "25": 946,
      "york": 947,
      "due": 948,
      "march": 949,
      "la": 950,
      "according": 951,
      "austral": 952,
      "songs": 953,
      "death": 954,
      "january": 955,
      "june": 956,
      "ze": 957,
      "ained": 958,
      "sci": 959,
      "rock": 960,
      "times": 961,
      "christ": 962,
      "ae": 963,
      "partic": 964,
      "tle": 965,
      "ony": 966,
      "story": 967,
      "constru": 968,
      "ement": 969,
      "vious": 970,
      "rote": 971,
      "single": 972,
      "fic": 973,
      "white": 974,
      "wrote": 975,
      "third": 976,
      "place": 977,
      "right": 978,
      "ling": 979,
      "ism": 980,
      "tour": 981,
      "euro": 982,
      "system": 983,
      "mid": 984,
      "ilt": 985,
      "ple": 986,
      "ats": 987,
      "storm": 988,
      "dylan": 989,
      "named": 990,
      "issu": 991,
      "resp": 992,
      "novem": 993,
      "november": 994,
      "ons": 995,
      "itar": 996,
      "sw": 997,
      "fri": 998,
      "organ": 999,
      "turn": 1000,
      "within": 1001,
      "193": 1002,
      "described": 1003,
      "gar": 1004,
      "pri": 1005,
      "ril": 1006,
      "sequ": 1007,
      "prov": 1008,
      "sent": 1009,
      "included": 1010,
      "ility": 1011,
      "claim": 1012,
      "much": 1013,
      "rench": 1014,
      "sol": 1015,
      "sty": 1016,
      "july": 1017,
      "...": 1018,
      "ba": 1019,
      "vill": 1020,
      "april": 1021,
      "order": 1022,
      "appro": 1023,
      "track": 1024,
      "large": 1025,
      "addition": 1026,
      "let": 1027,
      "fort": 1028,
      "force": 1029,
      "division": 1030,
      "ately": 1031,
      "previous": 1032,
      "production": 1033,
      "rest": 1034,
      "original": 1035,
      "chan": 1036,
      "ians": 1037,
      "ively": 1038,
      "based": 1039,
      "left": 1040,
      "dece": 1041,
      "late": 1042,
      "stre": 1043,
      "career": 1044,
      "england": 1045,
      "squ": 1046,
      "jack": 1047,
      "195": 1048,
      "far": 1049,
      "hand": 1050,
      "vol": 1051,
      "avy": 1052,
      "bas": 1053,
      "thing": 1054,
      "fall": 1055,
      "incre": 1056,
      "moved": 1057,
      "2009": 1058,
      "built": 1059,
      "2008": 1060,
      "player": 1061,
      "thor": 1062,
      "site": 1063,
      "ences": 1064,
      "tempt": 1065,
      "bill": 1066,
      "init": 1067,
      "ank": 1068,
      "2010": 1069,
      "wn": 1070,
      "wood": 1071,
      "press": 1072,
      "forman": 1073,
      "posed": 1074,
      "species": 1075,
      "hur": 1076,
      "ude": 1077,
      "pect": 1078,
      "expl": 1079,
      "chart": 1080,
      "ross": 1081,
      "ains": 1082,
      "ified": 1083,
      "akes": 1084,
      "colle": 1085,
      "univers": 1086,
      "performan": 1087,
      "week": 1088,
      "make": 1089,
      "very": 1090,
      "mber": 1091,
      "french": 1092,
      "ute": 1093,
      "ery": 1094,
      "love": 1095,
      "guitar": 1096,
      "december": 1097,
      "ime": 1098,
      "cas": 1099,
      "period": 1100,
      "those": 1101,
      "gl": 1102,
      "hol": 1103,
      "ium": 1104,
      "attempt": 1105,
      "differ": 1106,
      "wind": 1107,
      "ially": 1108,
      "sen": 1109,
      "say": 1110,
      "ament": 1111,
      "whe": 1112,
      "ives": 1113,
      "ets": 1114,
      "general": 1115,
      "fire": 1116,
      "real": 1117,
      "wal": 1118,
      "ont": 1119,
      "ored": 1120,
      "itch": 1121,
      "ops": 1122,
      "bert": 1123,
      "tor": 1124,
      "ants": 1125,
      "using": 1126,
      "tele": 1127,
      "roman": 1128,
      "local": 1129,
      "island": 1130,
      "hero": 1131,
      "bur": 1132,
      "ged": 1133,
      "role": 1134,
      "estab": 1135,
      "ness": 1136,
      "see": 1137,
      "match": 1138,
      "night": 1139,
      "event": 1140,
      "europe": 1141,
      "24": 1142,
      "ah": 1143,
      "commun": 1144,
      "kill": 1145,
      "stit": 1146,
      "arr": 1147,
      "canad": 1148,
      "belie": 1149,
      "battle": 1150,
      "friend": 1151,
      "recorded": 1152,
      "former": 1153,
      "centr": 1154,
      "control": 1155,
      "month": 1156,
      "sal": 1157,
      "ety": 1158,
      "ulation": 1159,
      "vision": 1160,
      "lab": 1161,
      "vir": 1162,
      "ico": 1163,
      "draw": 1164,
      "half": 1165,
      "mod": 1166,
      "action": 1167,
      "flu": 1168,
      "polit": 1169,
      "fac": 1170,
      "rad": 1171,
      "among": 1172,
      "21": 1173,
      "route": 1174,
      "ark": 1175,
      "strong": 1176,
      "further": 1177,
      "gal": 1178,
      "vict": 1179,
      "ilar": 1180,
      "post": 1181,
      "nat": 1182,
      "release": 1183,
      "ically": 1184,
      "put": 1185,
      "wom": 1186,
      "seven": 1187,
      "sport": 1188,
      "bus": 1189,
      "ently": 1190,
      "award": 1191,
      "ides": 1192,
      "ga": 1193,
      "lin": 1194,
      "prof": 1195,
      "ned": 1196,
      "craft": 1197,
      "atter": 1198,
      "came": 1199,
      "still": 1200,
      "ford": 1201,
      "cus": 1202,
      "milit": 1203,
      "indu": 1204,
      "similar": 1205,
      "flo": 1206,
      "sum": 1207,
      "ireland": 1208,
      "stat": 1209,
      "round": 1210,
      "next": 1211,
      "quar": 1212,
      "board": 1213,
      "2011": 1214,
      "youn": 1215,
      "author": 1216,
      "county": 1217,
      "associ": 1218,
      "ival": 1219,
      "title": 1220,
      "cou": 1221,
      "lim": 1222,
      "pal": 1223,
      "import": 1224,
      "never": 1225,
      "2007": 1226,
      "histor": 1227,
      "lock": 1228,
      "100": 1229,
      "sit": 1230,
      "grand": 1231,
      "cult": 1232,
      "pa": 1233,
      "ison": 1234,
      "away": 1235,
      "23": 1236,
      "gold": 1237,
      "project": 1238,
      "ring": 1239,
      "army": 1240,
      "ption": 1241,
      "fact": 1242,
      "mc": 1243,
      "super": 1244,
      "trad": 1245,
      "international": 1246,
      "don": 1247,
      "ston": 1248,
      "possi": 1249,
      "minist": 1250,
      "28": 1251,
      "mal": 1252,
      "popular": 1253,
      "considered": 1254,
      "refer": 1255,
      "manag": 1256,
      "rich": 1257,
      "vent": 1258,
      "2006": 1259,
      "written": 1260,
      "champ": 1261,
      "service": 1262,
      "que": 1263,
      "placed": 1264,
      "children": 1265,
      "bal": 1266,
      "2013": 1267,
      "held": 1268,
      "26": 1269,
      "stri": 1270,
      "augh": 1271,
      "often": 1272,
      "desp": 1273,
      "park": 1274,
      "having": 1275,
      "hold": 1276,
      "version": 1277,
      "cru": 1278,
      "chang": 1279,
      "aining": 1280,
      "country": 1281,
      "university": 1282,
      "river": 1283,
      "without": 1284,
      "football": 1285,
      "hurric": 1286,
      "destroy": 1287,
      "activ": 1288,
      "struct": 1289,
      "despite": 1290,
      "brig": 1291,
      "gram": 1292,
      "body": 1293,
      "sold": 1294,
      "vic": 1295,
      "look": 1296,
      "published": 1297,
      "continued": 1298,
      "sug": 1299,
      "plan": 1300,
      "mix": 1301,
      "military": 1302,
      "aken": 1303,
      "highway": 1304,
      "iving": 1305,
      "good": 1306,
      "every": 1307,
      "critic": 1308,
      "fan": 1309,
      "ving": 1310,
      "ending": 1311,
      "successful": 1312,
      "effect": 1313,
      "father": 1314,
      "live": 1315,
      "members": 1316,
      "style": 1317,
      "mich": 1318,
      "ny": 1319,
      "ster": 1320,
      "test": 1321,
      "2012": 1322,
      "ared": 1323,
      "sea": 1324,
      "days": 1325,
      "suggest": 1326,
      "elt": 1327,
      "dou": 1328,
      "uk": 1329,
      "vers": 1330,
      "english": 1331,
      "27": 1332,
      "ta": 1333,
      "want": 1334,
      "building": 1335,
      "nes": 1336,
      "uc": 1337,
      "oy": 1338,
      "rus": 1339,
      "iment": 1340,
      "stead": 1341,
      "bit": 1342,
      "atch": 1343,
      "level": 1344,
      "ock": 1345,
      "tropical": 1346,
      "construction": 1347,
      "idge": 1348,
      "ben": 1349,
      "eight": 1350,
      "free": 1351,
      "bruary": 1352,
      "february": 1353,
      "inc": 1354,
      "produced": 1355,
      "find": 1356,
      "take": 1357,
      "writing": 1358,
      "22": 1359,
      "burn": 1360,
      "forces": 1361,
      "little": 1362,
      "different": 1363,
      "ps": 1364,
      "wall": 1365,
      "few": 1366,
      "equ": 1367,
      "represent": 1368,
      "search": 1369,
      "ried": 1370,
      "reported": 1371,
      "sound": 1372,
      "total": 1373,
      "throughout": 1374,
      "ator": 1375,
      "comb": 1376,
      "scen": 1377,
      "making": 1378,
      "stated": 1379,
      "become": 1380,
      "key": 1381,
      "central": 1382,
      "dan": 1383,
      "tom": 1384,
      "mother": 1385,
      "aster": 1386,
      "ours": 1387,
      "ailed": 1388,
      "ense": 1389,
      "seen": 1390,
      "lost": 1391,
      "rap": 1392,
      "tar": 1393,
      "include": 1394,
      "royal": 1395,
      "teen": 1396,
      "president": 1397,
      "federer": 1398,
      "29": 1399,
      "fre": 1400,
      "fif": 1401,
      "influ": 1402,
      "particular": 1403,
      "ising": 1404,
      "close": 1405,
      "kingdom": 1406,
      "fleet": 1407,
      "chap": 1408,
      "ull": 1409,
      "players": 1410,
      "human": 1411,
      "face": 1412,
      "decl": 1413,
      "ution": 1414,
      "given": 1415,
      "mad": 1416,
      "pur": 1417,
      "rang": 1418,
      "studio": 1419,
      "performance": 1420,
      "fun": 1421,
      "gave": 1422,
      "afric": 1423,
      "returned": 1424,
      "gn": 1425,
      "iam": 1426,
      "app": 1427,
      "ology": 1428,
      "cu": 1429,
      "els": 1430,
      "common": 1431,
      "ior": 1432,
      "ices": 1433,
      "enter": 1434,
      "ief": 1435,
      "invol": 1436,
      "development": 1437,
      "respon": 1438,
      "hurricane": 1439,
      "ination": 1440,
      "agre": 1441,
      "ument": 1442,
      "capt": 1443,
      "young": 1444,
      "lond": 1445,
      "court": 1446,
      "bri": 1447,
      "jord": 1448,
      "performed": 1449,
      "wil": 1450,
      "sure": 1451,
      "tru": 1452,
      "director": 1453,
      "bow": 1454,
      "served": 1455,
      "northern": 1456,
      "london": 1457,
      "pan": 1458,
      "sar": 1459,
      "television": 1460,
      "coast": 1461,
      "reached": 1462,
      "trav": 1463,
      "poem": 1464,
      "western": 1465,
      "front": 1466,
      "graph": 1467,
      "scot": 1468,
      "jordan": 1469,
      "tra": 1470,
      "ei": 1471,
      "fig": 1472,
      "ler": 1473,
      "hind": 1474,
      "suf": 1475,
      "ably": 1476,
      "guns": 1477,
      "unch": 1478,
      "southern": 1479,
      "born": 1480,
      "dav": 1481,
      "coming": 1482,
      "modern": 1483,
      "fem": 1484,
      "non": 1485,
      "ission": 1486,
      "oliv": 1487,
      "range": 1488,
      "miss": 1489,
      "official": 1490,
      "40": 1491,
      "nia": 1492,
      "went": 1493,
      "ref": 1494,
      "station": 1495,
      "noted": 1496,
      "developed": 1497,
      "ino": 1498,
      "ctions": 1499,
      "announ": 1500,
      "elect": 1501,
      "too": 1502,
      "hot": 1503,
      "occur": 1504,
      "population": 1505,
      "various": 1506,
      "clear": 1507,
      "tradition": 1508,
      "van": 1509,
      "bey": 1510,
      "william": 1511,
      "cell": 1512,
      "compe": 1513,
      "playing": 1514,
      "ways": 1515,
      "damage": 1516,
      "ban": 1517,
      "stone": 1518,
      "sem": 1519,
      "intro": 1520,
      "once": 1521,
      "archae": 1522,
      "civ": 1523,
      "cop": 1524,
      "died": 1525,
      "hon": 1526,
      "idence": 1527,
      "aint": 1528,
      "should": 1529,
      "covered": 1530,
      "appoint": 1531,
      "prim": 1532,
      "debut": 1533,
      "mean": 1534,
      "brown": 1535,
      "james": 1536,
      "aren": 1537,
      "cert": 1538,
      "cil": 1539,
      "hom": 1540,
      "hill": 1541,
      "stant": 1542,
      "earli": 1543,
      "hop": 1544,
      "ibut": 1545,
      "goal": 1546,
      "ext": 1547,
      "wheel": 1548,
      "ken": 1549,
      "interest": 1550,
      "recording": 1551,
      "full": 1552,
      "ink": 1553,
      "2004": 1554,
      "miles": 1555,
      "techn": 1556,
      "profess": 1557,
      "cing": 1558,
      "nal": 1559,
      "broad": 1560,
      "important": 1561,
      "champion": 1562,
      "ns": 1563,
      "tran": 1564,
      "created": 1565,
      "himself": 1566,
      "result": 1567,
      "squad": 1568,
      "mm": 1569,
      "rain": 1570,
      "saf": 1571,
      "instead": 1572,
      "signific": 1573,
      "rew": 1574,
      "ago": 1575,
      "need": 1576,
      "felt": 1577,
      "voc": 1578,
      "member": 1579,
      "ama": 1580,
      "aves": 1581,
      "commission": 1582,
      "bir": 1583,
      "mass": 1584,
      "ploy": 1585,
      "thought": 1586,
      "lished": 1587,
      "across": 1588,
      "190": 1589,
      "2005": 1590,
      "phil": 1591,
      "critics": 1592,
      "established": 1593,
      "introdu": 1594,
      "ances": 1595,
      "earth": 1596,
      "forest": 1597,
      "surv": 1598,
      "bs": 1599,
      "dro": 1600,
      "mit": 1601,
      "san": 1602,
      "word": 1603,
      "emp": 1604,
      "feet": 1605,
      "ensive": 1606,
      "aver": 1607,
      "ues": 1608,
      "ese": 1609,
      "ots": 1610,
      "pra": 1611,
      "civil": 1612,
      "aur": 1613,
      "cho": 1614,
      "others": 1615,
      "carey": 1616,
      "cross": 1617,
      "ith": 1618,
      "xim": 1619,
      "relation": 1620,
      "special": 1621,
      "diffic": 1622,
      "started": 1623,
      "alth": 1624,
      "exp": 1625,
      "2015": 1626,
      "caused": 1627,
      "lines": 1628,
      "count": 1629,
      "rid": 1630,
      "yard": 1631,
      "toge": 1632,
      "novel": 1633,
      "commer": 1634,
      "appeared": 1635,
      "olivier": 1636,
      "together": 1637,
      "bi": 1638,
      "scored": 1639,
      "rent": 1640,
      "flight": 1641,
      "depend": 1642,
      "stage": 1643,
      "magaz": 1644,
      "room": 1645,
      "experi": 1646,
      "upon": 1647,
      "horse": 1648,
      "cir": 1649,
      "geor": 1650,
      "60": 1651,
      "ey": 1652,
      "mas": 1653,
      "ym": 1654,
      "ung": 1655,
      "begin": 1656,
      "depart": 1657,
      "aircraft": 1658,
      "mac": 1659,
      "abo": 1660,
      "awards": 1661,
      "completed": 1662,
      "rail": 1663,
      "vest": 1664,
      "entire": 1665,
      "ization": 1666,
      "fav": 1667,
      "loss": 1668,
      "case": 1669,
      "mot": 1670,
      "oldham": 1671,
      "mountain": 1672,
      "australia": 1673,
      "nom": 1674,
      "sele": 1675,
      "bet": 1676,
      "bra": 1677,
      "located": 1678,
      "ological": 1679,
      "remained": 1680,
      "break": 1681,
      "street": 1682,
      "base": 1683,
      "got": 1684,
      "nis": 1685,
      "taken": 1686,
      "does": 1687,
      "characters": 1688,
      "change": 1689,
      "ges": 1690,
      "enced": 1691,
      "apan": 1692,
      "aff": 1693,
      "blue": 1694,
      "189": 1695,
      "mary": 1696,
      "iting": 1697,
      "conne": 1698,
      "estim": 1699,
      "scri": 1700,
      "ature": 1701,
      "least": 1702,
      "center": 1703,
      "fourth": 1704,
      "ael": 1705,
      "ming": 1706,
      "iness": 1707,
      "utes": 1708,
      "peak": 1709,
      "finished": 1710,
      "regular": 1711,
      "relig": 1712,
      "sil": 1713,
      "wide": 1714,
      "know": 1715,
      "eastern": 1716,
      "labor": 1717,
      "saw": 1718,
      "atic": 1719,
      "chest": 1720,
      "ctor": 1721,
      "anti": 1722,
      "formation": 1723,
      "jew": 1724,
      "subsequ": 1725,
      "aign": 1726,
      "ik": 1727,
      "japan": 1728,
      "arm": 1729,
      "grad": 1730,
      "added": 1731,
      "cal": 1732,
      "fly": 1733,
      "fight": 1734,
      "hall": 1735,
      "kel": 1736,
      "atl": 1737,
      "enon": 1738,
      "dev": 1739,
      "ney": 1740,
      "campaign": 1741,
      "significant": 1742,
      "cad": 1743,
      "rul": 1744,
      "commit": 1745,
      "reek": 1746,
      "anna": 1747,
      "political": 1748,
      "announced": 1749,
      "wheeler": 1750,
      "card": 1751,
      "type": 1752,
      "america": 1753,
      "originally": 1754,
      "pair": 1755,
      "sour": 1756,
      "ality": 1757,
      "termin": 1758,
      "move": 1759,
      "core": 1760,
      "syn": 1761,
      "leading": 1762,
      "weeks": 1763,
      "manager": 1764,
      "hen": 1765,
      "mur": 1766,
      "pie": 1767,
      "heavy": 1768,
      "2003": 1769,
      "pred": 1770,
      "crew": 1771,
      "cathe": 1772,
      "ai": 1773,
      "hit": 1774,
      "antic": 1775,
      "works": 1776,
      "cathedr": 1777,
      "hab": 1778,
      "ars": 1779,
      "areas": 1780,
      "study": 1781,
      "possible": 1782,
      "che": 1783,
      "accept": 1784,
      "comment": 1785,
      "writer": 1786,
      "followed": 1787,
      "help": 1788,
      "promot": 1789,
      "gir": 1790,
      "stay": 1791,
      "stop": 1792,
      "sex": 1793,
      "acy": 1794,
      "bridge": 1795,
      "itions": 1796,
      "sess": 1797,
      "reco": 1798,
      "ica": 1799,
      "isted": 1800,
      "ifa": 1801,
      "ability": 1802,
      "stein": 1803,
      "points": 1804,
      "david": 1805,
      "bish": 1806,
      "jour": 1807,
      "anim": 1808,
      "opened": 1809,
      "quarter": 1810,
      "commercial": 1811,
      "lu": 1812,
      "tur": 1813,
      "yards": 1814,
      "inated": 1815,
      "behind": 1816,
      "party": 1817,
      "hard": 1818,
      "navy": 1819,
      "sat": 1820,
      "program": 1821,
      "emy": 1822,
      "los": 1823,
      "council": 1824,
      "tempor": 1825,
      "ample": 1826,
      "girl": 1827,
      "nine": 1828,
      "attr": 1829,
      "robert": 1830,
      "sho": 1831,
      "ister": 1832,
      "net": 1833,
      "2014": 1834,
      "carol": 1835,
      "vari": 1836,
      "launch": 1837,
      "australian": 1838,
      "issue": 1839,
      "egy": 1840,
      "inch": 1841,
      "acad": 1842,
      "respect": 1843,
      "outside": 1844,
      "pho": 1845,
      "france": 1846,
      "claimed": 1847,
      "recogn": 1848,
      "gress": 1849,
      "hi": 1850,
      "space": 1851,
      "rought": 1852,
      "angel": 1853,
      "features": 1854,
      "eventually": 1855,
      "flood": 1856,
      "bon": 1857,
      "rif": 1858,
      "yer": 1859,
      "months": 1860,
      "cathedral": 1861,
      "31": 1862,
      "achel": 1863,
      "working": 1864,
      "teach": 1865,
      "graphy": 1866,
      "here": 1867,
      "dem": 1868,
      "irish": 1869,
      "records": 1870,
      "radio": 1871,
      "either": 1872,
      "nav": 1873,
      "pot": 1874,
      "towns": 1875,
      "women": 1876,
      "squadron": 1877,
      "magazine": 1878,
      "egypt": 1879,
      "35": 1880,
      "ker": 1881,
      "nu": 1882,
      "tolo": 1883,
      "lear": 1884,
      "ille": 1885,
      "cret": 1886,
      "minor": 1887,
      "jud": 1888,
      "arab": 1889,
      "mounted": 1890,
      "fund": 1891,
      "mater": 1892,
      "ray": 1893,
      "xas": 1894,
      "employ": 1895,
      "compan": 1896,
      "host": 1897,
      "decided": 1898,
      "haifa": 1899,
      "killed": 1900,
      "sus": 1901,
      "asing": 1902,
      "wife": 1903,
      "meet": 1904,
      "worked": 1905,
      "police": 1906,
      "iii": 1907,
      "big": 1908,
      "xenon": 1909,
      "era": 1910,
      "educ": 1911,
      "office": 1912,
      "premi": 1913,
      "bell": 1914,
      "ox": 1915,
      "thom": 1916,
      "arts": 1917,
      "odes": 1918,
      "grow": 1919,
      "lack": 1920,
      "mel": 1921,
      "theat": 1922,
      "union": 1923,
      "forced": 1924,
      "hest": 1925,
      "soon": 1926,
      "ishing": 1927,
      "spir": 1928,
      "current": 1929,
      "wanted": 1930,
      "rachel": 1931,
      "research": 1932,
      "ought": 1933,
      "opening": 1934,
      "contract": 1935,
      "brigade": 1936,
      "michael": 1937,
      "bes": 1938,
      "jer": 1939,
      "past": 1940,
      "icated": 1941,
      "deal": 1942,
      "evidence": 1943,
      "term": 1944,
      "goals": 1945,
      "certain": 1946,
      "jam": 1947,
      "rhy": 1948,
      "alter": 1949,
      "ades": 1950,
      "clo": 1951,
      "cred": 1952,
      "hosp": 1953,
      "operation": 1954,
      "initially": 1955,
      "canada": 1956,
      "summer": 1957,
      "association": 1958,
      "bc": 1959,
      "econ": 1960,
      "hig": 1961,
      "ris": 1962,
      "pract": 1963,
      "region": 1964,
      "medi": 1965,
      "gods": 1966,
      "winds": 1967,
      "european": 1968,
      "econom": 1969,
      "spo": 1970,
      "ceed": 1971,
      "exe": 1972,
      "airport": 1973,
      "viol": 1974,
      "damaged": 1975,
      "veston": 1976,
      "ping": 1977,
      "taking": 1978,
      "instit": 1979,
      "isra": 1980,
      "ids": 1981,
      "brother": 1982,
      "christian": 1983,
      "galveston": 1984,
      "industr": 1985,
      "israel": 1986,
      "bass": 1987,
      "tv": 1988,
      "ering": 1989,
      "compl": 1990,
      "colum": 1991,
      "regard": 1992,
      "brought": 1993,
      "inj": 1994,
      "ivid": 1995,
      "aper": 1996,
      "plann": 1997,
      "example": 1998,
      "scre": 1999
    },
    "merges": [
      [
        "t",
        "h"
      ],
      [
        "i",
        "n"
      ],
      [
        "th",
        "e"
      ],
      [
        "a",
        "n"
      ],
      [
        "e",
        "r"
      ],
      [
        "o",
        "n"
      ],
      [
        "e",
        "d"
      ],
      [
        "r",
        "e"
      ],
      [
        "a",
        "t"
      ],
      [
        "o",
        "r"
      ],
      [
        "s",
        "t"
      ],
      [
        "e",
        "n"
      ],
      [
        "a",
        "l"
      ],
      [
        "a",
        "r"
      ],
      [
        "an",
        "d"
      ],
      [
        "a",
        "s"
      ],
      [
        "o",
        "f"
      ],
      [
        "in",
        "g"
      ],
      [
        "i",
        "t"
      ],
      [
        "i",
        "s"
      ],
      [
        "t",
        "o"
      ],
      [
        "e",
        "s"
      ],
      [
        "r",
        "o"
      ],
      [
        "i",
        "c"
      ],
      [
        "o",
        "u"
      ],
      [
        "l",
        "e"
      ],
      [
        "i",
        "on"
      ],
      [
        "c",
        "h"
      ],
      [
        "u",
        "n"
      ],
      [
        "s",
        "e"
      ],
      [
        "i",
        "l"
      ],
      [
        "a",
        "d"
      ],
      [
        "a",
        "m"
      ],
      [
        "en",
        "t"
      ],
      [
        "e",
        "l"
      ],
      [
        "a",
        "c"
      ],
      [
        "f",
        "or"
      ],
      [
        "b",
        "e"
      ],
      [
        "o",
        "m"
      ],
      [
        "w",
        "as"
      ],
      [
        "d",
        "e"
      ],
      [
        "u",
        "r"
      ],
      [
        "o",
        "l"
      ],
      [
        "l",
        "y"
      ],
      [
        "i",
        "r"
      ],
      [
        "w",
        "h"
      ],
      [
        "i",
        "m"
      ],
      [
        "i",
        "v"
      ],
      [
        "h",
        "e"
      ],
      [
        "i",
        "g"
      ],
      [
        "w",
        "i"
      ],
      [
        "t",
        "er"
      ],
      [
        "a",
        "y"
      ],
      [
        "o",
        "w"
      ],
      [
        "c",
        "on"
      ],
      [
        "wi",
        "th"
      ],
      [
        "c",
        "e"
      ],
      [
        "a",
        "g"
      ],
      [
        "th",
        "at"
      ],
      [
        "at",
        "ion"
      ],
      [
        "v",
        "er"
      ],
      [
        "u",
        "s"
      ],
      [
        "b",
        "y"
      ],
      [
        "c",
        "t"
      ],
      [
        "i",
        "d"
      ],
      [
        "t",
        "e"
      ],
      [
        "o",
        "t"
      ],
      [
        "s",
        "u"
      ],
      [
        "c",
        "om"
      ],
      [
        "a",
        "p"
      ],
      [
        "p",
        "l"
      ],
      [
        "1",
        "9"
      ],
      [
        "o",
        "p"
      ],
      [
        "ro",
        "m"
      ],
      [
        "al",
        "l"
      ],
      [
        "t",
        "r"
      ],
      [
        "a",
        "in"
      ],
      [
        "s",
        "h"
      ],
      [
        "a",
        "v"
      ],
      [
        "a",
        "b"
      ],
      [
        "u",
        "l"
      ],
      [
        "i",
        "st"
      ],
      [
        "0",
        "0"
      ],
      [
        "m",
        "o"
      ],
      [
        "n",
        "e"
      ],
      [
        "er",
        "s"
      ],
      [
        "u",
        "t"
      ],
      [
        "p",
        "e"
      ],
      [
        "un",
        "k"
      ],
      [
        "u",
        "m"
      ],
      [
        "re",
        "s"
      ],
      [
        "er",
        "e"
      ],
      [
        "p",
        "ro"
      ],
      [
        "e",
        "m"
      ],
      [
        "c",
        "l"
      ],
      [
        "h",
        "is"
      ],
      [
        "f",
        "rom"
      ],
      [
        "a",
        "re"
      ],
      [
        "the",
        "r"
      ],
      [
        "ou",
        "n"
      ],
      [
        "e",
        "t"
      ],
      [
        "ar",
        "t"
      ],
      [
        "i",
        "es"
      ],
      [
        "p",
        "o"
      ],
      [
        "l",
        "o"
      ],
      [
        "e",
        "st"
      ],
      [
        "i",
        "f"
      ],
      [
        "il",
        "l"
      ],
      [
        "a",
        "f"
      ],
      [
        "m",
        "an"
      ],
      [
        "ig",
        "h"
      ],
      [
        "e",
        "x"
      ],
      [
        "s",
        "o"
      ],
      [
        "ar",
        "d"
      ],
      [
        "b",
        "er"
      ],
      [
        "ic",
        "h"
      ],
      [
        "is",
        "h"
      ],
      [
        "a",
        "st"
      ],
      [
        "r",
        "i"
      ],
      [
        "w",
        "ere"
      ],
      [
        "a",
        "k"
      ],
      [
        "on",
        "g"
      ],
      [
        "at",
        "e"
      ],
      [
        "q",
        "u"
      ],
      [
        "p",
        "er"
      ],
      [
        "an",
        "t"
      ],
      [
        "o",
        "d"
      ],
      [
        "t",
        "w"
      ],
      [
        "g",
        "h"
      ],
      [
        "am",
        "e"
      ],
      [
        "a",
        "u"
      ],
      [
        "at",
        "ed"
      ],
      [
        "it",
        "y"
      ],
      [
        "on",
        "e"
      ],
      [
        "e",
        "ar"
      ],
      [
        "es",
        "s"
      ],
      [
        "or",
        "t"
      ],
      [
        "ac",
        "k"
      ],
      [
        "b",
        "r"
      ],
      [
        "ou",
        "t"
      ],
      [
        "iv",
        "e"
      ],
      [
        "h",
        "er"
      ],
      [
        "en",
        "d"
      ],
      [
        "or",
        "d"
      ],
      [
        "h",
        "ad"
      ],
      [
        "i",
        "e"
      ],
      [
        "l",
        "d"
      ],
      [
        "c",
        "o"
      ],
      [
        "i",
        "p"
      ],
      [
        "b",
        "o"
      ],
      [
        "m",
        "ent"
      ],
      [
        "u",
        "p"
      ],
      [
        "ou",
        "r"
      ],
      [
        "f",
        "e"
      ],
      [
        "wh",
        "ich"
      ],
      [
        "u",
        "d"
      ],
      [
        "b",
        "ut"
      ],
      [
        "ac",
        "t"
      ],
      [
        "g",
        "e"
      ],
      [
        "n",
        "ot"
      ],
      [
        "i",
        "al"
      ],
      [
        "st",
        "r"
      ],
      [
        "i",
        "an"
      ],
      [
        "f",
        "ir"
      ],
      [
        "b",
        "l"
      ],
      [
        "c",
        "r"
      ],
      [
        "igh",
        "t"
      ],
      [
        "w",
        "or"
      ],
      [
        "el",
        "l"
      ],
      [
        "in",
        "e"
      ],
      [
        "2",
        "00"
      ],
      [
        "s",
        "p"
      ],
      [
        "i",
        "a"
      ],
      [
        "d",
        "u"
      ],
      [
        "2",
        "0"
      ],
      [
        "it",
        "s"
      ],
      [
        "as",
        "s"
      ],
      [
        "ar",
        "y"
      ],
      [
        "un",
        "d"
      ],
      [
        "a",
        "w"
      ],
      [
        "av",
        "e"
      ],
      [
        "ic",
        "al"
      ],
      [
        "a",
        "ch"
      ],
      [
        "p",
        "r"
      ],
      [
        "n",
        "o"
      ],
      [
        "fir",
        "st"
      ],
      [
        "o",
        "ver"
      ],
      [
        "s",
        "c"
      ],
      [
        "th",
        "is"
      ],
      [
        "t",
        "im"
      ],
      [
        "s",
        "er"
      ],
      [
        "i",
        "re"
      ],
      [
        "pl",
        "ay"
      ],
      [
        "m",
        "ar"
      ],
      [
        "g",
        "u"
      ],
      [
        "af",
        "ter"
      ],
      [
        "l",
        "and"
      ],
      [
        "g",
        "r"
      ],
      [
        "ou",
        "s"
      ],
      [
        "f",
        "o"
      ],
      [
        "ag",
        "e"
      ],
      [
        "ow",
        "n"
      ],
      [
        "p",
        "ort"
      ],
      [
        "s",
        "i"
      ],
      [
        "the",
        "ir"
      ],
      [
        "o",
        "ther"
      ],
      [
        "v",
        "e"
      ],
      [
        "al",
        "so"
      ],
      [
        "m",
        "e"
      ],
      [
        "p",
        "t"
      ],
      [
        "ou",
        "ld"
      ],
      [
        "in",
        "d"
      ],
      [
        "in",
        "t"
      ],
      [
        "it",
        "ion"
      ],
      [
        "o",
        "c"
      ],
      [
        "tw",
        "o"
      ],
      [
        "ne",
        "w"
      ],
      [
        "h",
        "as"
      ],
      [
        "com",
        "m"
      ],
      [
        "oun",
        "d"
      ],
      [
        "p",
        "art"
      ],
      [
        "s",
        "he"
      ],
      [
        "for",
        "m"
      ],
      [
        "k",
        "e"
      ],
      [
        "com",
        "p"
      ],
      [
        "ig",
        "n"
      ],
      [
        "c",
        "ent"
      ],
      [
        "wh",
        "o"
      ],
      [
        "of",
        "f"
      ],
      [
        "d",
        "es"
      ],
      [
        "w",
        "e"
      ],
      [
        "ct",
        "ion"
      ],
      [
        "p",
        "re"
      ],
      [
        "re",
        "e"
      ],
      [
        "e",
        "v"
      ],
      [
        "o",
        "k"
      ],
      [
        "u",
        "re"
      ],
      [
        "the",
        "y"
      ],
      [
        "20",
        "1"
      ],
      [
        "ol",
        "d"
      ],
      [
        "p",
        "res"
      ],
      [
        "at",
        "er"
      ],
      [
        "h",
        "ave"
      ],
      [
        "po",
        "s"
      ],
      [
        "at",
        "t"
      ],
      [
        "l",
        "i"
      ],
      [
        "y",
        "ear"
      ],
      [
        "l",
        "ow"
      ],
      [
        "ou",
        "gh"
      ],
      [
        "ur",
        "ing"
      ],
      [
        "om",
        "e"
      ],
      [
        "j",
        "o"
      ],
      [
        "en",
        "ce"
      ],
      [
        "ro",
        "u"
      ],
      [
        "c",
        "ord"
      ],
      [
        "it",
        "e"
      ],
      [
        "f",
        "in"
      ],
      [
        "be",
        "en"
      ],
      [
        "1",
        "8"
      ],
      [
        "ad",
        "e"
      ],
      [
        "i",
        "le"
      ],
      [
        "r",
        "an"
      ],
      [
        "al",
        "ly"
      ],
      [
        "c",
        "re"
      ],
      [
        "ic",
        "e"
      ],
      [
        "or",
        "y"
      ],
      [
        "sh",
        "ip"
      ],
      [
        "a",
        "ir"
      ],
      [
        "n",
        "or"
      ],
      [
        "c",
        "an"
      ],
      [
        "re",
        "n"
      ],
      [
        "p",
        "h"
      ],
      [
        "c",
        "k"
      ],
      [
        "con",
        "t"
      ],
      [
        "d",
        "r"
      ],
      [
        "d",
        "is"
      ],
      [
        "in",
        "ter"
      ],
      [
        "in",
        "cl"
      ],
      [
        "t",
        "ed"
      ],
      [
        "f",
        "l"
      ],
      [
        "v",
        "i"
      ],
      [
        "m",
        "on"
      ],
      [
        "d",
        "uring"
      ],
      [
        "tim",
        "e"
      ],
      [
        "ab",
        "le"
      ],
      [
        "c",
        "ol"
      ],
      [
        "f",
        "er"
      ],
      [
        "g",
        "ro"
      ],
      [
        "t",
        "y"
      ],
      [
        "el",
        "y"
      ],
      [
        "ur",
        "n"
      ],
      [
        "g",
        "o"
      ],
      [
        "c",
        "oun"
      ],
      [
        "s",
        "ong"
      ],
      [
        "wor",
        "k"
      ],
      [
        "ac",
        "e"
      ],
      [
        "u",
        "e"
      ],
      [
        "t",
        "s"
      ],
      [
        "v",
        "ed"
      ],
      [
        "ation",
        "s"
      ],
      [
        "mo",
        "st"
      ],
      [
        "s",
        "pe"
      ],
      [
        "p",
        "ar"
      ],
      [
        "c",
        "ed"
      ],
      [
        "wh",
        "en"
      ],
      [
        "a",
        "il"
      ],
      [
        "en",
        "g"
      ],
      [
        "w",
        "ay"
      ],
      [
        "ic",
        "k"
      ],
      [
        "te",
        "m"
      ],
      [
        "i",
        "ed"
      ],
      [
        "fo",
        "re"
      ],
      [
        "mo",
        "re"
      ],
      [
        "i",
        "z"
      ],
      [
        "c",
        "es"
      ],
      [
        "r",
        "it"
      ],
      [
        "an",
        "s"
      ],
      [
        "ch",
        "ar"
      ],
      [
        "as",
        "on"
      ],
      [
        "m",
        "in"
      ],
      [
        "it",
        "ed"
      ],
      [
        "t",
        "en"
      ],
      [
        "g",
        "er"
      ],
      [
        "m",
        "ain"
      ],
      [
        "rou",
        "gh"
      ],
      [
        "ion",
        "s"
      ],
      [
        "be",
        "c"
      ],
      [
        "v",
        "el"
      ],
      [
        "s",
        "ing"
      ],
      [
        "in",
        "to"
      ],
      [
        "re",
        "g"
      ],
      [
        "th",
        "ough"
      ],
      [
        "c",
        "ar"
      ],
      [
        "s",
        "on"
      ],
      [
        "a",
        "th"
      ],
      [
        "e",
        "p"
      ],
      [
        "re",
        "cord"
      ],
      [
        "e",
        "ver"
      ],
      [
        "g",
        "en"
      ],
      [
        "g",
        "ame"
      ],
      [
        "as",
        "ed"
      ],
      [
        "w",
        "ould"
      ],
      [
        "an",
        "n"
      ],
      [
        "m",
        "i"
      ],
      [
        "incl",
        "ud"
      ],
      [
        "an",
        "ce"
      ],
      [
        "b",
        "u"
      ],
      [
        "il",
        "d"
      ],
      [
        "ct",
        "ed"
      ],
      [
        "r",
        "ed"
      ],
      [
        "at",
        "es"
      ],
      [
        "wh",
        "ile"
      ],
      [
        "g",
        "an"
      ],
      [
        "h",
        "im"
      ],
      [
        "us",
        "ed"
      ],
      [
        "am",
        "p"
      ],
      [
        "d",
        "ay"
      ],
      [
        "con",
        "d"
      ],
      [
        "und",
        "er"
      ],
      [
        "m",
        "ed"
      ],
      [
        "p",
        "u"
      ],
      [
        "f",
        "il"
      ],
      [
        "w",
        "ar"
      ],
      [
        "ent",
        "s"
      ],
      [
        "e",
        "en"
      ],
      [
        "c",
        "ess"
      ],
      [
        "s",
        "ome"
      ],
      [
        "s",
        "ou"
      ],
      [
        "al",
        "b"
      ],
      [
        "m",
        "us"
      ],
      [
        "ing",
        "s"
      ],
      [
        "to",
        "w"
      ],
      [
        "ak",
        "e"
      ],
      [
        "l",
        "es"
      ],
      [
        "an",
        "y"
      ],
      [
        "m",
        "ay"
      ],
      [
        "f",
        "ol"
      ],
      [
        "s",
        "y"
      ],
      [
        "j",
        "u"
      ],
      [
        "al",
        "s"
      ],
      [
        "th",
        "ree"
      ],
      [
        "b",
        "le"
      ],
      [
        "m",
        "a"
      ],
      [
        "19",
        "9"
      ],
      [
        "r",
        "a"
      ],
      [
        "se",
        "ason"
      ],
      [
        "r",
        "ic"
      ],
      [
        "re",
        "l"
      ],
      [
        "j",
        "e"
      ],
      [
        "on",
        "ly"
      ],
      [
        "as",
        "e"
      ],
      [
        "h",
        "ow"
      ],
      [
        "i",
        "o"
      ],
      [
        "the",
        "re"
      ],
      [
        "re",
        "t"
      ],
      [
        "alb",
        "um"
      ],
      [
        "m",
        "y"
      ],
      [
        "or",
        "s"
      ],
      [
        "p",
        "ol"
      ],
      [
        "h",
        "igh"
      ],
      [
        "pro",
        "du"
      ],
      [
        "ab",
        "out"
      ],
      [
        "pu",
        "bl"
      ],
      [
        "s",
        "s"
      ],
      [
        "se",
        "l"
      ],
      [
        "d",
        "o"
      ],
      [
        "ag",
        "ain"
      ],
      [
        "s",
        "ion"
      ],
      [
        "k",
        "n"
      ],
      [
        "w",
        "rit"
      ],
      [
        "f",
        "ul"
      ],
      [
        "er",
        "ed"
      ],
      [
        "s",
        "ch"
      ],
      [
        "v",
        "ie"
      ],
      [
        "el",
        "d"
      ],
      [
        "k",
        "ing"
      ],
      [
        "n",
        "um"
      ],
      [
        "the",
        "m"
      ],
      [
        "l",
        "ar"
      ],
      [
        "se",
        "cond"
      ],
      [
        "l",
        "ater"
      ],
      [
        "er",
        "n"
      ],
      [
        "re",
        "le"
      ],
      [
        "str",
        "u"
      ],
      [
        "b",
        "ro"
      ],
      [
        "th",
        "rough"
      ],
      [
        "c",
        "ap"
      ],
      [
        "fol",
        "low"
      ],
      [
        "f",
        "our"
      ],
      [
        "ation",
        "al"
      ],
      [
        "an",
        "g"
      ],
      [
        "fil",
        "m"
      ],
      [
        "st",
        "e"
      ],
      [
        "ul",
        "ar"
      ],
      [
        "th",
        "an"
      ],
      [
        "the",
        "n"
      ],
      [
        "t",
        "on"
      ],
      [
        "v",
        "is"
      ],
      [
        "ar",
        "ch"
      ],
      [
        "c",
        "all"
      ],
      [
        "ic",
        "t"
      ],
      [
        "m",
        "ade"
      ],
      [
        "tw",
        "een"
      ],
      [
        "be",
        "tween"
      ],
      [
        "1",
        "0"
      ],
      [
        "o",
        "g"
      ],
      [
        "wh",
        "ere"
      ],
      [
        "ul",
        "t"
      ],
      [
        "en",
        "s"
      ],
      [
        "vie",
        "w"
      ],
      [
        "b",
        "ack"
      ],
      [
        "c",
        "ity"
      ],
      [
        "g",
        "re"
      ],
      [
        "w",
        "ell"
      ],
      [
        "su",
        "b"
      ],
      [
        "am",
        "es"
      ],
      [
        "e",
        "le"
      ],
      [
        "at",
        "ing"
      ],
      [
        "se",
        "t"
      ],
      [
        "l",
        "ed"
      ],
      [
        "w",
        "est"
      ],
      [
        "00",
        "0"
      ],
      [
        "wor",
        "ld"
      ],
      [
        "ur",
        "y"
      ],
      [
        "t",
        "ain"
      ],
      [
        "f",
        "r"
      ],
      [
        "ish",
        "ed"
      ],
      [
        "spe",
        "c"
      ],
      [
        "c",
        "ur"
      ],
      [
        "s",
        "ur"
      ],
      [
        "a",
        "id"
      ],
      [
        "am",
        "er"
      ],
      [
        "b",
        "ar"
      ],
      [
        "il",
        "y"
      ],
      [
        "ard",
        "s"
      ],
      [
        "p",
        "op"
      ],
      [
        "ap",
        "pe"
      ],
      [
        "ad",
        "d"
      ],
      [
        "o",
        "se"
      ],
      [
        "o",
        "s"
      ],
      [
        "r",
        "y"
      ],
      [
        "a",
        "z"
      ],
      [
        "c",
        "i"
      ],
      [
        "l",
        "ine"
      ],
      [
        "n",
        "ational"
      ],
      [
        "be",
        "fore"
      ],
      [
        "mus",
        "ic"
      ],
      [
        "man",
        "y"
      ],
      [
        "h",
        "ist"
      ],
      [
        "con",
        "s"
      ],
      [
        "h",
        "o"
      ],
      [
        "br",
        "it"
      ],
      [
        ".",
        "."
      ],
      [
        "l",
        "an"
      ],
      [
        "c",
        "a"
      ],
      [
        "num",
        "ber"
      ],
      [
        "su",
        "p"
      ],
      [
        "su",
        "ch"
      ],
      [
        "m",
        "u"
      ],
      [
        "st",
        "ud"
      ],
      [
        "ic",
        "s"
      ],
      [
        "iv",
        "ed"
      ],
      [
        "lo",
        "c"
      ],
      [
        "be",
        "ing"
      ],
      [
        "it",
        "ies"
      ],
      [
        "bo",
        "th"
      ],
      [
        "nor",
        "th"
      ],
      [
        "b",
        "el"
      ],
      [
        "d",
        "ire"
      ],
      [
        "ser",
        "ies"
      ],
      [
        "1",
        "6"
      ],
      [
        "1",
        "7"
      ],
      [
        "s",
        "im"
      ],
      [
        "1",
        "2"
      ],
      [
        "w",
        "ill"
      ],
      [
        "ser",
        "v"
      ],
      [
        "d",
        "iv"
      ],
      [
        "op",
        "er"
      ],
      [
        "h",
        "n"
      ],
      [
        "n",
        "ing"
      ],
      [
        "year",
        "s"
      ],
      [
        "se",
        "ver"
      ],
      [
        "c",
        "er"
      ],
      [
        "st",
        "ate"
      ],
      [
        "c",
        "are"
      ],
      [
        "amer",
        "ic"
      ],
      [
        "i",
        "ous"
      ],
      [
        "c",
        "or"
      ],
      [
        "v",
        "en"
      ],
      [
        "i",
        "i"
      ],
      [
        "b",
        "all"
      ],
      [
        "re",
        "ce"
      ],
      [
        "po",
        "int"
      ],
      [
        "19",
        "8"
      ],
      [
        "f",
        "ound"
      ],
      [
        "u",
        "b"
      ],
      [
        "ur",
        "ch"
      ],
      [
        "ter",
        "s"
      ],
      [
        "d",
        "own"
      ],
      [
        "al",
        "e"
      ],
      [
        "e",
        "f"
      ],
      [
        "m",
        "em"
      ],
      [
        "si",
        "de"
      ],
      [
        "on",
        "d"
      ],
      [
        "appe",
        "ar"
      ],
      [
        "jo",
        "hn"
      ],
      [
        "u",
        "ary"
      ],
      [
        "l",
        "ong"
      ],
      [
        "sou",
        "th"
      ],
      [
        "in",
        "ce"
      ],
      [
        "u",
        "al"
      ],
      [
        "un",
        "ited"
      ],
      [
        "1",
        "5"
      ],
      [
        "how",
        "ever"
      ],
      [
        "in",
        "s"
      ],
      [
        "c",
        "ri"
      ],
      [
        "cr",
        "it"
      ],
      [
        "au",
        "se"
      ],
      [
        "st",
        "or"
      ],
      [
        "is",
        "e"
      ],
      [
        "gen",
        "er"
      ],
      [
        "k",
        "s"
      ],
      [
        "the",
        "se"
      ],
      [
        "sh",
        "ow"
      ],
      [
        "m",
        "ill"
      ],
      [
        "f",
        "i"
      ],
      [
        "su",
        "l"
      ],
      [
        "un",
        "t"
      ],
      [
        "or",
        "ig"
      ],
      [
        "op",
        "en"
      ],
      [
        "m",
        "at"
      ],
      [
        "p",
        "ed"
      ],
      [
        "te",
        "am"
      ],
      [
        "includ",
        "ing"
      ],
      [
        "if",
        "ic"
      ],
      [
        "c",
        "ro"
      ],
      [
        "al",
        "though"
      ],
      [
        "char",
        "ac"
      ],
      [
        "su",
        "c"
      ],
      [
        "e",
        "ast"
      ],
      [
        "again",
        "st"
      ],
      [
        "s",
        "m"
      ],
      [
        "tr",
        "y"
      ],
      [
        "fe",
        "at"
      ],
      [
        "o",
        "b"
      ],
      [
        "tow",
        "n"
      ],
      [
        "f",
        "am"
      ],
      [
        "f",
        "t"
      ],
      [
        "in",
        "v"
      ],
      [
        "le",
        "ad"
      ],
      [
        "orig",
        "in"
      ],
      [
        "ear",
        "ly"
      ],
      [
        "d",
        "am"
      ],
      [
        "ol",
        "og"
      ],
      [
        "bec",
        "ame"
      ],
      [
        "j",
        "an"
      ],
      [
        "in",
        "es"
      ],
      [
        "pro",
        "te"
      ],
      [
        "sever",
        "al"
      ],
      [
        "h",
        "y"
      ],
      [
        "is",
        "ed"
      ],
      [
        "le",
        "g"
      ],
      [
        "b",
        "ed"
      ],
      [
        "co",
        "ver"
      ],
      [
        "des",
        "cri"
      ],
      [
        "19",
        "4"
      ],
      [
        "m",
        "er"
      ],
      [
        "de",
        "vel"
      ],
      [
        "id",
        "ent"
      ],
      [
        "p",
        "or"
      ],
      [
        "t",
        "ing"
      ],
      [
        "ch",
        "urch"
      ],
      [
        "publ",
        "ic"
      ],
      [
        "li",
        "ke"
      ],
      [
        "at",
        "ive"
      ],
      [
        "kn",
        "own"
      ],
      [
        "ro",
        "y"
      ],
      [
        "ch",
        "r"
      ],
      [
        "l",
        "ight"
      ],
      [
        "s",
        "ign"
      ],
      [
        "follow",
        "ing"
      ],
      [
        "g",
        "over"
      ],
      [
        "m",
        "et"
      ],
      [
        "cent",
        "ury"
      ],
      [
        "devel",
        "op"
      ],
      [
        "d",
        "if"
      ],
      [
        "h",
        "ou"
      ],
      [
        "h",
        "am"
      ],
      [
        "v",
        "em"
      ],
      [
        "l",
        "if"
      ],
      [
        "per",
        "i"
      ],
      [
        "ep",
        "is"
      ],
      [
        "m",
        "il"
      ],
      [
        "brit",
        "ish"
      ],
      [
        "ro",
        "l"
      ],
      [
        "1",
        "3"
      ],
      [
        "p",
        "ers"
      ],
      [
        "o",
        "ol"
      ],
      [
        "re",
        "main"
      ],
      [
        "he",
        "ad"
      ],
      [
        "d",
        "y"
      ],
      [
        "p",
        "ass"
      ],
      [
        "gu",
        "st"
      ],
      [
        "cont",
        "in"
      ],
      [
        "d",
        "om"
      ],
      [
        "res",
        "s"
      ],
      [
        "ak",
        "ing"
      ],
      [
        "si",
        "x"
      ],
      [
        "comp",
        "le"
      ],
      [
        "d",
        "er"
      ],
      [
        "d",
        "ist"
      ],
      [
        "o",
        "de"
      ],
      [
        "suc",
        "cess"
      ],
      [
        "t",
        "it"
      ],
      [
        "sch",
        "ool"
      ],
      [
        "be",
        "gan"
      ],
      [
        "bec",
        "ause"
      ],
      [
        "vi",
        "de"
      ],
      [
        "c",
        "ial"
      ],
      [
        "f",
        "a"
      ],
      [
        "de",
        "c"
      ],
      [
        "op",
        "le"
      ],
      [
        "pres",
        "ent"
      ],
      [
        "c",
        "y"
      ],
      [
        "m",
        "is"
      ],
      [
        "t",
        "ro"
      ],
      [
        "u",
        "res"
      ],
      [
        "is",
        "ion"
      ],
      [
        "y",
        "ou"
      ],
      [
        "je",
        "ct"
      ],
      [
        "off",
        "ic"
      ],
      [
        "b",
        "att"
      ],
      [
        "k",
        "ed"
      ],
      [
        "s",
        "aid"
      ],
      [
        "we",
        "e"
      ],
      [
        "pos",
        "ition"
      ],
      [
        "call",
        "ed"
      ],
      [
        "p",
        "ow"
      ],
      [
        "1",
        "4"
      ],
      [
        "de",
        "f"
      ],
      [
        "c",
        "ast"
      ],
      [
        "n",
        "am"
      ],
      [
        "le",
        "y"
      ],
      [
        "bo",
        "ok"
      ],
      [
        "h",
        "a"
      ],
      [
        "19",
        "7"
      ],
      [
        "d",
        "id"
      ],
      [
        "pe",
        "ople"
      ],
      [
        "sel",
        "f"
      ],
      [
        "j",
        "un"
      ],
      [
        "3",
        "0"
      ],
      [
        "m",
        "s"
      ],
      [
        "st",
        "ates"
      ],
      [
        "end",
        "ed"
      ],
      [
        "al",
        "ong"
      ],
      [
        "19",
        "6"
      ],
      [
        "ne",
        "ar"
      ],
      [
        "c",
        "ould"
      ],
      [
        "r",
        "un"
      ],
      [
        "au",
        "gust"
      ],
      [
        "iv",
        "er"
      ],
      [
        "ret",
        "urn"
      ],
      [
        "ment",
        "s"
      ],
      [
        "i",
        "b"
      ],
      [
        "w",
        "in"
      ],
      [
        "rele",
        "ased"
      ],
      [
        "b",
        "or"
      ],
      [
        "f",
        "ive"
      ],
      [
        "de",
        "p"
      ],
      [
        "l",
        "ist"
      ],
      [
        "c",
        "our"
      ],
      [
        "dire",
        "ct"
      ],
      [
        "t",
        "al"
      ],
      [
        "v",
        "al"
      ],
      [
        "i",
        "de"
      ],
      [
        "g",
        "un"
      ],
      [
        "u",
        "ally"
      ],
      [
        "v",
        "ar"
      ],
      [
        "it",
        "al"
      ],
      [
        "gro",
        "up"
      ],
      [
        "b",
        "re"
      ],
      [
        "c",
        "le"
      ],
      [
        "s",
        "ince"
      ],
      [
        "l",
        "it"
      ],
      [
        "comp",
        "any"
      ],
      [
        "iz",
        "ed"
      ],
      [
        "ir",
        "d"
      ],
      [
        "des",
        "ign"
      ],
      [
        "unt",
        "il"
      ],
      [
        "g",
        "est"
      ],
      [
        "g",
        "y"
      ],
      [
        "pl",
        "ac"
      ],
      [
        "bl",
        "ack"
      ],
      [
        "st",
        "art"
      ],
      [
        "be",
        "st"
      ],
      [
        "t",
        "re"
      ],
      [
        "fin",
        "al"
      ],
      [
        "mill",
        "ion"
      ],
      [
        "d",
        "i"
      ],
      [
        "h",
        "ar"
      ],
      [
        "y",
        "s"
      ],
      [
        "m",
        "en"
      ],
      [
        "g",
        "ames"
      ],
      [
        "h",
        "el"
      ],
      [
        "ju",
        "st"
      ],
      [
        "gover",
        "n"
      ],
      [
        "lif",
        "e"
      ],
      [
        "epis",
        "ode"
      ],
      [
        "f",
        "ran"
      ],
      [
        "or",
        "k"
      ],
      [
        "b",
        "and"
      ],
      [
        "st",
        "ar"
      ],
      [
        "americ",
        "an"
      ],
      [
        "u",
        "se"
      ],
      [
        "5",
        "0"
      ],
      [
        "ce",
        "pt"
      ],
      [
        "com",
        "e"
      ],
      [
        "as",
        "h"
      ],
      [
        "ma",
        "j"
      ],
      [
        "s",
        "ame"
      ],
      [
        "att",
        "ack"
      ],
      [
        "fi",
        "eld"
      ],
      [
        "m",
        "oun"
      ],
      [
        "comm",
        "and"
      ],
      [
        "x",
        "t"
      ],
      [
        "d",
        "el"
      ],
      [
        "to",
        "p"
      ],
      [
        "ag",
        "ed"
      ],
      [
        "sup",
        "port"
      ],
      [
        "g",
        "et"
      ],
      [
        "so",
        "ci"
      ],
      [
        "play",
        "ed"
      ],
      [
        "l",
        "ess"
      ],
      [
        "m",
        "ag"
      ],
      [
        "gro",
        "und"
      ],
      [
        "e",
        "u"
      ],
      [
        "an",
        "e"
      ],
      [
        "se",
        "p"
      ],
      [
        "id",
        "ed"
      ],
      [
        "a",
        "im"
      ],
      [
        "f",
        "le"
      ],
      [
        "bu",
        "ild"
      ],
      [
        "re",
        "ad"
      ],
      [
        "cl",
        "ass"
      ],
      [
        "h",
        "al"
      ],
      [
        "h",
        "av"
      ],
      [
        "tr",
        "ans"
      ],
      [
        "h",
        "or"
      ],
      [
        "an",
        "other"
      ],
      [
        "ther",
        "n"
      ],
      [
        "sm",
        "all"
      ],
      [
        "al",
        "i"
      ],
      [
        "le",
        "ag"
      ],
      [
        "ch",
        "ild"
      ],
      [
        "e",
        "ach"
      ],
      [
        "gr",
        "ap"
      ],
      [
        "h",
        "ome"
      ],
      [
        "iv",
        "ers"
      ],
      [
        "form",
        "ed"
      ],
      [
        "f",
        "ur"
      ],
      [
        "i",
        "er"
      ],
      [
        "ar",
        "ound"
      ],
      [
        "cl",
        "ub"
      ],
      [
        "gre",
        "at"
      ],
      [
        "c",
        "amp"
      ],
      [
        "charac",
        "ter"
      ],
      [
        "o",
        "re"
      ],
      [
        "ist",
        "s"
      ],
      [
        "tem",
        "ber"
      ],
      [
        "sep",
        "tember"
      ],
      [
        "ger",
        "man"
      ],
      [
        "f",
        "ed"
      ],
      [
        "wh",
        "at"
      ],
      [
        "maj",
        "or"
      ],
      [
        "v",
        "o"
      ],
      [
        "n",
        "ow"
      ],
      [
        "ad",
        "v"
      ],
      [
        "p",
        "rom"
      ],
      [
        "r",
        "on"
      ],
      [
        "re",
        "port"
      ],
      [
        "re",
        "view"
      ],
      [
        "de",
        "st"
      ],
      [
        "cons",
        "id"
      ],
      [
        "k",
        "m"
      ],
      [
        "h",
        "um"
      ],
      [
        "c",
        "ut"
      ],
      [
        "l",
        "ast"
      ],
      [
        "n",
        "er"
      ],
      [
        "pow",
        "er"
      ],
      [
        "hist",
        "ory"
      ],
      [
        "st",
        "and"
      ],
      [
        "re",
        "qu"
      ],
      [
        "ro",
        "ad"
      ],
      [
        "to",
        "ok"
      ],
      [
        "ev",
        "en"
      ],
      [
        "m",
        "or"
      ],
      [
        "od",
        "y"
      ],
      [
        "af",
        "t"
      ],
      [
        "s",
        "l"
      ],
      [
        "s",
        "om"
      ],
      [
        "in",
        "a"
      ],
      [
        "govern",
        "ment"
      ],
      [
        "p",
        "at"
      ],
      [
        "fam",
        "ily"
      ],
      [
        "p",
        "en"
      ],
      [
        "sh",
        "ort"
      ],
      [
        "n",
        "ame"
      ],
      [
        "ur",
        "ed"
      ],
      [
        "1",
        "1"
      ],
      [
        "st",
        "em"
      ],
      [
        "v",
        "es"
      ],
      [
        "are",
        "a"
      ],
      [
        "fed",
        "er"
      ],
      [
        "d",
        "en"
      ],
      [
        "w",
        "ard"
      ],
      [
        "ir",
        "ed"
      ],
      [
        "te",
        "ch"
      ],
      [
        "vide",
        "o"
      ],
      [
        "leag",
        "ue"
      ],
      [
        "l",
        "aw"
      ],
      [
        "ur",
        "al"
      ],
      [
        "all",
        "ow"
      ],
      [
        "ac",
        "cord"
      ],
      [
        "con",
        "tr"
      ],
      [
        "ion",
        "al"
      ],
      [
        "fo",
        "ot"
      ],
      [
        "oc",
        "to"
      ],
      [
        "hou",
        "se"
      ],
      [
        "octo",
        "ber"
      ],
      [
        "r",
        "u"
      ],
      [
        "s",
        "k"
      ],
      [
        "g",
        "od"
      ],
      [
        "n",
        "a"
      ],
      [
        "w",
        "on"
      ],
      [
        "fe",
        "ct"
      ],
      [
        "str",
        "al"
      ],
      [
        "re",
        "sul"
      ],
      [
        "rece",
        "ived"
      ],
      [
        "in",
        "ed"
      ],
      [
        "pers",
        "on"
      ],
      [
        "ro",
        "w"
      ],
      [
        "ship",
        "s"
      ],
      [
        "contin",
        "u"
      ],
      [
        "g",
        "in"
      ],
      [
        "p",
        "ical"
      ],
      [
        "o",
        "od"
      ],
      [
        "ag",
        "es"
      ],
      [
        "0",
        "s"
      ],
      [
        "b",
        "ers"
      ],
      [
        "c",
        "up"
      ],
      [
        "g",
        "iv"
      ],
      [
        "w",
        "ater"
      ],
      [
        "re",
        "ach"
      ],
      [
        "mar",
        "k"
      ],
      [
        "l",
        "ish"
      ],
      [
        "2",
        "5"
      ],
      [
        "y",
        "ork"
      ],
      [
        "du",
        "e"
      ],
      [
        "mar",
        "ch"
      ],
      [
        "l",
        "a"
      ],
      [
        "accord",
        "ing"
      ],
      [
        "au",
        "stral"
      ],
      [
        "song",
        "s"
      ],
      [
        "de",
        "ath"
      ],
      [
        "jan",
        "uary"
      ],
      [
        "jun",
        "e"
      ],
      [
        "z",
        "e"
      ],
      [
        "ain",
        "ed"
      ],
      [
        "sc",
        "i"
      ],
      [
        "ro",
        "ck"
      ],
      [
        "tim",
        "es"
      ],
      [
        "chr",
        "ist"
      ],
      [
        "a",
        "e"
      ],
      [
        "part",
        "ic"
      ],
      [
        "t",
        "le"
      ],
      [
        "on",
        "y"
      ],
      [
        "st",
        "ory"
      ],
      [
        "con",
        "stru"
      ],
      [
        "em",
        "ent"
      ],
      [
        "vi",
        "ous"
      ],
      [
        "ro",
        "te"
      ],
      [
        "sing",
        "le"
      ],
      [
        "f",
        "ic"
      ],
      [
        "wh",
        "ite"
      ],
      [
        "w",
        "rote"
      ],
      [
        "th",
        "ird"
      ],
      [
        "pl",
        "ace"
      ],
      [
        "r",
        "ight"
      ],
      [
        "l",
        "ing"
      ],
      [
        "is",
        "m"
      ],
      [
        "to",
        "ur"
      ],
      [
        "eu",
        "ro"
      ],
      [
        "sy",
        "stem"
      ],
      [
        "m",
        "id"
      ],
      [
        "il",
        "t"
      ],
      [
        "p",
        "le"
      ],
      [
        "at",
        "s"
      ],
      [
        "stor",
        "m"
      ],
      [
        "dy",
        "lan"
      ],
      [
        "nam",
        "ed"
      ],
      [
        "is",
        "su"
      ],
      [
        "res",
        "p"
      ],
      [
        "no",
        "vem"
      ],
      [
        "novem",
        "ber"
      ],
      [
        "on",
        "s"
      ],
      [
        "it",
        "ar"
      ],
      [
        "s",
        "w"
      ],
      [
        "f",
        "ri"
      ],
      [
        "or",
        "gan"
      ],
      [
        "t",
        "urn"
      ],
      [
        "with",
        "in"
      ],
      [
        "19",
        "3"
      ],
      [
        "descri",
        "bed"
      ],
      [
        "g",
        "ar"
      ],
      [
        "p",
        "ri"
      ],
      [
        "r",
        "il"
      ],
      [
        "se",
        "qu"
      ],
      [
        "pro",
        "v"
      ],
      [
        "s",
        "ent"
      ],
      [
        "includ",
        "ed"
      ],
      [
        "il",
        "ity"
      ],
      [
        "cl",
        "aim"
      ],
      [
        "mu",
        "ch"
      ],
      [
        "ren",
        "ch"
      ],
      [
        "s",
        "ol"
      ],
      [
        "st",
        "y"
      ],
      [
        "ju",
        "ly"
      ],
      [
        "..",
        "."
      ],
      [
        "b",
        "a"
      ],
      [
        "v",
        "ill"
      ],
      [
        "ap",
        "ril"
      ],
      [
        "ord",
        "er"
      ],
      [
        "ap",
        "pro"
      ],
      [
        "tr",
        "ack"
      ],
      [
        "lar",
        "ge"
      ],
      [
        "add",
        "ition"
      ],
      [
        "le",
        "t"
      ],
      [
        "for",
        "t"
      ],
      [
        "for",
        "ce"
      ],
      [
        "div",
        "ision"
      ],
      [
        "at",
        "ely"
      ],
      [
        "pre",
        "vious"
      ],
      [
        "produ",
        "ction"
      ],
      [
        "re",
        "st"
      ],
      [
        "origin",
        "al"
      ],
      [
        "ch",
        "an"
      ],
      [
        "ian",
        "s"
      ],
      [
        "iv",
        "ely"
      ],
      [
        "b",
        "ased"
      ],
      [
        "le",
        "ft"
      ],
      [
        "de",
        "ce"
      ],
      [
        "l",
        "ate"
      ],
      [
        "st",
        "re"
      ],
      [
        "care",
        "er"
      ],
      [
        "eng",
        "land"
      ],
      [
        "s",
        "qu"
      ],
      [
        "j",
        "ack"
      ],
      [
        "19",
        "5"
      ],
      [
        "f",
        "ar"
      ],
      [
        "h",
        "and"
      ],
      [
        "v",
        "ol"
      ],
      [
        "av",
        "y"
      ],
      [
        "b",
        "as"
      ],
      [
        "th",
        "ing"
      ],
      [
        "f",
        "all"
      ],
      [
        "in",
        "cre"
      ],
      [
        "mo",
        "ved"
      ],
      [
        "200",
        "9"
      ],
      [
        "bu",
        "ilt"
      ],
      [
        "200",
        "8"
      ],
      [
        "play",
        "er"
      ],
      [
        "th",
        "or"
      ],
      [
        "s",
        "ite"
      ],
      [
        "en",
        "ces"
      ],
      [
        "tem",
        "pt"
      ],
      [
        "b",
        "ill"
      ],
      [
        "in",
        "it"
      ],
      [
        "an",
        "k"
      ],
      [
        "201",
        "0"
      ],
      [
        "w",
        "n"
      ],
      [
        "w",
        "ood"
      ],
      [
        "pres",
        "s"
      ],
      [
        "for",
        "man"
      ],
      [
        "pos",
        "ed"
      ],
      [
        "spec",
        "ies"
      ],
      [
        "h",
        "ur"
      ],
      [
        "u",
        "de"
      ],
      [
        "pe",
        "ct"
      ],
      [
        "ex",
        "pl"
      ],
      [
        "ch",
        "art"
      ],
      [
        "ro",
        "ss"
      ],
      [
        "ain",
        "s"
      ],
      [
        "if",
        "ied"
      ],
      [
        "ak",
        "es"
      ],
      [
        "col",
        "le"
      ],
      [
        "un",
        "ivers"
      ],
      [
        "per",
        "forman"
      ],
      [
        "wee",
        "k"
      ],
      [
        "m",
        "ake"
      ],
      [
        "ver",
        "y"
      ],
      [
        "m",
        "ber"
      ],
      [
        "f",
        "rench"
      ],
      [
        "u",
        "te"
      ],
      [
        "er",
        "y"
      ],
      [
        "lo",
        "ve"
      ],
      [
        "gu",
        "itar"
      ],
      [
        "dece",
        "mber"
      ],
      [
        "im",
        "e"
      ],
      [
        "c",
        "as"
      ],
      [
        "peri",
        "od"
      ],
      [
        "th",
        "ose"
      ],
      [
        "g",
        "l"
      ],
      [
        "h",
        "ol"
      ],
      [
        "i",
        "um"
      ],
      [
        "at",
        "tempt"
      ],
      [
        "dif",
        "fer"
      ],
      [
        "w",
        "ind"
      ],
      [
        "ial",
        "ly"
      ],
      [
        "s",
        "en"
      ],
      [
        "s",
        "ay"
      ],
      [
        "am",
        "ent"
      ],
      [
        "wh",
        "e"
      ],
      [
        "iv",
        "es"
      ],
      [
        "et",
        "s"
      ],
      [
        "gener",
        "al"
      ],
      [
        "f",
        "ire"
      ],
      [
        "re",
        "al"
      ],
      [
        "w",
        "al"
      ],
      [
        "on",
        "t"
      ],
      [
        "or",
        "ed"
      ],
      [
        "it",
        "ch"
      ],
      [
        "op",
        "s"
      ],
      [
        "ber",
        "t"
      ],
      [
        "t",
        "or"
      ],
      [
        "ant",
        "s"
      ],
      [
        "us",
        "ing"
      ],
      [
        "te",
        "le"
      ],
      [
        "rom",
        "an"
      ],
      [
        "loc",
        "al"
      ],
      [
        "is",
        "land"
      ],
      [
        "her",
        "o"
      ],
      [
        "b",
        "ur"
      ],
      [
        "g",
        "ed"
      ],
      [
        "ro",
        "le"
      ],
      [
        "est",
        "ab"
      ],
      [
        "n",
        "ess"
      ],
      [
        "se",
        "e"
      ],
      [
        "mat",
        "ch"
      ],
      [
        "n",
        "ight"
      ],
      [
        "ev",
        "ent"
      ],
      [
        "euro",
        "pe"
      ],
      [
        "2",
        "4"
      ],
      [
        "a",
        "h"
      ],
      [
        "comm",
        "un"
      ],
      [
        "k",
        "ill"
      ],
      [
        "st",
        "it"
      ],
      [
        "ar",
        "r"
      ],
      [
        "can",
        "ad"
      ],
      [
        "bel",
        "ie"
      ],
      [
        "batt",
        "le"
      ],
      [
        "fri",
        "end"
      ],
      [
        "record",
        "ed"
      ],
      [
        "form",
        "er"
      ],
      [
        "cent",
        "r"
      ],
      [
        "cont",
        "rol"
      ],
      [
        "mon",
        "th"
      ],
      [
        "s",
        "al"
      ],
      [
        "et",
        "y"
      ],
      [
        "ul",
        "ation"
      ],
      [
        "vis",
        "ion"
      ],
      [
        "l",
        "ab"
      ],
      [
        "v",
        "ir"
      ],
      [
        "ic",
        "o"
      ],
      [
        "dr",
        "aw"
      ],
      [
        "hal",
        "f"
      ],
      [
        "mo",
        "d"
      ],
      [
        "act",
        "ion"
      ],
      [
        "fl",
        "u"
      ],
      [
        "pol",
        "it"
      ],
      [
        "f",
        "ac"
      ],
      [
        "r",
        "ad"
      ],
      [
        "am",
        "ong"
      ],
      [
        "2",
        "1"
      ],
      [
        "rou",
        "te"
      ],
      [
        "ar",
        "k"
      ],
      [
        "str",
        "ong"
      ],
      [
        "fur",
        "ther"
      ],
      [
        "g",
        "al"
      ],
      [
        "v",
        "ict"
      ],
      [
        "il",
        "ar"
      ],
      [
        "po",
        "st"
      ],
      [
        "n",
        "at"
      ],
      [
        "rele",
        "ase"
      ],
      [
        "ical",
        "ly"
      ],
      [
        "p",
        "ut"
      ],
      [
        "w",
        "om"
      ],
      [
        "se",
        "ven"
      ],
      [
        "sp",
        "ort"
      ],
      [
        "b",
        "us"
      ],
      [
        "ent",
        "ly"
      ],
      [
        "aw",
        "ard"
      ],
      [
        "id",
        "es"
      ],
      [
        "g",
        "a"
      ],
      [
        "l",
        "in"
      ],
      [
        "pr",
        "of"
      ],
      [
        "n",
        "ed"
      ],
      [
        "cr",
        "aft"
      ],
      [
        "at",
        "ter"
      ],
      [
        "c",
        "ame"
      ],
      [
        "st",
        "ill"
      ],
      [
        "for",
        "d"
      ],
      [
        "c",
        "us"
      ],
      [
        "mil",
        "it"
      ],
      [
        "in",
        "du"
      ],
      [
        "sim",
        "ilar"
      ],
      [
        "f",
        "lo"
      ],
      [
        "su",
        "m"
      ],
      [
        "ire",
        "land"
      ],
      [
        "st",
        "at"
      ],
      [
        "ro",
        "und"
      ],
      [
        "ne",
        "xt"
      ],
      [
        "qu",
        "ar"
      ],
      [
        "bo",
        "ard"
      ],
      [
        "201",
        "1"
      ],
      [
        "y",
        "oun"
      ],
      [
        "au",
        "thor"
      ],
      [
        "coun",
        "ty"
      ],
      [
        "as",
        "soci"
      ],
      [
        "iv",
        "al"
      ],
      [
        "tit",
        "le"
      ],
      [
        "c",
        "ou"
      ],
      [
        "l",
        "im"
      ],
      [
        "p",
        "al"
      ],
      [
        "im",
        "port"
      ],
      [
        "ne",
        "ver"
      ],
      [
        "200",
        "7"
      ],
      [
        "hist",
        "or"
      ],
      [
        "lo",
        "ck"
      ],
      [
        "1",
        "00"
      ],
      [
        "s",
        "it"
      ],
      [
        "gr",
        "and"
      ],
      [
        "c",
        "ult"
      ],
      [
        "p",
        "a"
      ],
      [
        "is",
        "on"
      ],
      [
        "aw",
        "ay"
      ],
      [
        "2",
        "3"
      ],
      [
        "g",
        "old"
      ],
      [
        "pro",
        "ject"
      ],
      [
        "r",
        "ing"
      ],
      [
        "ar",
        "my"
      ],
      [
        "pt",
        "ion"
      ],
      [
        "f",
        "act"
      ],
      [
        "m",
        "c"
      ],
      [
        "su",
        "per"
      ],
      [
        "tr",
        "ad"
      ],
      [
        "inter",
        "national"
      ],
      [
        "d",
        "on"
      ],
      [
        "st",
        "on"
      ],
      [
        "pos",
        "si"
      ],
      [
        "min",
        "ist"
      ],
      [
        "2",
        "8"
      ],
      [
        "m",
        "al"
      ],
      [
        "pop",
        "ular"
      ],
      [
        "consid",
        "ered"
      ],
      [
        "re",
        "fer"
      ],
      [
        "man",
        "ag"
      ],
      [
        "r",
        "ich"
      ],
      [
        "v",
        "ent"
      ],
      [
        "200",
        "6"
      ],
      [
        "writ",
        "ten"
      ],
      [
        "ch",
        "amp"
      ],
      [
        "serv",
        "ice"
      ],
      [
        "qu",
        "e"
      ],
      [
        "plac",
        "ed"
      ],
      [
        "child",
        "ren"
      ],
      [
        "b",
        "al"
      ],
      [
        "201",
        "3"
      ],
      [
        "h",
        "eld"
      ],
      [
        "2",
        "6"
      ],
      [
        "st",
        "ri"
      ],
      [
        "au",
        "gh"
      ],
      [
        "of",
        "ten"
      ],
      [
        "des",
        "p"
      ],
      [
        "par",
        "k"
      ],
      [
        "hav",
        "ing"
      ],
      [
        "h",
        "old"
      ],
      [
        "ver",
        "sion"
      ],
      [
        "cr",
        "u"
      ],
      [
        "ch",
        "ang"
      ],
      [
        "ain",
        "ing"
      ],
      [
        "coun",
        "try"
      ],
      [
        "univers",
        "ity"
      ],
      [
        "r",
        "iver"
      ],
      [
        "with",
        "out"
      ],
      [
        "foot",
        "ball"
      ],
      [
        "hur",
        "ric"
      ],
      [
        "dest",
        "roy"
      ],
      [
        "act",
        "iv"
      ],
      [
        "stru",
        "ct"
      ],
      [
        "desp",
        "ite"
      ],
      [
        "br",
        "ig"
      ],
      [
        "gr",
        "am"
      ],
      [
        "b",
        "ody"
      ],
      [
        "s",
        "old"
      ],
      [
        "v",
        "ic"
      ],
      [
        "lo",
        "ok"
      ],
      [
        "publ",
        "ished"
      ],
      [
        "continu",
        "ed"
      ],
      [
        "su",
        "g"
      ],
      [
        "pl",
        "an"
      ],
      [
        "mi",
        "x"
      ],
      [
        "milit",
        "ary"
      ],
      [
        "ak",
        "en"
      ],
      [
        "high",
        "way"
      ],
      [
        "iv",
        "ing"
      ],
      [
        "go",
        "od"
      ],
      [
        "ever",
        "y"
      ],
      [
        "crit",
        "ic"
      ],
      [
        "f",
        "an"
      ],
      [
        "v",
        "ing"
      ],
      [
        "end",
        "ing"
      ],
      [
        "success",
        "ful"
      ],
      [
        "ef",
        "fect"
      ],
      [
        "fa",
        "ther"
      ],
      [
        "l",
        "ive"
      ],
      [
        "mem",
        "bers"
      ],
      [
        "sty",
        "le"
      ],
      [
        "m",
        "ich"
      ],
      [
        "n",
        "y"
      ],
      [
        "st",
        "er"
      ],
      [
        "te",
        "st"
      ],
      [
        "201",
        "2"
      ],
      [
        "ar",
        "ed"
      ],
      [
        "se",
        "a"
      ],
      [
        "day",
        "s"
      ],
      [
        "sug",
        "gest"
      ],
      [
        "el",
        "t"
      ],
      [
        "d",
        "ou"
      ],
      [
        "u",
        "k"
      ],
      [
        "ver",
        "s"
      ],
      [
        "eng",
        "lish"
      ],
      [
        "2",
        "7"
      ],
      [
        "t",
        "a"
      ],
      [
        "w",
        "ant"
      ],
      [
        "build",
        "ing"
      ],
      [
        "n",
        "es"
      ],
      [
        "u",
        "c"
      ],
      [
        "o",
        "y"
      ],
      [
        "r",
        "us"
      ],
      [
        "im",
        "ent"
      ],
      [
        "ste",
        "ad"
      ],
      [
        "b",
        "it"
      ],
      [
        "at",
        "ch"
      ],
      [
        "le",
        "vel"
      ],
      [
        "oc",
        "k"
      ],
      [
        "tro",
        "pical"
      ],
      [
        "constru",
        "ction"
      ],
      [
        "id",
        "ge"
      ],
      [
        "b",
        "en"
      ],
      [
        "e",
        "ight"
      ],
      [
        "f",
        "ree"
      ],
      [
        "br",
        "uary"
      ],
      [
        "fe",
        "bruary"
      ],
      [
        "in",
        "c"
      ],
      [
        "produ",
        "ced"
      ],
      [
        "f",
        "ind"
      ],
      [
        "t",
        "ake"
      ],
      [
        "writ",
        "ing"
      ],
      [
        "2",
        "2"
      ],
      [
        "b",
        "urn"
      ],
      [
        "for",
        "ces"
      ],
      [
        "lit",
        "tle"
      ],
      [
        "differ",
        "ent"
      ],
      [
        "p",
        "s"
      ],
      [
        "w",
        "all"
      ],
      [
        "fe",
        "w"
      ],
      [
        "e",
        "qu"
      ],
      [
        "re",
        "present"
      ],
      [
        "se",
        "arch"
      ],
      [
        "ri",
        "ed"
      ],
      [
        "report",
        "ed"
      ],
      [
        "s",
        "ound"
      ],
      [
        "to",
        "tal"
      ],
      [
        "through",
        "out"
      ],
      [
        "at",
        "or"
      ],
      [
        "com",
        "b"
      ],
      [
        "sc",
        "en"
      ],
      [
        "m",
        "aking"
      ],
      [
        "st",
        "ated"
      ],
      [
        "be",
        "come"
      ],
      [
        "ke",
        "y"
      ],
      [
        "centr",
        "al"
      ],
      [
        "d",
        "an"
      ],
      [
        "to",
        "m"
      ],
      [
        "mo",
        "ther"
      ],
      [
        "ast",
        "er"
      ],
      [
        "our",
        "s"
      ],
      [
        "ail",
        "ed"
      ],
      [
        "en",
        "se"
      ],
      [
        "se",
        "en"
      ],
      [
        "lo",
        "st"
      ],
      [
        "r",
        "ap"
      ],
      [
        "t",
        "ar"
      ],
      [
        "incl",
        "ude"
      ],
      [
        "roy",
        "al"
      ],
      [
        "te",
        "en"
      ],
      [
        "pres",
        "ident"
      ],
      [
        "feder",
        "er"
      ],
      [
        "2",
        "9"
      ],
      [
        "f",
        "re"
      ],
      [
        "f",
        "if"
      ],
      [
        "in",
        "flu"
      ],
      [
        "partic",
        "ular"
      ],
      [
        "is",
        "ing"
      ],
      [
        "cl",
        "ose"
      ],
      [
        "king",
        "dom"
      ],
      [
        "fle",
        "et"
      ],
      [
        "ch",
        "ap"
      ],
      [
        "ul",
        "l"
      ],
      [
        "play",
        "ers"
      ],
      [
        "hum",
        "an"
      ],
      [
        "f",
        "ace"
      ],
      [
        "de",
        "cl"
      ],
      [
        "ut",
        "ion"
      ],
      [
        "giv",
        "en"
      ],
      [
        "m",
        "ad"
      ],
      [
        "p",
        "ur"
      ],
      [
        "ran",
        "g"
      ],
      [
        "stud",
        "io"
      ],
      [
        "performan",
        "ce"
      ],
      [
        "f",
        "un"
      ],
      [
        "g",
        "ave"
      ],
      [
        "af",
        "ric"
      ],
      [
        "return",
        "ed"
      ],
      [
        "g",
        "n"
      ],
      [
        "i",
        "am"
      ],
      [
        "ap",
        "p"
      ],
      [
        "olog",
        "y"
      ],
      [
        "c",
        "u"
      ],
      [
        "el",
        "s"
      ],
      [
        "comm",
        "on"
      ],
      [
        "i",
        "or"
      ],
      [
        "ic",
        "es"
      ],
      [
        "ent",
        "er"
      ],
      [
        "ie",
        "f"
      ],
      [
        "inv",
        "ol"
      ],
      [
        "develop",
        "ment"
      ],
      [
        "resp",
        "on"
      ],
      [
        "hurric",
        "ane"
      ],
      [
        "in",
        "ation"
      ],
      [
        "ag",
        "re"
      ],
      [
        "um",
        "ent"
      ],
      [
        "cap",
        "t"
      ],
      [
        "youn",
        "g"
      ],
      [
        "l",
        "ond"
      ],
      [
        "cour",
        "t"
      ],
      [
        "b",
        "ri"
      ],
      [
        "j",
        "ord"
      ],
      [
        "per",
        "formed"
      ],
      [
        "w",
        "il"
      ],
      [
        "su",
        "re"
      ],
      [
        "tr",
        "u"
      ],
      [
        "direct",
        "or"
      ],
      [
        "b",
        "ow"
      ],
      [
        "ser",
        "ved"
      ],
      [
        "nor",
        "thern"
      ],
      [
        "lond",
        "on"
      ],
      [
        "p",
        "an"
      ],
      [
        "s",
        "ar"
      ],
      [
        "tele",
        "vision"
      ],
      [
        "co",
        "ast"
      ],
      [
        "reach",
        "ed"
      ],
      [
        "tr",
        "av"
      ],
      [
        "po",
        "em"
      ],
      [
        "west",
        "ern"
      ],
      [
        "fr",
        "ont"
      ],
      [
        "grap",
        "h"
      ],
      [
        "sc",
        "ot"
      ],
      [
        "jord",
        "an"
      ],
      [
        "tr",
        "a"
      ],
      [
        "e",
        "i"
      ],
      [
        "f",
        "ig"
      ],
      [
        "l",
        "er"
      ],
      [
        "h",
        "ind"
      ],
      [
        "su",
        "f"
      ],
      [
        "ab",
        "ly"
      ],
      [
        "gun",
        "s"
      ],
      [
        "un",
        "ch"
      ],
      [
        "sou",
        "thern"
      ],
      [
        "bor",
        "n"
      ],
      [
        "d",
        "av"
      ],
      [
        "com",
        "ing"
      ],
      [
        "mod",
        "ern"
      ],
      [
        "f",
        "em"
      ],
      [
        "n",
        "on"
      ],
      [
        "is",
        "sion"
      ],
      [
        "ol",
        "iv"
      ],
      [
        "ran",
        "ge"
      ],
      [
        "mis",
        "s"
      ],
      [
        "offic",
        "ial"
      ],
      [
        "4",
        "0"
      ],
      [
        "n",
        "ia"
      ],
      [
        "w",
        "ent"
      ],
      [
        "re",
        "f"
      ],
      [
        "st",
        "ation"
      ],
      [
        "not",
        "ed"
      ],
      [
        "develop",
        "ed"
      ],
      [
        "in",
        "o"
      ],
      [
        "ction",
        "s"
      ],
      [
        "ann",
        "oun"
      ],
      [
        "ele",
        "ct"
      ],
      [
        "to",
        "o"
      ],
      [
        "h",
        "ot"
      ],
      [
        "oc",
        "cur"
      ],
      [
        "pop",
        "ulation"
      ],
      [
        "var",
        "ious"
      ],
      [
        "cle",
        "ar"
      ],
      [
        "trad",
        "ition"
      ],
      [
        "v",
        "an"
      ],
      [
        "be",
        "y"
      ],
      [
        "will",
        "iam"
      ],
      [
        "c",
        "ell"
      ],
      [
        "com",
        "pe"
      ],
      [
        "play",
        "ing"
      ],
      [
        "way",
        "s"
      ],
      [
        "dam",
        "age"
      ],
      [
        "b",
        "an"
      ],
      [
        "st",
        "one"
      ],
      [
        "se",
        "m"
      ],
      [
        "int",
        "ro"
      ],
      [
        "on",
        "ce"
      ],
      [
        "arch",
        "ae"
      ],
      [
        "c",
        "iv"
      ],
      [
        "c",
        "op"
      ],
      [
        "d",
        "ied"
      ],
      [
        "h",
        "on"
      ],
      [
        "id",
        "ence"
      ],
      [
        "ain",
        "t"
      ],
      [
        "sh",
        "ould"
      ],
      [
        "cover",
        "ed"
      ],
      [
        "ap",
        "point"
      ],
      [
        "pr",
        "im"
      ],
      [
        "de",
        "but"
      ],
      [
        "me",
        "an"
      ],
      [
        "bro",
        "wn"
      ],
      [
        "j",
        "ames"
      ],
      [
        "are",
        "n"
      ],
      [
        "cer",
        "t"
      ],
      [
        "c",
        "il"
      ],
      [
        "h",
        "om"
      ],
      [
        "h",
        "ill"
      ],
      [
        "st",
        "ant"
      ],
      [
        "ear",
        "li"
      ],
      [
        "h",
        "op"
      ],
      [
        "i",
        "but"
      ],
      [
        "go",
        "al"
      ],
      [
        "ex",
        "t"
      ],
      [
        "whe",
        "el"
      ],
      [
        "k",
        "en"
      ],
      [
        "inter",
        "est"
      ],
      [
        "record",
        "ing"
      ],
      [
        "ful",
        "l"
      ],
      [
        "in",
        "k"
      ],
      [
        "200",
        "4"
      ],
      [
        "mil",
        "es"
      ],
      [
        "tech",
        "n"
      ],
      [
        "prof",
        "ess"
      ],
      [
        "c",
        "ing"
      ],
      [
        "n",
        "al"
      ],
      [
        "bro",
        "ad"
      ],
      [
        "import",
        "ant"
      ],
      [
        "champ",
        "ion"
      ],
      [
        "n",
        "s"
      ],
      [
        "tr",
        "an"
      ],
      [
        "cre",
        "ated"
      ],
      [
        "him",
        "self"
      ],
      [
        "resul",
        "t"
      ],
      [
        "squ",
        "ad"
      ],
      [
        "m",
        "m"
      ],
      [
        "r",
        "ain"
      ],
      [
        "s",
        "af"
      ],
      [
        "in",
        "stead"
      ],
      [
        "sign",
        "ific"
      ],
      [
        "re",
        "w"
      ],
      [
        "ag",
        "o"
      ],
      [
        "ne",
        "ed"
      ],
      [
        "f",
        "elt"
      ],
      [
        "v",
        "oc"
      ],
      [
        "mem",
        "ber"
      ],
      [
        "am",
        "a"
      ],
      [
        "av",
        "es"
      ],
      [
        "comm",
        "ission"
      ],
      [
        "b",
        "ir"
      ],
      [
        "m",
        "ass"
      ],
      [
        "pl",
        "oy"
      ],
      [
        "though",
        "t"
      ],
      [
        "l",
        "ished"
      ],
      [
        "ac",
        "ross"
      ],
      [
        "19",
        "0"
      ],
      [
        "200",
        "5"
      ],
      [
        "ph",
        "il"
      ],
      [
        "crit",
        "ics"
      ],
      [
        "estab",
        "lished"
      ],
      [
        "intro",
        "du"
      ],
      [
        "an",
        "ces"
      ],
      [
        "ear",
        "th"
      ],
      [
        "fore",
        "st"
      ],
      [
        "sur",
        "v"
      ],
      [
        "b",
        "s"
      ],
      [
        "d",
        "ro"
      ],
      [
        "m",
        "it"
      ],
      [
        "s",
        "an"
      ],
      [
        "w",
        "ord"
      ],
      [
        "em",
        "p"
      ],
      [
        "fe",
        "et"
      ],
      [
        "ens",
        "ive"
      ],
      [
        "a",
        "ver"
      ],
      [
        "u",
        "es"
      ],
      [
        "es",
        "e"
      ],
      [
        "ot",
        "s"
      ],
      [
        "pr",
        "a"
      ],
      [
        "civ",
        "il"
      ],
      [
        "a",
        "ur"
      ],
      [
        "ch",
        "o"
      ],
      [
        "other",
        "s"
      ],
      [
        "care",
        "y"
      ],
      [
        "cro",
        "ss"
      ],
      [
        "i",
        "th"
      ],
      [
        "x",
        "im"
      ],
      [
        "rel",
        "ation"
      ],
      [
        "spec",
        "ial"
      ],
      [
        "dif",
        "fic"
      ],
      [
        "start",
        "ed"
      ],
      [
        "al",
        "th"
      ],
      [
        "ex",
        "p"
      ],
      [
        "201",
        "5"
      ],
      [
        "ca",
        "used"
      ],
      [
        "l",
        "ines"
      ],
      [
        "coun",
        "t"
      ],
      [
        "r",
        "id"
      ],
      [
        "y",
        "ard"
      ],
      [
        "to",
        "ge"
      ],
      [
        "no",
        "vel"
      ],
      [
        "comm",
        "er"
      ],
      [
        "appear",
        "ed"
      ],
      [
        "oliv",
        "ier"
      ],
      [
        "toge",
        "ther"
      ],
      [
        "b",
        "i"
      ],
      [
        "sc",
        "ored"
      ],
      [
        "ren",
        "t"
      ],
      [
        "fl",
        "ight"
      ],
      [
        "dep",
        "end"
      ],
      [
        "st",
        "age"
      ],
      [
        "mag",
        "az"
      ],
      [
        "ro",
        "om"
      ],
      [
        "ex",
        "peri"
      ],
      [
        "up",
        "on"
      ],
      [
        "hor",
        "se"
      ],
      [
        "c",
        "ir"
      ],
      [
        "ge",
        "or"
      ],
      [
        "6",
        "0"
      ],
      [
        "e",
        "y"
      ],
      [
        "m",
        "as"
      ],
      [
        "y",
        "m"
      ],
      [
        "un",
        "g"
      ],
      [
        "be",
        "gin"
      ],
      [
        "de",
        "part"
      ],
      [
        "air",
        "craft"
      ],
      [
        "m",
        "ac"
      ],
      [
        "ab",
        "o"
      ],
      [
        "aw",
        "ards"
      ],
      [
        "comple",
        "ted"
      ],
      [
        "r",
        "ail"
      ],
      [
        "v",
        "est"
      ],
      [
        "ent",
        "ire"
      ],
      [
        "iz",
        "ation"
      ],
      [
        "f",
        "av"
      ],
      [
        "lo",
        "ss"
      ],
      [
        "c",
        "ase"
      ],
      [
        "m",
        "ot"
      ],
      [
        "old",
        "ham"
      ],
      [
        "moun",
        "tain"
      ],
      [
        "austral",
        "ia"
      ],
      [
        "n",
        "om"
      ],
      [
        "se",
        "le"
      ],
      [
        "be",
        "t"
      ],
      [
        "br",
        "a"
      ],
      [
        "loc",
        "ated"
      ],
      [
        "olog",
        "ical"
      ],
      [
        "remain",
        "ed"
      ],
      [
        "bre",
        "ak"
      ],
      [
        "stre",
        "et"
      ],
      [
        "b",
        "ase"
      ],
      [
        "g",
        "ot"
      ],
      [
        "n",
        "is"
      ],
      [
        "t",
        "aken"
      ],
      [
        "do",
        "es"
      ],
      [
        "charac",
        "ters"
      ],
      [
        "chan",
        "ge"
      ],
      [
        "g",
        "es"
      ],
      [
        "en",
        "ced"
      ],
      [
        "ap",
        "an"
      ],
      [
        "af",
        "f"
      ],
      [
        "bl",
        "ue"
      ],
      [
        "18",
        "9"
      ],
      [
        "m",
        "ary"
      ],
      [
        "it",
        "ing"
      ],
      [
        "con",
        "ne"
      ],
      [
        "est",
        "im"
      ],
      [
        "sc",
        "ri"
      ],
      [
        "at",
        "ure"
      ],
      [
        "le",
        "ast"
      ],
      [
        "cent",
        "er"
      ],
      [
        "four",
        "th"
      ],
      [
        "a",
        "el"
      ],
      [
        "m",
        "ing"
      ],
      [
        "in",
        "ess"
      ],
      [
        "ut",
        "es"
      ],
      [
        "pe",
        "ak"
      ],
      [
        "fin",
        "ished"
      ],
      [
        "reg",
        "ular"
      ],
      [
        "rel",
        "ig"
      ],
      [
        "s",
        "il"
      ],
      [
        "wi",
        "de"
      ],
      [
        "kn",
        "ow"
      ],
      [
        "east",
        "ern"
      ],
      [
        "lab",
        "or"
      ],
      [
        "s",
        "aw"
      ],
      [
        "at",
        "ic"
      ],
      [
        "ch",
        "est"
      ],
      [
        "ct",
        "or"
      ],
      [
        "ant",
        "i"
      ],
      [
        "form",
        "ation"
      ],
      [
        "je",
        "w"
      ],
      [
        "sub",
        "sequ"
      ],
      [
        "a",
        "ign"
      ],
      [
        "i",
        "k"
      ],
      [
        "j",
        "apan"
      ],
      [
        "ar",
        "m"
      ],
      [
        "gr",
        "ad"
      ],
      [
        "add",
        "ed"
      ],
      [
        "c",
        "al"
      ],
      [
        "f",
        "ly"
      ],
      [
        "f",
        "ight"
      ],
      [
        "h",
        "all"
      ],
      [
        "k",
        "el"
      ],
      [
        "at",
        "l"
      ],
      [
        "en",
        "on"
      ],
      [
        "de",
        "v"
      ],
      [
        "ne",
        "y"
      ],
      [
        "camp",
        "aign"
      ],
      [
        "signific",
        "ant"
      ],
      [
        "c",
        "ad"
      ],
      [
        "r",
        "ul"
      ],
      [
        "comm",
        "it"
      ],
      [
        "ree",
        "k"
      ],
      [
        "ann",
        "a"
      ],
      [
        "polit",
        "ical"
      ],
      [
        "announ",
        "ced"
      ],
      [
        "wheel",
        "er"
      ],
      [
        "c",
        "ard"
      ],
      [
        "ty",
        "pe"
      ],
      [
        "americ",
        "a"
      ],
      [
        "origin",
        "ally"
      ],
      [
        "p",
        "air"
      ],
      [
        "s",
        "our"
      ],
      [
        "al",
        "ity"
      ],
      [
        "ter",
        "min"
      ],
      [
        "mo",
        "ve"
      ],
      [
        "co",
        "re"
      ],
      [
        "sy",
        "n"
      ],
      [
        "lead",
        "ing"
      ],
      [
        "wee",
        "ks"
      ],
      [
        "manag",
        "er"
      ],
      [
        "h",
        "en"
      ],
      [
        "m",
        "ur"
      ],
      [
        "p",
        "ie"
      ],
      [
        "he",
        "avy"
      ],
      [
        "200",
        "3"
      ],
      [
        "pr",
        "ed"
      ],
      [
        "cre",
        "w"
      ],
      [
        "ca",
        "the"
      ],
      [
        "a",
        "i"
      ],
      [
        "h",
        "it"
      ],
      [
        "ant",
        "ic"
      ],
      [
        "work",
        "s"
      ],
      [
        "cathe",
        "dr"
      ],
      [
        "h",
        "ab"
      ],
      [
        "ar",
        "s"
      ],
      [
        "are",
        "as"
      ],
      [
        "stud",
        "y"
      ],
      [
        "possi",
        "ble"
      ],
      [
        "ch",
        "e"
      ],
      [
        "ac",
        "cept"
      ],
      [
        "com",
        "ment"
      ],
      [
        "writ",
        "er"
      ],
      [
        "follow",
        "ed"
      ],
      [
        "hel",
        "p"
      ],
      [
        "prom",
        "ot"
      ],
      [
        "g",
        "ir"
      ],
      [
        "st",
        "ay"
      ],
      [
        "st",
        "op"
      ],
      [
        "se",
        "x"
      ],
      [
        "ac",
        "y"
      ],
      [
        "br",
        "idge"
      ],
      [
        "ition",
        "s"
      ],
      [
        "s",
        "ess"
      ],
      [
        "re",
        "co"
      ],
      [
        "ic",
        "a"
      ],
      [
        "ist",
        "ed"
      ],
      [
        "if",
        "a"
      ],
      [
        "ab",
        "ility"
      ],
      [
        "ste",
        "in"
      ],
      [
        "point",
        "s"
      ],
      [
        "dav",
        "id"
      ],
      [
        "b",
        "ish"
      ],
      [
        "j",
        "our"
      ],
      [
        "an",
        "im"
      ],
      [
        "open",
        "ed"
      ],
      [
        "quar",
        "ter"
      ],
      [
        "commer",
        "cial"
      ],
      [
        "l",
        "u"
      ],
      [
        "t",
        "ur"
      ],
      [
        "y",
        "ards"
      ],
      [
        "in",
        "ated"
      ],
      [
        "be",
        "hind"
      ],
      [
        "part",
        "y"
      ],
      [
        "h",
        "ard"
      ],
      [
        "n",
        "avy"
      ],
      [
        "s",
        "at"
      ],
      [
        "pro",
        "gram"
      ],
      [
        "em",
        "y"
      ],
      [
        "lo",
        "s"
      ],
      [
        "coun",
        "cil"
      ],
      [
        "tem",
        "por"
      ],
      [
        "amp",
        "le"
      ],
      [
        "gir",
        "l"
      ],
      [
        "n",
        "ine"
      ],
      [
        "at",
        "tr"
      ],
      [
        "ro",
        "bert"
      ],
      [
        "sh",
        "o"
      ],
      [
        "ist",
        "er"
      ],
      [
        "ne",
        "t"
      ],
      [
        "201",
        "4"
      ],
      [
        "car",
        "ol"
      ],
      [
        "var",
        "i"
      ],
      [
        "la",
        "unch"
      ],
      [
        "austral",
        "ian"
      ],
      [
        "issu",
        "e"
      ],
      [
        "e",
        "gy"
      ],
      [
        "in",
        "ch"
      ],
      [
        "ac",
        "ad"
      ],
      [
        "res",
        "pect"
      ],
      [
        "out",
        "side"
      ],
      [
        "ph",
        "o"
      ],
      [
        "fran",
        "ce"
      ],
      [
        "claim",
        "ed"
      ],
      [
        "reco",
        "gn"
      ],
      [
        "g",
        "ress"
      ],
      [
        "h",
        "i"
      ],
      [
        "sp",
        "ace"
      ],
      [
        "rough",
        "t"
      ],
      [
        "ang",
        "el"
      ],
      [
        "feat",
        "ures"
      ],
      [
        "event",
        "ually"
      ],
      [
        "flo",
        "od"
      ],
      [
        "b",
        "on"
      ],
      [
        "r",
        "if"
      ],
      [
        "y",
        "er"
      ],
      [
        "month",
        "s"
      ],
      [
        "cathedr",
        "al"
      ],
      [
        "3",
        "1"
      ],
      [
        "ach",
        "el"
      ],
      [
        "work",
        "ing"
      ],
      [
        "te",
        "ach"
      ],
      [
        "grap",
        "hy"
      ],
      [
        "h",
        "ere"
      ],
      [
        "de",
        "m"
      ],
      [
        "ir",
        "ish"
      ],
      [
        "record",
        "s"
      ],
      [
        "rad",
        "io"
      ],
      [
        "ei",
        "ther"
      ],
      [
        "n",
        "av"
      ],
      [
        "p",
        "ot"
      ],
      [
        "town",
        "s"
      ],
      [
        "wom",
        "en"
      ],
      [
        "squad",
        "ron"
      ],
      [
        "magaz",
        "ine"
      ],
      [
        "egy",
        "pt"
      ],
      [
        "3",
        "5"
      ],
      [
        "k",
        "er"
      ],
      [
        "n",
        "u"
      ],
      [
        "to",
        "lo"
      ],
      [
        "le",
        "ar"
      ],
      [
        "il",
        "le"
      ],
      [
        "cre",
        "t"
      ],
      [
        "min",
        "or"
      ],
      [
        "j",
        "ud"
      ],
      [
        "ar",
        "ab"
      ],
      [
        "moun",
        "ted"
      ],
      [
        "f",
        "und"
      ],
      [
        "m",
        "ater"
      ],
      [
        "r",
        "ay"
      ],
      [
        "x",
        "as"
      ],
      [
        "em",
        "ploy"
      ],
      [
        "comp",
        "an"
      ],
      [
        "ho",
        "st"
      ],
      [
        "dec",
        "ided"
      ],
      [
        "ha",
        "ifa"
      ],
      [
        "kill",
        "ed"
      ],
      [
        "s",
        "us"
      ],
      [
        "as",
        "ing"
      ],
      [
        "wi",
        "fe"
      ],
      [
        "me",
        "et"
      ],
      [
        "work",
        "ed"
      ],
      [
        "pol",
        "ice"
      ],
      [
        "ii",
        "i"
      ],
      [
        "b",
        "ig"
      ],
      [
        "x",
        "enon"
      ],
      [
        "er",
        "a"
      ],
      [
        "ed",
        "uc"
      ],
      [
        "off",
        "ice"
      ],
      [
        "pre",
        "mi"
      ],
      [
        "b",
        "ell"
      ],
      [
        "o",
        "x"
      ],
      [
        "th",
        "om"
      ],
      [
        "art",
        "s"
      ],
      [
        "od",
        "es"
      ],
      [
        "gro",
        "w"
      ],
      [
        "l",
        "ack"
      ],
      [
        "m",
        "el"
      ],
      [
        "the",
        "at"
      ],
      [
        "un",
        "ion"
      ],
      [
        "for",
        "ced"
      ],
      [
        "he",
        "st"
      ],
      [
        "so",
        "on"
      ],
      [
        "ish",
        "ing"
      ],
      [
        "sp",
        "ir"
      ],
      [
        "cur",
        "rent"
      ],
      [
        "want",
        "ed"
      ],
      [
        "r",
        "achel"
      ],
      [
        "re",
        "search"
      ],
      [
        "ough",
        "t"
      ],
      [
        "open",
        "ing"
      ],
      [
        "contr",
        "act"
      ],
      [
        "brig",
        "ade"
      ],
      [
        "mich",
        "ael"
      ],
      [
        "b",
        "es"
      ],
      [
        "j",
        "er"
      ],
      [
        "p",
        "ast"
      ],
      [
        "ic",
        "ated"
      ],
      [
        "de",
        "al"
      ],
      [
        "ev",
        "idence"
      ],
      [
        "ter",
        "m"
      ],
      [
        "go",
        "als"
      ],
      [
        "cer",
        "tain"
      ],
      [
        "j",
        "am"
      ],
      [
        "r",
        "hy"
      ],
      [
        "al",
        "ter"
      ],
      [
        "ad",
        "es"
      ],
      [
        "cl",
        "o"
      ],
      [
        "cr",
        "ed"
      ],
      [
        "ho",
        "sp"
      ],
      [
        "oper",
        "ation"
      ],
      [
        "init",
        "ially"
      ],
      [
        "canad",
        "a"
      ],
      [
        "sum",
        "mer"
      ],
      [
        "associ",
        "ation"
      ],
      [
        "b",
        "c"
      ],
      [
        "e",
        "con"
      ],
      [
        "h",
        "ig"
      ],
      [
        "r",
        "is"
      ],
      [
        "pr",
        "act"
      ],
      [
        "reg",
        "ion"
      ],
      [
        "med",
        "i"
      ],
      [
        "god",
        "s"
      ],
      [
        "wind",
        "s"
      ],
      [
        "europe",
        "an"
      ],
      [
        "econ",
        "om"
      ],
      [
        "s",
        "po"
      ],
      [
        "ce",
        "ed"
      ],
      [
        "ex",
        "e"
      ],
      [
        "air",
        "port"
      ],
      [
        "vi",
        "ol"
      ],
      [
        "dam",
        "aged"
      ],
      [
        "vest",
        "on"
      ],
      [
        "p",
        "ing"
      ],
      [
        "t",
        "aking"
      ],
      [
        "in",
        "stit"
      ],
      [
        "is",
        "ra"
      ],
      [
        "id",
        "s"
      ],
      [
        "bro",
        "ther"
      ],
      [
        "christ",
        "ian"
      ],
      [
        "gal",
        "veston"
      ],
      [
        "indu",
        "str"
      ],
      [
        "isra",
        "el"
      ],
      [
        "b",
        "ass"
      ],
      [
        "t",
        "v"
      ],
      [
        "er",
        "ing"
      ],
      [
        "com",
        "pl"
      ],
      [
        "col",
        "um"
      ],
      [
        "reg",
        "ard"
      ],
      [
        "b",
        "rought"
      ],
      [
        "in",
        "j"
      ],
      [
        "iv",
        "id"
      ],
      [
        "ap",
        "er"
      ],
      [
        "pl",
        "ann"
      ],
      [
        "ex",
        "ample"
      ],
      [
        "sc",
        "re"
      ]
    ]
  }
}