{
  "version": "1.0",
  "truncation": null,
  "padding": null,
  "added_tokens": [
    {
      "id": 0,
      "content": "<PAD>",
      "single_word": false,
      "lstrip": false,
      "rstrip": false,
      "normalized": false,
      "special": true
    },
    {
      "id": 1,
      "content": "<UNK>",
      "single_word": false,
      "lstrip": false,
      "rstrip": false,
      "normalized": false,
      "special": true
    },
    {
      "id": 2,
      "content": "<BOS>",
      "single_word": false,
      "lstrip": false,
      "rstrip": false,
      "normalized": false,
      "special": true
    },
    {
      "id": 3,
      "content": "<EOS>",
      "single_word": false,
      "lstrip": false,
      "rstrip": false,
      "normalized": false,
      "special": true
    }
  ],
  "normalizer": null,
  "pre_tokenizer": {
    "type": "Whitespace"
  },
  "post_processor": null,
  "decoder": null,
  "model": {
    "type": "BPE",
    "dropout": null,
    "unk_token": "<UNK>",
    "continuing_subword_prefix": null,
    "end_of_word_suffix": null,
    "fuse_unk": false,
    "byte_fallback": false,
    "ignore_merges": false,
    "vocab": {
      "<PAD>": 0,
      "<UNK>": 1,
      "<BOS>": 2,
      "<EOS>": 3,
      "!": 4,
      "\"": 5,
      "'": 6,
      "(": 7,
      ")": 8,
      ",": 9,
      "-": 10,
      ".": 11,
      "0": 12,
      "1": 13,
      "2": 14,
      "3": 15,
      "4": 16,
      "5": 17,
      "6": 18,
      "7": 19,
      "8": 20,
      "9": 21,
      ":": 22,
      ";": 23,
      "?": 24,
      "a": 25,
      "b": 26,
      "c": 27,
      "d": 28,
      "e": 29,
      "f": 30,
      "g": 31,
      "h": 32,
      "i": 33,
      "j": 34,
      "k": 35,
      "l": 36,
      "m": 37,
      "n": 38,
      "o": 39,
      "p": 40,
      "q": 41,
      "r": 42,
      "s": 43,
      "t": 44,
      "u": 45,
      "v": 46,
      "w": 47,
      "x": 48,
      "y": 49,
      "z": 50,
      "th": 51,
      "in": 52,
      "the": 53,
      "an": 54,
      "er": 55,
      "on": 56,
      "re": 57,
      "at": 58,
      "en": 59,
      "st": 60,
      "ed": 61,
      "or": 62,
      "al": 63,
      "ar": 64,
      "ing": 65,
      "to": 66,
      "ou": 67,
      "it": 68,
      "is": 69,
      "of": 70,
      "es": 71,
      "as": 72,
      "and": 73,
      "ic": 74,
      "le": 75,
      "om": 76,
      "ion": 77,
      "il": 78,
      "ent": 79,
      "id": 80,
      "ch": 81,
      "se": 82,
      "be": 83,
      "ro": 84,
      "ad": 85,
      "ve": 86,
      "for": 87,
      "ac": 88,
      "ay": 89,
      "am": 90,
      "wh": 91,
      "he": 92,
      "ly": 93,
      "ol": 94,
      "ir": 95,
      "de": 96,
      "ig": 97,
      "un": 98,
      "that": 99,
      "ur": 100,
      "ver": 101,
      "lo": 102,
      "im": 103,
      "ut": 104,
      "ter": 105,
      "con": 106,
      "ne": 107,
      "ill": 108,
      "no": 109,
      "ce": 110,
      "ge": 111,
      "wi": 112,
      "sa": 113,
      "are": 114,
      "pe": 115,
      "su": 116,
      "ation": 117,
      "mo": 118,
      "ct": 119,
      "ers": 120,
      "we": 121,
      "with": 122,
      "com": 123,
      "was": 124,
      "ab": 125,
      "ld": 126,
      "fr": 127,
      "ke": 128,
      "us": 129,
      "tr": 130,
      "ha": 131,
      "res": 132,
      "te": 133,
      "li": 134,
      "ts": 135,
      "pro": 136,
      "po": 137,
      "said": 138,
      "ate": 139,
      "oun": 140,
      "ap": 141,
      "ment": 142,
      "ag": 143,
      "by": 144,
      "op": 145,
      "sh": 146,
      "all": 147,
      "ul": 148,
      "ain": 149,
      "ist": 150,
      "igh": 151,
      "pl": 152,
      "out": 153,
      "00": 154,
      "our": 155,
      "ex": 156,
      "ear": 157,
      "ther": 158,
      "day": 159,
      "ast": 160,
      "man": 161,
      "go": 162,
      "pr": 163,
      "his": 164,
      "from": 165,
      "has": 166,
      "but": 167,
      "ow": 168,
      "one": 169,
      "have": 170,
      "per": 171,
      "ould": 172,
      "so": 173,
      "ere": 174,
      "ies": 175,
      "fe": 176,
      "af": 177,
      "me": 178,
      "ity": 179,
      "if": 180,
      "art": 181,
      "end": 182,
      "qu": 183,
      "ess": 184,
      "cl": 185,
      "por": 186,
      "co": 187,
      "ive": 188,
      "ial": 189,
      "wor": 190,
      "will": 191,
      "iv": 192,
      "up": 193,
      "off": 194,
      "not": 195,
      "who": 196,
      "gh": 197,
      "ard": 198,
      "bo": 199,
      "year": 200,
      "ack": 201,
      "they": 202,
      "ie": 203,
      "au": 204,
      "ll": 205,
      "new": 206,
      "gr": 207,
      "ak": 208,
      "this": 209,
      "ant": 210,
      "ight": 211,
      "ome": 212,
      "--": 213,
      "cr": 214,
      "ice": 215,
      "br": 216,
      "red": 217,
      "its": 218,
      "str": 219,
      "ich": 220,
      "had": 221,
      "cent": 222,
      "act": 223,
      "their": 224,
      "em": 225,
      "pres": 226,
      "ind": 227,
      "bl": 228,
      "were": 229,
      "fo": 230,
      "um": 231,
      "do": 232,
      "been": 233,
      "more": 234,
      "ber": 235,
      "ud": 236,
      "port": 237,
      "sp": 238,
      "tim": 239,
      "mon": 240,
      "der": 241,
      "ough": 242,
      "mar": 243,
      "ree": 244,
      "ide": 245,
      "ust": 246,
      "which": 247,
      "od": 248,
      "ound": 249,
      "her": 250,
      "ia": 251,
      "after": 252,
      "ans": 253,
      "ine": 254,
      "can": 255,
      "ip": 256,
      "comp": 257,
      "over": 258,
      "ong": 259,
      "ta": 260,
      "would": 261,
      "other": 262,
      "ous": 263,
      "ho": 264,
      "wo": 265,
      "ev": 266,
      "el": 267,
      "ions": 268,
      "pol": 269,
      "ks": 270,
      "about": 271,
      "fir": 272,
      "ated": 273,
      "than": 274,
      "200": 275,
      "part": 276,
      "coun": 277,
      "ary": 278,
      "aw": 279,
      "ting": 280,
      "age": 281,
      "dr": 282,
      "ma": 283,
      "ser": 284,
      "av": 285,
      "own": 286,
      "low": 287,
      "any": 288,
      "ame": 289,
      "old": 290,
      "ign": 291,
      "now": 292,
      "ident": 293,
      "jo": 294,
      "ence": 295,
      "min": 296,
      "ish": 297,
      "cor": 298,
      "ally": 299,
      "when": 300,
      "ire": 301,
      "say": 302,
      "she": 303,
      "some": 304,
      "dis": 305,
      "you": 306,
      "ace": 307,
      "cre": 308,
      "ian": 309,
      "there": 310,
      "ok": 311,
      "pre": 312,
      "est": 313,
      "ite": 314,
      "form": 315,
      "ted": 316,
      "ren": 317,
      "ach": 318,
      "ile": 319,
      "inter": 320,
      "ure": 321,
      "also": 322,
      "fin": 323,
      "ass": 324,
      "two": 325,
      "peop": 326,
      "able": 327,
      "first": 328,
      "people": 329,
      "last": 330,
      "car": 331,
      "ance": 332,
      "work": 333,
      "du": 334,
      "pos": 335,
      "ib": 336,
      "ors": 337,
      "ck": 338,
      "ty": 339,
      "ations": 340,
      "illion": 341,
      "air": 342,
      "spe": 343,
      "ates": 344,
      "fore": 345,
      "iz": 346,
      "mr": 347,
      "row": 348,
      "cur": 349,
      "ning": 350,
      "like": 351,
      "med": 352,
      "ban": 353,
      "very": 354,
      "time": 355,
      "att": 356,
      "ase": 357,
      "could": 358,
      "gu": 359,
      "wee": 360,
      "int": 361,
      "into": 362,
      "ical": 363,
      "land": 364,
      "fer": 365,
      "ild": 366,
      "gover": 367,
      "ob": 368,
      "ade": 369,
      "comm": 370,
      "back": 371,
      "pu": 372,
      "govern": 373,
      "19": 374,
      "ction": 375,
      "ition": 376,
      "amp": 377,
      "cont": 378,
      "state": 379,
      "fl": 380,
      "offic": 381,
      "ied": 382,
      "ph": 383,
      "anc": 384,
      "ail": 385,
      "enc": 386,
      "nation": 387,
      "sur": 388,
      "play": 389,
      "lead": 390,
      "just": 391,
      "tur": 392,
      "most": 393,
      "ue": 394,
      "what": 395,
      "get": 396,
      "bu": 397,
      "publ": 398,
      "way": 399,
      "government": 400,
      "years": 401,
      "them": 402,
      "col": 403,
      "par": 404,
      "leg": 405,
      "try": 406,
      "down": 407,
      "amer": 408,
      "ick": 409,
      "don": 410,
      "ef": 411,
      "three": 412,
      "under": 413,
      "month": 414,
      "cau": 415,
      "des": 416,
      "ens": 417,
      "iss": 418,
      "cess": 419,
      "cut": 420,
      "may": 421,
      "ful": 422,
      "sch": 423,
      "ger": 424,
      "world": 425,
      "ton": 426,
      "ra": 427,
      "cal": 428,
      "president": 429,
      "10": 430,
      "my": 431,
      "son": 432,
      "reg": 433,
      "20": 434,
      "ama": 435,
      "bus": 436,
      "cted": 437,
      "serv": 438,
      "tal": 439,
      "thing": 440,
      "vis": 441,
      "add": 442,
      "him": 443,
      "cer": 444,
      "ory": 445,
      "percent": 446,
      "reat": 447,
      "set": 448,
      "incl": 449,
      "vest": 450,
      "week": 451,
      "ener": 452,
      "while": 453,
      "americ": 454,
      "ious": 455,
      "bet": 456,
      "je": 457,
      "oup": 458,
      "ned": 459,
      "ry": 460,
      "report": 461,
      "call": 462,
      "high": 463,
      "ince": 464,
      "again": 465,
      "ict": 466,
      "ep": 467,
      "only": 468,
      "come": 469,
      "public": 470,
      "cle": 471,
      "king": 472,
      "many": 473,
      "national": 474,
      "cause": 475,
      "prov": 476,
      "sen": 477,
      "where": 478,
      "ital": 479,
      "hel": 480,
      "invest": 481,
      "alth": 482,
      "ents": 483,
      "read": 484,
      "ise": 485,
      "char": 486,
      "cord": 487,
      "nor": 488,
      "esday": 489,
      "ited": 490,
      "ced": 491,
      "cond": 492,
      "lar": 493,
      "ms": 494,
      "ating": 495,
      "los": 496,
      "home": 497,
      "rel": 498,
      "vo": 499,
      "000": 500,
      "cour": 501,
      "vers": 502,
      "million": 503,
      "ped": 504,
      "head": 505,
      "ress": 506,
      "even": 507,
      "ele": 508,
      "ments": 509,
      "ath": 510,
      "ble": 511,
      "sup": 512,
      "ater": 513,
      "minist": 514,
      "ose": 515,
      "ange": 516,
      "used": 517,
      "mu": 518,
      "official": 519,
      "long": 520,
      "ash": 521,
      "did": 522,
      "before": 523,
      "well": 524,
      "mor": 525,
      "win": 526,
      "ities": 527,
      "main": 528,
      "cap": 529,
      "because": 530,
      "led": 531,
      "mber": 532,
      "thr": 533,
      "tain": 534,
      "ann": 535,
      "..": 536,
      "econ": 537,
      "econom": 538,
      "show": 539,
      "bar": 540,
      "sy": 541,
      "eng": 542,
      "police": 543,
      "war": 544,
      "marke": 545,
      "ven": 546,
      "ters": 547,
      "ix": 548,
      "les": 549,
      "ang": 550,
      "plan": 551,
      "obama": 552,
      "vie": 553,
      "arch": 554,
      "group": 555,
      "et": 556,
      "know": 557,
      "pt": 558,
      "run": 559,
      "how": 560,
      "sel": 561,
      "uring": 562,
      "und": 563,
      "ving": 564,
      "includ": 565,
      "made": 566,
      "test": 567,
      "mil": 568,
      "company": 569,
      "says": 570,
      "since": 571,
      "ased": 572,
      "eu": 573,
      "sc": 574,
      "als": 575,
      "gest": 576,
      "cial": 577,
      "io": 578,
      "produ": 579,
      "aking": 580,
      "hou": 581,
      "through": 582,
      "put": 583,
      "tu": 584,
      "gy": 585,
      "appe": 586,
      "take": 587,
      "make": 588,
      "less": 589,
      "law": 590,
      "being": 591,
      "wom": 592,
      "such": 593,
      "hu": 594,
      "dec": 595,
      "xt": 596,
      "ily": 597,
      "bs": 598,
      "four": 599,
      "wer": 600,
      "ink": 601,
      "ason": 602,
      "child": 603,
      "ls": 604,
      "those": 605,
      "bro": 606,
      "ices": 607,
      "fam": 608,
      "stud": 609,
      "see": 610,
      "country": 611,
      "wr": 612,
      "your": 613,
      "then": 614,
      "ave": 615,
      "bor": 616,
      "plo": 617,
      "ris": 618,
      "sm": 619,
      "ared": 620,
      "against": 621,
      "ner": 622,
      "ward": 623,
      "ot": 624,
      "look": 625,
      "gan": 626,
      "atch": 627,
      "expe": 628,
      "city": 629,
      "la": 630,
      "sou": 631,
      "ics": 632,
      "cts": 633,
      "should": 634,
      "much": 635,
      "ins": 636,
      "found": 637,
      "house": 638,
      "ros": 639,
      "need": 640,
      "ten": 641,
      "ved": 642,
      "still": 643,
      "fol": 644,
      "ug": 645,
      "clo": 646,
      "care": 647,
      "mer": 648,
      "next": 649,
      "wed": 650,
      "sto": 651,
      "second": 652,
      "line": 653,
      "gener": 654,
      "iness": 655,
      "every": 656,
      "far": 657,
      "camp": 658,
      "during": 659,
      "health": 660,
      "ines": 661,
      "ort": 662,
      "team": 663,
      "dire": 664,
      "ste": 665,
      "brit": 666,
      "pers": 667,
      "start": 668,
      "ft": 669,
      "ular": 670,
      "ked": 671,
      "sal": 672,
      "urs": 673,
      "clear": 674,
      "spo": 675,
      "ves": 676,
      "news": 677,
      "west": 678,
      "open": 679,
      "ought": 680,
      "ool": 681,
      "ative": 682,
      "oper": 683,
      "bank": 684,
      "sign": 685,
      "told": 686,
      "search": 687,
      "pon": 688,
      "ctor": 689,
      "ult": 690,
      "got": 691,
      "school": 692,
      "ants": 693,
      "net": 694,
      "miss": 695,
      "yor": 696,
      "secur": 697,
      "prof": 698,
      "press": 699,
      "ina": 700,
      "good": 701,
      "big": 702,
      "hal": 703,
      "ird": 704,
      "york": 705,
      "ca": 706,
      "sun": 707,
      "vol": 708,
      "united": 709,
      "business": 710,
      "15": 711,
      "states": 712,
      "sul": 713,
      "euro": 714,
      "bre": 715,
      "pay": 716,
      "stand": 717,
      "near": 718,
      "az": 719,
      "bal": 720,
      "help": 721,
      "ility": 722,
      "uss": 723,
      "ists": 724,
      "court": 725,
      "five": 726,
      "men": 727,
      "ween": 728,
      "aim": 729,
      "iday": 730,
      "ged": 731,
      "kill": 732,
      "num": 733,
      "times": 734,
      "view": 735,
      "ploy": 736,
      "let": 737,
      "place": 738,
      "game": 739,
      "sl": 740,
      "sub": 741,
      "ending": 742,
      "def": 743,
      "istan": 744,
      "ings": 745,
      "polit": 746,
      "between": 747,
      "including": 748,
      "11": 749,
      "hing": 750,
      "use": 751,
      "financ": 752,
      "turn": 753,
      "reported": 754,
      "mp": 755,
      "officials": 756,
      "follow": 757,
      "real": 758,
      "ames": 759,
      "incre": 760,
      "beli": 761,
      "olo": 762,
      "both": 763,
      "rest": 764,
      "peri": 765,
      "dif": 766,
      "hand": 767,
      "want": 768,
      "self": 769,
      "12": 770,
      "night": 771,
      "tle": 772,
      "val": 773,
      "inc": 774,
      "ency": 775,
      "bur": 776,
      "fact": 777,
      "another": 778,
      "issu": 779,
      "cons": 780,
      "sure": 781,
      "pat": 782,
      "che": 783,
      "ports": 784,
      "har": 785,
      "mus": 786,
      "top": 787,
      "oney": 788,
      "ier": 789,
      "late": 790,
      "billion": 791,
      "dy": 792,
      "vi": 793,
      "ira": 794,
      "demo": 795,
      "bers": 796,
      "ivers": 797,
      "ures": 798,
      "life": 799,
      "former": 800,
      "giv": 801,
      "ling": 802,
      "tro": 803,
      "third": 804,
      "ago": 805,
      "children": 806,
      "30": 807,
      "ben": 808,
      "fil": 809,
      "grow": 810,
      "star": 811,
      "unt": 812,
      "going": 813,
      "market": 814,
      "ible": 815,
      "fund": 816,
      "hn": 817,
      "pen": 818,
      "recent": 819,
      "aren": 820,
      "attack": 821,
      "democr": 822,
      "fed": 823,
      "pass": 824,
      "velo": 825,
      "gram": 826,
      "milit": 827,
      "ham": 828,
      "lit": 829,
      "ered": 830,
      "friday": 831,
      "soc": 832,
      "tax": 833,
      "right": 834,
      "ys": 835,
      "atur": 836,
      "ship": 837,
      "months": 838,
      "american": 839,
      "ross": 840,
      "develo": 841,
      "came": 842,
      "ju": 843,
      "power": 844,
      "oc": 845,
      "wal": 846,
      "thurs": 847,
      "contr": 848,
      "poin": 849,
      "days": 850,
      "cost": 851,
      "ief": 852,
      "thursday": 853,
      "sco": 854,
      "side": 855,
      "won": 856,
      "john": 857,
      "ko": 858,
      "sim": 859,
      "these": 860,
      "left": 861,
      "sum": 862,
      "ards": 863,
      "security": 864,
      "ual": 865,
      "ustr": 866,
      "hap": 867,
      "ield": 868,
      "ready": 869,
      "tuesday": 870,
      "den": 871,
      "six": 872,
      "vent": 873,
      "same": 874,
      "around": 875,
      "cover": 876,
      "maj": 877,
      "person": 878,
      "europe": 879,
      "nesday": 880,
      "record": 881,
      "respon": 882,
      "ights": 883,
      "prom": 884,
      "quar": 885,
      "employ": 886,
      "wednesday": 887,
      "50": 888,
      "gre": 889,
      "kes": 890,
      "party": 891,
      "contin": 892,
      "money": 893,
      "accord": 894,
      "called": 895,
      "financial": 896,
      "rece": 897,
      "too": 898,
      "prim": 899,
      "blo": 900,
      "hold": 901,
      "international": 902,
      "bill": 903,
      "requ": 904,
      "build": 905,
      "half": 906,
      "whe": 907,
      "deal": 908,
      "point": 909,
      "cu": 910,
      "mal": 911,
      "think": 912,
      "ats": 913,
      "season": 914,
      "proble": 915,
      "share": 916,
      "aff": 917,
      "ific": 918,
      "ended": 919,
      "monday": 920,
      "atic": 921,
      "program": 922,
      "does": 923,
      "vir": 924,
      "thor": 925,
      "ised": 926,
      "fri": 927,
      "curren": 928,
      "announ": 929,
      "aign": 930,
      "great": 931,
      "ping": 932,
      "remain": 933,
      "acc": 934,
      "post": 935,
      "claim": 936,
      "ives": 937,
      "campaign": 938,
      "major": 939,
      "inde": 940,
      "pop": 941,
      "south": 942,
      "iraq": 943,
      "lon": 944,
      "youn": 945,
      "ages": 946,
      "fect": 947,
      "north": 948,
      "friend": 949,
      "find": 950,
      "gress": 951,
      "sho": 952,
      "support": 953,
      "according": 954,
      "cy": 955,
      "dist": 956,
      "allow": 957,
      "exp": 958,
      "family": 959,
      "bon": 960,
      "mit": 961,
      "os": 962,
      "resul": 963,
      "mem": 964,
      "sunday": 965,
      "number": 966,
      "ces": 967,
      "local": 968,
      "move": 969,
      "field": 970,
      "pa": 971,
      "least": 972,
      "sever": 973,
      "del": 974,
      "fac": 975,
      "ired": 976,
      "mid": 977,
      "ric": 978,
      "stem": 979,
      "ury": 980,
      "ball": 981,
      "case": 982,
      "lim": 983,
      "mc": 984,
      "mand": 985,
      "ple": 986,
      "ri": 987,
      "visit": 988,
      "ude": 989,
      "washing": 990,
      "trans": 991,
      "18": 992,
      "glo": 993,
      "trad": 994,
      "contro": 995,
      "hard": 996,
      "ration": 997,
      "hol": 998,
      "ient": 999,
      "sol": 1000,
      "rele": 1001,
      "few": 1002,
      "stru": 1003,
      "199": 1004,
      "whether": 1005,
      "washington": 1006,
      "cas": 1007,
      "later": 1008,
      "sw": 1009,
      "republic": 1010,
      "ived": 1011,
      "25": 1012,
      "fall": 1013,
      "ges": 1014,
      "ior": 1015,
      "sk": 1016,
      "today": 1017,
      "change": 1018,
      "manag": 1019,
      "present": 1020,
      "fa": 1021,
      "hit": 1022,
      "compan": 1023,
      "ject": 1024,
      "women": 1025,
      "dro": 1026,
      "ran": 1027,
      "research": 1028,
      "took": 1029,
      "best": 1030,
      "author": 1031,
      "di": 1032,
      "gin": 1033,
      "sent": 1034,
      "ley": 1035,
      "concer": 1036,
      "without": 1037,
      "ished": 1038,
      "poss": 1039,
      "might": 1040,
      "inform": 1041,
      "ional": 1042,
      "never": 1043,
      "industr": 1044,
      "commun": 1045,
      "uc": 1046,
      "already": 1047,
      "early": 1048,
      "elect": 1049,
      "economic": 1050,
      "mak": 1051,
      "sing": 1052,
      "ons": 1053,
      "china": 1054,
      "keep": 1055,
      "tail": 1056,
      "ized": 1057,
      "commit": 1058,
      "small": 1059,
      "expected": 1060,
      "cast": 1061,
      "ds": 1062,
      "face": 1063,
      "sit": 1064,
      "tre": 1065,
      "chief": 1066,
      "office": 1067,
      "rown": 1068,
      "minister": 1069,
      "young": 1070,
      "fail": 1071,
      "likely": 1072,
      "...": 1073,
      "quarter": 1074,
      "though": 1075,
      "ator": 1076,
      "organ": 1077,
      "outs": 1078,
      "uk": 1079,
      "stree": 1080,
      "arr": 1081,
      "howe": 1082,
      "wa": 1083,
      "using": 1084,
      "body": 1085,
      "writ": 1086,
      "13": 1087,
      "ism": 1088,
      "list": 1089,
      "system": 1090,
      "however": 1091,
      "ness": 1092,
      "room": 1093,
      "white": 1094,
      "death": 1095,
      "quest": 1096,
      "2008": 1097,
      "ba": 1098,
      "dol": 1099,
      "equ": 1100,
      "free": 1101,
      "tt": 1102,
      "tak": 1103,
      "ford": 1104,
      "colle": 1105,
      "members": 1106,
      "based": 1107,
      "here": 1108,
      "stit": 1109,
      "leve": 1110,
      "cho": 1111,
      "general": 1112,
      "until": 1113,
      "feder": 1114,
      "hour": 1115,
      "ament": 1116,
      "univers": 1117,
      "ately": 1118,
      "capital": 1119,
      "east": 1120,
      "fic": 1121,
      "mic": 1122,
      "suc": 1123,
      "ghan": 1124,
      "final": 1125,
      "woman": 1126,
      "london": 1127,
      "uary": 1128,
      "road": 1129,
      "lot": 1130,
      "tech": 1131,
      "crit": 1132,
      "investig": 1133,
      "satur": 1134,
      "decl": 1135,
      "wood": 1136,
      "full": 1137,
      "british": 1138,
      "consid": 1139,
      "hist": 1140,
      "jan": 1141,
      "jud": 1142,
      "oil": 1143,
      "aring": 1144,
      "secre": 1145,
      "fort": 1146,
      "short": 1147,
      "close": 1148,
      "military": 1149,
      "17": 1150,
      "seem": 1151,
      "deb": 1152,
      "economy": 1153,
      "among": 1154,
      "current": 1155,
      "companies": 1156,
      "dou": 1157,
      "fur": 1158,
      "gen": 1159,
      "jun": 1160,
      "paren": 1161,
      "ision": 1162,
      "terr": 1163,
      "pris": 1164,
      "comple": 1165,
      "position": 1166,
      "human": 1167,
      "information": 1168,
      "14": 1169,
      "each": 1170,
      "mi": 1171,
      "order": 1172,
      "administ": 1173,
      "coming": 1174,
      "prote": 1175,
      "exe": 1176,
      "afghan": 1177,
      "food": 1178,
      "little": 1179,
      "ah": 1180,
      "tar": 1181,
      "idence": 1182,
      "cil": 1183,
      "insur": 1184,
      "ering": 1185,
      "key": 1186,
      "2009": 1187,
      "buy": 1188,
      "ways": 1189,
      "better": 1190,
      "political": 1191,
      "ken": 1192,
      "past": 1193,
      "rul": 1194,
      "ref": 1195,
      "reach": 1196,
      "ival": 1197,
      "partic": 1198,
      "drug": 1199,
      "interest": 1200,
      "ference": 1201,
      "leaders": 1202,
      "service": 1203,
      "added": 1204,
      "points": 1205,
      "several": 1206,
      "saturday": 1207,
      "cred": 1208,
      "dan": 1209,
      "san": 1210,
      "ub": 1211,
      "ution": 1212,
      "ney": 1213,
      "tee": 1214,
      "tem": 1215,
      "hosp": 1216,
      "spokes": 1217,
      "develop": 1218,
      "dollar": 1219,
      "execut": 1220,
      "dav": 1221,
      "fire": 1222,
      "gl": 1223,
      "round": 1224,
      "vic": 1225,
      "ster": 1226,
      "ides": 1227,
      "seven": 1228,
      "depart": 1229,
      "16": 1230,
      "ns": 1231,
      "uel": 1232,
      "sell": 1233,
      "lier": 1234,
      "priv": 1235,
      "boo": 1236,
      "disc": 1237,
      "secret": 1238,
      "ians": 1239,
      "lab": 1240,
      "tion": 1241,
      "taking": 1242,
      "tou": 1243,
      "ute": 1244,
      "que": 1245,
      "ize": 1246,
      "design": 1247,
      "director": 1248,
      "techn": 1249,
      "hospital": 1250,
      "pur": 1251,
      "russ": 1252,
      "vious": 1253,
      "ined": 1254,
      "adv": 1255,
      "unch": 1256,
      "cept": 1257,
      "sug": 1258,
      "appro": 1259,
      "thern": 1260,
      "america": 1261,
      "bab": 1262,
      "eight": 1263,
      "stop": 1264,
      "tries": 1265,
      "mee": 1266,
      "crim": 1267,
      "action": 1268,
      "killed": 1269,
      "street": 1270,
      "tow": 1271,
      "chr": 1272,
      "uters": 1273,
      "book": 1274,
      "polic": 1275,
      "certain": 1276,
      "energy": 1277,
      "announced": 1278,
      "ith": 1279,
      "ww": 1280,
      "pet": 1281,
      "tele": 1282,
      "plain": 1283,
      "ground": 1284,
      "away": 1285,
      "desp": 1286,
      "afr": 1287,
      "fut": 1288,
      "tor": 1289,
      "ones": 1290,
      "once": 1291,
      "tour": 1292,
      "services": 1293,
      "known": 1294,
      "appear": 1295,
      "sales": 1296,
      "soci": 1297,
      "bas": 1298,
      "eve": 1299,
      "hind": 1300,
      "making": 1301,
      "treat": 1302,
      "associ": 1303,
      "held": 1304,
      "ket": 1305,
      "tell": 1306,
      "prices": 1307,
      "march": 1308,
      "legal": 1309,
      "success": 1310,
      "bi": 1311,
      "ever": 1312,
      "games": 1313,
      "ium": 1314,
      "wide": 1315,
      "mean": 1316,
      "ified": 1317,
      "board": 1318,
      "black": 1319,
      "council": 1320,
      "bush": 1321,
      "election": 1322,
      "given": 1323,
      "despite": 1324,
      "rich": 1325,
      "sold": 1326,
      "asked": 1327,
      "chair": 1328,
      "demand": 1329,
      "plans": 1330,
      "study": 1331,
      "viol": 1332,
      "european": 1333,
      "university": 1334,
      "hom": 1335,
      "hip": 1336,
      "ply": 1337,
      "ually": 1338,
      "vict": 1339,
      "water": 1340,
      "threat": 1341,
      "invol": 1342,
      "anal": 1343,
      "ern": 1344,
      "return": 1345,
      "isl": 1346,
      "ided": 1347,
      "become": 1348,
      "area": 1349,
      "train": 1350,
      "aper": 1351,
      "ops": 1352,
      "earlier": 1353,
      "cris": 1354,
      "series": 1355,
      "large": 1356,
      "federal": 1357,
      "cust": 1358,
      "ues": 1359,
      "yet": 1360,
      "enough": 1361,
      "why": 1362,
      "mother": 1363,
      "ability": 1364,
      "agree": 1365,
      "mur": 1366,
      "ny": 1367,
      "pend": 1368,
      "went": 1369,
      "champ": 1370,
      "force": 1371,
      "foreign": 1372,
      "suggest": 1373,
      "40": 1374,
      "fig": 1375,
      "lu": 1376,
      "must": 1377,
      "term": 1378,
      "pot": 1379,
      "ague": 1380,
      "job": 1381,
      "saying": 1382,
      "posed": 1383,
      "special": 1384,
      "mat": 1385,
      "2007": 1386,
      "countries": 1387,
      "looking": 1388,
      "global": 1389,
      "suf": 1390,
      "having": 1391,
      "emer": 1392,
      "draw": 1393,
      "ester": 1394,
      "meeting": 1395,
      "gas": 1396,
      "match": 1397,
      "ze": 1398,
      "along": 1399,
      "experi": 1400,
      "price": 1401,
      "center": 1402,
      "working": 1403,
      "leader": 1404,
      "turned": 1405,
      "drop": 1406,
      "industry": 1407,
      "bed": 1408,
      "div": 1409,
      "ik": 1410,
      "pal": 1411,
      "rup": 1412,
      "really": 1413,
      "almost": 1414,
      "ential": 1415,
      "fron": 1416,
      "department": 1417,
      "afric": 1418,
      "22": 1419,
      "pak": 1420,
      "ral": 1421,
      "wall": 1422,
      "alleg": 1423,
      "lost": 1424,
      "congress": 1425,
      "plac": 1426,
      "ences": 1427,
      "died": 1428,
      "hop": 1429,
      "secut": 1430,
      "conf": 1431,
      "ify": 1432,
      "others": 1433,
      "britain": 1434,
      "period": 1435,
      "problem": 1436,
      "future": 1437,
      "bid": 1438,
      "brown": 1439,
      "flo": 1440,
      "hy": 1441,
      "itch": 1442,
      "ically": 1443,
      "chang": 1444,
      "geor": 1445,
      "aug": 1446,
      "strong": 1447,
      "weeks": 1448,
      "following": 1449,
      "prime": 1450,
      "60": 1451,
      "cand": 1452,
      "ming": 1453,
      "sha": 1454,
      "reports": 1455,
      "dead": 1456,
      "deli": 1457,
      "comes": 1458,
      "redu": 1459,
      "media": 1460,
      "building": 1461,
      "christ": 1462,
      "pakistan": 1463,
      "aver": 1464,
      "ging": 1465,
      "non": 1466,
      "behind": 1467,
      "2006": 1468,
      "believe": 1469,
      "administration": 1470,
      "crisis": 1471,
      "bat": 1472,
      "fight": 1473,
      "gold": 1474,
      "ret": 1475,
      "ord": 1476,
      "often": 1477,
      "across": 1478,
      "import": 1479,
      "safe": 1480,
      "trave": 1481,
      "member": 1482,
      "mark": 1483,
      "stead": 1484,
      "credit": 1485,
      "town": 1486,
      "band": 1487,
      "hill": 1488,
      "mag": 1489,
      "ru": 1490,
      "wind": 1491,
      "inal": 1492,
      "reuters": 1493,
      "plic": 1494,
      "manage": 1495,
      "feel": 1496,
      "addition": 1497,
      "loss": 1498,
      "england": 1499,
      "cup": 1500,
      "jap": 1501,
      "lan": 1502,
      "lines": 1503,
      "ond": 1504,
      "omin": 1505,
      "roy": 1506,
      "acy": 1507,
      "ush": 1508,
      "prove": 1509,
      "feat": 1510,
      "augh": 1511,
      "workers": 1512,
      "leading": 1513,
      "break": 1514,
      "received": 1515,
      "committee": 1516,
      "taken": 1517,
      "secretary": 1518,
      "21": 1519,
      "bc": 1520,
      "ga": 1521,
      "gn": 1522,
      "ither": 1523,
      "ron": 1524,
      "rate": 1525,
      "thought": 1526,
      "step": 1527,
      "ising": 1528,
      "seen": 1529,
      "bel": 1530,
      "iran": 1531,
      "wel": 1532,
      "agency": 1533,
      "doing": 1534,
      "spec": 1535,
      "charges": 1536,
      "risk": 1537,
      "differ": 1538,
      "bom": 1539,
      "nu": 1540,
      "ril": 1541,
      "rad": 1542,
      "rights": 1543,
      "reed": 1544,
      "itions": 1545,
      "class": 1546,
      "whose": 1547,
      "event": 1548,
      "banks": 1549,
      "inton": 1550,
      "phil": 1551,
      "didn": 1552,
      "70": 1553,
      "aid": 1554,
      "give": 1555,
      "na": 1556,
      "ps": 1557,
      "site": 1558,
      "reason": 1559,
      "itive": 1560,
      "accoun": 1561,
      "nove": 1562,
      "april": 1563,
      "met": 1564,
      "avail": 1565,
      "due": 1566,
      "statement": 1567,
      "green": 1568,
      "control": 1569,
      "level": 1570,
      "private": 1571,
      "japan": 1572,
      "500": 1573,
      "80": 1574,
      "bud": 1575,
      "fun": 1576,
      "gain": 1577,
      "lin": 1578,
      "ense": 1579,
      "austr": 1580,
      "foc": 1581,
      "spect": 1582,
      "2010": 1583,
      "markets": 1584,
      "ology": 1585,
      "music": 1586,
      "discuss": 1587,
      "dam": 1588,
      "gun": 1589,
      "ators": 1590,
      "league": 1591,
      "forward": 1592,
      "fell": 1593,
      "host": 1594,
      "hope": 1595,
      "ensive": 1596,
      "broad": 1597,
      "custom": 1598,
      "ahead": 1599,
      "fav": 1600,
      "pick": 1601,
      "yst": 1602,
      "isra": 1603,
      "sex": 1604,
      "clinton": 1605,
      "something": 1606,
      "previous": 1607,
      "investment": 1608,
      "direct": 1609,
      "growth": 1610,
      "24": 1611,
      "civ": 1612,
      "ners": 1613,
      "pack": 1614,
      "pho": 1615,
      "infl": 1616,
      "arrest": 1617,
      "oft": 1618,
      "asing": 1619,
      "begin": 1620,
      "utes": 1621,
      "wife": 1622,
      "aged": 1623,
      "shot": 1624,
      "qual": 1625,
      "else": 1626,
      "serious": 1627,
      "trying": 1628,
      "largest": 1629,
      "olog": 1630,
      "democratic": 1631,
      "question": 1632,
      "development": 1633,
      "david": 1634,
      "fast": 1635,
      "hic": 1636,
      "light": 1637,
      "nam": 1638,
      "watch": 1639,
      "ston": 1640,
      "proper": 1641,
      "exper": 1642,
      "porters": 1643,
      "descr": 1644,
      "decision": 1645,
      "expect": 1646,
      "popular": 1647,
      "further": 1648,
      "june": 1649,
      "afghanistan": 1650,
      "cain": 1651,
      "dar": 1652,
      "lt": 1653,
      "mart": 1654,
      "nine": 1655,
      "educ": 1656,
      "within": 1657,
      "trip": 1658,
      "club": 1659,
      "iving": 1660,
      "medical": 1661,
      "effect": 1662,
      "vote": 1663,
      "profess": 1664,
      "nearly": 1665,
      "friends": 1666,
      "results": 1667,
      "manager": 1668,
      "history": 1669,
      "particular": 1670,
      "front": 1671,
      "nuclear": 1672,
      "base": 1673,
      "gir": 1674,
      "ibut": 1675,
      "ients": 1676,
      "van": 1677,
      "tom": 1678,
      "iting": 1679,
      "super": 1680,
      "upi": 1681,
      "ission": 1682,
      "region": 1683,
      "things": 1684,
      "groups": 1685,
      "latest": 1686,
      "film": 1687,
      "executive": 1688,
      "chairman": 1689,
      "candid": 1690,
      "ands": 1691,
      "sep": 1692,
      "rose": 1693,
      "teach": 1694,
      "meas": 1695,
      "iety": 1696,
      "grand": 1697,
      "foot": 1698,
      "space": 1699,
      "firm": 1700,
      "believ": 1701,
      "troops": 1702,
      "policy": 1703,
      "civil": 1704,
      "bul": 1705,
      "gle": 1706,
      "mom": 1707,
      "rac": 1708,
      "rise": 1709,
      "squ": 1710,
      "var": 1711,
      "init": 1712,
      "ask": 1713,
      "ention": 1714,
      "dece": 1715,
      "tember": 1716,
      "spending": 1717,
      "talks": 1718,
      "although": 1719,
      "issue": 1720,
      "authorities": 1721,
      "hours": 1722,
      "terror": 1723,
      "champion": 1724,
      "august": 1725,
      "available": 1726,
      "september": 1727,
      "ker": 1728,
      "ler": 1729,
      "name": 1730,
      "sty": 1731,
      "prosecut": 1732,
      "offer": 1733,
      "strate": 1734,
      "bert": 1735,
      "commission": 1736,
      "july": 1737,
      "23": 1738,
      "bit": 1739,
      "bag": 1740,
      "eas": 1741,
      "pred": 1742,
      "spr": 1743,
      "inj": 1744,
      "reven": 1745,
      "forman": 1746,
      "heav": 1747,
      "neigh": 1748,
      "cell": 1749,
      "tel": 1750,
      "process": 1751,
      "performan": 1752,
      "jobs": 1753,
      "minutes": 1754,
      "players": 1755,
      "rather": 1756,
      "course": 1757,
      "morning": 1758,
      "appeared": 1759,
      "increase": 1760,
      "republican": 1761,
      "outside": 1762,
      "prison": 1763,
      "different": 1764,
      "100": 1765,
      "jour": 1766,
      "ky": 1767,
      "mig": 1768,
      "uation": 1769,
      "vin": 1770,
      "ane": 1771,
      "reco": 1772,
      "atives": 1773,
      "staff": 1774,
      "ese": 1775,
      "began": 1776,
      "role": 1777,
      "common": 1778,
      "compet": 1779,
      "ulation": 1780,
      "central": 1781,
      "carr": 1782,
      "vision": 1783,
      "include": 1784,
      "americans": 1785,
      "proved": 1786,
      "started": 1787,
      "benef": 1788,
      "contract": 1789,
      "insurance": 1790,
      "hous": 1791,
      "lap": 1792,
      "mas": 1793,
      "nia": 1794,
      "tg": 1795,
      "vide": 1796,
      "stor": 1797,
      "total": 1798,
      "toward": 1799,
      "ams": 1800,
      "newsp": 1801,
      "estim": 1802,
      "stock": 1803,
      "diffic": 1804,
      "recently": 1805,
      "kore": 1806,
      "continu": 1807,
      "spokesman": 1808,
      "important": 1809,
      "austral": 1810,
      "december": 1811,
      "argu": 1812,
      "enter": 1813,
      "roll": 1814,
      "union": 1815,
      "pract": 1816,
      "medi": 1817,
      "himself": 1818,
      "launch": 1819,
      "independ": 1820,
      "possible": 1821,
      "suffer": 1822,
      "average": 1823,
      "november": 1824,
      "cks": 1825,
      "cross": 1826,
      "kid": 1827,
      "kind": 1828,
      "mis": 1829,
      "nal": 1830,
      "tic": 1831,
      "arm": 1832,
      "lear": 1833,
      "chall": 1834,
      "chines": 1835,
      "heart": 1836,
      "ext": 1837,
      "social": 1838,
      "famil": 1839,
      "profit": 1840,
      "organiz": 1841,
      "january": 1842,
      "management": 1843,
      "bad": 1844,
      "ees": 1845,
      "jack": 1846,
      "mind": 1847,
      "sour": 1848,
      "rew": 1849,
      "story": 1850,
      "toge": 1851,
      "lebr": 1852,
      "improve": 1853,
      "goal": 1854,
      "ounds": 1855,
      "guard": 1856,
      "getting": 1857,
      "cali": 1858,
      "problems": 1859,
      "together": 1860,
      "ey": 1861,
      "race": 1862,
      "instead": 1863,
      "ilar": 1864,
      "ctive": 1865,
      "resident": 1866,
      "grap": 1867,
      "spent": 1868,
      "evidence": 1869,
      "rench": 1870,
      "ances": 1871,
      "investors": 1872,
      "mccain": 1873,
      "released": 1874,
      "mill": 1875,
      "mass": 1876,
      "pan": 1877,
      "ring": 1878,
      "ata": 1879,
      "ening": 1880,
      "conne": 1881,
      "clim": 1882,
      "stra": 1883,
      "stri": 1884,
      "played": 1885,
      "angeles": 1886,
      "biggest": 1887,
      "issues": 1888,
      "dollars": 1889,
      "analyst": 1890,
      "pul": 1891,
      "rates": 1892,
      "tit": 1893,
      "stay": 1894,
      "always": 1895,
      "vehic": 1896,
      "forced": 1897,
      "conference": 1898,
      "temp": 1899,
      "poor": 1900,
      "boy": 1901,
      "activ": 1902,
      "compared": 1903,
      "patients": 1904,
      "attacks": 1905,
      "happ": 1906,
      "personal": 1907,
      "parents": 1908,
      "approach": 1909,
      "cli": 1910,
      "dle": 1911,
      "gar": 1912,
      "gave": 1913,
      "hur": 1914,
      "rid": 1915,
      "scr": 1916,
      "ties": 1917,
      "thous": 1918,
      "stat": 1919,
      "dev": 1920,
      "celebr": 1921,
      "ctions": 1922,
      "tra": 1923,
      "trou": 1924,
      "trial": 1925,
      "quick": 1926,
      "mortg": 1927,
      "career": 1928,
      "covered": 1929,
      "respons": 1930,
      "allowed": 1931,
      "rules": 1932,
      "labour": 1933,
      "difficult": 1934,
      "chinese": 1935,
      "batt": 1936,
      "card": 1937,
      "mad": 1938,
      "nn": 1939,
      "vill": 1940,
      "recess": 1941,
      "army": 1942,
      "itor": 1943,
      "ico": 1944,
      "bey": 1945,
      "ades": 1946,
      "access": 1947,
      "dest": 1948,
      "saw": 1949,
      "track": 1950,
      "trade": 1951,
      "live": 1952,
      "aud": 1953,
      "anyone": 1954,
      "phone": 1955,
      "address": 1956,
      "weekend": 1957,
      "running": 1958,
      "products": 1959,
      "costs": 1960,
      "similar": 1961,
      "paul": 1962,
      "father": 1963,
      "single": 1964,
      "victory": 1965,
      "performance": 1966,
      "90": 1967,
      "ake": 1968,
      "date": 1969,
      "retail": 1970,
      "became": 1971,
      "rock": 1972,
      "immedi": 1973,
      "web": 1974,
      "tex": 1975,
      "project": 1976,
      "shar": 1977,
      "artic": 1978,
      "bring": 1979,
      "2005": 1980,
      "provide": 1981,
      "russia": 1982,
      "george": 1983,
      "califor": 1984,
      "lish": 1985,
      "oting": 1986,
      "pain": 1987,
      "reform": 1988,
      "envir": 1989,
      "stage": 1990,
      "chance": 1991,
      "imp": 1992,
      "conserv": 1993,
      "uses": 1994,
      "works": 1995,
      "bled": 1996,
      "nings": 1997,
      "senior": 1998,
      "helped": 1999,
      "happen": 2000,
      "cases": 2001,
      "involved": 2002,
      "potential": 2003,
      "budget": 2004,
      "environ": 2005,
      "aut": 2006,
      "fear": 2007,
      "fair": 2008,
      "hus": 2009,
      "hund": 2010,
      "iers": 2011,
      "ota": 2012,
      "yester": 2013,
      "ino": 2014,
      "income": 2015,
      "ony": 2016,
      "refer": 2017,
      "ened": 2018,
      "asse": 2019,
      "forts": 2020,
      "weak": 2021,
      "tru": 2022,
      "dog": 2023,
      "ibility": 2024,
      "officer": 2025,
      "parli": 2026,
      "efforts": 2027,
      "higher": 2028,
      "border": 2029,
      "accused": 2030,
      "distr": 2031,
      "victim": 2032,
      "california": 2033,
      "hundred": 2034,
      "26": 2035,
      "fuel": 2036,
      "mes": 2037,
      "instit": 2038,
      "loc": 2039,
      "nel": 2040,
      "moved": 2041,
      "complain": 2042,
      "hael": 2043,
      "reser": 2044,
      "lies": 2045,
      "indic": 2046,
      "internet": 2047,
      "presidential": 2048,
      "students": 2049,
      "southern": 2050,
      "summer": 2051,
      "doesn": 2052,
      "experience": 2053,
      "describ": 2054,
      "yesterday": 2055,
      "27": 2056,
      "28": 2057,
      "bol": 2058,
      "cash": 2059,
      "gi": 2060,
      "scre": 2061,
      "ination": 2062,
      "ank": 2063,
      "anim": 2064,
      "represent": 2065,
      "ays": 2066,
      "urch": 2067,
      "peace": 2068,
      "mob": 2069,
      "protest": 2070,
      "opposition": 2071,
      "shop": 2072,
      "manu": 2073,
      "lower": 2074,
      "cars": 2075,
      "surve": 2076,
      "fully": 2077,
      "miles": 2078,
      "scient": 2079,
      "judge": 2080,
      "complete": 2081,
      "boost": 2082,
      "touch": 2083,
      "education": 2084,
      "parliament": 2085,
      "cop": 2086,
      "crow": 2087,
      "ding": 2088,
      "eli": 2089,
      "hor": 2090,
      "nat": 2091,
      "oid": 2092,
      "rain": 2093,
      "tv": 2094,
      "usu": 2095,
      "ured": 2096,
      "beat": 2097,
      "detail": 2098,
      "gets": 2099,
      "aft": 2100,
      "cancer": 2101,
      "create": 2102,
      "cked": 2103,
      "speak": 2104,
      "losing": 2105,
      "voters": 2106,
      "included": 2107,
      "value": 2108,
      "giving": 2109,
      "contribut": 2110,
      "middle": 2111,
      "michael": 2112,
      "critic": 2113,
      "violence": 2114,
      "newspaper": 2115,
      "thousands": 2116,
      "recession": 2117,
      "environment": 2118,
      "manufact": 2119,
      "bir": 2120,
      "da": 2121,
      "done": 2122,
      "wit": 2123,
      "online": 2124,
      "alter": 2125,
      "island": 2126,
      "leav": 2127,
      "condu": 2128,
      "abo": 2129,
      "ends": 2130,
      "willi": 2131,
      "strug": 2132,
      "mail": 2133,
      "corpor": 2134,
      "officers": 2135,
      "player": 2136,
      "park": 2137,
      "barack": 2138,
      "cially": 2139,
      "huge": 2140,
      "network": 2141,
      "letter": 2142,
      "democrats": 2143,
      "continue": 2144,
      "release": 2145,
      "cing": 2146,
      "cit": 2147,
      "either": 2148,
      "french": 2149,
      "pie": 2150,
      "rom": 2151,
      "sil": 2152,
      "inv": 2153,
      "aled": 2154,
      "chic": 2155,
      "church": 2156,
      "separ": 2157,
      "deter": 2158,
      "vert": 2159,
      "comment": 2160,
      "lives": 2161,
      "coach": 2162,
      "box": 2163,
      "emp": 2164,
      "cuts": 2165,
      "selves": 2166,
      "lawy": 2167,
      "fourth": 2168,
      "wrong": 2169,
      "community": 2170,
      "consider": 2171,
      "deliver": 2172,
      "photo": 2173,
      "coup": 2174,
      "data": 2175,
      "nas": 2176,
      "za": 2177,
      "inking": 2178,
      "review": 2179,
      "station": 2180,
      "tober": 2181,
      "moving": 2182,
      "tried": 2183,
      "ount": 2184,
      "brought": 2185,
      "docu": 2186,
      "drive": 2187,
      "interview": 2188,
      "smith": 2189,
      "schools": 2190,
      "october": 2191,
      "employment": 2192,
      "shares": 2193,
      "remains": 2194,
      "customers": 2195,
      "cir": 2196,
      "gor": 2197,
      "lou": 2198,
      "ni": 2199,
      "nic": 2200,
      "chan": 2201,
      "nov": 2202,
      "propos": 2203,
      "express": 2204,
      "soon": 2205,
      "worth": 2206,
      "brid": 2207,
      "2004": 2208,
      "worked": 2209,
      "senate": 2210,
      "charge": 2211,
      "brother": 2212,
      "ulture": 2213,
      "makes": 2214,
      "investigation": 2215,
      "debt": 2216,
      "technology": 2217,
      "agreement": 2218,
      "placed": 2219,
      "travel": 2220,
      "revenue": 2221,
      "video": 2222,
      "district": 2223,
      "cul": 2224,
      "ded": 2225,
      "die": 2226,
      "daugh": 2227,
      "ff": 2228,
      "gm": 2229,
      "gent": 2230,
      "reve": 2231,
      "ene": 2232,
      "stant": 2233,
      "espe": 2234,
      "ida": 2235,
      "rob": 2236,
      "acqu": 2237,
      "negot": 2238,
      "wire": 2239,
      "areas": 2240,
      "shire": 2241,
      "meet": 2242,
      "grad": 2243,
      "acted": 2244,
      "pressure": 2245,
      "sched": 2246,
      "longer": 2247,
      "showed": 2248,
      "needed": 2249,
      "western": 2250,
      "claimed": 2251,
      "result": 2252,
      "tradition": 2253,
      "failed": 2254,
      "drugs": 2255,
      "www": 2256,
      "islam": 2257,
      "particularly": 2258,
      "beyond": 2259,
      "especially": 2260,
      "negoti": 2261,
      "cnn": 2262,
      "dail": 2263,
      "ease": 2264,
      "fly": 2265,
      "fif": 2266,
      "james": 2267,
      "mex": 2268,
      "nations": 2269,
      "ram": 2270,
      "sed": 2271,
      "sar": 2272,
      "ilt": 2273,
      "sea": 2274,
      "ada": 2275,
      "forces": 2276,
      "mot": 2277,
      "proje": 2278,
      "probab": 2279,
      "means": 2280,
      "offered": 2281,
      "anti": 2282,
      "centre": 2283,
      "county": 2284,
      "join": 2285,
      "prevent": 2286,
      "medic": 2287,
      "contain": 2288,
      "northern": 2289,
      "spot": 2290,
      "growing": 2291,
      "society": 2292,
      "scored": 2293,
      "response": 2294,
      "paid": 2295,
      "trading": 2296,
      "parent": 2297,
      "homes": 2298,
      "alleged": 2299,
      "journal": 2300,
      "daily": 2301,
      "31": 2302,
      "gree": 2303,
      "reli": 2304,
      "ases": 2305,
      "hear": 2306,
      "deep": 2307,
      "comb": 2308,
      "respe": 2309,
      "living": 2310,
      "plant": 2311,
      "exist": 2312,
      "marr": 2313,
      "idea": 2314,
      "overall": 2315,
      "parties": 2316,
      "assist": 2317,
      "ample": 2318,
      "parts": 2319,
      "legisl": 2320,
      "runs": 2321,
      "needs": 2322,
      "signific": 2323,
      "increasing": 2324,
      "wanted": 2325,
      "incident": 2326,
      "electric": 2327,
      "situation": 2328,
      "double": 2329,
      "treatment": 2330,
      "murder": 2331,
      "bomb": 2332,
      "hundreds": 2333,
      "35": 2334,
      "bbc": 2335,
      "fi": 2336,
      "hon": 2337,
      "hun": 2338,
      "iver": 2339,
      "slow": 2340,
      "yards": 2341,
      "ona": 2342,
      "ream": 2343,
      "iding": 2344,
      "unity": 2345,
      "constru": 2346,
      "nothing": 2347,
      "moder": 2348,
      "france": 2349,
      "pose": 2350,
      "exchange": 2351,
      "coast": 2352,
      "cru": 2353,
      "active": 2354,
      "attention": 2355,
      "phys": 2356,
      "published": 2357,
      "effort": 2358,
      "sense": 2359,
      "conditions": 2360,
      "annual": 2361,
      "shows": 2362,
      "accident": 2363,
      "mitted": 2364,
      "african": 2365,
      "israel": 2366,
      "believed": 2367,
      "article": 2368,
      "described": 2369,
      "probably": 2370,
      "bow": 2371,
      "eth": 2372,
      "fle": 2373,
      "repe": 2374,
      "isn": 2375,
      "immig": 2376,
      "suit": 2377,
      "ably": 2378,
      "kept": 2379,
      "teen": 2380,
      "worst": 2381,
      "ump": 2382,
      "joy": 2383,
      "losed": 2384,
      "supporters": 2385,
      "planned": 2386,
      "production": 2387,
      "decided": 2388,
      "johnson": 2389,
      "employees": 2390,
      "index": 2391,
      "researchers": 2392,
      "college": 2393,
      "protect": 2394,
      "fighting": 2395,
      "focus": 2396,
      "named": 2397,
      "straight": 2398,
      "significant": 2399,
      "bn": 2400,
      "gency": 2401,
      "iation": 2402,
      "oly": 2403,
      "pil": 2404,
      "soft": 2405,
      "table": 2406,
      "wants": 2407,
      "attr": 2408,
      "attemp": 2409,
      "advert": 2410,
      "accept": 2411,
      "hest": 2412,
      "heard": 2413,
      "constit": 2414,
      "fest": 2415,
      "febr": 2416,
      "hood": 2417,
      "avoid": 2418,
      "owners": 2419,
      "anything": 2420,
      "attor": 2421,
      "flor": 2422,
      "regul": 2423,
      "regular": 2424,
      "winning": 2425,
      "product": 2426,
      "inside": 2427,
      "opened": 2428,
      "standing": 2429,
      "followed": 2430,
      "increased": 2431,
      "meanwhile": 2432,
      "richard": 2433,
      "arrested": 2434,
      "property": 2435,
      "initial": 2436,
      "texas": 2437,
      "husband": 2438,
      "chicago": 2439,
      "olymp": 2440,
      "february": 2441,
      "29": 2442,
      "bay": 2443,
      "dad": 2444,
      "fis": 2445,
      "ka": 2446,
      "kar": 2447,
      "oks": 2448,
      "push": 2449,
      "ss": 2450,
      "sam": 2451,
      "thom": 2452,
      "aries": 2453,
      "ises": 2454,
      "entire": 2455,
      "sele": 2456,
      "sequ": 2457,
      "consu": 2458,
      "kets": 2459,
      "agreed": 2460,
      "brand": 2461,
      "actions": 2462,
      "speed": 2463,
      "playing": 2464,
      "themselves": 2465,
      "charged": 2466,
      "mission": 2467,
      "defense": 2468,
      "tough": 2469,
      "rupt": 2470,
      "girl": 2471,
      "measure": 2472,
      "housing": 2473,
      "families": 2474,
      "climate": 2475,
      "survey": 2476,
      "45": 2477,
      "fans": 2478,
      "ii": 2479,
      "ij": 2480,
      "pi": 2481,
      "pair": 2482,
      "pict": 2483,
      "stu": 2484,
      "edge": 2485,
      "sec": 2486,
      "hearing": 2487,
      "demon": 2488,
      "confir": 2489,
      "consum": 2490,
      "applic": 2491,
      "aging": 2492,
      "auto": 2493,
      "crash": 2494,
      "spir": 2495,
      "spread": 2496,
      "events": 2497,
      "counter": 2498,
      "ishing": 2499,
      "pret": 2500,
      "justice": 2501,
      "planning": 2502,
      "store": 2503,
      "blood": 2504,
      "seems": 2505,
      "criminal": 2506,
      "television": 2507,
      "associated": 2508,
      "training": 2509,
      "figures": 2510,
      "radio": 2511,
      "moment": 2512,
      "impact": 2513,
      "leaving": 2514,
      "florida": 2515,
      "300": 2516,
      "dut": 2517,
      "fit": 2518,
      "jer": 2519,
      "jones": 2520,
      "mix": 2521,
      "sat": 2522,
      "inju": 2523,
      "orig": 2524,
      "assa": 2525,
      "leave": 2526,
      "advis": 2527,
      "love": 2528,
      "ctors": 2529,
      "weap": 2530,
      "wasn": 2531,
      "example": 2532,
      "prior": 2533,
      "whole": 2534,
      "2003": 2535,
      "partners": 2536,
      "enced": 2537,
      "ension": 2538,
      "calls": 2539,
      "related": 2540,
      "opening": 2541,
      "caused": 2542,
      "scott": 2543,
      "require": 2544,
      "shooting": 2545,
      "explos": 2546,
      "makers": 2547,
      "protection": 2548,
      "reached": 2549,
      "matter": 2550,
      "additional": 2551,
      "heavy": 2552,
      "victims": 2553,
      "injured": 2554,
      "aur": 2555,
      "cab": 2556,
      "ez": 2557,
      "natur": 2558,
      "range": 2559,
      "va": 2560,
      "ware": 2561,
      "stone": 2562,
      "arily": 2563,
      "ently": 2564,
      "robert": 2565,
      "save": 2566,
      "comments": 2567,
      "ister": 2568,
      "earth": 2569,
      "goo": 2570,
      "iff": 2571,
      "berg": 2572,
      "driving": 2573,
      "crew": 2574,
      "positive": 2575,
      "commer": 2576,
      "encies": 2577,
      "talk": 2578,
      "relation": 2579,
      "appeal": 2580,
      "looked": 2581,
      "newswire": 2582,
      "operation": 2583,
      "killing": 2584,
      "greater": 2585,
      "claims": 2586,
      "struct": 2587,
      "africa": 2588,
      "beginning": 2589,
      "neighbor": 2590,
      "korea": 2591,
      "mortgage": 2592,
      "above": 2593,
      "ather": 2594,
      "ki": 2595,
      "mou": 2596,
      "nav": 2597,
      "pitch": 2598,
      "sn": 2599,
      "scal": 2600,
      "sports": 2601,
      "wro": 2602,
      "xim": 2603,
      "stress": 2604,
      "rodu": 2605,
      "amount": 2606,
      "ime": 2607,
      "necess": 2608,
      "susp": 2609,
      "traff": 2610,
      "lie": 2611,
      "plus": 2612,
      "aster": 2613,
      "quo": 2614,
      "india": 2615,
      "blue": 2616,
      "ounded": 2617,
      "finally": 2618,
      "introdu": 2619,
      "winner": 2620,
      "engine": 2621,
      "born": 2622,
      "rising": 2623,
      "everything": 2624,
      "missing": 2625,
      "simply": 2626,
      "russian": 2627,
      "association": 2628,
      "changes": 2629,
      "safety": 2630,
      "candidate": 2631,
      "assets": 2632,
      "wrote": 2633,
      "47": 2634,
      "fill": 2635,
      "hig": 2636,
      "moun": 2637,
      "mult": 2638,
      "page": 2639,
      "spl": 2640,
      "sport": 2641,
      "anch": 2642,
      "sector": 2643,
      "beij": 2644,
      "acter": 2645,
      "saving": 2646,
      "erson": 2647,
      "trust": 2648,
      "shut": 2649,
      "uled": 2650,
      "quite": 2651,
      "cannot": 2652,
      "ibly": 2653,
      "served": 2654,
      "warned": 2655,
      "everyone": 2656,
      "operating": 2657,
      "missed": 2658,
      "funds": 2659,
      "population": 2660,
      "currently": 2661,
      "selling": 2662,
      "soldiers": 2663,
      "figure": 2664,
      "royal": 2665,
      "account": 2666,
      "quality": 2667,
      "championship": 2668,
      "injury": 2669,
      "challen": 2670,
      "residents": 2671,
      "vehicles": 2672,
      "consumer": 2673,
      "beijing": 2674,
      "hi": 2675,
      "hib": 2676,
      "ience": 2677,
      "nes": 2678,
      "native": 2679,
      "ore": 2680,
      "sir": 2681,
      "tes": 2682,
      "inst": 2683,
      "arab": 2684,
      "ille": 2685,
      "defin": 2686,
      "contest": 2687,
      "ceed": 2688,
      "motor": 2689,
      "pool": 2690,
      "apart": 2691,
      "apped": 2692,
      "opport": 2693,
      "feet": 2694,
      "afford": 2695,
      "clin": 2696,
      "bot": 2697,
      "antic": 2698,
      "award": 2699,
      "disease": 2700,
      "carry": 2701,
      "banking": 2702,
      "backed": 2703,
      "statements": 2704,
      "surv": 2705,
      "built": 2706,
      "clean": 2707,
      "province": 2708,
      "check": 2709,
      "pointed": 2710,
      "male": 2711,
      "concerns": 2712,
      "advant": 2713,
      "hopes": 2714,
      "confidence": 2715,
      "ordin": 2716,
      "martin": 2717,
      "style": 2718,
      "recogn": 2719,
      "continued": 2720,
      "suffered": 2721,
      "quickly": 2722,
      "immediately": 2723,
      "mobile": 2724,
      "williams": 2725,
      "couple": 2726,
      "daughter": 2727,
      "fifth": 2728,
      "mexico": 2729,
      "attorney": 2730,
      "culture": 2731,
      "domin": 2732,
      "lad": 2733,
      "pted": 2734,
      "rio": 2735,
      "song": 2736,
      "vice": 2737,
      "onto": 2738,
      "ars": 2739,
      "ison": 2740,
      "ander": 2741,
      "sey": 2742,
      "adem": 2743,
      "academ": 2744,
      "deput": 2745,
      "ushing": 2746,
      "lied": 2747,
      "astic": 2748,
      "ift": 2749,
      "words": 2750,
      "lled": 2751,
      "actually": 2752,
      "indian": 2753,
      "poll": 2754,
      "198": 2755,
      "german": 2756,
      "raised": 2757,
      "relig": 2758,
      "numbers": 2759,
      "issued": 2760,
      "muslim": 2761,
      "announce": 2762,
      "iraqi": 2763,
      "considered": 2764,
      "danger": 2765,
      "labor": 2766,
      "reduce": 2767,
      "effective": 2768,
      "organization": 2769,
      "analysts": 2770,
      "happy": 2771,
      "weapons": 2772,
      "challenge": 2773,
      "34": 2774,
      "bass": 2775,
      "cat": 2776,
      "han": 2777,
      "hen": 2778,
      "jail": 2779,
      "link": 2780,
      "rap": 2781,
      "smo": 2782,
      "zer": 2783,
      "ani": 2784,
      "enjoy": 2785,
      "ald": 2786,
      "ali": 2787,
      "ilities": 2788,
      "dem": 2789,
      "deleg": 2790,
      "uries": 2791,
      "looks": 2792,
      "utions": 2793,
      "terms": 2794,
      "concl": 2795,
      "istic": 2796,
      "explain": 2797,
      "prise": 2798,
      "perhap": 2799,
      "felt": 2800,
      "ivid": 2801,
      "brief": 2802,
      "century": 2803,
      "acting": 2804,
      "answer": 2805,
      "hotel": 2806,
      "minor": 2807,
      "prep": 2808,
      "ancy": 2809,
      "encour": 2810,
      "collap": 2811,
      "settle": 2812,
      "throughout": 2813,
      "student": 2814,
      "teams": 2815,
      "operations": 2816,
      "politics": 2817,
      "restaur": 2818,
      "occur": 2819,
      "majority": 2820,
      "delay": 2821,
      "elections": 2822,
      "appearance": 2823,
      "dropped": 2824,
      "practice": 2825,
      "graph": 2826,
      "scientists": 2827,
      "determin": 2828,
      "demonstr": 2829,
      "relationship": 2830,
      "perhaps": 2831,
      "36": 2832,
      "bour": 2833,
      "bail": 2834,
      "figh": 2835,
      "hall": 2836,
      "lat": 2837,
      "lay": 2838,
      "mist": 2839,
      "pac": 2840,
      "ray": 2841,
      "ti": 2842,
      "wil": 2843,
      "ya": 2844,
      "thes": 2845,
      "returned": 2846,
      "illegal": 2847,
      "ider": 2848,
      "loy": 2849,
      "loans": 2850,
      "consul": 2851,
      "convent": 2852,
      "noon": 2853,
      "sach": 2854,
      "webs": 2855,
      "exer": 2856,
      "excl": 2857,
      "prnewswire": 2858,
      "perform": 2859,
      "perfect": 2860,
      "affe": 2861,
      "memor": 2862,
      "offering": 2863,
      "individ": 2864,
      "hot": 2865,
      "prec": 2866,
      "estab": 2867,
      "flu": 2868,
      "colum": 2869,
      "germany": 2870,
      "relations": 2871,
      "securities": 2872,
      "passed": 2873,
      "records": 2874,
      "receive": 2875,
      "virgin": 2876,
      "limited": 2877,
      "republicans": 2878,
      "concern": 2879,
      "communic": 2880,
      "maker": 2881,
      "writer": 2882,
      "written": 2883,
      "levels": 2884,
      "eastern": 2885,
      "completed": 2886,
      "refle": 2887,
      "spokeswoman": 2888,
      "designed": 2889,
      "ifying": 2890,
      "experts": 2891,
      "square": 2892,
      "benefits": 2893,
      "australia": 2894,
      "battle": 2895,
      "messa": 2896,
      "strugg": 2897,
      "confirmed": 2898,
      "google": 2899,
      "highest": 2900,
      "38": 2901,
      "75": 2902,
      "ai": 2903,
      "din": 2904,
      "ech": 2905,
      "hdad": 2906,
      "nament": 2907,
      "pun": 2908,
      "sor": 2909,
      "tight": 2910,
      "wild": 2911,
      "renew": 2912,
      "ature": 2913,
      "alex": 2914,
      "weather": 2915,
      "resour": 2916,
      "liber": 2917,
      "exam": 2918,
      "extra": 2919,
      "coal": 2920,
      "bod": 2921,
      "bling": 2922,
      "door": 2923,
      "sometimes": 2924,
      "governor": 2925,
      "196": 2926,
      "turning": 2927,
      "issions": 2928,
      "condition": 2929,
      "maintain": 2930,
      "farm": 2931,
      "taxes": 2932,
      "primary": 2933,
      "required": 2934,
      "faced": 2935,
      "concerned": 2936,
      "histor": 2937,
      "books": 2938,
      "purch": 2939,
      "successful": 2940,
      "strateg": 2941,
      "baghdad": 2942,
      "independent": 2943,
      "document": 2944,
      "bought": 2945,
      "cam": 2946,
      "camer": 2947,
      "fare": 2948,
      "lack": 2949,
      "pit": 2950,
      "raf": 2951,
      "sac": 2952,
      "wish": 2953,
      "wise": 2954,
      "stan": 2955,
      "ariz": 2956,
      "ched": 2957,
      "bell": 2958,
      "roc": 2959,
      "veter": 2960,
      "ami": 2961,
      "unit": 2962,
      "ural": 2963,
      "load": 2964,
      "iment": 2965,
      "note": 2966,
      "franc": 2967,
      "progress": 2968,
      "extre": 2969,
      "except": 2970,
      "emissions": 2971,
      "joe": 2972,
      "corp": 2973,
      "someone": 2974,
      "estate": 2975,
      "achie": 2976,
      "airport": 2977,
      "cutting": 2978,
      "raise": 2979,
      "english": 2980,
      "businesses": 2981,
      "hands": 2982,
      "militants": 2983,
      "wales": 2984,
      "scot": 2985,
      "managed": 2986,
      "treated": 2987,
      "arrived": 2988,
      "equip": 2989,
      "takes": 2990,
      "suggested": 2991,
      "football": 2992,
      "prosecutors": 2993,
      "strategy": 2994,
      "spring": 2995,
      "carried": 2996,
      "kids": 2997,
      "jackson": 2998,
      "source": 2999,
      "strike": 3000,
      "details": 3001,
      "birth": 3002,
      "scheduled": 3003,
      "construction": 3004,
      "modern": 3005,
      "natural": 3006,
      "deputy": 3007,
      "32": 3008,
      "33": 3009,
      "ax": 3010,
      "aed": 3011,
      "fres": 3012,
      "freed": 3013,
      "kick": 3014,
      "mac": 3015,
      "mir": 3016,
      "mater": 3017,
      "rival": 3018,
      "ana": 3019,
      "reb": 3020,
      "atl": 3021,
      "atory": 3022,
      "stren": 3023,
      "iled": 3024,
      "confl": 3025,
      "pel": 3026,
      "suspe": 3027,
      "weight": 3028,
      "apparent": 3029,
      "opt": 3030,
      "earnings": 3031,
      "goes": 3032,
      "meant": 3033,
      "anta": 3034,
      "doctors": 3035,
      "2001": 3036,
      "driver": 3037,
      "ireland": 3038,
      "prem": 3039,
      "carol": 3040,
      "iban": 3041,
      "anced": 3042,
      "understand": 3043,
      "talking": 3044,
      "taliban": 3045,
      "calling": 3046,
      "ministry": 3047,
      "produce": 3048,
      "wards": 3049,
      "wonder": 3050,
      "affair": 3051,
      "expand": 3052,
      "treas": 3053,
      "certainly": 3054,
      "tournament": 3055,
      "ruption": 3056,
      "magaz": 3057,
      "langu": 3058,
      "eventually": 3059,
      "favor": 3060,
      "teachers": 3061,
      "competition": 3062,
      "projects": 3063,
      "streng": 3064,
      "bing": 3065,
      "blow": 3066,
      "catch": 3067,
      "closed": 3068,
      "dome": 3069,
      "fat": 3070,
      "gers": 3071,
      "gian": 3072,
      "hab": 3073,
      "hang": 3074,
      "iate": 3075,
      "paper": 3076,
      "wis": 3077,
      "yan": 3078,
      "yes": 3079,
      "yard": 3080,
      "era": 3081,
      "stic": 3082,
      "stain": 3083,
      "ale": 3084,
      "itself": 3085,
      "chester": 3086,
      "model": 3087,
      "wealth": 3088,
      "withdraw": 3089,
      "kel": 3090,
      "lip": 3091,
      "ultim": 3092,
      "exact": 3093,
      "aste": 3094,
      "ender": 3095,
      "presents": 3096,
      "spend": 3097,
      "ously": 3098,
      "finished": 3099,
      "carbon": 3100,
      "speech": 3101,
      "regard": 3102,
      "setting": 3103,
      "senator": 3104,
      "version": 3105,
      "headed": 3106,
      "seeking": 3107,
      "sale": 3108,
      "spoke": 3109,
      "defence": 3110,
      "funding": 3111,
      "respond": 3112,
      "block": 3113,
      "holding": 3114,
      "programs": 3115,
      "declined": 3116,
      "seemed": 3117,
      "doub": 3118,
      "particip": 3119,
      "emergency": 3120,
      "flood": 3121,
      "inflation": 3122,
      "predic": 3123,
      "estimated": 3124,
      "launched": 3125,
      "learn": 3126,
      "title": 3127,
      "status": 3128,
      "giant": 3129,
      "repeated": 3130,
      "consumers": 3131,
      "exerc": 3132,
      "bia": 3133,
      "cere": 3134,
      "dig": 3135,
      "sand": 3136,
      "scor": 3137,
      "wers": 3138,
      "zy": 3139,
      "iny": 3140,
      "alb": 3141,
      "admitted": 3142,
      "deploy": 3143,
      "uni": 3144,
      "imin": 3145,
      "mode": 3146,
      "usive": 3147,
      "willing": 3148,
      "iven": 3149,
      "ght": 3150,
      "audi": 3151,
      "crack": 3152,
      "braz": 3153,
      "doz": 3154,
      "iage": 3155,
      "afternoon": 3156,
      "polls": 3157,
      "thanks": 3158,
      "serve": 3159,
      "owner": 3160,
      "jose": 3161,
      "pregn": 3162,
      "finance": 3163,
      "attend": 3164,
      "mayor": 3165,
      "maybe": 3166,
      "jected": 3167,
      "iction": 3168,
      "captain": 3169,
      "scene": 3170,
      "request": 3171,
      "finding": 3172,
      "river": 3173,
      "ribut": 3174,
      "holly": 3175,
      "failure": 3176,
      "questions": 3177,
      "fortun": 3178,
      "leadership": 3179,
      "favour": 3180,
      "israeli": 3181,
      "influ": 3182,
      "australian": 3183,
      "conservative": 3184,
      "fears": 3185,
      "screen": 3186,
      "gordon": 3187,
      "louis": 3188,
      "bridge": 3189,
      "thomas": 3190,
      "secure": 3191,
      "website": 3192,
      "premier": 3193,
      "39": 3194,
      "flow": 3195,
      "fash": 3196,
      "fix": 3197,
      "gs": 3198,
      "kin": 3199,
      "mun": 3200,
      "psy": 3201,
      "rare": 3202,
      "sle": 3203,
      "send": 3204,
      "tw": 3205,
      "ying": 3206,
      "inte": 3207,
      "inqu": 3208,
      "anger": 3209,
      "ery": 3210,
      "alco": 3211,
      "alty": 3212,
      "ari": 3213,
      "ites": 3214,
      "cha": 3215,
      "chris": 3216,
      "beach": 3217,
      "ado": 3218,
      "adel": 3219,
      "acce": 3220,
      "acts": 3221,
      "lyn": 3222,
      "log": 3223,
      "convic": 3224,
      "sud": 3225,
      "subs": 3226,
      "movie": 3227,
      "wear": 3228,
      "commo": 3229,
      "kevin": 3230,
      "option": 3231,
      "ults": 3232,
      "pled": 3233,
      "ession": 3234,
      "iest": 3235,
      "akes": 3236,
      "canada": 3237,
      "minute": 3238,
      "created": 3239,
      "contact": 3240,
      "flight": 3241,
      "caught": 3242,
      "provides": 3243,
      "barr": 3244,
      "symp": 3245,
      "tests": 3246,
      "produced": 3247,
      "starting": 3248,
      "standard": 3249,
      "walk": 3250,
      "sixth": 3251,
      "holders": 3252,
      "currency": 3253,
      "transport": 3254,
      "falling": 3255,
      "authority": 3256,
      "choice": 3257,
      "allegations": 3258,
      "hillary": 3259,
      "rule": 3260,
      "candidates": 3261,
      "recovery": 3262,
      "happened": 3263,
      "reserve": 3264,
      "piece": 3265,
      "legislation": 3266,
      "festival": 3267,
      "material": 3268,
      "fashion": 3269,
      "44": 3270,
      "cum": 3271,
      "crown": 3272,
      "dress": 3273,
      "gol": 3274,
      "gard": 3275,
      "knew": 3276,
      "lic": 3277,
      "qaed": 3278,
      "rang": 3279,
      "zone": 3280,
      "thinking": 3281,
      "inch": 3282,
      "rebe": 3283,
      "replace": 3284,
      "ories": 3285,
      "anda": 3286,
      "iced": 3287,
      "ils": 3288,
      "ilty": 3289,
      "chain": 3290,
      "amid": 3291,
      "unemployment": 3292,
      "imag": 3293,
      "supre": 3294,
      "sustain": 3295,
      "combat": 3296,
      "resol": 3297,
      "app": 3298,
      "approved": 3299,
      "opin": 3300,
      "exc": 3301,
      "earned": 3302,
      "goals": 3303,
      "prince": 3304,
      "offs": 3305,
      "boston": 3306,
      "mary": 3307,
      "corruption": 3308,
      "izing": 3309,
      "surger": 3310,
      "sche": 3311,
      "regist": 3312,
      "relative": 3313,
      "barrel": 3314,
      "includes": 3315,
      "decades": 3316,
      "write": 3317,
      "borrow": 3318,
      "risks": 3319,
      "insist": 3320,
      "generation": 3321,
      "subject": 3322,
      "substant": 3323,
      "remaining": 3324,
      "movement": 3325,
      "facing": 3326,
      "visitors": 3327,
      "wait": 3328,
      "mike": 3329,
      "temper": 3330,
      "tempor": 3331,
      "tempt": 3332,
      "largely": 3333,
      "pakistani": 3334,
      "easy": 3335,
      "towards": 3336,
      "village": 3337,
      "institute": 3338,
      "lawyer": 3339,
      "delivered": 3340,
      "proposal": 3341,
      "traditional": 3342,
      "software": 3343,
      "commercial": 3344,
      "necessary": 3345,
      "opportunity": 3346,
      "advantage": 3347,
      "virginia": 3348,
      "communications": 3349,
      "francis": 3350,
      "freedom": 3351,
      "hollywood": 3352,
      "integr": 3353,
      "convicted": 3354,
      "qaeda": 3355,
      "52": 3356,
      "bes": 3357,
      "cath": 3358,
      "drew": 3359,
      "fan": 3360,
      "gal": 3361,
      "gam": 3362,
      "gul": 3363,
      "gone": 3364,
      "ito": 3365,
      "jac": 3366,
      "kir": 3367,
      "mut": 3368,
      "mile": 3369,
      "nomin": 3370,
      "oh": 3371,
      "ville": 3372,
      "winter": 3373,
      "zo": 3374,
      "throw": 3375,
      "rey": 3376,
      "stret": 3377,
      "icit": 3378,
      "seed": 3379,
      "becoming": 3380,
      "dep": 3381,
      "urged": 3382,
      "sus": 3383,
      "proposed": 3384,
      "agencies": 3385,
      "manchester": 3386,
      "fees": 3387,
      "fects": 3388,
      "offers": 3389,
      "brain": 3390,
      "strain": 3391,
      "cents": 3392,
      "umped": 3393,
      "comput": 3394,
      "owned": 3395,
      "joined": 3396,
      "display": 3397,
      "speaking": 3398,
      "forecast": 3399,
      "guar": 3400,
      "guilty": 3401,
      "197": 3402,
      "effic": 3403,
      "character": 3404,
      "supp": 3405,
      "wins": 3406,
      "marketing": 3407,
      "plane": 3408,
      "plants": 3409,
      "bankrupt": 3410,
      "sky": 3411,
      "critical": 3412,
      "critics": 3413,
      "decline": 3414,
      "debate": 3415,
      "ordered": 3416,
      "target": 3417,
      "floor": 3418,
      "christmas": 3419,
      "losses": 3420,
      "damage": 3421,
      "previously": 3422,
      "professor": 3423,
      "various": 3424,
      "millions": 3425,
      "trouble": 3426,
      "destroy": 3427,
      "crowd": 3428,
      "nato": 3429,
      "witness": 3430,
      "corporate": 3431,
      "marriage": 3432,
      "traffic": 3433,
      "fighters": 3434,
      "resources": 3435,
      "arizona": 3436,
      "scotland": 3437,
      "fresh": 3438,
      "magazine": 3439,
      "ceremon": 3440,
      "brazil": 3441,
      "alcohol": 3442,
      "surgery": 3443,
      "48": 3444,
      "cate": 3445,
      "cities": 3446,
      "ee": 3447,
      "frequ": 3448,
      "gall": 3449,
      "jim": 3450,
      "lor": 3451,
      "nh": 3452,
      "nar": 3453,
      "pir": 3454,
      "ries": 3455,
      "rants": 3456,
      "som": 3457,
      "sound": 3458,
      "sort": 3459,
      "size": 3460,
      "tum": 3461,
      "ubs": 3462,
      "recomm": 3463,
      "editor": 3464,
      "arsen": 3465,
      "inger": 3466,
      "toy": 3467,
      "item": 3468,
      "isation": 3469,
      "cher": 3470,
      "chelse": 3471,
      "beha": 3472,
      "below": 3473,
      "older": 3474,
      "detain": 3475,
      "igan": 3476,
      "iger": 3477,
      "unless": 3478,
      "impress": 3479,
      "neither": 3480,
      "cture": 3481,
      "comed": 3482,
      "compe": 3483,
      "usion": 3484,
      "true": 3485,
      "appointed": 3486,
      "lling": 3487,
      "craft": 3488,
      "bles": 3489,
      "mont": 3490,
      "ody": 3491,
      "2002": 3492,
      "partner": 3493,
      "identified": 3494,
      "disput": 3495,
      "discovered": 3496,
      "assess": 3497,
      "phia": 3498,
      "coll": 3499,
      "italian": 3500,
      "reading": 3501,
      "supply": 3502,
      "viet": 3503,
      "science": 3504,
      "decide": 3505,
      "broken": 3506,
      "stores": 3507,
      "stood": 3508,
      "healthcare": 3509,
      "standards": 3510,
      "balance": 3511,
      "reality": 3512,
      "penn": 3513,
      "remained": 3514,
      "distribut": 3515,
      "industrial": 3516,
      "electron": 3517,
      "smaller": 3518,
      "sites": 3519,
      "waiting": 3520,
      "bai": 3521,
      "equal": 3522,
      "shortly": 3523,
      "division": 3524,
      "window": 3525,
      "specific": 3526,
      "philadel": 3527,
      "broadcast": 3528,
      "ological": 3529,
      "entertain": 3530,
      "challeng": 3531,
      "panel": 3532,
      "responsible": 3533,
      "usually": 3534,
      "alternative": 3535,
      "scale": 3536,
      "religious": 3537,
      "coalition": 3538,
      "treasury": 3539,
      "exactly": 3540,
      "supreme": 3541,
      "chelsea": 3542,
      "behavi": 3543,
      "philadelphia": 3544,
      "bure": 3545,
      "cold": 3546,
      "cue": 3547,
      "dd": 3548,
      "gia": 3549,
      "hum": 3550,
      "jam": 3551,
      "kno": 3552,
      "mates": 3553,
      "pounds": 3554,
      "pushing": 3555,
      "rally": 3556,
      "snow": 3557,
      "remo": 3558,
      "reporters": 3559,
      "remind": 3560,
      "represents": 3561,
      "attempt": 3562,
      "ensure": 3563,
      "stream": 3564,
      "lee": 3565,
      "iling": 3566,
      "chry": 3567,
      "seats": 3568,
      "whom": 3569,
      "lying": 3570,
      "defeat": 3571,
      "igence": 3572,
      "sures": 3573,
      "abort": 3574,
      "trig": 3575,
      "lived": 3576,
      "apers": 3577,
      "mention": 3578,
      "plom": 3579,
      "ips": 3580,
      "count": 3581,
      "identity": 3582,
      "joint": 3583,
      "prepar": 3584,
      "typ": 3585,
      "attended": 3586,
      "obvious": 3587,
      "ancing": 3588,
      "surpris": 3589,
      "paris": 3590,
      "tony": 3591,
      "italy": 3592,
      "voice": 3593,
      "voted": 3594,
      "elected": 3595,
      "ashes": 3596,
      "morgan": 3597,
      "showing": 3598,
      "sym": 3599,
      "putting": 3600,
      "profits": 3601,
      "profile": 3602,
      "paying": 3603,
      "nearby": 3604,
      "reportedly": 3605,
      "bury": 3606,
      "stars": 3607,
      "developing": 3608,
      "grew": 3609,
      "allowing": 3610,
      "faces": 3611,
      "please": 3612,
      "solution": 3613,
      "1999": 3614,
      "diplom": 3615,
      "keeping": 3616,
      "rooms": 3617,
      "buying": 3618,
      "refused": 3619,
      "advice": 3620,
      "baby": 3621,
      "zeal": 3622,
      "christian": 3623,
      "expert": 3624,
      "sources": 3625,
      "usual": 3626,
      "conducted": 3627,
      "relief": 3628,
      "respect": 3629,
      "original": 3630,
      "prepared": 3631,
      "equipment": 3632,
      "domestic": 3633,
      "twice": 3634,
      "substantial": 3635,
      "guaran": 3636,
      "aig": 3637,
      "bird": 3638,
      "fant": 3639,
      "fine": 3640,
      "gaz": 3641,
      "hone": 3642,
      "iar": 3643,
      "lord": 3644,
      "mich": 3645,
      "nick": 3646,
      "ox": 3647,
      "rough": 3648,
      "rick": 3649,
      "ses": 3650,
      "sought": 3651,
      "thus": 3652,
      "intell": 3653,
      "anth": 3654,
      "err": 3655,
      "revol": 3656,
      "remember": 3657,
      "arian": 3658,
      "ica": 3659,
      "icide": 3660,
      "icians": 3661,
      "beaut": 3662,
      "depend": 3663,
      "uncertain": 3664,
      "wearing": 3665,
      "haven": 3666,
      "resist": 3667,
      "text": 3668,
      "lif": 3669,
      "liver": 3670,
      "shad": 3671,
      "ples": 3672,
      "gov": 3673,
      "princ": 3674,
      "noted": 3675,
      "boys": 3676,
      "gry": 3677,
      "presence": 3678,
      "firms": 3679,
      "maxim": 3680,
      "nowled": 3681,
      "prefer": 3682,
      "ization": 3683,
      "guy": 3684,
      "deser": 3685,
      "regional": 3686,
      "ryan": 3687,
      "ministers": 3688,
      "lah": 3689,
      "rosoft": 3690,
      "closure": 3691,
      "stocks": 3692,
      "signs": 3693,
      "signed": 3694,
      "goods": 3695,
      "valley": 3696,
      "patient": 3697,
      "penalty": 3698,
      "powerful": 3699,
      "occup": 3700,
      "promo": 3701,
      "quarters": 3702,
      "posted": 3703,
      "possibility": 3704,
      "writing": 3705,
      "microsoft": 3706,
      "woods": 3707,
      "ruling": 3708,
      "crime": 3709,
      "policies": 3710,
      "luck": 3711,
      "palest": 3712,
      "japanese": 3713,
      "gains": 3714,
      "directly": 3715,
      "girls": 3716,
      "activity": 3717,
      "conduct": 3718,
      "separate": 3719,
      "advertising": 3720,
      "fiscal": 3721,
      "pretty": 3722,
      "neighborhood": 3723,
      "mouth": 3724,
      "split": 3725,
      "restaurant": 3726,
      "affected": 3727,
      "bodies": 3728,
      "sudden": 3729,
      "cathol": 3730,
      "bureau": 3731,
      "dom": 3732,
      "dance": 3733,
      "gro": 3734,
      "kne": 3735,
      "lam": 3736,
      "mate": 3737,
      "nom": 3738,
      "names": 3739,
      "ov": 3740,
      "pace": 3741,
      "path": 3742,
      "rou": 3743,
      "rail": 3744,
      "vit": 3745,
      "rev": 3746,
      "enh": 3747,
      "stab": 3748,
      "ark": 3749,
      "armed": 3750,
      "oud": 3751,
      "oul": 3752,
      "isions": 3753,
      "asia": 3754,
      "seas": 3755,
      "seum": 3756,
      "amed": 3757,
      "degree": 3758,
      "sudan": 3759,
      "fraud": 3760,
      "users": 3761,
      "prospect": 3762,
      "plat": 3763,
      "persu": 3764,
      "upon": 3765,
      "notes": 3766,
      "acknowled": 3767,
      "hero": 3768,
      "ipped": 3769,
      "awards": 3770,
      "youth": 3771,
      "poses": 3772,
      "airlines": 3773,
      "mrs": 3774,
      "guide": 3775,
      "effects": 3776,
      "adding": 3777,
      "highly": 3778,
      "heads": 3779,
      "supposed": 3780,
      "warm": 3781,
      "archite": 3782,
      "laws": 3783,
      "broke": 3784,
      "seeing": 3785,
      "clearly": 3786,
      "cape": 3787,
      "mps": 3788,
      "difference": 3789,
      "filed": 3790,
      "starts": 3791,
      "attacked": 3792,
      "occas": 3793,
      "walked": 3794,
      "covering": 3795,
      "ification": 3796,
      "virus": 3797,
      "shots": 3798,
      "controvers": 3799,
      "holiday": 3800,
      "1990": 3801,
      "ski": 3802,
      "hitting": 3803,
      "drove": 3804,
      "systems": 3805,
      "matches": 3806,
      "steps": 3807,
      "expectations": 3808,
      "injuries": 3809,
      "benefit": 3810,
      "korean": 3811,
      "independence": 3812,
      "massive": 3813,
      "bringing": 3814,
      "onym": 3815,
      "citiz": 3816,
      "lawyers": 3817,
      "revealed": 3818,
      "olympics": 3819,
      "mountain": 3820,
      "dangerous": 3821,
      "occurred": 3822,
      "apparently": 3823,
      "language": 3824,
      "doubt": 3825,
      "repeatedly": 3826,
      "album": 3827,
      "psych": 3828,
      "inquir": 3829,
      "abortion": 3830,
      "37": 3831,
      "65": 3832,
      "eigh": 3833,
      "fired": 3834,
      "hat": 3835,
      "ires": 3836,
      "mine": 3837,
      "pson": 3838,
      "swee": 3839,
      "tend": 3840,
      "tren": 3841,
      "vac": 3842,
      "wy": 3843,
      "wol": 3844,
      "infr": 3845,
      "theast": 3846,
      "restr": 3847,
      "stim": 3848,
      "alli": 3849,
      "ingly": 3850,
      "itude": 3851,
      "assu": 3852,
      "asian": 3853,
      "chem": 3854,
      "ador": 3855,
      "heat": 3856,
      "debut": 3857,
      "decre": 3858,
      "deals": 3859,
      "lock": 3860,
      "neg": 3861,
      "peter": 3862,
      "suspect": 3863,
      "frank": 3864,
      "kee": 3865,
      "trail": 3866,
      "aggress": 3867,
      "oppon": 3868,
      "shown": 3869,
      "prin": 3870,
      "print": 3871,
      "feed": 3872,
      "boom": 3873,
      "iel": 3874,
      "blast": 3875,
      "iple": 3876,
      "dram": 3877,
      "premi": 3878,
      "finish": 3879,
      "type": 3880,
      "flat": 3881,
      "surprise": 3882,
      "worldwide": 3883,
      "serving": 3884,
      "providing": 3885,
      "investments": 3886,
      "votes": 3887,
      "athlet": 3888,
      "museum": 3889,
      "ashed": 3890,
      "syl": 3891,
      "engers": 3892,
      "viewed": 3893,
      "knows": 3894,
      "ption": 3895,
      "tured": 3896,
      "studies": 3897,
      "expects": 3898,
      "foundation": 3899,
      "breast": 3900,
      "helping": 3901,
      "increases": 3902,
      "factors": 3903,
      "passengers": 3904,
      "hamas": 3905,
      "denied": 3906,
      "promised": 3907,
      "continues": 3908,
      "holds": 3909,
      "severe": 3910,
      "limit": 3911,
      "choose": 3912,
      "declared": 3913,
      "considering": 3914,
      "miami": 3915,
      "kenned": 3916,
      "places": 3917,
      "changed": 3918,
      "changing": 3919,
      "georgia": 3920,
      "reasons": 3921,
      "package": 3922,
      "dark": 3923,
      "believes": 3924,
      "initi": 3925,
      "terrorism": 3926,
      "kyo": 3927,
      "storm": 3928,
      "vehicle": 3929,
      "located": 3930,
      "complaints": 3931,
      "contributed": 3932,
      "initially": 3933,
      "partnership": 3934,
      "scottish": 3935,
      "savings": 3936,
      "apartment": 3937,
      "conclud": 3938,
      "consult": 3939,
      "carolina": 3940,
      "temporary": 3941,
      "items": 3942,
      "zealand": 3943,
      "palestin": 3944,
      "stimul": 3945,
      "42": 3946,
      "400": 3947,
      "59": 3948,
      "bath": 3949,
      "cro": 3950,
      "cia": 3951,
      "fred": 3952,
      "gay": 3953,
      "gins": 3954,
      "len": 3955,
      "leng": 3956,
      "mb": 3957,
      "map": 3958,
      "oct": 3959,
      "ots": 3960,
      "py": 3961,
      "rant": 3962,
      "sens": 3963,
      "uals": 3964,
      "ws": 3965,
      "ano": 3966,
      "rep": 3967,
      "rect": 3968,
      "enger": 3969,
      "arms": 3970,
      "seat": 3971,
      "section": 3972,
      "rod": 3973,
      "adults": 3974,
      "acity": 3975,
      "hair": 3976,
      "rescue": 3977,
      "agu": 3978,
      "shi": 3979,
      "shir": 3980,
      "explo": 3981,
      "exhib": 3982,
      "pra": 3983,
      "fee": 3984,
      "mel": 3985,
      "enders": 3986,
      "porter": 3987,
      "fox": 3988,
      "igned": 3989,
      "disaster": 3990,
      "couldn": 3991,
      "guards": 3992,
      "phy": 3993,
      "surround": 3994,
      "mostly": 3995,
      "governments": 3996,
      "colom": 3997,
      "epis": 3998,
      "normal": 3999,
      "evening": 4000,
      "capt": 4001,
      "decade": 4002,
      "famous": 4003,
      "founded": 4004,
      "clothes": 4005,
      "bigger": 4006,
      "burn": 4007,
      "bench": 4008,
      "democrat": 4009,
      "liter": 4010,
      "blog": 4011,
      "castle": 4012,
      "streets": 4013,
      "administr": 4014,
      "seventh": 4015,
      "stopped": 4016,
      "basis": 4017,
      "murray": 4018,
      "reduced": 4019,
      "feeling": 4020,
      "picked": 4021,
      "predict": 4022,
      "eye": 4023,
      "pulled": 4024,
      "hurric": 4025,
      "truck": 4026,
      "manufacturing": 4027,
      "negotiations": 4028,
      "physical": 4029,
      "ordinary": 4030,
      "academy": 4031,
      "message": 4032,
      "extreme": 4033,
      "achieve": 4034,
      "affairs": 4035,
      "exercise": 4036,
      "scoring": 4037,
      "scheme": 4038,
      "francisco": 4039,
      "bankruptcy": 4040,
      "trigger": 4041,
      "aggressive": 4042,
      "kennedy": 4043,
      "55": 4044,
      "600": 4045,
      "85": 4046,
      "cc": 4047,
      "dun": 4048,
      "dust": 4049,
      "dict": 4050,
      "eld": 4051,
      "eag": 4052,
      "hits": 4053,
      "hong": 4054,
      "kil": 4055,
      "kim": 4056,
      "kers": 4057,
      "nbc": 4058,
      "patch": 4059,
      "sque": 4060,
      "sister": 4061,
      "tun": 4062,
      "ume": 4063,
      "wan": 4064,
      "wounded": 4065,
      "thy": 4066,
      "theat": 4067,
      "rejected": 4068,
      "ena": 4069,
      "andrew": 4070,
      "icop": 4071,
      "icks": 4072,
      "belong": 4073,
      "rober": 4074,
      "accur": 4075,
      "iring": 4076,
      "depos": 4077,
      "depress": 4078,
      "unlikely": 4079,
      "urban": 4080,
      "convers": 4081,
      "peak": 4082,
      "suicide": 4083,
      "mosc": 4084,
      "complic": 4085,
      "ables": 4086,
      "trib": 4087,
      "hait": 4088,
      "pover": 4089,
      "apple": 4090,
      "alled": 4091,
      "meth": 4092,
      "iful": 4093,
      "core": 4094,
      "cook": 4095,
      "worse": 4096,
      "gra": 4097,
      "grant": 4098,
      "crip": 4099,
      "brad": 4100,
      "doctor": 4101,
      "bern": 4102,
      "span": 4103,
      "inet": 4104,
      "draft": 4105,
      "forest": 4106,
      "fled": 4107,
      "flag": 4108,
      "2011": 4109,
      "talent": 4110,
      "reporting": 4111,
      "voc": 4112,
      "scand": 4113,
      "houston": 4114,
      "studio": 4115,
      "direction": 4116,
      "150": 4117,
      "breaking": 4118,
      "handed": 4119,
      "valu": 4120,
      "consist": 4121,
      "gives": 4122,
      "passing": 4123,
      "summit": 4124,
      "coverage": 4125,
      "promise": 4126,
      "virtu": 4127,
      "expensive": 4128,
      "bond": 4129,
      "bonds": 4130,
      "transfer": 4131,
      "swiss": 4132,
      "switch": 4133,
      "fallen": 4134,
      "skin": 4135,
      "diag": 4136,
      "sentence": 4137,
      "singer": 4138,
      "sitting": 4139,
      "deaths": 4140,
      "equity": 4141,
      "equival": 4142,
      "roads": 4143,
      "technolog": 4144,
      "appropr": 4145,
      "champions": 4146,
      "meetings": 4147,
      "delivery": 4148,
      "professional": 4149,
      "racing": 4150,
      "houses": 4151,
      "familiar": 4152,
      "clients": 4153,
      "animal": 4154,
      "protests": 4155,
      "environmental": 4156,
      "corporation": 4157,
      "expressed": 4158,
      "brothers": 4159,
      "honor": 4160,
      "attempts": 4161,
      "pictures": 4162,
      "jersey": 4163,
      "satis": 4164,
      "quoted": 4165,
      "pacific": 4166,
      "establish": 4167,
      "liberal": 4168,
      "conflict": 4169,
      "options": 4170,
      "influence": 4171,
      "rebels": 4172,
      "computer": 4173,
      "arsenal": 4174,
      "intelligence": 4175,
      "eighth": 4176,
      "moscow": 4177,
      "46": 4178,
      "53": 4179,
      "66": 4180,
      "bent": 4181,
      "dall": 4182,
      "dream": 4183,
      "eat": 4184,
      "fish": 4185,
      "none": 4186,
      "rig": 4187,
      "rout": 4188,
      "rif": 4189,
      "rum": 4190,
      "rating": 4191,
      "rug": 4192,
      "rural": 4193,
      "sad": 4194,
      "slo": 4195,
      "sending": 4196,
      "ule": 4197,
      "waste": 4198,
      "zz": 4199,
      "thin": 4200,
      "insp": 4201,
      "instru": 4202,
      "innings": 4203,
      "thered": 4204,
      "anonym": 4205,
      "atures": 4206,
      "stick": 4207,
      "tool": 4208,
      "andy": 4209,
      "anderson": 4210,
      "icket": 4211,
      "iles": 4212,
      "rot": 4213,
      "ads": 4214,
      "heim": 4215,
      "detro": 4216,
      "lose": 4217,
      "improved": 4218,
      "tery": 4219,
      "consequ": 4220,
      "condem": 4221,
      "illino": 4222,
      "comfort": 4223,
      "abuse": 4224,
      "absol": 4225,
      "approv": 4226,
      "shops": 4227,
      "hasn": 4228,
      "owa": 4229,
      "metro": 4230,
      "word": 4231,
      "upd": 4232,
      "boss": 4233,
      "string": 4234,
      "blair": 4235,
      "elimin": 4236,
      "awa": 4237,
      "drivers": 4238,
      "aves": 4239,
      "corner": 4240,
      "rent": 4241,
      "aircraft": 4242,
      "obtain": 4243,
      "command": 4244,
      "flights": 4245,
      "surge": 4246,
      "surface": 4247,
      "color": 4248,
      "legally": 4249,
      "percentage": 4250,
      "publicly": 4251,
      "helicop": 4252,
      "charles": 4253,
      "voy": 4254,
      "howard": 4255,
      "smart": 4256,
      "seconds": 4257,
      "stein": 4258,
      "steel": 4259,
      "sler": 4260,
      "slight": 4261,
      "values": 4262,
      "burgh": 4263,
      "grown": 4264,
      "score": 4265,
      "bloom": 4266,
      "buildings": 4267,
      "programme": 4268,
      "indeed": 4269,
      "supported": 4270,
      "cycl": 4271,
      "communist": 4272,
      "collection": 4273,
      "ruled": 4274,
      "glass": 4275,
      "crimes": 4276,
      "appears": 4277,
      "involve": 4278,
      "walls": 4279,
      "shape": 4280,
      "welcome": 4281,
      "focused": 4282,
      "profession": 4283,
      "vania": 4284,
      "ticket": 4285,
      "learning": 4286,
      "improvement": 4287,
      "activities": 4288,
      "troubled": 4289,
      "immediate": 4290,
      "dogs": 4291,
      "speaker": 4292,
      "empty": 4293,
      "channel": 4294,
      "allegedly": 4295,
      "immigration": 4296,
      "immigrants": 4297,
      "cabinet": 4298,
      "bottom": 4299,
      "announcement": 4300,
      "linked": 4301,
      "collapse": 4302,
      "settlement": 4303,
      "strength": 4304,
      "predicted": 4305,
      "pregnant": 4306,
      "ceremony": 4307,
      "chrysler": 4308,
      "michigan": 4309,
      "maximum": 4310,
      "catholic": 4311,
      "nomine": 4312,
      "inquiry": 4313,
      "detroit": 4314,
      "illinois": 4315,
      ".-": 4316,
      "49": 4317,
      "56": 4318,
      "57": 4319,
      "700": 4320,
      "88": 4321,
      "95": 4322,
      "bby": 4323,
      "cou": 4324,
      "cow": 4325,
      "fal": 4326,
      "gate": 4327,
      "hran": 4328,
      "ius": 4329,
      "iowa": 4330,
      "kans": 4331,
      "lis": 4332,
      "lights": 4333,
      "lloy": 4334,
      "mone": 4335,
      "mum": 4336,
      "nfl": 4337,
      "pc": 4338,
      "scar": 4339,
      "sick": 4340,
      "sides": 4341,
      "slip": 4342,
      "tack": 4343,
      "vul": 4344,
      "wing": 4345,
      "zing": 4346,
      "ining": 4347,
      "angry": 4348,
      "stad": 4349,
      "sters": 4350,
      "alone": 4351,
      "outr": 4352,
      "itors": 4353,
      "itory": 4354,
      "icious": 4355,
      "entry": 4356,
      "iders": 4357,
      "cham": 4358,
      "bee": 4359,
      "beth": 4360,
      "whate": 4361,
      "whel": 4362,
      "defe": 4363,
      "frustr": 4364,
      "usal": 4365,
      "powers": 4366,
      "apol": 4367,
      "agend": 4368,
      "agues": 4369,
      "extr": 4370,
      "astru": 4371,
      "god": 4372,
      "owed": 4373,
      "fel": 4374,
      "female": 4375,
      "affect": 4376,
      "quid": 4377,
      "quake": 4378,
      "ivity": 4379,
      "boe": 4380,
      "boat": 4381,
      "crude": 4382,
      "bron": 4383,
      "actor": 4384,
      "preser": 4385,
      "portion": 4386,
      "spar": 4387,
      "monitor": 4388,
      "marine": 4389,
      "marks": 4390,
      "marked": 4391,
      "margin": 4392,
      "compar": 4393,
      "overseas": 4394,
      "overwhel": 4395,
      "wouldn": 4396,
      "2000": 4397,
      "identify": 4398,
      "disco": 4399,
      "airline": 4400,
      "attle": 4401,
      "guest": 4402,
      "intended": 4403,
      "leads": 4404,
      "sett": 4405,
      "charity": 4406,
      "ashing": 4407,
      "tested": 4408,
      "brook": 4409,
      "closer": 4410,
      "generally": 4411,
      "healthy": 4412,
      "aimed": 4413,
      "democracy": 4414,
      "walking": 4415,
      "venture": 4416,
      "prompted": 4417,
      "shareholders": 4418,
      "memory": 4419,
      "falls": 4420,
      "possibly": 4421,
      "communities": 4422,
      "failing": 4423,
      "buyers": 4424,
      "executives": 4425,
      "glas": 4426,
      "advance": 4427,
      "treaty": 4428,
      "telling": 4429,
      "widely": 4430,
      "threatened": 4431,
      "analys": 4432,
      "emerged": 4433,
      "emerging": 4434,
      "experienced": 4435,
      "hoping": 4436,
      "confident": 4437,
      "featured": 4438,
      "philip": 4439,
      "accounts": 4440,
      "elsewhere": 4441,
      "seriously": 4442,
      "baseball": 4443,
      "terrorist": 4444,
      "heavily": 4445,
      "stories": 4446,
      "connect": 4447,
      "hurt": 4448,
      "device": 4449,
      "mortgages": 4450,
      "sharp": 4451,
      "shopping": 4452,
      "manufactur": 4453,
      "combination": 4454,
      "existing": 4455,
      "electricity": 4456,
      "ethnic": 4457,
      "olympic": 4458,
      "picture": 4459,
      "filled": 4460,
      "delegates": 4461,
      "determined": 4462,
      "individual": 4463,
      "punish": 4464,
      "strategic": 4465,
      "models": 4466,
      "audience": 4467,
      "subsid": 4468,
      "commod": 4469,
      "golf": 4470,
      "opinion": 4471,
      "pennsyl": 4472,
      "revolution": 4473,
      "liverpool": 4474,
      "infrastru": 4475,
      "dramatic": 4476,
      "diagno": 4477,
      "technologies": 4478,
      "dallas": 4479,
      "absolute": 4480,
      "whatever": 4481,
      "pennsylvania": 4482,
      "infrastructure": 4483,
      "08": 4484,
      "250": 4485,
      "43": 4486,
      "54": 4487,
      "77": 4488,
      "bil": 4489,
      "cbs": 4490,
      "ders": 4491,
      "greg": 4492,
      "hr": 4493,
      "hire": 4494,
      "hamp": 4495,
      "jury": 4496,
      "kong": 4497,
      "nis": 4498,
      "nut": 4499,
      "ost": 4500,
      "pup": 4501,
      "plead": 4502,
      "ried": 4503,
      "tie": 4504,
      "tree": 4505,
      "task": 4506,
      "uit": 4507,
      "uated": 4508,
      "onic": 4509,
      "rever": 4510,
      "retain": 4511,
      "reput": 4512,
      "enforce": 4513,
      "ara": 4514,
      "toll": 4515,
      "tokyo": 4516,
      "itzer": 4517,
      "lev": 4518,
      "entre": 4519,
      "chances": 4520,
      "sem": 4521,
      "beating": 4522,
      "roof": 4523,
      "veland": 4524,
      "dete": 4525,
      "determ": 4526,
      "ung": 4527,
      "loan": 4528,
      "images": 4529,
      "utional": 4530,
      "tered": 4531,
      "nell": 4532,
      "neck": 4533,
      "moon": 4534,
      "haw": 4535,
      "tehran": 4536,
      "liquid": 4537,
      "proceed": 4538,
      "apt": 4539,
      "shu": 4540,
      "plum": 4541,
      "meat": 4542,
      "essential": 4543,
      "ivals": 4544,
      "bos": 4545,
      "grim": 4546,
      "grab": 4547,
      "bris": 4548,
      "brian": 4549,
      "actual": 4550,
      "mond": 4551,
      "computers": 4552,
      "driven": 4553,
      "shell": 4554,
      "oked": 4555,
      "itely": 4556,
      "finals": 4557,
      "posite": 4558,
      "gue": 4559,
      "object": 4560,
      "content": 4561,
      "encing": 4562,
      "turk": 4563,
      "jet": 4564,
      "cleveland": 4565,
      "provided": 4566,
      "norm": 4567,
      "courts": 4568,
      "heading": 4569,
      "morrow": 4570,
      "captured": 4571,
      "lawmakers": 4572,
      "causing": 4573,
      "aze": 4574,
      "defend": 4575,
      "deficit": 4576,
      "harm": 4577,
      "funded": 4578,
      "taxpay": 4579,
      "controlled": 4580,
      "solid": 4581,
      "casual": 4582,
      "faith": 4583,
      "sentenced": 4584,
      "wake": 4585,
      "chosen": 4586,
      "closely": 4587,
      "territory": 4588,
      "complex": 4589,
      "queen": 4590,
      "pursu": 4591,
      "grounds": 4592,
      "basic": 4593,
      "lux": 4594,
      "retire": 4595,
      "teacher": 4596,
      "measures": 4597,
      "estimate": 4598,
      "argued": 4599,
      "improvements": 4600,
      "responsibility": 4601,
      "referring": 4602,
      "indicated": 4603,
      "nature": 4604,
      "criticism": 4605,
      "islamic": 4606,
      "medicine": 4607,
      "journalists": 4608,
      "increasingly": 4609,
      "bowl": 4610,
      "pushed": 4611,
      "navy": 4612,
      "introduced": 4613,
      "songs": 4614,
      "rapid": 4615,
      "convention": 4616,
      "imagine": 4617,
      "stretch": 4618,
      "destroyed": 4619,
      "electronic": 4620,
      "entertainment": 4621,
      "remote": 4622,
      "shadow": 4623,
      "knee": 4624,
      "platform": 4625,
      "method": 4626,
      "stadium": 4627,
      "agenda": 4628,
      "determine": 4629,
      "61": 4630,
      "62": 4631,
      "68": 4632,
      "72": 4633,
      "78": 4634,
      "800": 4635,
      "99": 4636,
      "apo": 4637,
      "bian": 4638,
      "cus": 4639,
      "cards": 4640,
      "dal": 4641,
      "dir": 4642,
      "dul": 4643,
      "dna": 4644,
      "gift": 4645,
      "hman": 4646,
      "jon": 4647,
      "jen": 4648,
      "ku": 4649,
      "las": 4650,
      "mess": 4651,
      "rus": 4652,
      "sight": 4653,
      "session": 4654,
      "tan": 4655,
      "tary": 4656,
      "tens": 4657,
      "uan": 4658,
      "uate": 4659,
      "vital": 4660,
      "theater": 4661,
      "eral": 4662,
      "remark": 4663,
      "returning": 4664,
      "enix": 4665,
      "stance": 4666,
      "steven": 4667,
      "org": 4668,
      "alan": 4669,
      "toms": 4670,
      "asion": 4671,
      "bean": 4672,
      "bear": 4673,
      "igation": 4674,
      "unve": 4675,
      "loved": 4676,
      "wash": 4677,
      "franch": 4678,
      "haul": 4679,
      "prospe": 4680,
      "atest": 4681,
      "ounder": 4682,
      "apy": 4683,
      "mental": 4684,
      "agon": 4685,
      "agric": 4686,
      "ula": 4687,
      "ulate": 4688,
      "excess": 4689,
      "exports": 4690,
      "fewer": 4691,
      "endum": 4692,
      "cler": 4693,
      "offensive": 4694,
      "notice": 4695,
      "spain": 4696,
      "compens": 4697,
      "otherwise": 4698,
      "hole": 4699,
      "eval": 4700,
      "counts": 4701,
      "aven": 4702,
      "minnes": 4703,
      "iana": 4704,
      "lands": 4705,
      "1970": 4706,
      "tural": 4707,
      "desper": 4708,
      "raising": 4709,
      "regime": 4710,
      "adds": 4711,
      "elector": 4712,
      "capacity": 4713,
      "euros": 4714,
      "decisions": 4715,
      "plot": 4716,
      "bankers": 4717,
      "missile": 4718,
      "payments": 4719,
      "harry": 4720,
      "personnel": 4721,
      "greatest": 4722,
      "billions": 4723,
      "dealing": 4724,
      "solutions": 4725,
      "managing": 4726,
      "colleagues": 4727,
      "investigating": 4728,
      "judges": 4729,
      "targe": 4730,
      "reaching": 4731,
      "daniel": 4732,
      "davis": 4733,
      "hospitals": 4734,
      "advanced": 4735,
      "threatening": 4736,
      "nyse": 4737,
      "divid": 4738,
      "iker": 4739,
      "congressional": 4740,
      "winds": 4741,
      "ushed": 4742,
      "function": 4743,
      "sexual": 4744,
      "phoenix": 4745,
      "questioned": 4746,
      "watched": 4747,
      "easily": 4748,
      "easier": 4749,
      "prisoners": 4750,
      "estimates": 4751,
      "potentially": 4752,
      "referendum": 4753,
      "truth": 4754,
      "animals": 4755,
      "struggle": 4756,
      "nasa": 4757,
      "documents": 4758,
      "assistant": 4759,
      "teenag": 4760,
      "application": 4761,
      "applications": 4762,
      "spirit": 4763,
      "anticip": 4764,
      "carrying": 4765,
      "henry": 4766,
      "reflect": 4767,
      "purchase": 4768,
      "rocket": 4769,
      "veteran": 4770,
      "suspected": 4771,
      "giants": 4772,
      "ultimately": 4773,
      "digital": 4774,
      "unique": 4775,
      "joseph": 4776,
      "garden": 4777,
      "rangers": 4778,
      "toyota": 4779,
      "gaza": 4780,
      "athletes": 4781,
      "stimulus": 4782,
      "extremely": 4783,
      "roberts": 4784,
      "equivalent": 4785,
      "approval": 4786,
      "reputation": 4787,
      "prospects": 4788,
      "79": 4789,
      "bak": 4790,
      "bish": 4791,
      "closing": 4792,
      "dow": 4793,
      "dia": 4794,
      "dio": 4795,
      "eg": 4796,
      "fab": 4797,
      "gd": 4798,
      "gon": 4799,
      "iat": 4800,
      "iant": 4801,
      "jef": 4802,
      "nights": 4803,
      "nik": 4804,
      "ode": 4805,
      "oce": 4806,
      "pp": 4807,
      "phas": 4808,
      "pension": 4809,
      "rice": 4810,
      "si": 4811,
      "sate": 4812,
      "uz": 4813,
      "usa": 4814,
      "uset": 4815,
      "wat": 4816,
      "wine": 4817,
      "yen": 4818,
      "thal": 4819,
      "inspe": 4820,
      "innov": 4821,
      "recalled": 4822,
      "reject": 4823,
      "replaced": 4824,
      "stro": 4825,
      "stated": 4826,
      "alle": 4827,
      "argent": 4828,
      "tomorrow": 4829,
      "aspe": 4830,
      "asking": 4831,
      "icing": 4832,
      "ilton": 4833,
      "idency": 4834,
      "sept": 4835,
      "rog": 4836,
      "adjust": 4837,
      "adult": 4838,
      "acle": 4839,
      "iron": 4840,
      "igue": 4841,
      "lowest": 4842,
      "confirm": 4843,
      "moves": 4844,
      "abc": 4845,
      "trillion": 4846,
      "prop": 4847,
      "proced": 4848,
      "appoint": 4849,
      "apprec": 4850,
      "sharing": 4851,
      "plate": 4852,
      "earn": 4853,
      "perman": 4854,
      "artist": 4855,
      "clubs": 4856,
      "cool": 4857,
      "worried": 4858,
      "grass": 4859,
      "stron": 4860,
      "strip": 4861,
      "actress": 4862,
      "embr": 4863,
      "embass": 4864,
      "berry": 4865,
      "spon": 4866,
      "marsh": 4867,
      "herself": 4868,
      "canad": 4869,
      "ipal": 4870,
      "thank": 4871,
      "dry": 4872,
      "shel": 4873,
      "posing": 4874,
      "intense": 4875,
      "commander": 4876,
      "offices": 4877,
      "enses": 4878,
      "tonight": 4879,
      "myself": 4880,
      "sony": 4881,
      "2012": 4882,
      "vised": 4883,
      "kings": 4884,
      "relatives": 4885,
      "engage": 4886,
      "warning": 4887,
      "warming": 4888,
      "producing": 4889,
      "lawsuit": 4890,
      "seek": 4891,
      "nerable": 4892,
      "merch": 4893,
      "everybody": 4894,
      "steph": 4895,
      "opera": 4896,
      "views": 4897,
      "financing": 4898,
      "harraf": 4899,
      "musical": 4900,
      "musharraf": 4901,
      "films": 4902,
      "passes": 4903,
      "pointing": 4904,
      "kozy": 4905,
      "simple": 4906,
      "employee": 4907,
      "bills": 4908,
      "shore": 4909,
      "bonuses": 4910,
      "fields": 4911,
      "limits": 4912,
      "plea": 4913,
      "presented": 4914,
      "writers": 4915,
      "listed": 4916,
      "targets": 4917,
      "interested": 4918,
      "technical": 4919,
      "telephone": 4920,
      "basket": 4921,
      "meaning": 4922,
      "violent": 4923,
      "custody": 4924,
      "palin": 4925,
      "hoped": 4926,
      "goldman": 4927,
      "retired": 4928,
      "orders": 4929,
      "iranian": 4930,
      "species": 4931,
      "greenhouse": 4932,
      "civilian": 4933,
      "aska": 4934,
      "neighbour": 4935,
      "massach": 4936,
      "continuing": 4937,
      "guardian": 4938,
      "connection": 4939,
      "fairly": 4940,
      "institutions": 4941,
      "copy": 4942,
      "daq": 4943,
      "roman": 4944,
      "silver": 4945,
      "nasdaq": 4946,
      "sarkozy": 4947,
      "respective": 4948,
      "married": 4949,
      "pilot": 4950,
      "constitution": 4951,
      "fisher": 4952,
      "duty": 4953,
      "lady": 4954,
      "encourage": 4955,
      "bailout": 4956,
      "tibet": 4957,
      "exclusive": 4958,
      "struggling": 4959,
      "dinner": 4960,
      "farmers": 4961,
      "supplies": 4962,
      "mentioned": 4963,
      "guarantee": 4964,
      "beautiful": 4965,
      "route": 4966,
      "citizens": 4967,
      "negative": 4968,
      "concluded": 4969,
      "poverty": 4970,
      "appropriate": 4971,
      "kansas": 4972,
      "vulnerable": 4973,
      "fellow": 4974,
      "discovery": 4975,
      "manufacturers": 4976,
      "normally": 4977,
      "minnesota": 4978,
      "satell": 4979,
      "usetts": 4980,
      "massachusetts": 4981,
      "120": 4982,
      "41": 4983,
      "58": 4984,
      "63": 4985,
      "bp": 4986,
      "bare": 4987,
      "cin": 4988,
      "dancing": 4989,
      "ec": 4990,
      "egy": 4991,
      "fro": 4992,
      "file": 4993,
      "gus": 4994,
      "gop": 4995,
      "gory": 4996,
      "hud": 4997,
      "ja": 4998,
      "mam": 4999,
      "nice": 5000,
      "oy": 5001,
      "oak": 5002,
      "pm": 5003,
      "rome": 5004,
      "raw": 5005,
      "swe": 5006,
      "skill": 5007,
      "solo": 5008,
      "tip": 5009,
      "uge": 5010,
      "yang": 5011,
      "yield": 5012,
      "inals": 5013,
      "theme": 5014,
      "oned": 5015,
      "reh": 5016,
      "rein": 5017,
      "repair": 5018,
      "stances": 5019,
      "alive": 5020,
      "tot": 5021,
      "tout": 5022,
      "oured": 5023,
      "itz": 5024,
      "escape": 5025,
      "icated": 5026,
      "ician": 5027,
      "lets": 5028,
      "ilit": 5029,
      "chen": 5030,
      "sets": 5031,
      "beer": 5032,
      "becomes": 5033,
      "adam": 5034,
      "admit": 5035,
      "aming": 5036,
      "ola": 5037,
      "det": 5038,
      "degre": 5039,
      "units": 5040,
      "unable": 5041,
      "unusual": 5042,
      "termin": 5043,
      "conver": 5044,
      "convict": 5045,
      "cel": 5046,
      "tels": 5047,
      "proportion": 5048,
      "poc": 5049,
      "agent": 5050,
      "shr": 5051,
      "shor": 5052,
      "alling": 5053,
      "plun": 5054,
      "prize": 5055,
      "mechan": 5056,
      "worry": 5057,
      "offset": 5058,
      "bob": 5059,
      "auction": 5060,
      "bra": 5061,
      "bru": 5062,
      "strange": 5063,
      "actors": 5064,
      "presidency": 5065,
      "ideas": 5066,
      "ounding": 5067,
      "compass": 5068,
      "overnight": 5069,
      "hoo": 5070,
      "drill": 5071,
      "drag": 5072,
      "drink": 5073,
      "drinking": 5074,
      "corn": 5075,
      "correct": 5076,
      "creating": 5077,
      "prene": 5078,
      "forms": 5079,
      "formed": 5080,
      "dubai": 5081,
      "positions": 5082,
      "medal": 5083,
      "banned": 5084,
      "1980": 5085,
      "phones": 5086,
      "monthly": 5087,
      "sons": 5088,
      "jean": 5089,
      "jewish": 5090,
      "voting": 5091,
      "headquarters": 5092,
      "athy": 5093,
      "moral": 5094,
      "mainly": 5095,
      "appeals": 5096,
      "takeover": 5097,
      "folk": 5098,
      "generated": 5099,
      "campus": 5100,
      "steve": 5101,
      "operate": 5102,
      "gotten": 5103,
      "volunt": 5104,
      "breach": 5105,
      "stands": 5106,
      "slide": 5107,
      "belief": 5108,
      "patrio": 5109,
      "developed": 5110,
      "kov": 5111,
      "promises": 5112,
      "primarily": 5113,
      "blocks": 5114,
      "dealers": 5115,
      "malik": 5116,
      "seasons": 5117,
      "supporting": 5118,
      "expans": 5119,
      "facility": 5120,
      "1995": 5121,
      "ucks": 5122,
      "michel": 5123,
      "investigators": 5124,
      "refuge": 5125,
      "victor": 5126,
      "involving": 5127,
      "60s": 5128,
      "deadline": 5129,
      "feature": 5130,
      "bombs": 5131,
      "variety": 5132,
      "terrorists": 5133,
      "prosecution": 5134,
      "cells": 5135,
      "competitive": 5136,
      "argument": 5137,
      "rolled": 5138,
      "practices": 5139,
      "extended": 5140,
      "scrut": 5141,
      "devast": 5142,
      "conservatives": 5143,
      "location": 5144,
      "reserves": 5145,
      "completely": 5146,
      "touchdown": 5147,
      "william": 5148,
      "robin": 5149,
      "incidents": 5150,
      "acceptable": 5151,
      "regularly": 5152,
      "selected": 5153,
      "pipe": 5154,
      "dutch": 5155,
      "jerusal": 5156,
      "mixed": 5157,
      "assault": 5158,
      "requirements": 5159,
      "championships": 5160,
      "dominated": 5161,
      "sachs": 5162,
      "individuals": 5163,
      "cameron": 5164,
      "atlanta": 5165,
      "suspects": 5166,
      "favorite": 5167,
      "habit": 5168,
      "dozen": 5169,
      "accepted": 5170,
      "symptoms": 5171,
      "windows": 5172,
      "persuade": 5173,
      "architect": 5174,
      "controversial": 5175,
      "opponents": 5176,
      "episode": 5177,
      "nominee": 5178,
      "absolutely": 5179,
      "pleaded": 5180,
      "entreprene": 5181,
      "permanent": 5182,
      "egypt": 5183,
      "degrees": 5184,
      "maliki": 5185,
      "jerusalem": 5186,
      "76": 5187,
      "bh": 5188,
      "bst": 5189,
      "bone": 5190,
      "bble": 5191,
      "bio": 5192,
      "ci": 5193,
      "cable": 5194,
      "dor": 5195,
      "dur": 5196,
      "hatt": 5197,
      "htt": 5198,
      "hedge": 5199,
      "ien": 5200,
      "ias": 5201,
      "iro": 5202,
      "iency": 5203,
      "kan": 5204,
      "lind": 5205,
      "lending": 5206,
      "lished": 5207,
      "mour": 5208,
      "nab": 5209,
      "rh": 5210,
      "ride": 5211,
      "rav": 5212,
      "sin": 5213,
      "santa": 5214,
      "tics": 5215,
      "tiny": 5216,
      "uct": 5217,
      "vies": 5218,
      "vowed": 5219,
      "wick": 5220,
      "inent": 5221,
      "insu": 5222,
      "infect": 5223,
      "theless": 5224,
      "erly": 5225,
      "oner": 5226,
      "resu": 5227,
      "recover": 5228,
      "reference": 5229,
      "recovered": 5230,
      "removed": 5231,
      "recru": 5232,
      "atom": 5233,
      "stations": 5234,
      "orange": 5235,
      "ita": 5236,
      "iter": 5237,
      "isan": 5238,
      "lean": 5239,
      "leban": 5240,
      "lehman": 5241,
      "enty": 5242,
      "entered": 5243,
      "idance": 5244,
      "sees": 5245,
      "seized": 5246,
      "begun": 5247,
      "adm": 5248,
      "adop": 5249,
      "advoc": 5250,
      "amend": 5251,
      "irish": 5252,
      "decess": 5253,
      "unfortun": 5254,
      "moham": 5255,
      "abdul": 5256,
      "tran": 5257,
      "apply": 5258,
      "allen": 5259,
      "plastic": 5260,
      "expo": 5261,
      "gow": 5262,
      "priced": 5263,
      "meg": 5264,
      "metal": 5265,
      "clar": 5266,
      "cooperation": 5267,
      "upcoming": 5268,
      "autom": 5269,
      "anton": 5270,
      "cricket": 5271,
      "brill": 5272,
      "striker": 5273,
      "blind": 5274,
      "blame": 5275,
      "derby": 5276,
      "cancell": 5277,
      "iphone": 5278,
      "tai": 5279,
      "evac": 5280,
      "aware": 5281,
      "mach": 5282,
      "aviation": 5283,
      "mining": 5284,
      "minim": 5285,
      "correspond": 5286,
      "dismissed": 5287,
      "predecess": 5288,
      "formally": 5289,
      "interior": 5290,
      "fined": 5291,
      "guidance": 5292,
      "intent": 5293,
      "obser": 5294,
      "backs": 5295,
      "pharm": 5296,
      "nationwide": 5297,
      "publish": 5298,
      "downturn": 5299,
      "raid": 5300,
      "tale": 5301,
      "highway": 5302,
      "ledge": 5303,
      "wars": 5304,
      "venez": 5305,
      "knowledge": 5306,
      "producer": 5307,
      "putin": 5308,
      "borough": 5309,
      "lake": 5310,
      "operator": 5311,
      "patro": 5312,
      "chell": 5313,
      "fundament": 5314,
      "passenger": 5315,
      "denver": 5316,
      "denies": 5317,
      "malays": 5318,
      "younger": 5319,
      "ranked": 5320,
      "sentiment": 5321,
      "ucing": 5322,
      "commitment": 5323,
      "committed": 5324,
      "facebook": 5325,
      "collective": 5326,
      "universal": 5327,
      "demands": 5328,
      "threats": 5329,
      "suggests": 5330,
      "suffic": 5331,
      "drawn": 5332,
      "hills": 5333,
      "features": 5334,
      "breaks": 5335,
      "breakfast": 5336,
      "speculation": 5337,
      "reasonable": 5338,
      "discussed": 5339,
      "discussions": 5340,
      "customer": 5341,
      "directors": 5342,
      "racial": 5343,
      "connected": 5344,
      "reforms": 5345,
      "peaceful": 5346,
      "boosted": 5347,
      "criticized": 5348,
      "islands": 5349,
      "invasion": 5350,
      "emphas": 5351,
      "photograph": 5352,
      "proposals": 5353,
      "diego": 5354,
      "gmt": 5355,
      "flying": 5356,
      "crucial": 5357,
      "constitutional": 5358,
      "explosive": 5359,
      "clinical": 5360,
      "collapsed": 5361,
      "delayed": 5362,
      "conventional": 5363,
      "performed": 5364,
      "established": 5365,
      "column": 5366,
      "sacrif": 5367,
      "veterans": 5368,
      "atlantic": 5369,
      "dozens": 5370,
      "sleep": 5371,
      "nomination": 5372,
      "ohio": 5373,
      "efficient": 5374,
      "category": 5375,
      "nhs": 5376,
      "alliance": 5377,
      "surrounding": 5378,
      "hurricane": 5379,
      "depression": 5380,
      "haiti": 5381,
      "spanish": 5382,
      "scandal": 5383,
      "virtually": 5384,
      "analysis": 5385,
      "punishment": 5386,
      "luxury": 5387,
      "electoral": 5388,
      "jeff": 5389,
      "http": 5390,
      "venezuel": 5391,
      "sacrifice": 5392,
      "51": 5393,
      "98": 5394,
      "ape": 5395,
      "aire": 5396,
      "bind": 5397,
      "bound": 5398,
      "cers": 5399,
      "cited": 5400,
      "dil": 5401,
      "dial": 5402,
      "daw": 5403,
      "ell": 5404,
      "eating": 5405,
      "emot": 5406,
      "fold": 5407,
      "fought": 5408,
      "founder": 5409,
      "gment": 5410,
      "gary": 5411,
      "gents": 5412,
      "hin": 5413,
      "hay": 5414,
      "hul": 5415,
      "jes": 5416,
      "jumped": 5417,
      "lenders": 5418,
      "mere": 5419,
      "master": 5420,
      "nand": 5421,
      "nie": 5422,
      "ored": 5423,
      "obl": 5424,
      "pap": 5425,
      "rub": 5426,
      "rivals": 5427,
      "sis": 5428,
      "sri": 5429,
      "sounds": 5430,
      "tap": 5431,
      "tort": 5432,
      "tiger": 5433,
      "vast": 5434,
      "via": 5435,
      "zard": 5436,
      "ini": 5437,
      "inno": 5438,
      "inary": 5439,
      "inning": 5440,
      "anes": 5441,
      "remove": 5442,
      "envoy": 5443,
      "oring": 5444,
      "ala": 5445,
      "alo": 5446,
      "aler": 5447,
      "arts": 5448,
      "iser": 5449,
      "escap": 5450,
      "asy": 5451,
      "aside": 5452,
      "ican": 5453,
      "icul": 5454,
      "oma": 5455,
      "entering": 5456,
      "semi": 5457,
      "seattle": 5458,
      "beck": 5459,
      "ambass": 5460,
      "heath": 5461,
      "dell": 5462,
      "igno": 5463,
      "unk": 5464,
      "unte": 5465,
      "loose": 5466,
      "lobby": 5467,
      "utter": 5468,
      "consecut": 5469,
      "nobody": 5470,
      "ares": 5471,
      "motion": 5472,
      "movies": 5473,
      "weigh": 5474,
      "abs": 5475,
      "aband": 5476,
      "resign": 5477,
      "libr": 5478,
      "prohib": 5479,
      "ounced": 5480,
      "agan": 5481,
      "agents": 5482,
      "opher": 5483,
      "shared": 5484,
      "outlook": 5485,
      "excell": 5486,
      "sole": 5487,
      "soviet": 5488,
      "mets": 5489,
      "code": 5490,
      "upper": 5491,
      "bott": 5492,
      "acks": 5493,
      "acked": 5494,
      "llor": 5495,
      "grav": 5496,
      "grace": 5497,
      "aked": 5498,
      "brut": 5499,
      "bright": 5500,
      "brands": 5501,
      "reducing": 5502,
      "dod": 5503,
      "sphere": 5504,
      "inevit": 5505,
      "compreh": 5506,
      "hotels": 5507,
      "math": 5508,
      "worker": 5509,
      "izes": 5510,
      "guant": 5511,
      "guys": 5512,
      "intens": 5513,
      "fergus": 5514,
      "playoffs": 5515,
      "turkey": 5516,
      "legend": 5517,
      "donald": 5518,
      "desire": 5519,
      "calcul": 5520,
      "regain": 5521,
      "cert": 5522,
      "proven": 5523,
      "helmand": 5524,
      "homeland": 5525,
      "wells": 5526,
      "thrill": 5527,
      "annivers": 5528,
      "economist": 5529,
      "syn": 5530,
      "testing": 5531,
      "milk": 5532,
      "weren": 5533,
      "risen": 5534,
      "nerv": 5535,
      "shoulder": 5536,
      "merger": 5537,
      "wedding": 5538,
      "stored": 5539,
      "generate": 5540,
      "networks": 5541,
      "volume": 5542,
      "volunte": 5543,
      "ballot": 5544,
      "letion": 5545,
      "turns": 5546,
      "cheap": 5547,
      "litigation": 5548,
      "ships": 5549,
      "contracts": 5550,
      "simpson": 5551,
      "recorded": 5552,
      "promising": 5553,
      "receiving": 5554,
      "requires": 5555,
      "cuba": 5556,
      "claiming": 5557,
      "popul": 5558,
      "shock": 5559,
      "mitchell": 5560,
      "oscar": 5561,
      "locals": 5562,
      "facilities": 5563,
      "midfield": 5564,
      "plement": 5565,
      "visiting": 5566,
      "holder": 5567,
      "struck": 5568,
      "swim": 5569,
      "informed": 5570,
      "thoughts": 5571,
      "arrange": 5572,
      "ahmad": 5573,
      "approxim": 5574,
      "toronto": 5575,
      "tells": 5576,
      "bike": 5577,
      "demanding": 5578,
      "returns": 5579,
      "placing": 5580,
      "reductions": 5581,
      "christopher": 5582,
      "golden": 5583,
      "gather": 5584,
      "gathered": 5585,
      "darling": 5586,
      "civilians": 5587,
      "newspapers": 5588,
      "enterprise": 5589,
      "tickets": 5590,
      "learned": 5591,
      "organizations": 5592,
      "striking": 5593,
      "stayed": 5594,
      "happens": 5595,
      "approached": 5596,
      "trials": 5597,
      "painting": 5598,
      "chancellor": 5599,
      "complained": 5600,
      "parliamentary": 5601,
      "eliza": 5602,
      "raine": 5603,
      "cultural": 5604,
      "schedule": 5605,
      "sarah": 5606,
      "joining": 5607,
      "contains": 5608,
      "combined": 5609,
      "assistance": 5610,
      "selection": 5611,
      "stuck": 5612,
      "crashed": 5613,
      "priority": 5614,
      "crews": 5615,
      "pitched": 5616,
      "multiple": 5617,
      "definitely": 5618,
      "muslims": 5619,
      "minority": 5620,
      "fixed": 5621,
      "relatively": 5622,
      "gulf": 5623,
      "dispute": 5624,
      "behavior": 5625,
      "behaviour": 5626,
      "jamie": 5627,
      "symbol": 5628,
      "stabil": 5629,
      "1990s": 5630,
      "shiite": 5631,
      "conversation": 5632,
      "inspired": 5633,
      "slightly": 5634,
      "tackle": 5635,
      "sparked": 5636,
      "overwhelming": 5637,
      "enforcement": 5638,
      "franchise": 5639,
      "agriculture": 5640,
      "compensation": 5641,
      "1970s": 5642,
      "targeted": 5643,
      "gdp": 5644,
      "phase": 5645,
      "embassy": 5646,
      "respectively": 5647,
      "expansion": 5648,
      "cancelled": 5649,
      "sufficient": 5650,
      "ambassador": 5651,
      "consecutive": 5652,
      "anniversary": 5653,
      "approximately": 5654,
      "69": 5655,
      "athen": 5656,
      "bau": 5657,
      "bally": 5658,
      "bors": 5659,
      "brow": 5660,
      "cze": 5661,
      "citing": 5662,
      "dc": 5663,
      "dv": 5664,
      "dop": 5665,
      "fu": 5666,
      "fas": 5667,
      "foul": 5668,
      "gust": 5669,
      "gib": 5670,
      "hann": 5671,
      "ibe": 5672,
      "jad": 5673,
      "jum": 5674,
      "jona": 5675,
      "jump": 5676,
      "kiss": 5677,
      "lone": 5678,
      "lunch": 5679,
      "laugh": 5680,
      "mers": 5681,
      "mall": 5682,
      "mud": 5683,
      "mous": 5684,
      "nba": 5685,
      "pound": 5686,
      "pink": 5687,
      "passa": 5688,
      "ras": 5689,
      "rand": 5690,
      "rill": 5691,
      "roup": 5692,
      "twit": 5693,
      "ye": 5694,
      "zen": 5695,
      "thir": 5696,
      "threw": 5697,
      "inth": 5698,
      "iner": 5699,
      "incent": 5700,
      "invent": 5701,
      "rem": 5702,
      "rebel": 5703,
      "renov": 5704,
      "reviewed": 5705,
      "enthus": 5706,
      "stake": 5707,
      "edition": 5708,
      "orse": 5709,
      "aling": 5710,
      "allies": 5711,
      "isers": 5712,
      "icts": 5713,
      "leon": 5714,
      "lewis": 5715,
      "ili": 5716,
      "illegally": 5717,
      "chap": 5718,
      "chile": 5719,
      "sein": 5720,
      "sean": 5721,
      "sect": 5722,
      "begins": 5723,
      "rodr": 5724,
      "roger": 5725,
      "vet": 5726,
      "acre": 5727,
      "aced": 5728,
      "aces": 5729,
      "acters": 5730,
      "accompan": 5731,
      "amo": 5732,
      "amne": 5733,
      "igroup": 5734,
      "ura": 5735,
      "consc": 5736,
      "convin": 5737,
      "illustr": 5738,
      "ceo": 5739,
      "celt": 5740,
      "saud": 5741,
      "petro": 5742,
      "mood": 5743,
      "abor": 5744,
      "fried": 5745,
      "fruit": 5746,
      "kees": 5747,
      "trick": 5748,
      "tribut": 5749,
      "trucks": 5750,
      "resort": 5751,
      "tear": 5752,
      "lift": 5753,
      "tsburgh": 5754,
      "pope": 5755,
      "aps": 5756,
      "oph": 5757,
      "sher": 5758,
      "shed": 5759,
      "ulted": 5760,
      "ouri": 5761,
      "export": 5762,
      "expen": 5763,
      "exposed": 5764,
      "manner": 5765,
      "manhatt": 5766,
      "pray": 5767,
      "endorse": 5768,
      "essions": 5769,
      "cos": 5770,
      "cole": 5771,
      "cock": 5772,
      "ause": 5773,
      "grade": 5774,
      "craig": 5775,
      "branch": 5776,
      "doors": 5777,
      "berlin": 5778,
      "spons": 5779,
      "els": 5780,
      "elig": 5781,
      "mah": 5782,
      "creation": 5783,
      "iano": 5784,
      "therefore": 5785,
      "formal": 5786,
      "rence": 5787,
      "internal": 5788,
      "carter": 5789,
      "carib": 5790,
      "guess": 5791,
      "intend": 5792,
      "adequ": 5793,
      "plays": 5794,
      "playoff": 5795,
      "colon": 5796,
      "legg": 5797,
      "download": 5798,
      "icken": 5799,
      "schol": 5800,
      "calif": 5801,
      "register": 5802,
      "visible": 5803,
      "weekly": 5804,
      "jection": 5805,
      "ictions": 5806,
      "proving": 5807,
      "reless": 5808,
      "reluct": 5809,
      "voter": 5810,
      "officially": 5811,
      "morris": 5812,
      "winners": 5813,
      "economists": 5814,
      "barcl": 5815,
      "barry": 5816,
      "hua": 5817,
      "hugh": 5818,
      "laid": 5819,
      "salt": 5820,
      "vessel": 5821,
      "operated": 5822,
      "signing": 5823,
      "missions": 5824,
      "slam": 5825,
      "defensive": 5826,
      "follows": 5827,
      "incred": 5828,
      "burst": 5829,
      "factor": 5830,
      "factory": 5831,
      "consol": 5832,
      "contrast": 5833,
      "promot": 5834,
      "employer": 5835,
      "employed": 5836,
      "findings": 5837,
      "shoes": 5838,
      "cycle": 5839,
      "distin": 5840,
      "allows": 5841,
      "expenses": 5842,
      "delta": 5843,
      "riers": 5844,
      "transform": 5845,
      "harder": 5846,
      "1997": 5847,
      "1998": 5848,
      "swing": 5849,
      "swine": 5850,
      "concert": 5851,
      "possession": 5852,
      "industries": 5853,
      "quarterly": 5854,
      "organic": 5855,
      "arriving": 5856,
      "federation": 5857,
      "judic": 5858,
      "gene": 5859,
      "interests": 5860,
      "disclosed": 5861,
      "queens": 5862,
      "designer": 5863,
      "purpose": 5864,
      "towns": 5865,
      "appearances": 5866,
      "specialist": 5867,
      "mature": 5868,
      "alongside": 5869,
      "biden": 5870,
      "hydro": 5871,
      "feels": 5872,
      "bomber": 5873,
      "radical": 5874,
      "funeral": 5875,
      "hostile": 5876,
      "fastest": 5877,
      "watching": 5878,
      "experiment": 5879,
      "neighbors": 5880,
      "journey": 5881,
      "videos": 5882,
      "suffering": 5883,
      "crossing": 5884,
      "graphy": 5885,
      "assemb": 5886,
      "representatives": 5887,
      "scientific": 5888,
      "beaten": 5889,
      "citigroup": 5890,
      "romney": 5891,
      "circu": 5892,
      "circum": 5893,
      "acquis": 5894,
      "graduate": 5895,
      "flew": 5896,
      "attempted": 5897,
      "entirely": 5898,
      "stuff": 5899,
      "origin": 5900,
      "explosives": 5901,
      "traffick": 5902,
      "instance": 5903,
      "definition": 5904,
      "encouraging": 5905,
      "demonstration": 5906,
      "latin": 5907,
      "mistake": 5908,
      "yahoo": 5909,
      "exclud": 5910,
      "struggled": 5911,
      "sorry": 5912,
      "renewable": 5913,
      "pittsburgh": 5914,
      "birthday": 5915,
      "yankees": 5916,
      "wealthy": 5917,
      "kelly": 5918,
      "rarely": 5919,
      "pledged": 5920,
      "transportation": 5921,
      "materials": 5922,
      "registered": 5923,
      "borrowers": 5924,
      "temperature": 5925,
      "witnesses": 5926,
      "recommend": 5927,
      "detainees": 5928,
      "preparing": 5929,
      "typically": 5930,
      "surprising": 5931,
      "fantastic": 5932,
      "resistance": 5933,
      "lifted": 5934,
      "promote": 5935,
      "acknowledged": 5936,
      "chemical": 5937,
      "initiative": 5938,
      "length": 5939,
      "colombia": 5940,
      "elderly": 5941,
      "consequences": 5942,
      "colorado": 5943,
      "professionals": 5944,
      "chamber": 5945,
      "ocean": 5946,
      "appointment": 5947,
      "basketball": 5948,
      "michelle": 5949,
      "automatic": 5950,
      "taiwan": 5951,
      "correspondent": 5952,
      "ferguson": 5953,
      "elizabeth": 5954,
      "czech": 5955,
      "jonathan": 5956,
      "twitter": 5957,
      "accompanied": 5958,
      "amnesty": 5959,
      "convinced": 5960,
      "saudi": 5961,
      "expense": 5962,
      "manhattan": 5963,
      "caribbean": 5964,
      "assembly": 5965,
      "73": 5966,
      "900": 5967,
      "aer": 5968,
      "bb": 5969,
      "bic": 5970,
      "bacter": 5971,
      "cen": 5972,
      "cant": 5973,
      "copen": 5974,
      "dish": 5975,
      "dale": 5976,
      "fide": 5977,
      "fishing": 5978,
      "gig": 5979,
      "gif": 5980,
      "hate": 5981,
      "hiv": 5982,
      "hired": 5983,
      "jr": 5984,
      "jar": 5985,
      "jay": 5986,
      "jur": 5987,
      "jacqu": 5988,
      "kg": 5989,
      "kitch": 5990,
      "lined": 5991,
      "mul": 5992,
      "mph": 5993,
      "nd": 5994,
      "nad": 5995,
      "nur": 5996,
      "og": 5997,
      "pion": 5998,
      "pent": 5999,
      "pens": 6000,
      "pump": 6001,
      "rat": 6002,
      "rit": 6003,
      "rie": 6004,
      "tact": 6005,
      "tied": 6006,
      "tank": 6007,
      "uli": 6008,
      "uck": 6009,
      "uations": 6010,
      "vp": 6011,
      "vig": 6012,
      "wounds": 6013,
      "xin": 6014,
      "yer": 6015,
      "zim": 6016,
      "thail": 6017,
      "intim": 6018,
      "inspect": 6019,
      "anium": 6020,
      "erous": 6021,
      "reporter": 6022,
      "stal": 6023,
      "stol": 6024,
      "stun": 6025,
      "stable": 6026,
      "stakes": 6027,
      "edward": 6028,
      "orche": 6029,
      "alaska": 6030,
      "ingred": 6031,
      "omed": 6032,
      "ented": 6033,
      "entit": 6034,
      "chip": 6035,
      "chev": 6036,
      "bever": 6037,
      "roles": 6038,
      "roots": 6039,
      "aded": 6040,
      "vez": 6041,
      "height": 6042,
      "destru": 6043,
      "unknown": 6044,
      "image": 6045,
      "consen": 6046,
      "concept": 6047,
      "confron": 6048,
      "nels": 6049,
      "illness": 6050,
      "fract": 6051,
      "keen": 6052,
      "hagen": 6053,
      "rescu": 6054,
      "proto": 6055,
      "pointer": 6056,
      "optim": 6057,
      "opposite": 6058,
      "istics": 6059,
      "expl": 6060,
      "earning": 6061,
      "astron": 6062,
      "mann": 6063,
      "mans": 6064,
      "prised": 6065,
      "priest": 6066,
      "pricing": 6067,
      "button": 6068,
      "sox": 6069,
      "memo": 6070,
      "quin": 6071,
      "crib": 6072,
      "craz": 6073,
      "brings": 6074,
      "hadn": 6075,
      "emen": 6076,
      "embar": 6077,
      "blaze": 6078,
      "portfol": 6079,
      "odd": 6080,
      "compound": 6081,
      "overtime": 6082,
      "tage": 6083,
      "wore": 6084,
      "polling": 6085,
      "partial": 6086,
      "max": 6087,
      "preced": 6088,
      "iley": 6089,
      "intervent": 6090,
      "fines": 6091,
      "firstcall": 6092,
      "dub": 6093,
      "foreclosure": 6094,
      "phr": 6095,
      "surged": 6096,
      "buck": 6097,
      "parking": 6098,
      "serves": 6099,
      "visions": 6100,
      "visited": 6101,
      "jets": 6102,
      "jects": 6103,
      "provider": 6104,
      "characters": 6105,
      "northeast": 6106,
      "larger": 6107,
      "mainstream": 6108,
      "angers": 6109,
      "testim": 6110,
      "testified": 6111,
      "labe": 6112,
      "southeast": 6113,
      "closures": 6114,
      "merrill": 6115,
      "searching": 6116,
      "caution": 6117,
      "aims": 6118,
      "letters": 6119,
      "subsequ": 6120,
      "defending": 6121,
      "politicians": 6122,
      "useful": 6123,
      "burg": 6124,
      "faction": 6125,
      "surely": 6126,
      "patrick": 6127,
      "filing": 6128,
      "militant": 6129,
      "simon": 6130,
      "prominent": 6131,
      "employers": 6132,
      "posting": 6133,
      "northwest": 6134,
      "distance": 6135,
      "resulting": 6136,
      "facts": 6137,
      "balls": 6138,
      "pleased": 6139,
      "controls": 6140,
      "1993": 6141,
      "switzer": 6142,
      "quarterback": 6143,
      "organisation": 6144,
      "arrive": 6145,
      "succeed": 6146,
      "jane": 6147,
      "insurgents": 6148,
      "interesting": 6149,
      "sanctions": 6150,
      "firefighters": 6151,
      "babies": 6152,
      "experiences": 6153,
      "divor": 6154,
      "bidding": 6155,
      "reduction": 6156,
      "magn": 6157,
      "lane": 6158,
      "stepped": 6159,
      "welsh": 6160,
      "damaged": 6161,
      "packages": 6162,
      "questioning": 6163,
      "descrip": 6164,
      "expecting": 6165,
      "martine": 6166,
      "teaching": 6167,
      "bull": 6168,
      "moments": 6169,
      "carries": 6170,
      "contractor": 6171,
      "laptop": 6172,
      "residential": 6173,
      "strikes": 6174,
      "pull": 6175,
      "client": 6176,
      "celebrity": 6177,
      "difficulties": 6178,
      "weakness": 6179,
      "protesters": 6180,
      "photos": 6181,
      "interviews": 6182,
      "daughters": 6183,
      "contained": 6184,
      "fires": 6185,
      "significantly": 6186,
      "attempting": 6187,
      "constitu": 6188,
      "regulatory": 6189,
      "fitness": 6190,
      "structure": 6191,
      "suspended": 6192,
      "quote": 6193,
      "multi": 6194,
      "awarded": 6195,
      "indiana": 6196,
      "effectively": 6197,
      "restaurants": 6198,
      "memories": 6199,
      "memorial": 6200,
      "messages": 6201,
      "renewed": 6202,
      "extraordinary": 6203,
      "historic": 6204,
      "documentary": 6205,
      "rebounds": 6206,
      "expanding": 6207,
      "withdrawal": 6208,
      "participants": 6209,
      "flooding": 6210,
      "deployment": 6211,
      "iveness": 6212,
      "lynch": 6213,
      "sustained": 6214,
      "resolved": 6215,
      "besides": 6216,
      "brazilian": 6217,
      "narrow": 6218,
      "somal": 6219,
      "challenges": 6220,
      "knocked": 6221,
      "anthony": 6222,
      "occupied": 6223,
      "suddenly": 6224,
      "trend": 6225,
      "restrictions": 6226,
      "premium": 6227,
      "palestinian": 6228,
      "palestinians": 6229,
      "deposits": 6230,
      "complicated": 6231,
      "anonymity": 6232,
      "tools": 6233,
      "condemned": 6234,
      "false": 6235,
      "boeing": 6236,
      "monitoring": 6237,
      "brooklyn": 6238,
      "glasgow": 6239,
      "pupils": 6240,
      "turkish": 6241,
      "remarkable": 6242,
      "gonz": 6243,
      "waters": 6244,
      "argentina": 6245,
      "iguez": 6246,
      "canadian": 6247,
      "satellite": 6248,
      "scrutiny": 6249,
      "entrepreneur": 6250,
      "brilliant": 6251,
      "excellent": 6252,
      "brutal": 6253,
      "comprehensive": 6254,
      "nervous": 6255,
      "doping": 6256,
      "rodriguez": 6257,
      "conscious": 6258,
      "circumstances": 6259,
      "copenhagen": 6260,
      "pione": 6261,
      "thailand": 6262,
      "portfolio": 6263,
      "switzerland": 6264,
      "350": 6265,
      "64": 6266,
      "83": 6267,
      "aa": 6268,
      "ae": 6269,
      "athe": 6270,
      "bie": 6271,
      "bold": 6272,
      "biz": 6273,
      "cart": 6274,
      "cence": 6275,
      "ckey": 6276,
      "dating": 6277,
      "dimin": 6278,
      "ean": 6279,
      "eath": 6280,
      "hs": 6281,
      "hond": 6282,
      "ipl": 6283,
      "jason": 6284,
      "kn": 6285,
      "kat": 6286,
      "kor": 6287,
      "kab": 6288,
      "kins": 6289,
      "matt": 6290,
      "mount": 6291,
      "nap": 6292,
      "narr": 6293,
      "ninth": 6294,
      "oth": 6295,
      "ole": 6296,
      "pin": 6297,
      "pure": 6298,
      "pines": 6299,
      "pier": 6300,
      "rian": 6301,
      "sop": 6302,
      "sper": 6303,
      "swed": 6304,
      "tam": 6305,
      "tension": 6306,
      "von": 6307,
      "vatic": 6308,
      "vacc": 6309,
      "wart": 6310,
      "wave": 6311,
      "wages": 6312,
      "inher": 6313,
      "inated": 6314,
      "inner": 6315,
      "anke": 6316,
      "reid": 6317,
      "recon": 6318,
      "releg": 6319,
      "revers": 6320,
      "atmo": 6321,
      "enable": 6322,
      "stin": 6323,
      "stability": 6324,
      "edwards": 6325,
      "alist": 6326,
      "arct": 6327,
      "itim": 6328,
      "itation": 6329,
      "itable": 6330,
      "itarian": 6331,
      "asset": 6332,
      "assure": 6333,
      "andre": 6334,
      "entr": 6335,
      "rop": 6336,
      "rogers": 6337,
      "adams": 6338,
      "vegas": 6339,
      "aya": 6340,
      "ayed": 6341,
      "olas": 6342,
      "irs": 6343,
      "dee": 6344,
      "deport": 6345,
      "unions": 6346,
      "unlike": 6347,
      "veriz": 6348,
      "lots": 6349,
      "imf": 6350,
      "imports": 6351,
      "impossible": 6352,
      "impose": 6353,
      "implement": 6354,
      "confront": 6355,
      "constant": 6356,
      "context": 6357,
      "wireless": 6358,
      "pep": 6359,
      "compromise": 6360,
      "aber": 6361,
      "abled": 6362,
      "abilities": 6363,
      "user": 6364,
      "tea": 6365,
      "tsv": 6366,
      "ounce": 6367,
      "opposed": 6368,
      "proud": 6369,
      "afp": 6370,
      "affil": 6371,
      "artists": 6372,
      "essed": 6373,
      "clash": 6374,
      "cooper": 6375,
      "worries": 6376,
      "upset": 6377,
      "boge": 6378,
      "ller": 6379,
      "newly": 6380,
      "newcastle": 6381,
      "grat": 6382,
      "brig": 6383,
      "strict": 6384,
      "ema": 6385,
      "prescrip": 6386,
      "blamed": 6387,
      "foster": 6388,
      "foota": 6389,
      "spurs": 6390,
      "timore": 6391,
      "ideal": 6392,
      "inejad": 6393,
      "compon": 6394,
      "overhaul": 6395,
      "evol": 6396,
      "poland": 6397,
      "drama": 6398,
      "owns": 6399,
      "josh": 6400,
      "whenever": 6401,
      "sheet": 6402,
      "disclose": 6403,
      "disney": 6404,
      "crete": 6405,
      "iang": 6406,
      "formula": 6407,
      "curb": 6408,
      "bang": 6409,
      "attitude": 6410,
      "fernand": 6411,
      "contacted": 6412,
      "ancient": 6413,
      "bug": 6414,
      "colleg": 6415,
      "parker": 6416,
      "legitim": 6417,
      "underground": 6418,
      "understanding": 6419,
      "schem": 6420,
      "regulation": 6421,
      "amazing": 6422,
      "talked": 6423,
      "jewel": 6424,
      "highlight": 6425,
      "investor": 6426,
      "charter": 6427,
      "relax": 6428,
      "supports": 6429,
      "capable": 6430,
      "capito": 6431,
      "economies": 6432,
      "scen": 6433,
      "appealed": 6434,
      "huck": 6435,
      "wright": 6436,
      "borders": 6437,
      "insight": 6438,
      "household": 6439,
      "households": 6440,
      "folks": 6441,
      "everywhere": 6442,
      "steep": 6443,
      "salv": 6444,
      "salary": 6445,
      "clearing": 6446,
      "operates": 6447,
      "nett": 6448,
      "networking": 6449,
      "yorkshire": 6450,
      "causes": 6451,
      "sunni": 6452,
      "baltimore": 6453,
      "helps": 6454,
      "viewers": 6455,
      "handling": 6456,
      "incum": 6457,
      "burns": 6458,
      "patter": 6459,
      "bened": 6460,
      "beneath": 6461,
      "juli": 6462,
      "personally": 6463,
      "responded": 6464,
      "bloc": 6465,
      "campaigns": 6466,
      "campaigning": 6467,
      "finds": 6468,
      "mitt": 6469,
      "midst": 6470,
      "transaction": 6471,
      "traded": 6472,
      "traders": 6473,
      "hardly": 6474,
      "holes": 6475,
      "managers": 6476,
      "rank": 6477,
      "castro": 6478,
      "ukraine": 6479,
      "writes": 6480,
      "lists": 6481,
      "fordshire": 6482,
      "micro": 6483,
      "roadside": 6484,
      "investigate": 6485,
      "debts": 6486,
      "protected": 6487,
      "insurers": 6488,
      "purposes": 6489,
      "babwe": 6490,
      "tourists": 6491,
      "tourism": 6492,
      "suggesting": 6493,
      "drawing": 6494,
      "divided": 6495,
      "traveling": 6496,
      "magic": 6497,
      "magist": 6498,
      "welcomed": 6499,
      "classic": 6500,
      "aids": 6501,
      "accounting": 6502,
      "funny": 6503,
      "gained": 6504,
      "gaining": 6505,
      "focusing": 6506,
      "broadway": 6507,
      "packed": 6508,
      "darfur": 6509,
      "revenues": 6510,
      "rolling": 6511,
      "extend": 6512,
      "organizers": 6513,
      "eyes": 6514,
      "miller": 6515,
      "pulling": 6516,
      "temple": 6517,
      "scrap": 6518,
      "battles": 6519,
      "villa": 6520,
      "addressed": 6521,
      "truly": 6522,
      "giuli": 6523,
      "shoppers": 6524,
      "horr": 6525,
      "horse": 6526,
      "detailed": 6527,
      "contribution": 6528,
      "altern": 6529,
      "pieces": 6530,
      "empire": 6531,
      "considerable": 6532,
      "zai": 6533,
      "channels": 6534,
      "diet": 6535,
      "acquired": 6536,
      "motors": 6537,
      "projected": 6538,
      "prevention": 6539,
      "containing": 6540,
      "existence": 6541,
      "flee": 6542,
      "flex": 6543,
      "attractive": 6544,
      "regulations": 6545,
      "naval": 6546,
      "necessarily": 6547,
      "engineering": 6548,
      "shuttle": 6549,
      "arabia": 6550,
      "survive": 6551,
      "recognize": 6552,
      "smoking": 6553,
      "enjoyed": 6554,
      "delegation": 6555,
      "maintaining": 6556,
      "stanley": 6557,
      "rockets": 6558,
      "exception": 6559,
      "pregnancy": 6560,
      "resolution": 6561,
      "maryland": 6562,
      "registration": 6563,
      "insisted": 6564,
      "temperatures": 6565,
      "jacob": 6566,
      "throwing": 6567,
      "efficiency": 6568,
      "frequent": 6569,
      "frequently": 6570,
      "lords": 6571,
      "pirates": 6572,
      "compete": 6573,
      "vietnam": 6574,
      "distribution": 6575,
      "challenging": 6576,
      "knock": 6577,
      "obviously": 6578,
      "surprisingly": 6579,
      "lucky": 6580,
      "guidelines": 6581,
      "mountains": 6582,
      "assume": 6583,
      "decreased": 6584,
      "keeper": 6585,
      "praise": 6586,
      "administrative": 6587,
      "kilome": 6588,
      "accurate": 6589,
      "routes": 6590,
      "thinks": 6591,
      "updated": 6592,
      "helicopter": 6593,
      "bloomberg": 6594,
      "couples": 6595,
      "lloyd": 6596,
      "monetary": 6597,
      "defeated": 6598,
      "pursue": 6599,
      "tensions": 6600,
      "avenue": 6601,
      "desperate": 6602,
      "dividend": 6603,
      "bishop": 6604,
      "diabet": 6605,
      "skills": 6606,
      "detention": 6607,
      "conviction": 6608,
      "pocket": 6609,
      "plunged": 6610,
      "1980s": 6611,
      "patriots": 6612,
      "atomic": 6613,
      "adopted": 6614,
      "advocates": 6615,
      "exposure": 6616,
      "predecessor": 6617,
      "observers": 6618,
      "publishers": 6619,
      "patrol": 6620,
      "escaped": 6621,
      "ahmadinejad": 6622,
      "eligible": 6623,
      "barclays": 6624,
      "circuit": 6625,
      "fidel": 6626,
      "kitchen": 6627,
      "xinhua": 6628,
      "zimbabwe": 6629,
      "stolen": 6630,
      "somalia": 6631,
      "vatican": 6632,
      "verizon": 6633,
      "footage": 6634,
      "capitol": 6635,
      "130": 6636,
      "aides": 6637,
      "bast": 6638,
      "bread": 6639,
      "bats": 6640,
      "clegg": 6641,
      "dat": 6642,
      "dent": 6643,
      "divers": 6644,
      "dangers": 6645,
      "ffe": 6646,
      "fbi": 6647,
      "gg": 6648,
      "gil": 6649,
      "gare": 6650,
      "gang": 6651,
      "hl": 6652,
      "hid": 6653,
      "iated": 6654,
      "iary": 6655,
      "ique": 6656,
      "jor": 6657,
      "km": 6658,
      "kr": 6659,
      "kle": 6660,
      "kaz": 6661,
      "lau": 6662,
      "mol": 6663,
      "niger": 6664,
      "oke": 6665,
      "ogy": 6666,
      "ogue": 6667,
      "pas": 6668,
      "pig": 6669,
      "pages": 6670,
      "papers": 6671,
      "rd": 6672,
      "rab": 6673,
      "rud": 6674,
      "rhy": 6675,
      "rushing": 6676,
      "scan": 6677,
      "sized": 6678,
      "skept": 6679,
      "tin": 6680,
      "tat": 6681,
      "tig": 6682,
      "tag": 6683,
      "ture": 6684,
      "wen": 6685,
      "wich": 6686,
      "wage": 6687,
      "wides": 6688,
      "wider": 6689,
      "xx": 6690,
      "yemen": 6691,
      "zon": 6692,
      "thum": 6693,
      "thrown": 6694,
      "inf": 6695,
      "intr": 6696,
      "anco": 6697,
      "anamo": 6698,
      "ongoing": 6699,
      "recall": 6700,
      "reaction": 6701,
      "atta": 6702,
      "enem": 6703,
      "enrich": 6704,
      "sted": 6705,
      "stones": 6706,
      "eds": 6707,
      "orous": 6708,
      "orious": 6709,
      "orient": 6710,
      "alum": 6711,
      "allied": 6712,
      "tox": 6713,
      "tours": 6714,
      "todd": 6715,
      "icon": 6716,
      "lect": 6717,
      "omy": 6718,
      "oming": 6719,
      "ila": 6720,
      "idated": 6721,
      "chose": 6722,
      "secu": 6723,
      "bek": 6724,
      "bears": 6725,
      "forth": 6726,
      "forget": 6727,
      "amoun": 6728,
      "whit": 6729,
      "oli": 6730,
      "oles": 6731,
      "decent": 6732,
      "debris": 6733,
      "unities": 6734,
      "unclear": 6735,
      "unpopular": 6736,
      "urge": 6737,
      "uranium": 6738,
      "lod": 6739,
      "imposed": 6740,
      "uted": 6741,
      "concent": 6742,
      "conced": 6743,
      "conven": 6744,
      "contemporary": 6745,
      "neys": 6746,
      "illa": 6747,
      "gear": 6748,
      "sain": 6749,
      "pelos": 6750,
      "ational": 6751,
      "mosque": 6752,
      "comic": 6753,
      "abad": 6754,
      "frame": 6755,
      "trapped": 6756,
      "hai": 6757,
      "hawa": 6758,
      "likes": 6759,
      "prob": 6760,
      "probe": 6761,
      "poison": 6762,
      "apolog": 6763,
      "appointing": 6764,
      "opard": 6765,
      "oppose": 6766,
      "shif": 6767,
      "shane": 6768,
      "istol": 6769,
      "outcome": 6770,
      "output": 6771,
      "ours": 6772,
      "exit": 6773,
      "aston": 6774,
      "soil": 6775,
      "feb": 6776,
      "meter": 6777,
      "quie": 6778,
      "quet": 6779,
      "cla": 6780,
      "clashes": 6781,
      "portr": 6782,
      "offences": 6783,
      "ghost": 6784,
      "ieties": 6785,
      "lla": 6786,
      "grades": 6787,
      "akh": 6788,
      "aki": 6789,
      "cry": 6790,
      "cruel": 6791,
      "bry": 6792,
      "centers": 6793,
      "embarr": 6794,
      "pressures": 6795,
      "indones": 6796,
      "fool": 6797,
      "dose": 6798,
      "spin": 6799,
      "sparen": 6800,
      "timing": 6801,
      "marry": 6802,
      "marines": 6803,
      "odds": 6804,
      "afterwards": 6805,
      "anski": 6806,
      "ippi": 6807,
      "completion": 6808,
      "polanski": 6809,
      "awk": 6810,
      "awling": 6811,
      "dra": 6812,
      "anya": 6813,
      "anybody": 6814,
      "mini": 6815,
      "somewhere": 6816,
      "disorder": 6817,
      "discrim": 6818,
      "disappeared": 6819,
      "dispatch": 6820,
      "pread": 6821,
      "ache": 6822,
      "interrog": 6823,
      "carriers": 6824,
      "attending": 6825,
      "landed": 6826,
      "governing": 6827,
      "1950": 6828,
      "flash": 6829,
      "ailing": 6830,
      "downtown": 6831,
      "issippi": 6832,
      "gerald": 6833,
      "regions": 6834,
      "busy": 6835,
      "publication": 6836,
      "clem": 6837,
      "readers": 6838,
      "homeowners": 6839,
      "courses": 6840,
      "angel": 6841,
      "muga": 6842,
      "annie": 6843,
      "warrant": 6844,
      "planet": 6845,
      "appearing": 6846,
      "lessons": 6847,
      "hub": 6848,
      "yourself": 6849,
      "borne": 6850,
      "mississippi": 6851,
      "breath": 6852,
      "payment": 6853,
      "azir": 6854,
      "slim": 6855,
      "slum": 6856,
      "submit": 6857,
      "substit": 6858,
      "substance": 6859,
      "politician": 6860,
      "finances": 6861,
      "hander": 6862,
      "consort": 6863,
      "cheaper": 6864,
      "checks": 6865,
      "harris": 6866,
      "trophy": 6867,
      "starring": 6868,
      "attacking": 6869,
      "taxi": 6870,
      "developers": 6871,
      "continent": 6872,
      "dealer": 6873,
      "cuban": 6874,
      "accus": 6875,
      "friendly": 6876,
      "distress": 6877,
      "resulted": 6878,
      "movements": 6879,
      "delight": 6880,
      "pleas": 6881,
      "globe": 6882,
      "globally": 6883,
      "1991": 6884,
      "1994": 6885,
      "1996": 6886,
      "skip": 6887,
      "ranks": 6888,
      "diam": 6889,
      "fails": 6890,
      "organized": 6891,
      "arrival": 6892,
      "listen": 6893,
      "investigations": 6894,
      "declare": 6895,
      "doubled": 6896,
      "junior": 6897,
      "sellers": 6898,
      "privile": 6899,
      "designers": 6900,
      "telecom": 6901,
      "telegraph": 6902,
      "afraid": 6903,
      "futures": 6904,
      "boarding": 6905,
      "trainer": 6906,
      "trained": 6907,
      "murphy": 6908,
      "gasol": 6909,
      "hypo": 6910,
      "hybrid": 6911,
      "strongly": 6912,
      "mingham": 6913,
      "shaw": 6914,
      "deadly": 6915,
      "nonprofit": 6916,
      "importance": 6917,
      "steady": 6918,
      "feelings": 6919,
      "differences": 6920,
      "fundra": 6921,
      "guns": 6922,
      "hosted": 6923,
      "picking": 6924,
      "arrests": 6925,
      "properly": 6926,
      "bulk": 6927,
      "squad": 6928,
      "commissioner": 6929,
      "bags": 6930,
      "performances": 6931,
      "carrier": 6932,
      "contractors": 6933,
      "extending": 6934,
      "panic": 6935,
      "ridicul": 6936,
      "celebration": 6937,
      "troubles": 6938,
      "cardiff": 6939,
      "similarly": 6940,
      "retailer": 6941,
      "retailers": 6942,
      "complaint": 6943,
      "criticised": 6944,
      "birmingham": 6945,
      "leaves": 6946,
      "loud": 6947,
      "dedicated": 6948,
      "reveal": 6949,
      "motiv": 6950,
      "greek": 6951,
      "deeply": 6952,
      "slowdown": 6953,
      "moderate": 6954,
      "physicians": 6955,
      "teenage": 6956,
      "stuart": 6957,
      "advisers": 6958,
      "snap": 6959,
      "stressed": 6960,
      "suspicious": 6961,
      "introducing": 6962,
      "opportunities": 6963,
      "dominant": 6964,
      "smoke": 6965,
      "explained": 6966,
      "relationships": 6967,
      "latter": 6968,
      "wilson": 6969,
      "reflects": 6970,
      "historical": 6971,
      "purchasing": 6972,
      "extrem": 6973,
      "fatal": 6974,
      "acceler": 6975,
      "inches": 6976,
      "sustainable": 6977,
      "applied": 6978,
      "opinions": 6979,
      "stretched": 6980,
      "strained": 6981,
      "impressive": 6982,
      "comedy": 6983,
      "diplomatic": 6984,
      "guarante": 6985,
      "dependent": 6986,
      "uncertainties": 6987,
      "principle": 6988,
      "principal": 6989,
      "trends": 6990,
      "sensitive": 6991,
      "rodham": 6992,
      "shirt": 6993,
      "exhibition": 6994,
      "achievement": 6995,
      "valued": 6996,
      "consistently": 6997,
      "satisf": 6998,
      "ratings": 6999,
      "rugby": 7000,
      "heimer": 7001,
      "comfortable": 7002,
      "awaiting": 7003,
      "helicopters": 7004,
      "cycling": 7005,
      "apolis": 7006,
      "settled": 7007,
      "philippines": 7008,
      "diagnosed": 7009,
      "hampshire": 7010,
      "reverse": 7011,
      "essentially": 7012,
      "taxpayer": 7013,
      "retirement": 7014,
      "methods": 7015,
      "teenager": 7016,
      "anticipated": 7017,
      "innovation": 7018,
      "stroke": 7019,
      "aspects": 7020,
      "voluntary": 7021,
      "robinson": 7022,
      "lebanese": 7023,
      "unfortunately": 7024,
      "transparen": 7025,
      "venezuela": 7026,
      "dialogue": 7027,
      "emotional": 7028,
      "oblig": 7029,
      "torture": 7030,
      "alert": 7031,
      "absence": 7032,
      "populations": 7033,
      "athens": 7034,
      "passage": 7035,
      "chapter": 7036,
      "reluctant": 7037,
      "acquisition": 7038,
      "originally": 7039,
      "trafficking": 7040,
      "nadal": 7041,
      "consensus": 7042,
      "explor": 7043,
      "crazy": 7044,
      "testimony": 7045,
      "martinez": 7046,
      "gonzal": 7047,
      "atmosphere": 7048,
      "fernando": 7049,
      "schemes": 7050,
      "incumbent": 7051,
      "giuliani": 7052,
      "diabetes": 7053,
      "tigers": 7054,
      "widespread": 7055,
      "secured": 7056,
      "pelosi": 7057,
      "embarrass": 7058,
      "mugabe": 7059,
      "5m": 7060,
      "67": 7061,
      "81": 7062,
      "82": 7063,
      "96": 7064,
      "aqu": 7065,
      "abee": 7066,
      "bou": 7067,
      "bip": 7068,
      "bren": 7069,
      "bach": 7070,
      "bash": 7071,
      "cof": 7072,
      "cad": 7073,
      "cure": 7074,
      "cult": 7075,
      "cinc": 7076,
      "dre": 7077,
      "dim": 7078,
      "dies": 7079,
      "dum": 7080,
      "eur": 7081,
      "eco": 7082,
      "fp": 7083,
      "fate": 7084,
      "fits": 7085,
      "ffed": 7086,
      "hp": 7087,
      "hart": 7088,
      "hans": 7089,
      "hunt": 7090,
      "iac": 7091,
      "ipo": 7092,
      "iqu": 7093,
      "iors": 7094,
      "iju": 7095,
      "jama": 7096,
      "khan": 7097,
      "kanda": 7098,
      "lus": 7099,
      "lum": 7100,
      "nt": 7101,
      "nurs": 7102,
      "nancy": 7103,
      "pes": 7104,
      "pad": 7105,
      "pill": 7106,
      "piz": 7107,
      "rated": 7108,
      "rivers": 7109,
      "rbi": 7110,
      "rays": 7111,
      "sic": 7112,
      "swi": 7113,
      "scept": 7114,
      "tm": 7115,
      "tz": 7116,
      "tay": 7117,
      "twi": 7118,
      "taste": 7119,
      "ugu": 7120,
      "vanc": 7121,
      "wre": 7122,
      "wid": 7123,
      "wag": 7124,
      "wast": 7125,
      "yon": 7126,
      "yel": 7127,
      "yuan": 7128,
      "zed": 7129,
      "zheimer": 7130,
      "thur": 7131,
      "thors": 7132,
      "inations": 7133,
      "inject": 7134,
      "inquest": 7135,
      "inmates": 7136,
      "injection": 7137,
      "anmar": 7138,
      "eric": 7139,
      "erup": 7140,
      "onna": 7141,
      "reopen": 7142,
      "enor": 7143,
      "ento": 7144,
      "stig": 7145,
      "stages": 7146,
      "orle": 7147,
      "aly": 7148,
      "alzheimer": 7149,
      "ington": 7150,
      "isle": 7151,
      "isol": 7152,
      "isive": 7153,
      "isms": 7154,
      "esity": 7155,
      "asco": 7156,
      "asks": 7157,
      "icy": 7158,
      "icted": 7159,
      "omo": 7160,
      "omer": 7161,
      "omen": 7162,
      "idol": 7163,
      "chad": 7164,
      "chart": 7165,
      "chase": 7166,
      "chave": 7167,
      "chicken": 7168,
      "bec": 7169,
      "belo": 7170,
      "behalf": 7171,
      "roster": 7172,
      "adapt": 7173,
      "vey": 7174,
      "veget": 7175,
      "acing": 7176,
      "accommo": 7177,
      "ambul": 7178,
      "hey": 7179,
      "heated": 7180,
      "deton": 7181,
      "unexpected": 7182,
      "unhappy": 7183,
      "verdict": 7184,
      "locked": 7185,
      "improving": 7186,
      "utto": 7187,
      "utical": 7188,
      "terry": 7189,
      "confer": 7190,
      "conspir": 7191,
      "concrete": 7192,
      "nest": 7193,
      "illed": 7194,
      "celon": 7195,
      "geith": 7196,
      "saint": 7197,
      "saved": 7198,
      "pear": 7199,
      "compl": 7200,
      "ablo": 7201,
      "abbas": 7202,
      "kett": 7203,
      "trau": 7204,
      "trium": 7205,
      "liby": 7206,
      "lips": 7207,
      "poly": 7208,
      "agger": 7209,
      "shan": 7210,
      "sham": 7211,
      "shout": 7212,
      "shang": 7213,
      "shift": 7214,
      "ulating": 7215,
      "ullah": 7216,
      "plenty": 7217,
      "ourselves": 7218,
      "exceed": 7219,
      "therine": 7220,
      "pron": 7221,
      "sored": 7222,
      "iffin": 7223,
      "endit": 7224,
      "endors": 7225,
      "quant": 7226,
      "cles": 7227,
      "clay": 7228,
      "cot": 7229,
      "iva": 7230,
      "ups": 7231,
      "offense": 7232,
      "notion": 7233,
      "auctions": 7234,
      "austin": 7235,
      "authors": 7236,
      "gray": 7237,
      "email": 7238,
      "indig": 7239,
      "blues": 7240,
      "dos": 7241,
      "portland": 7242,
      "timber": 7243,
      "monster": 7244,
      "maria": 7245,
      "mariju": 7246,
      "cance": 7247,
      "holy": 7248,
      "eva": 7249,
      "evil": 7250,
      "evans": 7251,
      "elabor": 7252,
      "aved": 7253,
      "olds": 7254,
      "mines": 7255,
      "somewhat": 7256,
      "disagree": 7257,
      "disclosure": 7258,
      "disgust": 7259,
      "aceutical": 7260,
      "rental": 7261,
      "interven": 7262,
      "finishing": 7263,
      "carl": 7264,
      "carlos": 7265,
      "cker": 7266,
      "medium": 7267,
      "guided": 7268,
      "guerr": 7269,
      "intention": 7270,
      "obesity": 7271,
      "190": 7272,
      "1960s": 7273,
      "flaw": 7274,
      "phill": 7275,
      "phant": 7276,
      "surprised": 7277,
      "justify": 7278,
      "bubble": 7279,
      "coln": 7280,
      "parade": 7281,
      "legs": 7282,
      "downing": 7283,
      "donors": 7284,
      "understood": 7285,
      "desc": 7286,
      "tons": 7287,
      "rape": 7288,
      "raises": 7289,
      "myanmar": 7290,
      "addiction": 7291,
      "highlights": 7292,
      "senators": 7293,
      "charlot": 7294,
      "charging": 7295,
      "charlie": 7296,
      "headlines": 7297,
      "elements": 7298,
      "athle": 7299,
      "longtime": 7300,
      "mortal": 7301,
      "bars": 7302,
      "baron": 7303,
      "barcelon": 7304,
      "engaged": 7305,
      "anged": 7306,
      "angira": 7307,
      "milan": 7308,
      "sci": 7309,
      "scat": 7310,
      "ios": 7311,
      "producers": 7312,
      "seeks": 7313,
      "rises": 7314,
      "smile": 7315,
      "tenham": 7316,
      "generations": 7317,
      "campbell": 7318,
      "directed": 7319,
      "openly": 7320,
      "signal": 7321,
      "netanya": 7322,
      "halt": 7323,
      "volat": 7324,
      "numerous": 7325,
      "slaugh": 7326,
      "slump": 7327,
      "subjects": 7328,
      "defended": 7329,
      "turnout": 7330,
      "realistic": 7331,
      "handle": 7332,
      "handful": 7333,
      "consin": 7334,
      "checked": 7335,
      "harvest": 7336,
      "billionaire": 7337,
      "filings": 7338,
      "arena": 7339,
      "hamilton": 7340,
      "developer": 7341,
      "juan": 7342,
      "recording": 7343,
      "halftime": 7344,
      "posts": 7345,
      "shoot": 7346,
      "cypr": 7347,
      "distric": 7348,
      "delays": 7349,
      "mandel": 7350,
      "rational": 7351,
      "solar": 7352,
      "releases": 7353,
      "casino": 7354,
      "swat": 7355,
      "authorized": 7356,
      "singles": 7357,
      "situations": 7358,
      "listening": 7359,
      "dolph": 7360,
      "collect": 7361,
      "choices": 7362,
      "lottery": 7363,
      "humanitarian": 7364,
      "foods": 7365,
      "ciliation": 7366,
      "insurgency": 7367,
      "buyer": 7368,
      "kenya": 7369,
      "refere": 7370,
      "davies": 7371,
      "steroid": 7372,
      "discipl": 7373,
      "designated": 7374,
      "sugar": 7375,
      "chronic": 7376,
      "torch": 7377,
      "bases": 7378,
      "successor": 7379,
      "successfully": 7380,
      "homer": 7381,
      "analy": 7382,
      "emerge": 7383,
      "dropping": 7384,
      "palace": 7385,
      "rallied": 7386,
      "floors": 7387,
      "baton": 7388,
      "safely": 7389,
      "stepping": 7390,
      "belg": 7391,
      "welfare": 7392,
      "novel": 7393,
      "lining": 7394,
      "links": 7395,
      "lincoln": 7396,
      "hosts": 7397,
      "pickup": 7398,
      "qualified": 7399,
      "ologist": 7400,
      "triple": 7401,
      "prosecutor": 7402,
      "bitter": 7403,
      "revenge": 7404,
      "miguel": 7405,
      "commons": 7406,
      "storms": 7407,
      "argue": 7408,
      "arguing": 7409,
      "kinds": 7410,
      "extent": 7411,
      "extensive": 7412,
      "badly": 7413,
      "boyfriend": 7414,
      "activists": 7415,
      "devices": 7416,
      "celebrate": 7417,
      "celebrated": 7418,
      "celebrities": 7419,
      "villages": 7420,
      "tracks": 7421,
      "sharply": 7422,
      "hussein": 7423,
      "weaker": 7424,
      "weakened": 7425,
      "reserved": 7426,
      "indicates": 7427,
      "indicator": 7428,
      "represented": 7429,
      "representative": 7430,
      "copper": 7431,
      "copies": 7432,
      "invited": 7433,
      "circle": 7434,
      "sooner": 7435,
      "islamabad": 7436,
      "prevented": 7437,
      "medicare": 7438,
      "hearings": 7439,
      "hunting": 7440,
      "coastal": 7441,
      "cruise": 7442,
      "accidental": 7443,
      "pilgrim": 7444,
      "karach": 7445,
      "thompson": 7446,
      "girlfriend": 7447,
      "adviser": 7448,
      "advised": 7449,
      "structuring": 7450,
      "structures": 7451,
      "engineer": 7452,
      "affordable": 7453,
      "bottle": 7454,
      "surviv": 7455,
      "survived": 7456,
      "survival": 7457,
      "prepare": 7458,
      "columbus": 7459,
      "dining": 7460,
      "1962": 7461,
      "historically": 7462,
      "cambridge": 7463,
      "cameras": 7464,
      "expanded": 7465,
      "languages": 7466,
      "wisconsin": 7467,
      "regarded": 7468,
      "regarding": 7469,
      "learnt": 7470,
      "crackdown": 7471,
      "louisiana": 7472,
      "flowers": 7473,
      "barrier": 7474,
      "sympathy": 7475,
      "dressed": 7476,
      "borrowing": 7477,
      "kirk": 7478,
      "mutual": 7479,
      "depth": 7480,
      "depending": 7481,
      "displays": 7482,
      "forecasts": 7483,
      "recommended": 7484,
      "competing": 7485,
      "assessment": 7486,
      "specifically": 7487,
      "honest": 7488,
      "roughly": 7489,
      "beauty": 7490,
      "preferred": 7491,
      "occasion": 7492,
      "decrease": 7493,
      "feeding": 7494,
      "premiere": 7495,
      "initiatives": 7496,
      "consultant": 7497,
      "praised": 7498,
      "capture": 7499,
      "predictable": 7500,
      "eagle": 7501,
      "bernanke": 7502,
      "valuable": 7503,
      "satisfaction": 7504,
      "updates": 7505,
      "involvement": 7506,
      "lloyds": 7507,
      "mumbai": 7508,
      "frustration": 7509,
      "comparison": 7510,
      "revolutionary": 7511,
      "diagnosis": 7512,
      "detect": 7513,
      "plumme": 7514,
      "taxpayers": 7515,
      "dirty": 7516,
      "procedure": 7517,
      "strongest": 7518,
      "merchand": 7519,
      "stephen": 7520,
      "tibetan": 7521,
      "barely": 7522,
      "hudson": 7523,
      "oakland": 7524,
      "bhutto": 7525,
      "insured": 7526,
      "infections": 7527,
      "amendment": 7528,
      "clarke": 7529,
      "machine": 7530,
      "minimum": 7531,
      "pharmaceutical": 7532,
      "binding": 7533,
      "library": 7534,
      "guantanamo": 7535,
      "legendary": 7536,
      "adequate": 7537,
      "bacteria": 7538,
      "pentagon": 7539,
      "ingredients": 7540,
      "quinn": 7541,
      "intervention": 7542,
      "description": 7543,
      "kabul": 7544,
      "reconciliation": 7545,
      "arctic": 7546,
      "entrance": 7547,
      "tsvangira": 7548,
      "bogey": 7549,
      "colleges": 7550,
      "huckabee": 7551,
      "benedict": 7552,
      "magistrates": 7553,
      "saints": 7554,
      "hawaii": 7555,
      "awkward": 7556,
      "1950s": 7557,
      "consortium": 7558,
      "diamond": 7559,
      "gasoline": 7560,
      "fundraising": 7561,
      "guaranteed": 7562,
      "kandahar": 7563,
      "chavez": 7564,
      "accommodate": 7565,
      "geithner": 7566,
      "shanghai": 7567,
      "marijuana": 7568,
      "charlotte": 7569,
      "barcelona": 7570,
      "netanyahu": 7571,
      "districts": 7572,
      "tsvangirai": 7573,
      "09": 7574,
      "1st": 7575,
      "110": 7576,
      "1bn": 7577,
      "225": 7578,
      "71": 7579,
      "750": 7580,
      "89": 7581,
      "aus": 7582,
      "bis": 7583,
      "bun": 7584,
      "cig": 7585,
      "caf": 7586,
      "cav": 7587,
      "cca": 7588,
      "dip": 7589,
      "damp": 7590,
      "danc": 7591,
      "ek": 7592,
      "ets": 7593,
      "fc": 7594,
      "frey": 7595,
      "finger": 7596,
      "fannie": 7597,
      "gut": 7598,
      "gill": 7599,
      "gap": 7600,
      "gio": 7601,
      "gross": 7602,
      "hd": 7603,
      "hes": 7604,
      "hend": 7605,
      "hide": 7606,
      "hiring": 7607,
      "hilton": 7608,
      "jp": 7609,
      "jav": 7610,
      "kk": 7611,
      "kit": 7612,
      "kas": 7613,
      "kur": 7614,
      "kate": 7615,
      "krem": 7616,
      "lom": 7617,
      "lig": 7618,
      "lun": 7619,
      "lag": 7620,
      "lions": 7621,
      "lav": 7622,
      "lanc": 7623,
      "lama": 7624,
      "lash": 7625,
      "mation": 7626,
      "mast": 7627,
      "mend": 7628,
      "mcl": 7629,
      "mia": 7630,
      "matur": 7631,
      "nan": 7632,
      "nast": 7633,
      "oon": 7634,
      "oas": 7635,
      "osp": 7636,
      "pse": 7637,
      "pts": 7638,
      "pour": 7639,
      "pending": 7640,
      "qc": 7641,
      "ror": 7642,
      "rist": 7643,
      "ria": 7644,
      "rage": 7645,
      "rib": 7646,
      "rbs": 7647,
      "rushed": 7648,
      "sist": 7649,
      "sie": 7650,
      "sounded": 7651,
      "tone": 7652,
      "twin": 7653,
      "twent": 7654,
      "ube": 7655,
      "wang": 7656,
      "wounding": 7657,
      "xide": 7658,
      "yn": 7659,
      "yout": 7660,
      "yev": 7661,
      "yach": 7662,
      "zia": 7663,
      "zel": 7664,
      "tho": 7665,
      "thick": 7666,
      "infe": 7667,
      "inks": 7668,
      "incial": 7669,
      "intel": 7670,
      "inspir": 7671,
      "inburgh": 7672,
      "thew": 7673,
      "anx": 7674,
      "ero": 7675,
      "erto": 7676,
      "eries": 7677,
      "oning": 7678,
      "retr": 7679,
      "reak": 7680,
      "repress": 7681,
      "removing": 7682,
      "reactions": 7683,
      "restore": 7684,
      "resem": 7685,
      "revised": 7686,
      "restructuring": 7687,
      "stir": 7688,
      "stum": 7689,
      "stalled": 7690,
      "streak": 7691,
      "eding": 7692,
      "edia": 7693,
      "edinburgh": 7694,
      "alab": 7695,
      "albert": 7696,
      "arthur": 7697,
      "inge": 7698,
      "tower": 7699,
      "toler": 7700,
      "ouver": 7701,
      "ouce": 7702,
      "itage": 7703,
      "isations": 7704,
      "esp": 7705,
      "asser": 7706,
      "assum": 7707,
      "icion": 7708,
      "icut": 7709,
      "lease": 7710,
      "lethal": 7711,
      "chi": 7712,
      "chat": 7713,
      "chest": 7714,
      "chef": 7715,
      "beef": 7716,
      "rook": 7717,
      "ading": 7718,
      "adoption": 7719,
      "forum": 7720,
      "forcing": 7721,
      "acres": 7722,
      "amar": 7723,
      "hem": 7724,
      "hell": 7725,
      "deen": 7726,
      "unite": 7727,
      "unrest": 7728,
      "unfair": 7729,
      "urgent": 7730,
      "verse": 7731,
      "vermont": 7732,
      "implic": 7733,
      "conce": 7734,
      "congrat": 7735,
      "neal": 7736,
      "sav": 7737,
      "pez": 7738,
      "petra": 7739,
      "sule": 7740,
      "mole": 7741,
      "modif": 7742,
      "withdrew": 7743,
      "abu": 7744,
      "abroad": 7745,
      "frag": 7746,
      "franco": 7747,
      "tric": 7748,
      "trim": 7749,
      "trap": 7750,
      "trafford": 7751,
      "resid": 7752,
      "liv": 7753,
      "liers": 7754,
      "provisions": 7755,
      "pots": 7756,
      "appl": 7757,
      "apology": 7758,
      "aga": 7759,
      "ulty": 7760,
      "plug": 7761,
      "plagu": 7762,
      "outbreak": 7763,
      "therap": 7764,
      "mani": 7765,
      "perry": 7766,
      "sover": 7767,
      "fet": 7768,
      "feld": 7769,
      "feared": 7770,
      "meh": 7771,
      "mell": 7772,
      "cloud": 7773,
      "covers": 7774,
      "cohen": 7775,
      "boast": 7776,
      "boats": 7777,
      "authen": 7778,
      "griffin": 7779,
      "crust": 7780,
      "iceland": 7781,
      "brun": 7782,
      "bristol": 7783,
      "strom": 7784,
      "centres": 7785,
      "emir": 7786,
      "empt": 7787,
      "indict": 7788,
      "bless": 7789,
      "umn": 7790,
      "umes": 7791,
      "portugu": 7792,
      "spur": 7793,
      "uster": 7794,
      "odes": 7795,
      "heritage": 7796,
      "iah": 7797,
      "overcome": 7798,
      "oversight": 7799,
      "polish": 7800,
      "drum": 7801,
      "drives": 7802,
      "drunk": 7803,
      "drinks": 7804,
      "maur": 7805,
      "identifying": 7806,
      "coroner": 7807,
      "sheik": 7808,
      "somehow": 7809,
      "somebody": 7810,
      "disarm": 7811,
      "interim": 7812,
      "interactive": 7813,
      "interpret": 7814,
      "assists": 7815,
      "carto": 7816,
      "cargo": 7817,
      "spear": 7818,
      "mediter": 7819,
      "ferr": 7820,
      "observ": 7821,
      "pub": 7822,
      "puerto": 7823,
      "contam": 7824,
      "contend": 7825,
      "justified": 7826,
      "turf": 7827,
      "turno": 7828,
      "donor": 7829,
      "underlying": 7830,
      "rah": 7831,
      "10th": 7832,
      "visits": 7833,
      "visual": 7834,
      "jeopard": 7835,
      "publicity": 7836,
      "provincial": 7837,
      "invested": 7838,
      "reader": 7839,
      "relay": 7840,
      "supporter": 7841,
      "ateral": 7842,
      "angels": 7843,
      "maine": 7844,
      "mainten": 7845,
      "anny": 7846,
      "economics": 7847,
      "bara": 7848,
      "barbara": 7849,
      "warner": 7850,
      "venus": 7851,
      "planes": 7852,
      "etc": 7853,
      "runway": 7854,
      "scape": 7855,
      "puts": 7856,
      "lessly": 7857,
      "lawrence": 7858,
      "label": 7859,
      "laura": 7860,
      "clothing": 7861,
      "merced": 7862,
      "lineup": 7863,
      "farms": 7864,
      "camps": 7865,
      "teammates": 7866,
      "perspe": 7867,
      "persist": 7868,
      "banker": 7869,
      "missiles": 7870,
      "azz": 7871,
      "azer": 7872,
      "azuz": 7873,
      "courtroom": 7874,
      "killer": 7875,
      "lett": 7876,
      "letting": 7877,
      "slumped": 7878,
      "politan": 7879,
      "politically": 7880,
      "11th": 7881,
      "inces": 7882,
      "burma": 7883,
      "burden": 7884,
      "cheer": 7885,
      "muscle": 7886,
      "dying": 7887,
      "vibr": 7888,
      "grammy": 7889,
      "soccer": 7890,
      "shipping": 7891,
      "walsh": 7892,
      "recordings": 7893,
      "billboard": 7894,
      "wheel": 7895,
      "announcing": 7896,
      "shoo": 7897,
      "expendit": 7898,
      "bones": 7899,
      "midnight": 7900,
      "transl": 7901,
      "180": 7902,
      "gloves": 7903,
      "trades": 7904,
      "solve": 7905,
      "1992": 7906,
      "ranking": 7907,
      "ranean": 7908,
      "singapo": 7909,
      "organisations": 7910,
      "outskir": 7911,
      "array": 7912,
      "universities": 7913,
      "capitals": 7914,
      "declar": 7915,
      "declining": 7916,
      "wooden": 7917,
      "judgment": 7918,
      "genet": 7919,
      "genoc": 7920,
      "junction": 7921,
      "prises": 7922,
      "140": 7923,
      "sanford": 7924,
      "glouce": 7925,
      "rounds": 7926,
      "160": 7927,
      "sells": 7928,
      "privately": 7929,
      "approve": 7930,
      "booked": 7931,
      "petition": 7932,
      "tories": 7933,
      "treating": 7934,
      "richards": 7935,
      "soldier": 7936,
      "studying": 7937,
      "mothers": 7938,
      "suggestions": 7939,
      "luke": 7940,
      "matters": 7941,
      "draws": 7942,
      "matching": 7943,
      "confusion": 7944,
      "hyper": 7945,
      "stronger": 7946,
      "shake": 7947,
      "shakes": 7948,
      "batter": 7949,
      "lankan": 7950,
      "aught": 7951,
      "budgets": 7952,
      "austria": 7953,
      "musicians": 7954,
      "damaging": 7955,
      "gunmen": 7956,
      "hopeful": 7957,
      "sexually": 7958,
      "qualifying": 7959,
      "faster": 7960,
      "properties": 7961,
      "describe": 7962,
      "darren": 7963,
      "educate": 7964,
      "grandchildren": 7965,
      "bulls": 7966,
      "races": 7967,
      "squir": 7968,
      "commissioned": 7969,
      "sprint": 7970,
      "commonly": 7971,
      "competitors": 7972,
      "practical": 7973,
      "crossed": 7974,
      "armstrong": 7975,
      "mills": 7976,
      "climbed": 7977,
      "personality": 7978,
      "cliff": 7979,
      "riding": 7980,
      "celebrations": 7981,
      "articles": 7982,
      "painful": 7983,
      "conservation": 7984,
      "auton": 7985,
      "autumn": 7986,
      "institution": 7987,
      "bolton": 7988,
      "screening": 7989,
      "mails": 7990,
      "silent": 7991,
      "deterior": 7992,
      "coaches": 7993,
      "travelers": 7994,
      "gentle": 7995,
      "gradually": 7996,
      "mexican": 7997,
      "spotted": 7998,
      "planted": 7999,
      "legislature": 8000,
      "honour": 8001,
      "hung": 8002,
      "accidents": 8003,
      "attracted": 8004,
      "ownership": 8005,
      "karzai": 8006,
      "select": 8007,
      "brandon": 8008,
      "speeds": 8009,
      "iii": 8010,
      "counterpart": 8011,
      "explosion": 8012,
      "explosions": 8013,
      "earthquake": 8014,
      "commerce": 8015,
      "appealing": 8016,
      "neighboring": 8017,
      "moud": 8018,
      "introduce": 8019,
      "mounted": 8020,
      "sporting": 8021,
      "tesco": 8022,
      "clinic": 8023,
      "cleaning": 8024,
      "jailed": 8025,
      "smooth": 8026,
      "zero": 8027,
      "briefly": 8028,
      "demonstrated": 8029,
      "fighter": 8030,
      "loyal": 8031,
      "columbia": 8032,
      "aires": 8033,
      "alexander": 8034,
      "examine": 8035,
      "maintained": 8036,
      "strategies": 8037,
      "equipped": 8038,
      "kicked": 8039,
      "conflicts": 8040,
      "meantime": 8041,
      "blown": 8042,
      "hanging": 8043,
      "withdrawn": 8044,
      "ultimate": 8045,
      "uniform": 8046,
      "chaos": 8047,
      "license": 8048,
      "ranging": 8049,
      "replacement": 8050,
      "excited": 8051,
      "integrity": 8052,
      "integrated": 8053,
      "forecasters": 8054,
      "detained": 8055,
      "disputes": 8056,
      "collins": 8057,
      "distributed": 8058,
      "broadcaster": 8059,
      "preparation": 8060,
      "substantially": 8061,
      "fantasy": 8062,
      "oxford": 8063,
      "deserves": 8064,
      "promoted": 8065,
      "enhance": 8066,
      "enhanced": 8067,
      "stabbed": 8068,
      "acknowledge": 8069,
      "occasions": 8070,
      "occasional": 8071,
      "citizen": 8072,
      "psychological": 8073,
      "psychiat": 8074,
      "assumed": 8075,
      "opponent": 8076,
      "prints": 8077,
      "lengthy": 8078,
      "shirts": 8079,
      "hurricanes": 8080,
      "theatre": 8081,
      "tribun": 8082,
      "graham": 8083,
      "granted": 8084,
      "consistent": 8085,
      "transferred": 8086,
      "nonetheless": 8087,
      "metropolitan": 8088,
      "bosses": 8089,
      "eliminate": 8090,
      "eliminated": 8091,
      "obtained": 8092,
      "lisbon": 8093,
      "bronze": 8094,
      "preserve": 8095,
      "guests": 8096,
      "connecticut": 8097,
      "shutout": 8098,
      "rapidly": 8099,
      "dalai": 8100,
      "unveiled": 8101,
      "teenagers": 8102,
      "dioxide": 8103,
      "adjusted": 8104,
      "strongh": 8105,
      "sponsored": 8106,
      "marshall": 8107,
      "engagement": 8108,
      "neighbouring": 8109,
      "mammo": 8110,
      "sweat": 8111,
      "cheney": 8112,
      "converted": 8113,
      "compassion": 8114,
      "drilling": 8115,
      "refugees": 8116,
      "egyptian": 8117,
      "resumed": 8118,
      "evacuated": 8119,
      "intentions": 8120,
      "fundamental": 8121,
      "malaysia": 8122,
      "merely": 8123,
      "ignore": 8124,
      "abandoned": 8125,
      "bottles": 8126,
      "thriller": 8127,
      "gathering": 8128,
      "gibbs": 8129,
      "celtic": 8130,
      "endorsement": 8131,
      "sponsor": 8132,
      "mahmoud": 8133,
      "scholar": 8134,
      "incredibly": 8135,
      "excluding": 8136,
      "recommendations": 8137,
      "census": 8138,
      "vigil": 8139,
      "orchestra": 8140,
      "destruction": 8141,
      "fractured": 8142,
      "priests": 8143,
      "subsequent": 8144,
      "divorce": 8145,
      "aberdeen": 8146,
      "prescription": 8147,
      "evolution": 8148,
      "jewelry": 8149,
      "datab": 8150,
      "kazakh": 8151,
      "toxic": 8152,
      "amounts": 8153,
      "conceded": 8154,
      "convenience": 8155,
      "ridiculous": 8156,
      "coffee": 8157,
      "swift": 8158,
      "taylor": 8159,
      "vancouver": 8160,
      "orleans": 8161,
      "dolphins": 8162,
      "belgium": 8163,
      "karachi": 8164,
      "merchandise": 8165,
      "kremlin": 8166,
      "twenty": 8167,
      "youtube": 8168,
      "plagued": 8169,
      "authentic": 8170,
      "portuguese": 8171,
      "mediterranean": 8172,
      "maintenance": 8173,
      "singapore": 8174,
      "outskirts": 8175,
      "kazakhstan": 8176,
      "04": 8177,
      "1m": 8178,
      "2m": 8179,
      "87": 8180,
      "93": 8181,
      "aide": 8182,
      "bm": 8183,
      "bin": 8184,
      "bac": 8185,
      "bout": 8186,
      "cm": 8187,
      "cac": 8188,
      "cough": 8189,
      "cree": 8190,
      "cros": 8191,
      "dl": 8192,
      "dak": 8193,
      "dair": 8194,
      "dates": 8195,
      "dave": 8196,
      "dah": 8197,
      "eb": 8198,
      "eus": 8199,
      "eign": 8200,
      "fre": 8201,
      "fing": 8202,
      "fsa": 8203,
      "fence": 8204,
      "fty": 8205,
      "flies": 8206,
      "gp": 8207,
      "gad": 8208,
      "gence": 8209,
      "gren": 8210,
      "gates": 8211,
      "gments": 8212,
      "gender": 8213,
      "hod": 8214,
      "hence": 8215,
      "hors": 8216,
      "honey": 8217,
      "iq": 8218,
      "ji": 8219,
      "jol": 8220,
      "kent": 8221,
      "kay": 8222,
      "khal": 8223,
      "lli": 8224,
      "lender": 8225,
      "mbe": 8226,
      "mare": 8227,
      "mice": 8228,
      "mits": 8229,
      "mild": 8230,
      "mund": 8231,
      "matic": 8232,
      "munity": 8233,
      "multim": 8234,
      "nif": 8235,
      "nich": 8236,
      "nash": 8237,
      "nca": 8238,
      "naz": 8239,
      "nier": 8240,
      "napol": 8241,
      "oster": 8242,
      "opel": 8243,
      "othy": 8244,
      "pies": 8245,
      "pact": 8246,
      "pting": 8247,
      "pga": 8248,
      "pkk": 8249,
      "rw": 8250,
      "rust": 8251,
      "rip": 8252,
      "ramp": 8253,
      "rush": 8254,
      "ripped": 8255,
      "sits": 8256,
      "sadd": 8257,
      "sights": 8258,
      "tis": 8259,
      "tent": 8260,
      "tall": 8261,
      "twee": 8262,
      "tamp": 8263,
      "tory": 8264,
      "ua": 8265,
      "vation": 8266,
      "vant": 8267,
      "vick": 8268,
      "vlad": 8269,
      "wazir": 8270,
      "yar": 8271,
      "zum": 8272,
      "zards": 8273,
      "thunder": 8274,
      "thames": 8275,
      "thai": 8276,
      "inos": 8277,
      "innat": 8278,
      "instant": 8279,
      "theory": 8280,
      "anor": 8281,
      "anne": 8282,
      "anno": 8283,
      "erset": 8284,
      "eros": 8285,
      "rees": 8286,
      "rely": 8287,
      "rell": 8288,
      "reign": 8289,
      "reward": 8290,
      "reys": 8291,
      "recovering": 8292,
      "reactor": 8293,
      "reagan": 8294,
      "enous": 8295,
      "stap": 8296,
      "stall": 8297,
      "stiff": 8298,
      "edmund": 8299,
      "ora": 8300,
      "orbit": 8301,
      "aldo": 8302,
      "alban": 8303,
      "alarm": 8304,
      "arre": 8305,
      "toss": 8306,
      "itar": 8307,
      "isse": 8308,
      "esh": 8309,
      "essex": 8310,
      "icits": 8311,
      "icting": 8312,
      "icipal": 8313,
      "leigh": 8314,
      "leeds": 8315,
      "illy": 8316,
      "chim": 8317,
      "chill": 8318,
      "chop": 8319,
      "chant": 8320,
      "sevent": 8321,
      "beir": 8322,
      "rover": 8323,
      "rooney": 8324,
      "adventure": 8325,
      "forgiven": 8326,
      "acid": 8327,
      "accommod": 8328,
      "accompl": 8329,
      "whis": 8330,
      "het": 8331,
      "heed": 8332,
      "heights": 8333,
      "olmer": 8334,
      "oldest": 8335,
      "deut": 8336,
      "decor": 8337,
      "devoted": 8338,
      "igate": 8339,
      "unle": 8340,
      "uncovered": 8341,
      "unanim": 8342,
      "unwilling": 8343,
      "unacceptable": 8344,
      "unpreced": 8345,
      "urance": 8346,
      "urging": 8347,
      "lovers": 8348,
      "ima": 8349,
      "immun": 8350,
      "immunity": 8351,
      "utious": 8352,
      "utility": 8353,
      "conv": 8354,
      "conting": 8355,
      "contem": 8356,
      "constrain": 8357,
      "convoy": 8358,
      "nod": 8359,
      "noble": 8360,
      "geo": 8361,
      "wie": 8362,
      "sage": 8363,
      "saves": 8364,
      "pec": 8365,
      "peer": 8366,
      "peare": 8367,
      "pete": 8368,
      "peps": 8369,
      "suu": 8370,
      "suits": 8371,
      "suited": 8372,
      "moil": 8373,
      "moore": 8374,
      "composite": 8375,
      "aby": 8376,
      "absor": 8377,
      "keith": 8378,
      "tri": 8379,
      "trio": 8380,
      "residence": 8381,
      "tees": 8382,
      "lib": 8383,
      "liest": 8384,
      "liance": 8385,
      "libert": 8386,
      "proof": 8387,
      "proli": 8388,
      "prostate": 8389,
      "pow": 8390,
      "shing": 8391,
      "shame": 8392,
      "aint": 8393,
      "pledge": 8394,
      "outstanding": 8395,
      "exped": 8396,
      "explan": 8397,
      "exagger": 8398,
      "therapy": 8399,
      "astro": 8400,
      "manning": 8401,
      "manuel": 8402,
      "gore": 8403,
      "butter": 8404,
      "pert": 8405,
      "pered": 8406,
      "permitted": 8407,
      "meters": 8408,
      "melt": 8409,
      "artisan": 8410,
      "endanger": 8411,
      "clark": 8412,
      "coinc": 8413,
      "cott": 8414,
      "cocain": 8415,
      "coordin": 8416,
      "ials": 8417,
      "worn": 8418,
      "offender": 8419,
      "noting": 8420,
      "notorious": 8421,
      "acking": 8422,
      "iels": 8423,
      "grid": 8424,
      "grave": 8425,
      "aken": 8426,
      "antly": 8427,
      "craw": 8428,
      "crunch": 8429,
      "cryst": 8430,
      "brus": 8431,
      "brick": 8432,
      "reds": 8433,
      "strand": 8434,
      "straw": 8435,
      "fog": 8436,
      "foren": 8437,
      "doch": 8438,
      "spi": 8439,
      "spaces": 8440,
      "mons": 8441,
      "marc": 8442,
      "marion": 8443,
      "marath": 8444,
      "ideological": 8445,
      "hert": 8446,
      "cann": 8447,
      "cano": 8448,
      "tape": 8449,
      "hos": 8450,
      "wool": 8451,
      "elite": 8452,
      "firing": 8453,
      "partly": 8454,
      "partisan": 8455,
      "counted": 8456,
      "counsel": 8457,
      "awat": 8458,
      "awaren": 8459,
      "drome": 8460,
      "anyway": 8461,
      "joke": 8462,
      "miners": 8463,
      "disast": 8464,
      "disability": 8465,
      "displaced": 8466,
      "disappointed": 8467,
      "disgrace": 8468,
      "disabled": 8469,
      "disappointing": 8470,
      "oking": 8471,
      "okla": 8472,
      "premature": 8473,
      "prestig": 8474,
      "render": 8475,
      "acher": 8476,
      "assass": 8477,
      "assigned": 8478,
      "dug": 8479,
      "iband": 8480,
      "ibilities": 8481,
      "airs": 8482,
      "airways": 8483,
      "forever": 8484,
      "foreclosures": 8485,
      "curve": 8486,
      "medved": 8487,
      "intensive": 8488,
      "landscape": 8489,
      "obst": 8490,
      "backing": 8491,
      "background": 8492,
      "19th": 8493,
      "1934": 8494,
      "fla": 8495,
      "flames": 8496,
      "suring": 8497,
      "turmoil": 8498,
      "buzz": 8499,
      "publishing": 8500,
      "colts": 8501,
      "colour": 8502,
      "parks": 8503,
      "donations": 8504,
      "gerr": 8505,
      "raul": 8506,
      "calm": 8507,
      "presidents": 8508,
      "105": 8509,
      "myth": 8510,
      "myspace": 8511,
      "20th": 8512,
      "2020": 8513,
      "amazon": 8514,
      "jeans": 8515,
      "providers": 8516,
      "provinces": 8517,
      "investing": 8518,
      "norman": 8519,
      "larry": 8520,
      "relent": 8521,
      "elephant": 8522,
      "blew": 8523,
      "ashley": 8524,
      "mortar": 8525,
      "capability": 8526,
      "bargain": 8527,
      "ixon": 8528,
      "ette": 8529,
      "knowing": 8530,
      "runner": 8531,
      "testify": 8532,
      "testoster": 8533,
      "tures": 8534,
      "decisive": 8535,
      "broker": 8536,
      "brokers": 8537,
      "studied": 8538,
      "countrywide": 8539,
      "wrapped": 8540,
      "smalle": 8541,
      "shouldn": 8542,
      "tenn": 8543,
      "ugal": 8544,
      "generating": 8545,
      "farming": 8546,
      "stell": 8547,
      "missouri": 8548,
      "pressed": 8549,
      "capel": 8550,
      "cautious": 8551,
      "sung": 8552,
      "businessman": 8553,
      "pays": 8554,
      "viewing": 8555,
      "subprime": 8556,
      "followers": 8557,
      "realized": 8558,
      "factories": 8559,
      "harman": 8560,
      "harbor": 8561,
      "dynam": 8562,
      "lifestyle": 8563,
      "lington": 8564,
      "trop": 8565,
      "troop": 8566,
      "thirds": 8567,
      "files": 8568,
      "filmed": 8569,
      "penny": 8570,
      "passport": 8571,
      "societies": 8572,
      "powered": 8573,
      "walker": 8574,
      "costly": 8575,
      "sideline": 8576,
      "kovic": 8577,
      "dennis": 8578,
      "responding": 8579,
      "greed": 8580,
      "financially": 8581,
      "primaries": 8582,
      "blocked": 8583,
      "wheat": 8584,
      "shareholder": 8585,
      "thorough": 8586,
      "greatly": 8587,
      "friendship": 8588,
      "shocked": 8589,
      "cyber": 8590,
      "bonus": 8591,
      "osborne": 8592,
      "rico": 8593,
      "transition": 8594,
      "transactions": 8595,
      "swan": 8596,
      "skir": 8597,
      "skins": 8598,
      "fault": 8599,
      "sentencing": 8600,
      "nevertheless": 8601,
      "wax": 8602,
      "13th": 8603,
      "bailey": 8604,
      "equally": 8605,
      "collected": 8606,
      "membership": 8607,
      "federer": 8608,
      "investigated": 8609,
      "declines": 8610,
      "furn": 8611,
      "genes": 8612,
      "prisons": 8613,
      "humanities": 8614,
      "ahmed": 8615,
      "refuse": 8616,
      "credits": 8617,
      "credibility": 8618,
      "teeth": 8619,
      "developments": 8620,
      "departments": 8621,
      "stopping": 8622,
      "associate": 8623,
      "homered": 8624,
      "victories": 8625,
      "trains": 8626,
      "crises": 8627,
      "murdoch": 8628,
      "suggestion": 8629,
      "matthew": 8630,
      "matched": 8631,
      "divisions": 8632,
      "palmer": 8633,
      "periods": 8634,
      "bids": 8635,
      "candy": 8636,
      "deliber": 8637,
      "batting": 8638,
      "traveled": 8639,
      "steadily": 8640,
      "ruth": 8641,
      "featuring": 8642,
      "ronaldo": 8643,
      "philanth": 8644,
      "metres": 8645,
      "musician": 8646,
      "discussion": 8647,
      "damages": 8648,
      "favre": 8649,
      "inflam": 8650,
      "ologists": 8651,
      "watchdog": 8652,
      "popularity": 8653,
      "ltd": 8654,
      "educated": 8655,
      "supervis": 8656,
      "measured": 8657,
      "styles": 8658,
      "predomin": 8659,
      "spray": 8660,
      "sprawling": 8661,
      "kyi": 8662,
      "difficulty": 8663,
      "rolls": 8664,
      "graphic": 8665,
      "connections": 8666,
      "titan": 8667,
      "titles": 8668,
      "happiness": 8669,
      "garian": 8670,
      "scrip": 8671,
      "statistics": 8672,
      "cardinals": 8673,
      "madrid": 8674,
      "madonna": 8675,
      "audio": 8676,
      "addressing": 8677,
      "painted": 8678,
      "referred": 8679,
      "weakening": 8680,
      "describing": 8681,
      "ankle": 8682,
      "representing": 8683,
      "mobility": 8684,
      "contribute": 8685,
      "contributions": 8686,
      "aboard": 8687,
      "consideration": 8688,
      "delivering": 8689,
      "circul": 8690,
      "nicolas": 8691,
      "bridges": 8692,
      "reveals": 8693,
      "robber": 8694,
      "traditionally": 8695,
      "negotiate": 8696,
      "ramento": 8697,
      "medicines": 8698,
      "hearts": 8699,
      "murdering": 8700,
      "bombing": 8701,
      "bombings": 8702,
      "fiber": 8703,
      "slowly": 8704,
      "constructed": 8705,
      "israelis": 8706,
      "repeat": 8707,
      "protecting": 8708,
      "attribut": 8709,
      "attracting": 8710,
      "advertise": 8711,
      "advertisers": 8712,
      "attorneys": 8713,
      "regulators": 8714,
      "productivity": 8715,
      "richardson": 8716,
      "stuffed": 8717,
      "bloody": 8718,
      "duties": 8719,
      "assaulted": 8720,
      "naturally": 8721,
      "pitcher": 8722,
      "engineers": 8723,
      "mounting": 8724,
      "install": 8725,
      "motorbike": 8726,
      "checkpoint": 8727,
      "recognition": 8728,
      "academic": 8729,
      "1986": 8730,
      "religion": 8731,
      "laboratory": 8732,
      "conclusion": 8733,
      "explains": 8734,
      "briefing": 8735,
      "answered": 8736,
      "encouraged": 8737,
      "determination": 8738,
      "demonstrators": 8739,
      "performs": 8740,
      "affects": 8741,
      "struggles": 8742,
      "tightening": 8743,
      "liberty": 8744,
      "examined": 8745,
      "rafa": 8746,
      "sacred": 8747,
      "sacramento": 8748,
      "achieved": 8749,
      "mirror": 8750,
      "rebound": 8751,
      "wonderful": 8752,
      "strengthen": 8753,
      "catching": 8754,
      "regardless": 8755,
      "participate": 8756,
      "exercises": 8757,
      "deployed": 8758,
      "audiences": 8759,
      "attendance": 8760,
      "requested": 8761,
      "fortune": 8762,
      "favourite": 8763,
      "kinson": 8764,
      "municipal": 8765,
      "chaired": 8766,
      "licens": 8767,
      "rebecca": 8768,
      "barrels": 8769,
      "gamble": 8770,
      "gambling": 8771,
      "nominated": 8772,
      "zoo": 8773,
      "seeds": 8774,
      "computing": 8775,
      "1978": 8776,
      "suppliers": 8777,
      "gallon": 8778,
      "narco": 8779,
      "somerset": 8780,
      "impression": 8781,
      "montreal": 8782,
      "electronics": 8783,
      "reminder": 8784,
      "typical": 8785,
      "symph": 8786,
      "oxy": 8787,
      "error": 8788,
      "uncertainty": 8789,
      "occupation": 8790,
      "neighborhoods": 8791,
      "bureaucr": 8792,
      "sudanese": 8793,
      "vacation": 8794,
      "wolf": 8795,
      "chemist": 8796,
      "princess": 8797,
      "severely": 8798,
      "concludes": 8799,
      "freddie": 8800,
      "maps": 8801,
      "replied": 8802,
      "colombian": 8803,
      "administrator": 8804,
      "achievements": 8805,
      "triggered": 8806,
      "dictator": 8807,
      "eager": 8808,
      "squeez": 8809,
      "tunnel": 8810,
      "theaters": 8811,
      "deposit": 8812,
      "conversations": 8813,
      "complications": 8814,
      "tribal": 8815,
      "tribes": 8816,
      "forests": 8817,
      "skinny": 8818,
      "sadr": 8819,
      "anonymous": 8820,
      "glasses": 8821,
      "stershire": 8822,
      "outraged": 8823,
      "frustrated": 8824,
      "commodities": 8825,
      "levy": 8826,
      "liquidity": 8827,
      "casualty": 8828,
      "kuwait": 8829,
      "excessive": 8830,
      "clerk": 8831,
      "dividends": 8832,
      "functional": 8833,
      "egg": 8834,
      "eggs": 8835,
      "fabric": 8836,
      "inspection": 8837,
      "inspector": 8838,
      "aspect": 8839,
      "confirmation": 8840,
      "procedures": 8841,
      "cinema": 8842,
      "totally": 8843,
      "tottenham": 8844,
      "devastating": 8845,
      "pipeline": 8846,
      "habitat": 8847,
      "admits": 8848,
      "jesse": 8849,
      "innocent": 8850,
      "innocence": 8851,
      "dodgers": 8852,
      "inevitable": 8853,
      "intensity": 8854,
      "dvd": 8855,
      "random": 8856,
      "incentive": 8857,
      "enthusi": 8858,
      "tribute": 8859,
      "hughes": 8860,
      "judicial": 8861,
      "jurors": 8862,
      "entitled": 8863,
      "rescuers": 8864,
      "protocol": 8865,
      "astronaut": 8866,
      "phrase": 8867,
      "magnitude": 8868,
      "bizarre": 8869,
      "narrative": 8870,
      "relegation": 8871,
      "nigeria": 8872,
      "rhyth": 8873,
      "attached": 8874,
      "forthcoming": 8875,
      "quiet": 8876,
      "portray": 8877,
      "indonesia": 8878,
      "discrimination": 8879,
      "accusations": 8880,
      "delighted": 8881,
      "satisfied": 8882,
      "gonzalez": 8883,
      "bipartisan": 8884,
      "cincinnat": 8885,
      "dreams": 8886,
      "yellow": 8887,
      "erupted": 8888,
      "enormous": 8889,
      "ambulance": 8890,
      "conspiracy": 8891,
      "triumph": 8892,
      "indigenous": 8893,
      "canceled": 8894,
      "elaborate": 8895,
      "phillips": 8896,
      "slaughter": 8897,
      "mandelson": 8898,
      "steroids": 8899,
      "pilgrims": 8900,
      "survivors": 8901,
      "jpmorgan": 8902,
      "mclaren": 8903,
      "maturity": 8904,
      "oasis": 8905,
      "ospreys": 8906,
      "alabama": 8907,
      "rookie": 8908,
      "petraeus": 8909,
      "francois": 8910,
      "sovereign": 8911,
      "mercedes": 8912,
      "declaration": 8913,
      "genocide": 8914,
      "shakespeare": 8915,
      "stronghold": 8916,
      "dakota": 8917,
      "ncaa": 8918,
      "tampa": 8919,
      "waziristan": 8920,
      "zuma": 8921,
      "erosion": 8922,
      "olmert": 8923,
      "unprecedented": 8924,
      "liberties": 8925,
      "cocaine": 8926,
      "forensic": 8927,
      "marathon": 8928,
      "awareness": 8929,
      "prestigious": 8930,
      "medvedev": 8931,
      "testosterone": 8932,
      "smallest": 8933,
      "capello": 8934,
      "cincinnati": 8935,
      "220": 8936,
      "270": 8937,
      "3bn": 8938,
      "86": 8939,
      "8th": 8940,
      "athing": 8941,
      "aunt": 8942,
      "aired": 8943,
      "bmo": 8944,
      "bend": 8945,
      "bted": 8946,
      "bible": 8947,
      "bunch": 8948,
      "brent": 8949,
      "bapt": 8950,
      "cd": 8951,
      "cies": 8952,
      "cip": 8953,
      "cous": 8954,
      "cater": 8955,
      "cular": 8956,
      "cattle": 8957,
      "dic": 8958,
      "dive": 8959,
      "dame": 8960,
      "djo": 8961,
      "drow": 8962,
      "dick": 8963,
      "dwell": 8964,
      "diction": 8965,
      "ea": 8966,
      "easing": 8967,
      "ebay": 8968,
      "fy": 8969,
      "fier": 8970,
      "fights": 8971,
      "fury": 8972,
      "flower": 8973,
      "fiction": 8974,
      "gic": 8975,
      "gha": 8976,
      "gie": 8977,
      "glow": 8978,
      "gical": 8979,
      "gging": 8980,
      "hed": 8981,
      "hbo": 8982,
      "holo": 8983,
      "hiding": 8984,
      "iop": 8985,
      "jal": 8986,
      "jest": 8987,
      "jah": 8988,
      "kam": 8989,
      "kun": 8990,
      "kum": 8991,
      "kok": 8992,
      "kash": 8993,
      "luc": 8994,
      "md": 8995,
      "mck": 8996,
      "mble": 8997,
      "mvp": 8998,
      "n1": 8999,
      "nw": 9000,
      "nail": 9001,
      "nouri": 9002,
      "osa": 9003,
      "ock": 9004,
      "oval": 9005,
      "ovan": 9006,
      "pic": 9007,
      "pam": 9008,
      "pard": 9009,
      "pum": 9010,
      "paw": 9011,
      "poured": 9012,
      "rhe": 9013,
      "rical": 9014,
      "rition": 9015,
      "rics": 9016,
      "rings": 9017,
      "sut": 9018,
      "sne": 9019,
      "ske": 9020,
      "smu": 9021,
      "swell": 9022,
      "sends": 9023,
      "sessions": 9024,
      "td": 9025,
      "tions": 9026,
      "tane": 9027,
      "uro": 9028,
      "uigh": 9029,
      "uous": 9030,
      "vs": 9031,
      "vat": 9032,
      "vas": 9033,
      "vist": 9034,
      "vard": 9035,
      "vau": 9036,
      "vary": 9037,
      "wau": 9038,
      "wight": 9039,
      "wade": 9040,
      "waves": 9041,
      "yu": 9042,
      "yos": 9043,
      "zhou": 9044,
      "zbol": 9045,
      "thro": 9046,
      "inex": 9047,
      "incur": 9048,
      "theft": 9049,
      "thetic": 9050,
      "erod": 9051,
      "oni": 9052,
      "refin": 9053,
      "replic": 9054,
      "reacted": 9055,
      "remarks": 9056,
      "restored": 9057,
      "recip": 9058,
      "ato": 9059,
      "atar": 9060,
      "enn": 9061,
      "ende": 9062,
      "enroll": 9063,
      "encounter": 9064,
      "encompass": 9065,
      "enomen": 9066,
      "stev": 9067,
      "stamp": 9068,
      "edig": 9069,
      "editors": 9070,
      "ori": 9071,
      "ortho": 9072,
      "arbit": 9073,
      "ouse": 9074,
      "itime": 9075,
      "itano": 9076,
      "isa": 9077,
      "isi": 9078,
      "isman": 9079,
      "isure": 9080,
      "aspir": 9081,
      "icc": 9082,
      "iconic": 9083,
      "leap": 9084,
      "leaf": 9085,
      "lester": 9086,
      "entries": 9087,
      "idation": 9088,
      "ching": 9089,
      "sebeli": 9090,
      "sectors": 9091,
      "seoul": 9092,
      "segment": 9093,
      "bearing": 9094,
      "rode": 9095,
      "rocks": 9096,
      "advent": 9097,
      "admission": 9098,
      "admir": 9099,
      "adopt": 9100,
      "vel": 9101,
      "forbidding": 9102,
      "accent": 9103,
      "acute": 9104,
      "amort": 9105,
      "whip": 9106,
      "whites": 9107,
      "hew": 9108,
      "heine": 9109,
      "heating": 9110,
      "hezbol": 9111,
      "olph": 9112,
      "irrit": 9113,
      "dean": 9114,
      "dear": 9115,
      "dement": 9116,
      "uncle": 9117,
      "unused": 9118,
      "loving": 9119,
      "imes": 9120,
      "imir": 9121,
      "imper": 9122,
      "imprison": 9123,
      "uton": 9124,
      "utah": 9125,
      "conc": 9126,
      "congo": 9127,
      "convert": 9128,
      "conversion": 9129,
      "convey": 9130,
      "nev": 9131,
      "nether": 9132,
      "neath": 9133,
      "nowhere": 9134,
      "nobel": 9135,
      "ceiling": 9136,
      "sau": 9137,
      "sail": 9138,
      "savi": 9139,
      "sailing": 9140,
      "sued": 9141,
      "sured": 9142,
      "susan": 9143,
      "modest": 9144,
      "abdu": 9145,
      "absur": 9146,
      "abused": 9147,
      "abrupt": 9148,
      "fright": 9149,
      "kei": 9150,
      "usc": 9151,
      "usnewswire": 9152,
      "tril": 9153,
      "trag": 9154,
      "hazard": 9155,
      "resor": 9156,
      "resur": 9157,
      "teess": 9158,
      "tears": 9159,
      "lipe": 9160,
      "liability": 9161,
      "livan": 9162,
      "propr": 9163,
      "poe": 9164,
      "poem": 9165,
      "powell": 9166,
      "appre": 9167,
      "agh": 9168,
      "agrees": 9169,
      "opens": 9170,
      "opposes": 9171,
      "shine": 9172,
      "aller": 9173,
      "ull": 9174,
      "ulent": 9175,
      "ulated": 9176,
      "plates": 9177,
      "ears": 9178,
      "earns": 9179,
      "pride": 9180,
      "prius": 9181,
      "butler": 9182,
      "peru": 9183,
      "peril": 9184,
      "perpe": 9185,
      "soaring": 9186,
      "felipe": 9187,
      "meals": 9188,
      "ifies": 9189,
      "quer": 9190,
      "cling": 9191,
      "clad": 9192,
      "click": 9193,
      "cov": 9194,
      "cox": 9195,
      "cove": 9196,
      "cope": 9197,
      "willis": 9198,
      "update": 9199,
      "upgrades": 9200,
      "offence": 9201,
      "whoever": 9202,
      "ardi": 9203,
      "boil": 9204,
      "bother": 9205,
      "boards": 9206,
      "ieval": 9207,
      "llc": 9208,
      "gras": 9209,
      "aker": 9210,
      "akers": 9211,
      "crist": 9212,
      "crum": 9213,
      "crushed": 9214,
      "brien": 9215,
      "redes": 9216,
      "redskins": 9217,
      "stry": 9218,
      "stride": 9219,
      "stranger": 9220,
      "indu": 9221,
      "blu": 9222,
      "blon": 9223,
      "blank": 9224,
      "dox": 9225,
      "dodd": 9226,
      "berk": 9227,
      "spani": 9228,
      "timothy": 9229,
      "mars": 9230,
      "marking": 9231,
      "maritime": 9232,
      "heral": 9233,
      "aftermath": 9234,
      "answers": 9235,
      "ipad": 9236,
      "compiled": 9237,
      "overs": 9238,
      "overly": 9239,
      "overcame": 9240,
      "ouses": 9241,
      "hob": 9242,
      "evident": 9243,
      "counting": 9244,
      "counties": 9245,
      "drain": 9246,
      "drif": 9247,
      "mae": 9248,
      "maid": 9249,
      "mathem": 9250,
      "serge": 9251,
      "serbian": 9252,
      "anymore": 9253,
      "jokes": 9254,
      "miner": 9255,
      "corps": 9256,
      "corrid": 9257,
      "corrupt": 9258,
      "dismiss": 9259,
      "discount": 9260,
      "cream": 9261,
[...]
